{
  "vocab_size": 5000,
  "min_freq": 2,
  "merges": [
    [
      "e",
      "</w>"
    ],
    [
      "s",
      "</w>"
    ],
    [
      "t",
      "</w>"
    ],
    [
      "e",
      "n"
    ],
    [
      "o",
      "u"
    ],
    [
      "r",
      "</w>"
    ],
    [
      "o",
      "n"
    ],
    [
      "q",
      "u"
    ],
    [
      "e",
      "s</w>"
    ],
    [
      "a",
      "i"
    ],
    [
      "d",
      "e</w>"
    ],
    [
      "a",
      "n"
    ],
    [
      "r",
      "e</w>"
    ],
    [
      "a",
      "</w>"
    ],
    [
      "l",
      "e</w>"
    ],
    [
      "e",
      "u"
    ],
    [
      "i",
      "</w>"
    ],
    [
      "o",
      "i"
    ],
    [
      "e",
      "t</w>"
    ],
    [
      "i",
      "l"
    ],
    [
      "on",
      "</w>"
    ],
    [
      "n",
      "e</w>"
    ],
    [
      "e",
      "s"
    ],
    [
      "a",
      "u"
    ],
    [
      "t",
      "e</w>"
    ],
    [
      "p",
      "a"
    ],
    [
      "qu",
      "e</w>"
    ],
    [
      "r",
      "i"
    ],
    [
      "n",
      "</w>"
    ],
    [
      "en",
      "</w>"
    ],
    [
      "l",
      "a</w>"
    ],
    [
      "e",
      "r</w>"
    ],
    [
      "e",
      "r"
    ],
    [
      "c",
      "e</w>"
    ],
    [
      "e",
      "l"
    ],
    [
      "ou",
      "s</w>"
    ],
    [
      "à",
      "</w>"
    ],
    [
      "m",
      "e</w>"
    ],
    [
      "il",
      "</w>"
    ],
    [
      "t",
      "i"
    ],
    [
      "o",
      "r"
    ],
    [
      "l",
      "es</w>"
    ],
    [
      "en",
      "t</w>"
    ],
    [
      "c",
      "h"
    ],
    [
      "x",
      "</w>"
    ],
    [
      "d",
      "i"
    ],
    [
      "e",
      "m"
    ],
    [
      "l",
      "'"
    ],
    [
      "s",
      "e</w>"
    ],
    [
      "t",
      "r"
    ],
    [
      "o",
      "m"
    ],
    [
      "t",
      "re</w>"
    ],
    [
      "é",
      "</w>"
    ],
    [
      "p",
      "r"
    ],
    [
      "u",
      "n</w>"
    ],
    [
      "l",
      "u"
    ],
    [
      "qu",
      "'"
    ],
    [
      "l",
      "i"
    ],
    [
      "a",
      "r"
    ],
    [
      "v",
      "ous</w>"
    ],
    [
      "a",
      "v"
    ],
    [
      "j",
      "e</w>"
    ],
    [
      "es",
      "t</w>"
    ],
    [
      "p",
      "ou"
    ],
    [
      "u",
      "</w>"
    ],
    [
      "d",
      "'"
    ],
    [
      "qu",
      "i</w>"
    ],
    [
      "eu",
      "r</w>"
    ],
    [
      "an",
      "s</w>"
    ],
    [
      "i",
      "n"
    ],
    [
      "s",
      "u"
    ],
    [
      "e",
      "z"
    ],
    [
      "s",
      "i"
    ],
    [
      "eu",
      "x</w>"
    ],
    [
      "a",
      "l"
    ],
    [
      "an",
      "t</w>"
    ],
    [
      "f",
      "ai"
    ],
    [
      "c",
      "on"
    ],
    [
      "pou",
      "r</w>"
    ],
    [
      "t",
      "ou"
    ],
    [
      "el",
      "le</w>"
    ],
    [
      "ez",
      "</w>"
    ],
    [
      "v",
      "i"
    ],
    [
      "u",
      "ne</w>"
    ],
    [
      "s",
      "i</w>"
    ],
    [
      "d",
      "es</w>"
    ],
    [
      "a",
      "m"
    ],
    [
      "pa",
      "r"
    ],
    [
      "e",
      "t"
    ],
    [
      "ai",
      "s</w>"
    ],
    [
      "c",
      "om"
    ],
    [
      "r",
      "s</w>"
    ],
    [
      "d",
      "é"
    ],
    [
      "d",
      "</w>"
    ],
    [
      "d",
      "ans</w>"
    ],
    [
      "a",
      "g"
    ],
    [
      "on",
      "t</w>"
    ],
    [
      "oi",
      "t</w>"
    ],
    [
      "n",
      "'"
    ],
    [
      "s",
      "on</w>"
    ],
    [
      "p",
      "lu"
    ],
    [
      "d",
      "u</w>"
    ],
    [
      "s",
      "s"
    ],
    [
      "v",
      "o"
    ],
    [
      "c",
      "</w>"
    ],
    [
      "r",
      "e"
    ],
    [
      "pa",
      "s</w>"
    ],
    [
      "t",
      "s</w>"
    ],
    [
      "o",
      "i</w>"
    ],
    [
      "plu",
      "s</w>"
    ],
    [
      "au",
      "</w>"
    ],
    [
      "b",
      "i"
    ],
    [
      "u",
      "i"
    ],
    [
      "t",
      "é</w>"
    ],
    [
      "oi",
      "s</w>"
    ],
    [
      "pa",
      "r</w>"
    ],
    [
      "è",
      "re</w>"
    ],
    [
      "oi",
      "n"
    ],
    [
      "c",
      "ou"
    ],
    [
      "c",
      "i"
    ],
    [
      "en",
      "d"
    ],
    [
      "p",
      "ri"
    ],
    [
      "on",
      "s</w>"
    ],
    [
      "a",
      "c"
    ],
    [
      "oi",
      "r</w>"
    ],
    [
      "eu",
      "</w>"
    ],
    [
      "s",
      "es</w>"
    ],
    [
      "g",
      "r"
    ],
    [
      "a",
      "b"
    ],
    [
      "t",
      "es</w>"
    ],
    [
      "ou",
      "v"
    ],
    [
      "f",
      "i"
    ],
    [
      "m",
      "ais</w>"
    ],
    [
      "r",
      "é"
    ],
    [
      "qu'",
      "il</w>"
    ],
    [
      "ai",
      "t</w>"
    ],
    [
      "em",
      "ent</w>"
    ],
    [
      "a",
      "p"
    ],
    [
      "n",
      "o"
    ],
    [
      "ai",
      "n"
    ],
    [
      "s",
      "a</w>"
    ],
    [
      "n",
      "ous</w>"
    ],
    [
      "p",
      "l"
    ],
    [
      "tou",
      "t</w>"
    ],
    [
      "m",
      "es</w>"
    ],
    [
      "a",
      "t"
    ],
    [
      "é",
      "t"
    ],
    [
      "on",
      "n"
    ],
    [
      "m",
      "on</w>"
    ],
    [
      "c",
      "es</w>"
    ],
    [
      "lu",
      "i</w>"
    ],
    [
      "et",
      "te</w>"
    ],
    [
      "c",
      "r"
    ],
    [
      "ai",
      "</w>"
    ],
    [
      "f",
      "f"
    ],
    [
      "bi",
      "en</w>"
    ],
    [
      "s",
      "'"
    ],
    [
      "ti",
      "on</w>"
    ],
    [
      "fai",
      "t</w>"
    ],
    [
      "eu",
      "rs</w>"
    ],
    [
      "y",
      "</w>"
    ],
    [
      "a",
      "r</w>"
    ],
    [
      "m",
      "i"
    ],
    [
      "m",
      "a"
    ],
    [
      "j",
      "'"
    ],
    [
      "é",
      "e</w>"
    ],
    [
      "p",
      "o"
    ],
    [
      "il",
      "le</w>"
    ],
    [
      "e",
      "x"
    ],
    [
      "qu",
      "el"
    ],
    [
      "p",
      "</w>"
    ],
    [
      "é",
      "r"
    ],
    [
      "c",
      "o"
    ],
    [
      "j",
      "ou"
    ],
    [
      "p",
      "i"
    ],
    [
      "p",
      "er"
    ],
    [
      "c",
      "ette</w>"
    ],
    [
      "j",
      "u"
    ],
    [
      "au",
      "x</w>"
    ],
    [
      "-",
      "</w>"
    ],
    [
      "p",
      "oin"
    ],
    [
      "v",
      "er"
    ],
    [
      "c",
      "'"
    ],
    [
      "m",
      "'"
    ],
    [
      "m",
      "ê"
    ],
    [
      "en",
      "s</w>"
    ],
    [
      "il",
      "s</w>"
    ],
    [
      "l",
      "</w>"
    ],
    [
      "s",
      "er"
    ],
    [
      "ag",
      "e</w>"
    ],
    [
      "poin",
      "t</w>"
    ],
    [
      "m",
      "on"
    ],
    [
      "d",
      "e"
    ],
    [
      "v",
      "ar</w>"
    ],
    [
      "av",
      "e"
    ],
    [
      "su",
      "r</w>"
    ],
    [
      "s",
      "c"
    ],
    [
      "pr",
      "o"
    ],
    [
      "s",
      "ans</w>"
    ],
    [
      "m",
      "é"
    ],
    [
      "s",
      "e"
    ],
    [
      "t",
      "-"
    ],
    [
      "m",
      "a</w>"
    ],
    [
      "i",
      "s</w>"
    ],
    [
      "ou",
      "</w>"
    ],
    [
      "f",
      "or"
    ],
    [
      "g",
      "u"
    ],
    [
      "è",
      "s</w>"
    ],
    [
      "a",
      "s"
    ],
    [
      "c'",
      "est</w>"
    ],
    [
      "l",
      "eur</w>"
    ],
    [
      "ave",
      "c</w>"
    ],
    [
      "m",
      "o"
    ],
    [
      "t",
      "u</w>"
    ],
    [
      "fai",
      "re</w>"
    ],
    [
      "i",
      "m"
    ],
    [
      "r",
      "es</w>"
    ],
    [
      "p",
      "or"
    ],
    [
      "p",
      "ui"
    ],
    [
      "t",
      "er</w>"
    ],
    [
      "d",
      "re</w>"
    ],
    [
      "n",
      "i"
    ],
    [
      "mê",
      "me</w>"
    ],
    [
      "s",
      "ou"
    ],
    [
      "com",
      "me</w>"
    ],
    [
      "pr",
      "é"
    ],
    [
      "an",
      "g"
    ],
    [
      "t",
      "u"
    ],
    [
      "an",
      "d</w>"
    ],
    [
      "p",
      "eu"
    ],
    [
      "v",
      "oir</w>"
    ],
    [
      "ê",
      "tre</w>"
    ],
    [
      "f",
      "au"
    ],
    [
      "è",
      "ne</w>"
    ],
    [
      "d'",
      "un</w>"
    ],
    [
      "vo",
      "tre</w>"
    ],
    [
      "t",
      "ant</w>"
    ],
    [
      "c",
      "l"
    ],
    [
      "g",
      "n"
    ],
    [
      "an",
      "ce</w>"
    ],
    [
      "an",
      "te</w>"
    ],
    [
      "é",
      "s</w>"
    ],
    [
      "m",
      "oi</w>"
    ],
    [
      "em",
      "p"
    ],
    [
      "b",
      "le</w>"
    ],
    [
      "h",
      "om"
    ],
    [
      "es",
      "se</w>"
    ],
    [
      "end",
      "re</w>"
    ],
    [
      "p",
      "e"
    ],
    [
      "v",
      "en"
    ],
    [
      "c",
      "u"
    ],
    [
      "t",
      "en"
    ],
    [
      "o",
      "ù"
    ],
    [
      "où",
      "</w>"
    ],
    [
      "di",
      "s"
    ],
    [
      "c",
      "or"
    ],
    [
      "c",
      "e"
    ],
    [
      "p",
      "h"
    ],
    [
      "el",
      "</w>"
    ],
    [
      "d",
      "on"
    ],
    [
      "t",
      "ous</w>"
    ],
    [
      "au",
      "tre</w>"
    ],
    [
      "di",
      "t</w>"
    ],
    [
      "s",
      "en"
    ],
    [
      "f",
      "r"
    ],
    [
      "d",
      "ou"
    ],
    [
      "s",
      "o"
    ],
    [
      "ab",
      "le</w>"
    ],
    [
      "s",
      "ont</w>"
    ],
    [
      "m",
      "al"
    ],
    [
      "p",
      "u"
    ],
    [
      "a",
      "s</w>"
    ],
    [
      "a",
      "ss"
    ],
    [
      "ch",
      "e</w>"
    ],
    [
      "ai",
      "n</w>"
    ],
    [
      "f",
      "u"
    ],
    [
      "o",
      "b"
    ],
    [
      "d",
      "onn"
    ],
    [
      "d",
      "ont</w>"
    ],
    [
      "ju",
      "s"
    ],
    [
      "b",
      "l"
    ],
    [
      "d",
      "o"
    ],
    [
      "é",
      "di"
    ],
    [
      "d",
      "eux</w>"
    ],
    [
      "i",
      "r</w>"
    ],
    [
      "en",
      "ce</w>"
    ],
    [
      "d",
      "es"
    ],
    [
      "am",
      "ou"
    ],
    [
      "ai",
      "re</w>"
    ],
    [
      "v",
      "oi"
    ],
    [
      "s",
      "t"
    ],
    [
      "g",
      "e</w>"
    ],
    [
      "l",
      "eurs</w>"
    ],
    [
      "c",
      "i</w>"
    ],
    [
      "l",
      "à</w>"
    ],
    [
      "d",
      "r"
    ],
    [
      "tr",
      "o"
    ],
    [
      "qu'",
      "on</w>"
    ],
    [
      "ri",
      "en</w>"
    ],
    [
      "en",
      "co"
    ],
    [
      "pr",
      "ès</w>"
    ],
    [
      "tr",
      "ouv"
    ],
    [
      "m",
      "ent</w>"
    ],
    [
      "b",
      "e"
    ],
    [
      "or",
      "t</w>"
    ],
    [
      "tr",
      "es</w>"
    ],
    [
      "oin",
      "s</w>"
    ],
    [
      "av",
      "oir</w>"
    ],
    [
      "ai",
      "s"
    ],
    [
      "i",
      "v"
    ],
    [
      "p",
      "eu</w>"
    ],
    [
      "v",
      "ou"
    ],
    [
      "n'",
      "est</w>"
    ],
    [
      "s",
      "eu"
    ],
    [
      "fau",
      "t</w>"
    ],
    [
      "sc",
      "ène</w>"
    ],
    [
      "oi",
      "re</w>"
    ],
    [
      "é",
      "ri"
    ],
    [
      "r",
      "en"
    ],
    [
      "fi",
      "n</w>"
    ],
    [
      "b",
      "r"
    ],
    [
      "c",
      "a"
    ],
    [
      "d",
      "em"
    ],
    [
      "ch",
      "o"
    ],
    [
      "e",
      "ille</w>"
    ],
    [
      "r",
      "o"
    ],
    [
      "tro",
      "p</w>"
    ],
    [
      "t",
      "on</w>"
    ],
    [
      "p",
      "en"
    ],
    [
      "quel",
      "que</w>"
    ],
    [
      "c",
      "ri"
    ],
    [
      "m",
      "ar"
    ],
    [
      "au",
      "r"
    ],
    [
      "vo",
      "y"
    ],
    [
      "en",
      "ts</w>"
    ],
    [
      "t",
      "emp"
    ],
    [
      "amou",
      "r</w>"
    ],
    [
      "l",
      "er</w>"
    ],
    [
      "j'",
      "ai</w>"
    ],
    [
      "pou",
      "r"
    ],
    [
      "î",
      "tre</w>"
    ],
    [
      "ti",
      "ons</w>"
    ],
    [
      "m",
      "an"
    ],
    [
      "c",
      "el"
    ],
    [
      "em",
      "i"
    ],
    [
      "f",
      "l"
    ],
    [
      "d",
      "on</w>"
    ],
    [
      "ver",
      "s</w>"
    ],
    [
      "hom",
      "me</w>"
    ],
    [
      "vo",
      "s</w>"
    ],
    [
      "d'",
      "une</w>"
    ],
    [
      "l",
      "e"
    ],
    [
      "n",
      "i</w>"
    ],
    [
      "é",
      "li"
    ],
    [
      "ez",
      "-"
    ],
    [
      "s",
      "-"
    ],
    [
      "m",
      "oins</w>"
    ],
    [
      "qu",
      "</w>"
    ],
    [
      "di",
      "re</w>"
    ],
    [
      "peu",
      "t</w>"
    ],
    [
      "es",
      "pri"
    ],
    [
      "g",
      "ar"
    ],
    [
      "t",
      "h"
    ],
    [
      "t",
      "a"
    ],
    [
      "h",
      "</w>"
    ],
    [
      "jou",
      "rs</w>"
    ],
    [
      "ai",
      "ss"
    ],
    [
      "gr",
      "an"
    ],
    [
      "t",
      "er"
    ],
    [
      "es",
      "s"
    ],
    [
      "qu",
      "oi</w>"
    ],
    [
      "s",
      "se</w>"
    ],
    [
      "a",
      "t</w>"
    ],
    [
      "temp",
      "s</w>"
    ],
    [
      "eu",
      "r"
    ],
    [
      "l'",
      "on</w>"
    ],
    [
      "a",
      "près</w>"
    ],
    [
      "a",
      "ce</w>"
    ],
    [
      "qu",
      "es</w>"
    ],
    [
      "u",
      "i</w>"
    ],
    [
      "au",
      "s"
    ],
    [
      "cor",
      "n"
    ],
    [
      "vi",
      "e</w>"
    ],
    [
      "cou",
      "r"
    ],
    [
      "n",
      "om"
    ],
    [
      "d",
      "u"
    ],
    [
      "i",
      "ne</w>"
    ],
    [
      "d",
      "s</w>"
    ],
    [
      "pr",
      "emi"
    ],
    [
      "di",
      "eu</w>"
    ],
    [
      "n",
      "on</w>"
    ],
    [
      "qu",
      "and</w>"
    ],
    [
      "v",
      "e</w>"
    ],
    [
      "f",
      "ois</w>"
    ],
    [
      "pri",
      "n"
    ],
    [
      "l",
      "y"
    ],
    [
      "e",
      "ff"
    ],
    [
      "é",
      "g"
    ],
    [
      "v",
      "eu"
    ],
    [
      "ô",
      "t</w>"
    ],
    [
      "v",
      "r"
    ],
    [
      "al",
      "</w>"
    ],
    [
      "â",
      "me</w>"
    ],
    [
      "s",
      "or"
    ],
    [
      "t-",
      "il</w>"
    ],
    [
      "corn",
      "eille</w>"
    ],
    [
      "i",
      "i</w>"
    ],
    [
      "ou",
      "r"
    ],
    [
      "g",
      "an"
    ],
    [
      "ui",
      "t</w>"
    ],
    [
      "û",
      "t</w>"
    ],
    [
      "j",
      "am"
    ],
    [
      "si",
      "on</w>"
    ],
    [
      "ch",
      "er</w>"
    ],
    [
      "enco",
      "re</w>"
    ],
    [
      "qu",
      "i"
    ],
    [
      "om",
      "p"
    ],
    [
      "m",
      "</w>"
    ],
    [
      "o",
      "ri"
    ],
    [
      "t",
      "ôt</w>"
    ],
    [
      "s",
      "é"
    ],
    [
      "espri",
      "t</w>"
    ],
    [
      "s",
      "em"
    ],
    [
      "qu'",
      "à</w>"
    ],
    [
      "s",
      "gan"
    ],
    [
      "sgan",
      "ar"
    ],
    [
      "sganar",
      "elle</w>"
    ],
    [
      "il",
      "l"
    ],
    [
      "gr",
      "and</w>"
    ],
    [
      "no",
      "tre</w>"
    ],
    [
      "ai",
      "son</w>"
    ],
    [
      "ain",
      "si</w>"
    ],
    [
      "s",
      "oit</w>"
    ],
    [
      "qu'",
      "elle</w>"
    ],
    [
      "on",
      "ne</w>"
    ],
    [
      "u",
      "e</w>"
    ],
    [
      "s",
      "er</w>"
    ],
    [
      "jam",
      "ais</w>"
    ],
    [
      "c",
      "et</w>"
    ],
    [
      "t",
      "eur</w>"
    ],
    [
      "er",
      "s</w>"
    ],
    [
      "al",
      "l"
    ],
    [
      "r",
      "es"
    ],
    [
      "su",
      "is</w>"
    ],
    [
      "si",
      "eur</w>"
    ],
    [
      "qu'",
      "un</w>"
    ],
    [
      "don",
      "c</w>"
    ],
    [
      "an",
      "</w>"
    ],
    [
      "m",
      "en"
    ],
    [
      "tou",
      "te</w>"
    ],
    [
      "con",
      "n"
    ],
    [
      "il",
      "i"
    ],
    [
      "no",
      "s</w>"
    ],
    [
      "u",
      "r</w>"
    ],
    [
      "t",
      "a</w>"
    ],
    [
      "el",
      "les</w>"
    ],
    [
      "au",
      "tres</w>"
    ],
    [
      "ai",
      "l"
    ],
    [
      "p",
      "ère</w>"
    ],
    [
      "l'",
      "h"
    ],
    [
      "con",
      "tre</w>"
    ],
    [
      "s",
      "te</w>"
    ],
    [
      "g",
      "ne</w>"
    ],
    [
      "ez-",
      "vous</w>"
    ],
    [
      "pui",
      "s</w>"
    ],
    [
      "for",
      "t</w>"
    ],
    [
      "a",
      "ri"
    ],
    [
      "ri",
      "r</w>"
    ],
    [
      "y",
      "eux</w>"
    ],
    [
      "oi",
      "n</w>"
    ],
    [
      "cou",
      "rs</w>"
    ],
    [
      "t",
      "és</w>"
    ],
    [
      "s'",
      "il</w>"
    ],
    [
      "se",
      "i"
    ],
    [
      "aus",
      "si</w>"
    ],
    [
      "t",
      "ri"
    ],
    [
      "m",
      "er</w>"
    ],
    [
      "pr",
      "en"
    ],
    [
      "ain",
      "s</w>"
    ],
    [
      "v",
      "eux</w>"
    ],
    [
      "l",
      "ement</w>"
    ],
    [
      "ass",
      "ez</w>"
    ],
    [
      "é",
      "l"
    ],
    [
      "oi",
      "ent</w>"
    ],
    [
      "su",
      "r"
    ],
    [
      "cou",
      "p</w>"
    ],
    [
      "per",
      "s"
    ],
    [
      "b",
      "li"
    ],
    [
      "pa",
      "ss"
    ],
    [
      "ap",
      "p"
    ],
    [
      "f",
      "er"
    ],
    [
      "mon",
      "sieur</w>"
    ],
    [
      "i",
      "ci</w>"
    ],
    [
      "tou",
      "jours</w>"
    ],
    [
      "en",
      "tr"
    ],
    [
      "ê",
      "te</w>"
    ],
    [
      "u",
      "s</w>"
    ],
    [
      "v",
      "re</w>"
    ],
    [
      "an",
      "dre</w>"
    ],
    [
      "m",
      "ort</w>"
    ],
    [
      "s",
      "a"
    ],
    [
      "pr",
      "endre</w>"
    ],
    [
      "a",
      "me</w>"
    ],
    [
      "mon",
      "de</w>"
    ],
    [
      "r",
      "oi</w>"
    ],
    [
      "voy",
      "ez</w>"
    ],
    [
      "d",
      "or"
    ],
    [
      "vi",
      "ent</w>"
    ],
    [
      "é",
      "té</w>"
    ],
    [
      "tou",
      "tes</w>"
    ],
    [
      "c",
      "er"
    ],
    [
      "-",
      "même</w>"
    ],
    [
      "pré",
      "sen"
    ],
    [
      "en",
      "n"
    ],
    [
      "an",
      "ts</w>"
    ],
    [
      "en",
      "fin</w>"
    ],
    [
      "ce",
      "la</w>"
    ],
    [
      "m",
      "et"
    ],
    [
      "c",
      "li"
    ],
    [
      "be",
      "au"
    ],
    [
      "de",
      "v"
    ],
    [
      "as",
      "te</w>"
    ],
    [
      "t",
      "e"
    ],
    [
      "su",
      "iv"
    ],
    [
      "tr",
      "ai"
    ],
    [
      "o",
      "</w>"
    ],
    [
      "a",
      "tion</w>"
    ],
    [
      "jou",
      "r</w>"
    ],
    [
      "l'",
      "autre</w>"
    ],
    [
      "cho",
      "se</w>"
    ],
    [
      "don",
      "ne</w>"
    ],
    [
      "l",
      "on"
    ],
    [
      "v",
      "al"
    ],
    [
      "ch",
      "ar"
    ],
    [
      "th",
      "é"
    ],
    [
      "gu",
      "e</w>"
    ],
    [
      "è",
      "res</w>"
    ],
    [
      "r",
      "em"
    ],
    [
      "f",
      "on"
    ],
    [
      "qu'",
      "ils</w>"
    ],
    [
      "c",
      "eux</w>"
    ],
    [
      "mi",
      "eux</w>"
    ],
    [
      "f",
      "em"
    ],
    [
      "-",
      "-"
    ],
    [
      "pl",
      "ai"
    ],
    [
      "g",
      "l"
    ],
    [
      "ti",
      "r</w>"
    ],
    [
      "j",
      "et</w>"
    ],
    [
      "n",
      "ouv"
    ],
    [
      "vou",
      "l"
    ],
    [
      "n'",
      "en</w>"
    ],
    [
      "b",
      "re</w>"
    ],
    [
      "por",
      "te</w>"
    ],
    [
      "a",
      "h</w>"
    ],
    [
      "h",
      "or"
    ],
    [
      "s",
      "ous</w>"
    ],
    [
      "d",
      "er</w>"
    ],
    [
      "n",
      "é"
    ],
    [
      "l",
      "aiss"
    ],
    [
      "a",
      "î"
    ],
    [
      "end",
      "r"
    ],
    [
      "quel",
      "</w>"
    ],
    [
      "m",
      "u"
    ],
    [
      "pri",
      "s</w>"
    ],
    [
      "v",
      "u</w>"
    ],
    [
      "su",
      "i"
    ],
    [
      "v",
      "</w>"
    ],
    [
      "b",
      "ou"
    ],
    [
      "ai",
      "ent</w>"
    ],
    [
      "an",
      "t"
    ],
    [
      "ai",
      "ne</w>"
    ],
    [
      "h",
      "i"
    ],
    [
      "cel",
      "ui</w>"
    ],
    [
      "n'",
      "a</w>"
    ],
    [
      "o",
      "y"
    ],
    [
      "ti",
      "r"
    ],
    [
      "es",
      "p"
    ],
    [
      "av",
      "ez</w>"
    ],
    [
      "ag",
      "es</w>"
    ],
    [
      "ti",
      "n"
    ],
    [
      "par",
      "t</w>"
    ],
    [
      "eu",
      "se</w>"
    ],
    [
      "m",
      "ain</w>"
    ],
    [
      "m",
      "or"
    ],
    [
      "mal",
      "</w>"
    ],
    [
      "d",
      "er"
    ],
    [
      "donn",
      "er</w>"
    ],
    [
      "p",
      "li"
    ],
    [
      "s",
      "ouv"
    ],
    [
      "c",
      "ar"
    ],
    [
      "veu",
      "t</w>"
    ],
    [
      "con",
      "tr"
    ],
    [
      "seu",
      "l</w>"
    ],
    [
      "iv",
      "</w>"
    ],
    [
      "h",
      "eur"
    ],
    [
      "pui",
      "s"
    ],
    [
      "et",
      "s</w>"
    ],
    [
      "ma",
      "d"
    ],
    [
      "d",
      "oit</w>"
    ],
    [
      "end",
      "ant</w>"
    ],
    [
      "g",
      "ens</w>"
    ],
    [
      "b",
      "on</w>"
    ],
    [
      "t",
      "'"
    ],
    [
      "ch",
      "ez</w>"
    ],
    [
      "ar",
      "r"
    ],
    [
      "gr",
      "â"
    ],
    [
      "sou",
      "ff"
    ],
    [
      "a",
      "y"
    ],
    [
      "h",
      "u"
    ],
    [
      "p",
      "e</w>"
    ],
    [
      "av",
      "ait</w>"
    ],
    [
      "au",
      "v"
    ],
    [
      "sem",
      "ble</w>"
    ],
    [
      "si",
      "r</w>"
    ],
    [
      "l'",
      "in"
    ],
    [
      "ser",
      "vi"
    ],
    [
      "en",
      "tre</w>"
    ],
    [
      "é",
      "n"
    ],
    [
      "v",
      "a</w>"
    ],
    [
      "g",
      "er</w>"
    ],
    [
      "fu",
      "t</w>"
    ],
    [
      "par",
      "o"
    ],
    [
      "ét",
      "oit</w>"
    ],
    [
      "li",
      "eu</w>"
    ],
    [
      "t",
      "ent</w>"
    ],
    [
      "è",
      "ce</w>"
    ],
    [
      "pour",
      "r"
    ],
    [
      "tr",
      "a"
    ],
    [
      "ch",
      "er"
    ],
    [
      "c",
      "in"
    ],
    [
      "h",
      "eur</w>"
    ],
    [
      "ét",
      "ait</w>"
    ],
    [
      "mé",
      "ri"
    ],
    [
      "j'",
      "en</w>"
    ],
    [
      "eu",
      "re</w>"
    ],
    [
      "v",
      "oit</w>"
    ],
    [
      "s",
      "age</w>"
    ],
    [
      "pr",
      "es"
    ],
    [
      "hom",
      "mes</w>"
    ],
    [
      "par",
      "ti"
    ],
    [
      "i",
      "e</w>"
    ],
    [
      "t",
      "el</w>"
    ],
    [
      "l'",
      "é"
    ],
    [
      "on",
      "te</w>"
    ],
    [
      "ou",
      "i</w>"
    ],
    [
      "h",
      "au"
    ],
    [
      "o",
      "l"
    ],
    [
      "ma",
      "ri"
    ],
    [
      "s",
      "ais</w>"
    ],
    [
      "es",
      "t-"
    ],
    [
      "ac",
      "te</w>"
    ],
    [
      "a",
      "li"
    ],
    [
      "at",
      "u"
    ],
    [
      "pe",
      "ine</w>"
    ],
    [
      "p",
      "s</w>"
    ],
    [
      "cl",
      "é"
    ],
    [
      "ci",
      "el</w>"
    ],
    [
      "t",
      "ement</w>"
    ],
    [
      "pe",
      "ti"
    ],
    [
      "nom",
      "</w>"
    ],
    [
      "ce",
      "p"
    ],
    [
      "a",
      "d"
    ],
    [
      "dem",
      "an"
    ],
    [
      "m'",
      "en</w>"
    ],
    [
      "t",
      "oi</w>"
    ],
    [
      "co",
      "eur</w>"
    ],
    [
      "onn",
      "eur</w>"
    ],
    [
      "mad",
      "ame</w>"
    ],
    [
      "dis",
      "cours</w>"
    ],
    [
      "i",
      "s"
    ],
    [
      "voi",
      "là</w>"
    ],
    [
      "com",
      "édi"
    ],
    [
      "ang",
      "</w>"
    ],
    [
      "li",
      "ère</w>"
    ],
    [
      "enco",
      "r</w>"
    ],
    [
      "dor",
      "ante</w>"
    ],
    [
      "ser",
      "v"
    ],
    [
      "po",
      "s"
    ],
    [
      "qu",
      "elle</w>"
    ],
    [
      "ai",
      "me</w>"
    ],
    [
      "ch",
      "e"
    ],
    [
      "par",
      "ler</w>"
    ],
    [
      "ri",
      "e</w>"
    ],
    [
      "ré",
      "p"
    ],
    [
      "a",
      "ff"
    ],
    [
      "thé",
      "â"
    ],
    [
      "trouv",
      "e</w>"
    ],
    [
      "r",
      "aison</w>"
    ],
    [
      "b",
      "on"
    ],
    [
      "n'",
      "y</w>"
    ],
    [
      "r",
      "ou"
    ],
    [
      "l",
      "ou"
    ],
    [
      "é",
      "m"
    ],
    [
      "en",
      "t"
    ],
    [
      "ti",
      "que</w>"
    ],
    [
      "end",
      "s</w>"
    ],
    [
      "be",
      "au</w>"
    ],
    [
      "v",
      "ois</w>"
    ],
    [
      "d'",
      "h"
    ],
    [
      "pui",
      "ss"
    ],
    [
      "o",
      "ff"
    ],
    [
      "pu",
      "bli"
    ],
    [
      "au",
      "c"
    ],
    [
      "cho",
      "ses</w>"
    ],
    [
      "édi",
      "tion</w>"
    ],
    [
      "fem",
      "me</w>"
    ],
    [
      "l",
      "or"
    ],
    [
      "c",
      "t"
    ],
    [
      "ê",
      "tes</w>"
    ],
    [
      "a",
      "le</w>"
    ],
    [
      "qu'",
      "en</w>"
    ],
    [
      "g",
      "e"
    ],
    [
      "b",
      "er"
    ],
    [
      "ri",
      "s</w>"
    ],
    [
      "d",
      "ui"
    ],
    [
      "ma",
      "sc"
    ],
    [
      "è",
      "me</w>"
    ],
    [
      "f",
      "fi"
    ],
    [
      "s'",
      "en</w>"
    ],
    [
      "e",
      "au</w>"
    ],
    [
      "der",
      "ni"
    ],
    [
      "dé",
      "e</w>"
    ],
    [
      "d",
      "eur</w>"
    ],
    [
      "sei",
      "gn"
    ],
    [
      "c",
      "é"
    ],
    [
      "av",
      "ant</w>"
    ],
    [
      "ti",
      "é</w>"
    ],
    [
      "é",
      "cri"
    ],
    [
      "théâ",
      "tre</w>"
    ],
    [
      "grâ",
      "ce</w>"
    ],
    [
      "ang",
      "e</w>"
    ],
    [
      "masc",
      "ar"
    ],
    [
      "b",
      "elle</w>"
    ],
    [
      "c",
      "elle</w>"
    ],
    [
      "f",
      "</w>"
    ],
    [
      "t",
      "ér"
    ],
    [
      "ch",
      "oi"
    ],
    [
      "par",
      "l"
    ],
    [
      "r",
      "eur</w>"
    ],
    [
      "tou",
      "r"
    ],
    [
      "f",
      "av"
    ],
    [
      "av",
      "oit</w>"
    ],
    [
      "éli",
      "e</w>"
    ],
    [
      "mascar",
      "ille</w>"
    ],
    [
      "e",
      "il</w>"
    ],
    [
      "en",
      "ne</w>"
    ],
    [
      "f",
      "oi</w>"
    ],
    [
      "u",
      "ni"
    ],
    [
      "mo",
      "t</w>"
    ],
    [
      "s",
      "ens</w>"
    ],
    [
      "s",
      "ain"
    ],
    [
      "dé",
      "f"
    ],
    [
      "v",
      "in"
    ],
    [
      "e",
      "ût</w>"
    ],
    [
      "ti",
      "n</w>"
    ],
    [
      "s",
      "ent</w>"
    ],
    [
      "ar",
      "d</w>"
    ],
    [
      "sen",
      "ti"
    ],
    [
      "es",
      "te</w>"
    ],
    [
      "gl",
      "oire</w>"
    ],
    [
      "ai",
      "m"
    ],
    [
      "l'",
      "amour</w>"
    ],
    [
      "j",
      "eu"
    ],
    [
      "at",
      "t"
    ],
    [
      "v",
      "éri"
    ],
    [
      "t",
      "able</w>"
    ],
    [
      "tr",
      "ois</w>"
    ],
    [
      "v",
      "ent</w>"
    ],
    [
      "se",
      "cr"
    ],
    [
      "gran",
      "ds</w>"
    ],
    [
      "n",
      "atu"
    ],
    [
      "su",
      "p"
    ],
    [
      "hu",
      "m"
    ],
    [
      "o",
      "c"
    ],
    [
      "c",
      "ès</w>"
    ],
    [
      "prin",
      "ce</w>"
    ],
    [
      "heur",
      "eux</w>"
    ],
    [
      "s",
      "ait</w>"
    ],
    [
      "r",
      "endre</w>"
    ],
    [
      "vr",
      "ai</w>"
    ],
    [
      "p",
      "au"
    ],
    [
      "beau",
      "coup</w>"
    ],
    [
      "j",
      "à</w>"
    ],
    [
      "c",
      "tion</w>"
    ],
    [
      "en",
      "f"
    ],
    [
      "tu",
      "re</w>"
    ],
    [
      "premi",
      "er</w>"
    ],
    [
      "mo",
      "lière</w>"
    ],
    [
      "l",
      "o"
    ],
    [
      "dé",
      "jà</w>"
    ],
    [
      "c",
      "ar</w>"
    ],
    [
      "mi",
      "s</w>"
    ],
    [
      "cer",
      "t"
    ],
    [
      "es",
      "-"
    ],
    [
      "seu",
      "lement</w>"
    ],
    [
      "a",
      "f"
    ],
    [
      "su",
      "s</w>"
    ],
    [
      "cr",
      "ain"
    ],
    [
      "qui",
      "t"
    ],
    [
      "r",
      "ent</w>"
    ],
    [
      "em",
      "ents</w>"
    ],
    [
      "aî",
      "t</w>"
    ],
    [
      "f",
      "ont</w>"
    ],
    [
      "re",
      "gar"
    ],
    [
      "t",
      "o"
    ],
    [
      "s",
      "om"
    ],
    [
      "ri",
      "v"
    ],
    [
      "d'",
      "être</w>"
    ],
    [
      "l'",
      "un</w>"
    ],
    [
      "l",
      "a"
    ],
    [
      "tr",
      "ou"
    ],
    [
      "di",
      "s</w>"
    ],
    [
      "pou",
      "voir</w>"
    ],
    [
      "tou",
      "r</w>"
    ],
    [
      "ven",
      "ir</w>"
    ],
    [
      "g",
      "i"
    ],
    [
      "peu",
      "t-"
    ],
    [
      "ph",
      "il"
    ],
    [
      "e",
      "il"
    ],
    [
      "l",
      "et"
    ],
    [
      "pers",
      "onne</w>"
    ],
    [
      "eff",
      "et</w>"
    ],
    [
      "pers",
      "onn"
    ],
    [
      "t",
      "om"
    ],
    [
      "c",
      "esse</w>"
    ],
    [
      "au",
      "tant</w>"
    ],
    [
      "n",
      "es</w>"
    ],
    [
      "m",
      "in"
    ],
    [
      "f",
      "ils</w>"
    ],
    [
      "fr",
      "an"
    ],
    [
      "é",
      "es</w>"
    ],
    [
      "b",
      "e</w>"
    ],
    [
      "as",
      "se</w>"
    ],
    [
      "ob",
      "li"
    ],
    [
      "ouv",
      "r"
    ],
    [
      "i",
      "ii</w>"
    ],
    [
      "é",
      "cl"
    ],
    [
      "met",
      "tre</w>"
    ],
    [
      "s",
      "ort</w>"
    ],
    [
      "t",
      "ez</w>"
    ],
    [
      "gran",
      "de</w>"
    ],
    [
      "f",
      "ille</w>"
    ],
    [
      "pou",
      "v"
    ],
    [
      "premi",
      "ère</w>"
    ],
    [
      "ér",
      "aste</w>"
    ],
    [
      "pren",
      "d</w>"
    ],
    [
      "p",
      "le</w>"
    ],
    [
      "er",
      "re</w>"
    ],
    [
      "s",
      "on"
    ],
    [
      "quel",
      "ques</w>"
    ],
    [
      "seign",
      "eur</w>"
    ],
    [
      "p",
      "u</w>"
    ],
    [
      "e",
      "ill"
    ],
    [
      "qu",
      "er</w>"
    ],
    [
      "lu",
      "</w>"
    ],
    [
      "jou",
      "r"
    ],
    [
      "pa",
      "s"
    ],
    [
      "ma",
      "ître</w>"
    ],
    [
      "ab",
      "les</w>"
    ],
    [
      "a",
      "dr"
    ],
    [
      "fl",
      "am"
    ],
    [
      "di",
      "eux</w>"
    ],
    [
      "r",
      "a"
    ],
    [
      "so",
      "l"
    ],
    [
      "ch",
      "é</w>"
    ],
    [
      "oi",
      "e</w>"
    ],
    [
      "m",
      "ents</w>"
    ],
    [
      "su",
      "jet</w>"
    ],
    [
      "l'",
      "édition</w>"
    ],
    [
      "po",
      "ly"
    ],
    [
      "po",
      "ë"
    ],
    [
      "s",
      "in"
    ],
    [
      "d",
      "am"
    ],
    [
      "c",
      "au"
    ],
    [
      "do",
      "ri"
    ],
    [
      "si",
      "ons</w>"
    ],
    [
      "pl",
      "ace</w>"
    ],
    [
      "ti",
      "ce</w>"
    ],
    [
      "r",
      "u"
    ],
    [
      "m",
      "auv"
    ],
    [
      "r",
      "el"
    ],
    [
      "in",
      "di"
    ],
    [
      "su",
      "c"
    ],
    [
      "co",
      "l"
    ],
    [
      "t",
      "une</w>"
    ],
    [
      "entr",
      "e"
    ],
    [
      "e",
      "in"
    ],
    [
      "lon",
      "g"
    ],
    [
      "s",
      "ang</w>"
    ],
    [
      "t",
      "el"
    ],
    [
      "rép",
      "on"
    ],
    [
      "ét",
      "at</w>"
    ],
    [
      "com",
      "b"
    ],
    [
      "res",
      "te</w>"
    ],
    [
      "pr",
      "om"
    ],
    [
      "t",
      "ête</w>"
    ],
    [
      "souv",
      "ent</w>"
    ],
    [
      "f",
      "a"
    ],
    [
      "ph",
      "e</w>"
    ],
    [
      "mé",
      "li"
    ],
    [
      "tr",
      "an"
    ],
    [
      "par",
      "le</w>"
    ],
    [
      "-",
      "je</w>"
    ],
    [
      "ti",
      "ens</w>"
    ],
    [
      "f",
      "am"
    ],
    [
      "des",
      "sus</w>"
    ],
    [
      "dou",
      "te</w>"
    ],
    [
      "to",
      "me</w>"
    ],
    [
      "gr",
      "é</w>"
    ],
    [
      "cr",
      "oy"
    ],
    [
      "re",
      "ç"
    ],
    [
      "g",
      "én"
    ],
    [
      "c",
      "ré"
    ],
    [
      "oi",
      "gn"
    ],
    [
      "pi",
      "èce</w>"
    ],
    [
      "m'",
      "a</w>"
    ],
    [
      "g",
      "o"
    ],
    [
      "g",
      "ag"
    ],
    [
      "lor",
      "s"
    ],
    [
      "ta",
      "tion</w>"
    ],
    [
      "et",
      "é</w>"
    ],
    [
      "r",
      "er</w>"
    ],
    [
      "re",
      "présen"
    ],
    [
      "val",
      "ère</w>"
    ],
    [
      "peut-",
      "être</w>"
    ],
    [
      "si",
      "ble</w>"
    ],
    [
      "em",
      "bl"
    ],
    [
      "av",
      "ons</w>"
    ],
    [
      "ch",
      "ac"
    ],
    [
      "o",
      "r</w>"
    ],
    [
      "bi",
      "en"
    ],
    [
      "h",
      "a"
    ],
    [
      "jus",
      "te</w>"
    ],
    [
      "l'",
      "ar"
    ],
    [
      "est-",
      "ce</w>"
    ],
    [
      "trouv",
      "er</w>"
    ],
    [
      "b",
      "u"
    ],
    [
      "v",
      "ain"
    ],
    [
      "s",
      "aur"
    ],
    [
      "at",
      "ta"
    ],
    [
      "n",
      "ée</w>"
    ],
    [
      "lu",
      "i"
    ],
    [
      "pen",
      "s"
    ],
    [
      "con",
      "ten"
    ],
    [
      "com",
      "m"
    ],
    [
      "puis",
      "que</w>"
    ],
    [
      "ti",
      "ent</w>"
    ],
    [
      "en",
      "te</w>"
    ],
    [
      "m",
      "om"
    ],
    [
      "ê",
      "t</w>"
    ],
    [
      "cou",
      "r</w>"
    ],
    [
      "n",
      "er</w>"
    ],
    [
      "for",
      "ce</w>"
    ],
    [
      "av",
      "ant"
    ],
    [
      "do",
      "r</w>"
    ],
    [
      "de",
      "puis</w>"
    ],
    [
      "e",
      "h</w>"
    ],
    [
      "t",
      "aire</w>"
    ],
    [
      "qu'",
      "une</w>"
    ],
    [
      "ex",
      "tr"
    ],
    [
      "gén",
      "ér"
    ],
    [
      "pen",
      "se</w>"
    ],
    [
      "ver",
      "tu</w>"
    ],
    [
      "lui",
      "-même</w>"
    ],
    [
      "m",
      "ains</w>"
    ],
    [
      "pa",
      "g"
    ],
    [
      "cr",
      "u"
    ],
    [
      "ais",
      "se</w>"
    ],
    [
      "ch",
      "ang"
    ],
    [
      "fr",
      "ère</w>"
    ],
    [
      "comédi",
      "e</w>"
    ],
    [
      "b",
      "les</w>"
    ],
    [
      "man",
      "i"
    ],
    [
      "u",
      "n"
    ],
    [
      "ter",
      "re</w>"
    ],
    [
      "sei",
      "n</w>"
    ],
    [
      "or",
      "s</w>"
    ],
    [
      "ten",
      "ir</w>"
    ],
    [
      "fai",
      "s</w>"
    ],
    [
      "ff",
      "ér"
    ],
    [
      "al",
      "ors</w>"
    ],
    [
      "o",
      "p"
    ],
    [
      "m",
      "ou"
    ],
    [
      "en",
      "ti"
    ],
    [
      "v",
      "res</w>"
    ],
    [
      "è",
      "le</w>"
    ],
    [
      "dé",
      "li"
    ],
    [
      "c",
      "ess"
    ],
    [
      "méri",
      "te</w>"
    ],
    [
      "in",
      "s"
    ],
    [
      "sui",
      "te</w>"
    ],
    [
      "d",
      "ent</w>"
    ],
    [
      "al",
      "ou"
    ],
    [
      "mê",
      "mes</w>"
    ],
    [
      "c",
      "ent</w>"
    ],
    [
      "t",
      "an"
    ],
    [
      "pi",
      "re</w>"
    ],
    [
      "é",
      "cou"
    ],
    [
      "-",
      "a</w>"
    ],
    [
      "fi",
      "t</w>"
    ],
    [
      "am",
      "ant</w>"
    ],
    [
      "a",
      "ître</w>"
    ],
    [
      "si",
      "eurs</w>"
    ],
    [
      "ai",
      "r</w>"
    ],
    [
      "cep",
      "endant</w>"
    ],
    [
      "g",
      "é</w>"
    ],
    [
      "chac",
      "un</w>"
    ],
    [
      "m",
      "oi"
    ],
    [
      "i",
      "n</w>"
    ],
    [
      "ch",
      "a"
    ],
    [
      "m",
      "é</w>"
    ],
    [
      "hau",
      "t</w>"
    ],
    [
      "dé",
      "s"
    ],
    [
      "ac",
      "t"
    ],
    [
      "am",
      "i</w>"
    ],
    [
      "o",
      "s</w>"
    ],
    [
      "b",
      "onne</w>"
    ],
    [
      "in",
      "tér"
    ],
    [
      "pr",
      "ét"
    ],
    [
      "f",
      "in"
    ],
    [
      "ma",
      "î"
    ],
    [
      "mon",
      "tr"
    ],
    [
      "è",
      "de</w>"
    ],
    [
      "pa",
      "y"
    ],
    [
      "i",
      "r"
    ],
    [
      "plai",
      "sir</w>"
    ],
    [
      "cli",
      "ton</w>"
    ],
    [
      "for",
      "tune</w>"
    ],
    [
      "di",
      "n"
    ],
    [
      "hor",
      "ace</w>"
    ],
    [
      "n",
      "é</w>"
    ],
    [
      "ad",
      "mi"
    ],
    [
      "m",
      "aison</w>"
    ],
    [
      "com",
      "men"
    ],
    [
      "l",
      "oin</w>"
    ],
    [
      "r",
      "ap"
    ],
    [
      "ch",
      "ap"
    ],
    [
      "ai",
      "se</w>"
    ],
    [
      "j",
      "alou"
    ],
    [
      "se",
      "con"
    ],
    [
      "vi",
      "ens</w>"
    ],
    [
      "por",
      "ter</w>"
    ],
    [
      "p",
      "é"
    ],
    [
      "v",
      "i</w>"
    ],
    [
      "v",
      "ue</w>"
    ],
    [
      "édi",
      "tions</w>"
    ],
    [
      "cl",
      "ari"
    ],
    [
      "ex",
      "emp"
    ],
    [
      "tr",
      "ag"
    ],
    [
      "au",
      "jour"
    ],
    [
      "c",
      "éli"
    ],
    [
      "in",
      "-</w>"
    ],
    [
      "r",
      "om"
    ],
    [
      "che",
      "v"
    ],
    [
      "prin",
      "cesse</w>"
    ],
    [
      "l",
      "aisse</w>"
    ],
    [
      "qu",
      "a"
    ],
    [
      "dou",
      "x</w>"
    ],
    [
      "m",
      "es"
    ],
    [
      "dev",
      "ant</w>"
    ],
    [
      "ap",
      "h"
    ],
    [
      "sem",
      "bl"
    ],
    [
      "ac",
      "tion</w>"
    ],
    [
      "x",
      "-"
    ],
    [
      "t",
      "ée</w>"
    ],
    [
      "at",
      "ten"
    ],
    [
      "mo",
      "y"
    ],
    [
      "em",
      "pl"
    ],
    [
      "dr",
      "oit</w>"
    ],
    [
      "m",
      "ille</w>"
    ],
    [
      "dé",
      "r"
    ],
    [
      "p",
      "re</w>"
    ],
    [
      "ar",
      "mes</w>"
    ],
    [
      "r",
      "ement</w>"
    ],
    [
      "ab",
      "or"
    ],
    [
      "mo",
      "ts</w>"
    ],
    [
      "oi",
      "s"
    ],
    [
      "ch",
      "i"
    ],
    [
      "tr",
      "av"
    ],
    [
      "po",
      "s</w>"
    ],
    [
      "s'",
      "est</w>"
    ],
    [
      "a",
      "-"
    ],
    [
      "ob",
      "jet</w>"
    ],
    [
      "ç",
      "on</w>"
    ],
    [
      "cr",
      "oire</w>"
    ],
    [
      "esp",
      "ér"
    ],
    [
      "c",
      "er</w>"
    ],
    [
      "d'h",
      "ui</w>"
    ],
    [
      "d",
      "ri"
    ],
    [
      "l'",
      "au"
    ],
    [
      "aujour",
      "d'hui</w>"
    ],
    [
      "le",
      "v"
    ],
    [
      "es",
      "ti"
    ],
    [
      "pri",
      "se</w>"
    ],
    [
      "quel",
      "qu"
    ],
    [
      "li",
      "t</w>"
    ],
    [
      "é",
      "pou"
    ],
    [
      "ju",
      "an</w>"
    ],
    [
      "l'",
      "av"
    ],
    [
      "mom",
      "ent</w>"
    ],
    [
      "ju",
      "g"
    ],
    [
      "o",
      "s"
    ],
    [
      "en",
      "semble</w>"
    ],
    [
      "l'",
      "or"
    ],
    [
      "fai",
      "tes</w>"
    ],
    [
      "tr",
      "omp"
    ],
    [
      "t",
      "i</w>"
    ],
    [
      "cr",
      "ois</w>"
    ],
    [
      "ci",
      "d</w>"
    ],
    [
      "b",
      "es"
    ],
    [
      "ver",
      "r"
    ],
    [
      "d'",
      "autres</w>"
    ],
    [
      "donn",
      "é</w>"
    ],
    [
      "y",
      "m"
    ],
    [
      "r",
      "ais"
    ],
    [
      "e",
      "fois</w>"
    ],
    [
      "mi",
      "s"
    ],
    [
      "trai",
      "ts</w>"
    ],
    [
      "m",
      "i</w>"
    ],
    [
      "flam",
      "me</w>"
    ],
    [
      "v",
      "ille</w>"
    ],
    [
      "ser",
      "a</w>"
    ],
    [
      "n",
      "u"
    ],
    [
      "fai",
      "te</w>"
    ],
    [
      "n'",
      "ai</w>"
    ],
    [
      "g",
      "ér"
    ],
    [
      "auc",
      "un</w>"
    ],
    [
      "pui",
      "sse</w>"
    ],
    [
      "d",
      "oi"
    ],
    [
      "si",
      "e</w>"
    ],
    [
      "s",
      "avoir</w>"
    ],
    [
      "pa",
      "ris</w>"
    ],
    [
      "al",
      "c"
    ],
    [
      "ay",
      "ant</w>"
    ],
    [
      "l'",
      "esprit</w>"
    ],
    [
      "qua",
      "tre</w>"
    ],
    [
      "jus",
      "tice</w>"
    ],
    [
      "fi",
      "d"
    ],
    [
      "ci",
      "le</w>"
    ],
    [
      "po",
      "se</w>"
    ],
    [
      "par",
      "ce</w>"
    ],
    [
      "sor",
      "te</w>"
    ],
    [
      "d",
      "ès</w>"
    ],
    [
      "pe",
      "c"
    ],
    [
      "enn",
      "em"
    ],
    [
      "con",
      "se"
    ],
    [
      "seu",
      "le</w>"
    ],
    [
      "esp",
      "oir</w>"
    ],
    [
      "l",
      "élie</w>"
    ],
    [
      "g",
      "al"
    ],
    [
      "pro",
      "pre</w>"
    ],
    [
      "cour",
      "age</w>"
    ],
    [
      "t",
      "ém"
    ],
    [
      "-",
      "dessus</w>"
    ],
    [
      "de",
      "voir</w>"
    ],
    [
      "t",
      "elle</w>"
    ],
    [
      "con",
      "no"
    ],
    [
      "des",
      "sein</w>"
    ],
    [
      "m",
      "ain"
    ],
    [
      "d",
      "uit</w>"
    ],
    [
      "bon",
      "heur</w>"
    ],
    [
      "c",
      "ô"
    ],
    [
      "ch",
      "im"
    ],
    [
      "avant",
      "age</w>"
    ],
    [
      "fav",
      "eur</w>"
    ],
    [
      "vou",
      "dr"
    ],
    [
      "ti",
      "tu"
    ],
    [
      "ni",
      "e</w>"
    ],
    [
      "ph",
      "ili"
    ],
    [
      "jeu",
      "ne</w>"
    ],
    [
      "l'",
      "a</w>"
    ],
    [
      "no",
      "l"
    ],
    [
      "cau",
      "se</w>"
    ],
    [
      "mal",
      "heur</w>"
    ],
    [
      "fran",
      "ç"
    ],
    [
      "r",
      "è"
    ],
    [
      "e",
      "-"
    ],
    [
      "pré",
      "ci"
    ],
    [
      "o",
      "se</w>"
    ],
    [
      "â",
      "ch"
    ],
    [
      "d",
      "é</w>"
    ],
    [
      "m",
      "er"
    ],
    [
      "v",
      "ais</w>"
    ],
    [
      "av",
      "i"
    ],
    [
      "an",
      "ti"
    ],
    [
      "maî",
      "tr"
    ],
    [
      "x",
      "x"
    ],
    [
      "é",
      "tr"
    ],
    [
      "di",
      "ffér"
    ],
    [
      "an",
      "i"
    ],
    [
      "î",
      "t</w>"
    ],
    [
      "f",
      "eu</w>"
    ],
    [
      "ac",
      "cor"
    ],
    [
      "s",
      "ac"
    ],
    [
      "en",
      "ir</w>"
    ],
    [
      "choi",
      "x</w>"
    ],
    [
      "s-",
      "je</w>"
    ],
    [
      "ser",
      "oit</w>"
    ],
    [
      "ouv",
      "er"
    ],
    [
      "voi",
      "ci</w>"
    ],
    [
      "cri",
      "me</w>"
    ],
    [
      "el",
      "on</w>"
    ],
    [
      "b",
      "as</w>"
    ],
    [
      "deman",
      "de</w>"
    ],
    [
      "im",
      "por"
    ],
    [
      "abor",
      "d</w>"
    ],
    [
      "st",
      "oire</w>"
    ],
    [
      "com",
      "p"
    ],
    [
      "secr",
      "et</w>"
    ],
    [
      "plu",
      "tôt</w>"
    ],
    [
      "p",
      "eur</w>"
    ],
    [
      "n",
      "our"
    ],
    [
      "si",
      "rs</w>"
    ],
    [
      "mal",
      "gré</w>"
    ],
    [
      "v",
      "ain</w>"
    ],
    [
      "e",
      "c"
    ],
    [
      "vi",
      "i</w>"
    ],
    [
      "pl",
      "ain"
    ],
    [
      "pa",
      "sse</w>"
    ],
    [
      "al",
      "ci"
    ],
    [
      "ro",
      "dri"
    ],
    [
      "si",
      "tôt</w>"
    ],
    [
      "ai",
      "mer</w>"
    ],
    [
      "au",
      "tr"
    ],
    [
      "oin",
      "dre</w>"
    ],
    [
      "fai",
      "s"
    ],
    [
      "h",
      "as"
    ],
    [
      "ti",
      "en</w>"
    ],
    [
      "clari",
      "ce</w>"
    ],
    [
      "sa",
      "ti"
    ],
    [
      "j",
      "oie</w>"
    ],
    [
      "n'",
      "ont</w>"
    ],
    [
      "u",
      "s"
    ],
    [
      "i",
      "gn"
    ],
    [
      "l",
      "ég"
    ],
    [
      "di",
      "e</w>"
    ],
    [
      "l'",
      "</w>"
    ],
    [
      "ti",
      "fi"
    ],
    [
      "m",
      "ène</w>"
    ],
    [
      "véri",
      "té</w>"
    ],
    [
      "pe",
      "in"
    ],
    [
      "a",
      "dieu</w>"
    ],
    [
      "ail",
      "leurs</w>"
    ],
    [
      "ro",
      "y"
    ],
    [
      "ha",
      "bi"
    ],
    [
      "s",
      "oins</w>"
    ],
    [
      "cu",
      "ri"
    ],
    [
      "di",
      "r"
    ],
    [
      "b",
      "our"
    ],
    [
      "pl",
      "e"
    ],
    [
      "d'",
      "en</w>"
    ],
    [
      "maîtr",
      "esse</w>"
    ],
    [
      "x",
      "i"
    ],
    [
      "re",
      "ce"
    ],
    [
      "p",
      "éri"
    ],
    [
      "g",
      "en"
    ],
    [
      "vi",
      "ol"
    ],
    [
      "nouv",
      "elle</w>"
    ],
    [
      "é",
      "v"
    ],
    [
      "vi",
      "sage</w>"
    ],
    [
      "bes",
      "oin</w>"
    ],
    [
      "s",
      "u</w>"
    ],
    [
      "cor",
      "ps</w>"
    ],
    [
      "m",
      "et</w>"
    ],
    [
      "c",
      "teur</w>"
    ],
    [
      "an",
      "ces</w>"
    ],
    [
      "t",
      "ar"
    ],
    [
      "-",
      "-</w>"
    ],
    [
      "com",
      "ment</w>"
    ],
    [
      "servi",
      "r</w>"
    ],
    [
      "no",
      "te</w>"
    ],
    [
      "chim",
      "ène</w>"
    ],
    [
      "af",
      "faire</w>"
    ],
    [
      "al",
      "ler</w>"
    ],
    [
      "am",
      "i"
    ],
    [
      "pl",
      "ac"
    ],
    [
      "ch",
      "am"
    ],
    [
      "con",
      "si"
    ],
    [
      "l'",
      "ex"
    ],
    [
      "rodri",
      "gue</w>"
    ],
    [
      "phili",
      "ste</w>"
    ],
    [
      "g",
      "ent</w>"
    ],
    [
      "l",
      "an"
    ],
    [
      "c",
      "le</w>"
    ],
    [
      "a",
      "ch"
    ],
    [
      "ail",
      "le</w>"
    ],
    [
      "ar",
      "nol"
    ],
    [
      "arnol",
      "phe</w>"
    ],
    [
      "re",
      "fu"
    ],
    [
      "n",
      "a</w>"
    ],
    [
      "enn",
      "ent</w>"
    ],
    [
      "f",
      "our"
    ],
    [
      "li",
      "eux</w>"
    ],
    [
      "derni",
      "er</w>"
    ],
    [
      "d'",
      "avoir</w>"
    ],
    [
      "li",
      "ber"
    ],
    [
      "d",
      "ois</w>"
    ],
    [
      "suc",
      "cès</w>"
    ],
    [
      "ag",
      "i"
    ],
    [
      "oi",
      "ss"
    ],
    [
      "m",
      "ée</w>"
    ],
    [
      "hor",
      "s</w>"
    ],
    [
      "app",
      "el"
    ],
    [
      "ren",
      "d</w>"
    ],
    [
      "am",
      "is</w>"
    ],
    [
      "s",
      "oin</w>"
    ],
    [
      "eu",
      "t</w>"
    ],
    [
      "ouvr",
      "age</w>"
    ],
    [
      "souff",
      "rir</w>"
    ],
    [
      "l",
      "ent</w>"
    ],
    [
      "si",
      "è"
    ],
    [
      "c",
      "as</w>"
    ],
    [
      "br",
      "as</w>"
    ],
    [
      "è",
      "te</w>"
    ],
    [
      "y",
      "r"
    ],
    [
      "as",
      "sur"
    ],
    [
      "r",
      "omp"
    ],
    [
      "tr",
      "é"
    ],
    [
      "mauv",
      "ais</w>"
    ],
    [
      "jus",
      "qu'à</w>"
    ],
    [
      "h",
      "on"
    ],
    [
      "natu",
      "re</w>"
    ],
    [
      "pl",
      "aire</w>"
    ],
    [
      "pa",
      "ge</w>"
    ],
    [
      "or",
      "g"
    ],
    [
      "r",
      "end"
    ],
    [
      "t",
      "te</w>"
    ],
    [
      "peu",
      "ple</w>"
    ],
    [
      "c",
      "am"
    ],
    [
      "all",
      "ons</w>"
    ],
    [
      "let",
      "tre</w>"
    ],
    [
      "e",
      "aux</w>"
    ],
    [
      "c",
      "te</w>"
    ],
    [
      "si",
      "té</w>"
    ],
    [
      "li",
      "e</w>"
    ],
    [
      "col",
      "ère</w>"
    ],
    [
      "di",
      "gne</w>"
    ],
    [
      "a",
      "ts</w>"
    ],
    [
      "tr",
      "ait</w>"
    ],
    [
      "é",
      "ch"
    ],
    [
      "ai",
      "gn"
    ],
    [
      "cou",
      "ps</w>"
    ],
    [
      "po",
      "ss"
    ],
    [
      "pl",
      "aît</w>"
    ],
    [
      "méli",
      "te</w>"
    ],
    [
      "qu'",
      "au</w>"
    ],
    [
      "f",
      "oi"
    ],
    [
      "is",
      "ab"
    ],
    [
      "pour",
      "quoi</w>"
    ],
    [
      "a",
      "de</w>"
    ],
    [
      "mou",
      "rir</w>"
    ],
    [
      "l'",
      "im"
    ],
    [
      "oc",
      "ca"
    ],
    [
      "ê",
      "me</w>"
    ],
    [
      "re",
      "ine</w>"
    ],
    [
      "voul",
      "oir</w>"
    ],
    [
      "f",
      "eux</w>"
    ],
    [
      "av",
      "er"
    ],
    [
      "bl",
      "esse</w>"
    ],
    [
      "ten",
      "ant</w>"
    ],
    [
      "er",
      "reur</w>"
    ],
    [
      "a",
      "fin</w>"
    ],
    [
      "pa",
      "ble</w>"
    ],
    [
      "fai",
      "ts</w>"
    ],
    [
      "g",
      "le</w>"
    ],
    [
      "qu",
      "is</w>"
    ],
    [
      "per",
      "dre</w>"
    ],
    [
      "contr",
      "aire</w>"
    ],
    [
      "isab",
      "elle</w>"
    ],
    [
      "n",
      "uit</w>"
    ],
    [
      "nouv",
      "eau</w>"
    ],
    [
      "sou",
      "p"
    ],
    [
      "ré",
      "e</w>"
    ],
    [
      "auc",
      "une</w>"
    ],
    [
      "l",
      "é"
    ],
    [
      "ég",
      "li"
    ],
    [
      "t",
      "es-"
    ],
    [
      "qu",
      "er"
    ],
    [
      "h",
      "aine</w>"
    ],
    [
      "pr",
      "omp"
    ],
    [
      "ap",
      "par"
    ],
    [
      "fem",
      "mes</w>"
    ],
    [
      "ly",
      "se</w>"
    ],
    [
      "ét",
      "ant</w>"
    ],
    [
      "dou",
      "c"
    ],
    [
      "il",
      "lu"
    ],
    [
      "suiv",
      "re</w>"
    ],
    [
      "sain",
      "t</w>"
    ],
    [
      "g",
      "ui"
    ],
    [
      "peti",
      "t</w>"
    ],
    [
      "pl",
      "ais"
    ],
    [
      "p",
      "omp"
    ],
    [
      "l'h",
      "onneur</w>"
    ],
    [
      "ac",
      "com"
    ],
    [
      "an",
      "tes</w>"
    ],
    [
      "gu",
      "eur</w>"
    ],
    [
      "pass",
      "er</w>"
    ],
    [
      "h",
      "onneur</w>"
    ],
    [
      "emp",
      "ê"
    ],
    [
      "li",
      "vres</w>"
    ],
    [
      "enf",
      "ants</w>"
    ],
    [
      "pr",
      "ends</w>"
    ],
    [
      "di",
      "t-il</w>"
    ],
    [
      "espri",
      "ts</w>"
    ],
    [
      "exemp",
      "le</w>"
    ],
    [
      "g",
      "é"
    ],
    [
      "senti",
      "ments</w>"
    ],
    [
      "pi",
      "e"
    ],
    [
      "mani",
      "ère</w>"
    ],
    [
      "ez-",
      "moi</w>"
    ],
    [
      "ô",
      "tre</w>"
    ],
    [
      "sou",
      "h"
    ],
    [
      "ven",
      "u</w>"
    ],
    [
      "eu",
      "ses</w>"
    ],
    [
      "gér",
      "onte</w>"
    ],
    [
      "be",
      "aux</w>"
    ],
    [
      "fon",
      "d</w>"
    ],
    [
      "tou",
      "te"
    ],
    [
      "m",
      "ère</w>"
    ],
    [
      "â",
      "che</w>"
    ],
    [
      "st",
      "o"
    ],
    [
      "tan",
      "tôt</w>"
    ],
    [
      "si",
      "m"
    ],
    [
      "im",
      "pri"
    ],
    [
      "né",
      "cess"
    ],
    [
      "vi",
      "v"
    ],
    [
      "j",
      "ets</w>"
    ],
    [
      "au",
      "t"
    ],
    [
      "hi",
      "p"
    ],
    [
      "trag",
      "édi"
    ],
    [
      "vo",
      "l"
    ],
    [
      "ac",
      "le</w>"
    ],
    [
      "ai",
      "-je</w>"
    ],
    [
      "i",
      "mi"
    ],
    [
      "p",
      "ée</w>"
    ],
    [
      "vi",
      "ii</w>"
    ],
    [
      "tir",
      "er</w>"
    ],
    [
      "p",
      "endant</w>"
    ],
    [
      "ar",
      "t</w>"
    ],
    [
      "bien",
      "tôt</w>"
    ],
    [
      "ami",
      "tié</w>"
    ],
    [
      "paro",
      "le</w>"
    ],
    [
      "ex",
      "i"
    ],
    [
      "ch",
      "es</w>"
    ],
    [
      "toute",
      "fois</w>"
    ],
    [
      "ar",
      "que</w>"
    ],
    [
      "re",
      "conn"
    ],
    [
      "u",
      "t</w>"
    ],
    [
      "g",
      "ni"
    ],
    [
      "li",
      "er</w>"
    ],
    [
      "m",
      "ag"
    ],
    [
      "beau",
      "té</w>"
    ],
    [
      "r",
      "é</w>"
    ],
    [
      "él",
      "as</w>"
    ],
    [
      "j",
      "et"
    ],
    [
      "parti",
      "e</w>"
    ],
    [
      "au",
      "gu"
    ],
    [
      "po",
      "ser</w>"
    ],
    [
      "par",
      "mi</w>"
    ],
    [
      "es",
      "ses</w>"
    ],
    [
      "n",
      "aiss"
    ],
    [
      "ff",
      "e</w>"
    ],
    [
      "ch",
      "ant</w>"
    ],
    [
      "f",
      "ui"
    ],
    [
      "ch",
      "an"
    ],
    [
      "a",
      "jou"
    ],
    [
      "d",
      "aph"
    ],
    [
      "poë",
      "te</w>"
    ],
    [
      "s",
      "û"
    ],
    [
      "tom",
      "b"
    ],
    [
      "bou",
      "che</w>"
    ],
    [
      "r",
      "ois</w>"
    ],
    [
      "con",
      "dui"
    ],
    [
      "long",
      "temps</w>"
    ],
    [
      "qu",
      "é</w>"
    ],
    [
      "ch",
      "ré"
    ],
    [
      "vi",
      "t</w>"
    ],
    [
      "l",
      "le</w>"
    ],
    [
      "ent",
      "endre</w>"
    ],
    [
      "off",
      "en"
    ],
    [
      "h",
      "élas</w>"
    ],
    [
      "è",
      "ve</w>"
    ],
    [
      "en",
      "vie</w>"
    ],
    [
      "cr",
      "oit</w>"
    ],
    [
      "fl",
      "at"
    ],
    [
      "moy",
      "en</w>"
    ],
    [
      "lors",
      "que</w>"
    ],
    [
      "av",
      "is</w>"
    ],
    [
      "nour",
      "ri"
    ],
    [
      "as",
      "si"
    ],
    [
      "vi",
      "vre</w>"
    ],
    [
      "pres",
      "que</w>"
    ],
    [
      "pi",
      "è"
    ],
    [
      "pa",
      "l"
    ],
    [
      "pas",
      "sion</w>"
    ],
    [
      "dé",
      "cou"
    ],
    [
      "man",
      "que</w>"
    ],
    [
      "app",
      "elle</w>"
    ],
    [
      "s",
      "é</w>"
    ],
    [
      "ét",
      "u"
    ],
    [
      "p",
      "ér"
    ],
    [
      "sor",
      "tir</w>"
    ],
    [
      "vo",
      "lon"
    ],
    [
      "ori",
      "s</w>"
    ],
    [
      "j'",
      "aur"
    ],
    [
      "as",
      "su"
    ],
    [
      "com",
      "man"
    ],
    [
      "cé",
      "s"
    ],
    [
      "cin",
      "na</w>"
    ],
    [
      "tel",
      "s</w>"
    ],
    [
      "in",
      "s</w>"
    ],
    [
      "souh",
      "ai"
    ],
    [
      "fl",
      "or"
    ],
    [
      "con",
      "serv"
    ],
    [
      "voi",
      "x</w>"
    ],
    [
      "res",
      "pec"
    ],
    [
      "bou",
      "t</w>"
    ],
    [
      "s'",
      "y</w>"
    ],
    [
      "er",
      "a</w>"
    ],
    [
      "aff",
      "r"
    ],
    [
      "h",
      "onte</w>"
    ],
    [
      "hip",
      "poly"
    ],
    [
      "hippoly",
      "te</w>"
    ],
    [
      "h",
      "onn"
    ],
    [
      "ss",
      "ent</w>"
    ],
    [
      "cher",
      "cher</w>"
    ],
    [
      "quelqu",
      "efois</w>"
    ],
    [
      "s",
      "av"
    ],
    [
      "ex",
      "pli"
    ],
    [
      "mé",
      "de"
    ],
    [
      "conno",
      "ître</w>"
    ],
    [
      "do",
      "re</w>"
    ],
    [
      "con",
      "st"
    ],
    [
      "s",
      "pe"
    ],
    [
      "pré",
      "sent</w>"
    ],
    [
      "b",
      "ar"
    ],
    [
      "pu",
      "ni"
    ],
    [
      "an",
      "ci"
    ],
    [
      "c",
      "at"
    ],
    [
      "cés",
      "ar</w>"
    ],
    [
      "mé",
      "dée</w>"
    ],
    [
      "sati",
      "s"
    ],
    [
      "tran",
      "s"
    ],
    [
      "ci",
      "té</w>"
    ],
    [
      "vou",
      "lu</w>"
    ],
    [
      "cô",
      "té</w>"
    ],
    [
      "pa",
      "tre</w>"
    ],
    [
      "vi",
      "ct"
    ],
    [
      "es",
      "t-il</w>"
    ],
    [
      "piè",
      "ces</w>"
    ],
    [
      "f",
      "ein"
    ],
    [
      "es",
      "pag"
    ],
    [
      "pri",
      "x</w>"
    ],
    [
      "d'",
      "abord</w>"
    ],
    [
      "à",
      "-"
    ],
    [
      "f",
      "asse</w>"
    ],
    [
      "br",
      "uit</w>"
    ],
    [
      "ci",
      "s</w>"
    ],
    [
      "dem",
      "eur"
    ],
    [
      "ai",
      "res</w>"
    ],
    [
      "alc",
      "este</w>"
    ],
    [
      "clé",
      "o"
    ],
    [
      "é",
      "ment</w>"
    ],
    [
      "aur",
      "a</w>"
    ],
    [
      "m",
      "oindre</w>"
    ],
    [
      "car",
      "act"
    ],
    [
      "all",
      "ez</w>"
    ],
    [
      "ro",
      "me</w>"
    ],
    [
      "-",
      "ci</w>"
    ],
    [
      "su",
      "ffi"
    ],
    [
      "s",
      "auv"
    ],
    [
      "cléo",
      "patre</w>"
    ],
    [
      "arr",
      "ê"
    ],
    [
      "hum",
      "eur</w>"
    ],
    [
      "gar",
      "de</w>"
    ],
    [
      "m",
      "ant</w>"
    ],
    [
      "puiss",
      "ance</w>"
    ],
    [
      "è",
      "s-"
    ],
    [
      "il",
      "les</w>"
    ],
    [
      "j",
      "a"
    ],
    [
      "s",
      "elon</w>"
    ],
    [
      "di",
      "ver"
    ],
    [
      "n",
      "is</w>"
    ],
    [
      "el",
      "vi"
    ],
    [
      "elvi",
      "re</w>"
    ],
    [
      "lu",
      "t</w>"
    ],
    [
      "r",
      "ess"
    ],
    [
      "j'",
      "y</w>"
    ],
    [
      "au",
      "près</w>"
    ],
    [
      "admi",
      "r"
    ],
    [
      "â",
      "ge</w>"
    ],
    [
      "dou",
      "leur</w>"
    ],
    [
      "paro",
      "les</w>"
    ],
    [
      "ar",
      "ri"
    ],
    [
      "in",
      "no"
    ],
    [
      "liber",
      "té</w>"
    ],
    [
      "f",
      "ût</w>"
    ],
    [
      "prin",
      "ci"
    ],
    [
      "pr",
      "ouv"
    ],
    [
      "por",
      "t</w>"
    ],
    [
      "ci",
      "eux</w>"
    ],
    [
      "h",
      "ér"
    ],
    [
      "ven",
      "ge"
    ],
    [
      "af",
      "fai"
    ],
    [
      "si",
      "x</w>"
    ],
    [
      "or",
      "din"
    ],
    [
      "endr",
      "oit</w>"
    ],
    [
      "voul",
      "ez</w>"
    ],
    [
      "personn",
      "es</w>"
    ],
    [
      "s",
      "tre</w>"
    ],
    [
      "t'",
      "en</w>"
    ],
    [
      "pro",
      "pos</w>"
    ],
    [
      "ag",
      "ré"
    ],
    [
      "l'",
      "em"
    ],
    [
      "re",
      "pro"
    ],
    [
      "sou",
      "pi"
    ],
    [
      "tu",
      "s</w>"
    ],
    [
      "ap",
      "pro"
    ],
    [
      "tr",
      "ès-"
    ],
    [
      "av",
      "e</w>"
    ],
    [
      "fau",
      "te</w>"
    ],
    [
      "con",
      "tin"
    ],
    [
      "ex",
      "te</w>"
    ],
    [
      "com",
      "bien</w>"
    ],
    [
      "p",
      "ai"
    ],
    [
      "av",
      "ou"
    ],
    [
      "cha",
      "que</w>"
    ],
    [
      "li",
      "vre</w>"
    ],
    [
      "ou",
      "bli"
    ],
    [
      "pres",
      "sion</w>"
    ],
    [
      "av",
      "ois</w>"
    ],
    [
      "a",
      "te</w>"
    ],
    [
      "tr",
      "u"
    ],
    [
      "h",
      "ar"
    ],
    [
      "s",
      "ci"
    ],
    [
      "voi",
      "e</w>"
    ],
    [
      "fu",
      "n"
    ],
    [
      "main",
      "tenant</w>"
    ],
    [
      "pi",
      "tié</w>"
    ],
    [
      "l",
      "ois</w>"
    ],
    [
      "plai",
      "sirs</w>"
    ],
    [
      "ori",
      "g"
    ],
    [
      "a-",
      "t-il</w>"
    ],
    [
      "sup",
      "pli"
    ],
    [
      "ar",
      "deur</w>"
    ],
    [
      "oi",
      "si"
    ],
    [
      "m",
      "ouv"
    ],
    [
      "con",
      "fi"
    ],
    [
      "ar",
      "riv"
    ],
    [
      "pau",
      "vre</w>"
    ],
    [
      "qu",
      "oi"
    ],
    [
      "amou",
      "r"
    ],
    [
      "c",
      "es"
    ],
    [
      "ré",
      "ci"
    ],
    [
      "commen",
      "c"
    ],
    [
      "mar",
      "i</w>"
    ],
    [
      "do",
      "g"
    ],
    [
      "mon",
      "tre</w>"
    ],
    [
      "pr",
      "ess"
    ],
    [
      "poly",
      "eu"
    ],
    [
      "polyeu",
      "cte</w>"
    ],
    [
      "de",
      "dans</w>"
    ],
    [
      "r",
      "av"
    ],
    [
      "v",
      "au"
    ],
    [
      "pré",
      "f"
    ],
    [
      "oi",
      "ts</w>"
    ],
    [
      "dé",
      "sor"
    ],
    [
      "cel",
      "les</w>"
    ],
    [
      "-",
      "tu</w>"
    ],
    [
      "tragédi",
      "e</w>"
    ],
    [
      "l'",
      "homme</w>"
    ],
    [
      "ri",
      "ez</w>"
    ],
    [
      "ex",
      "cu"
    ],
    [
      "mari",
      "age</w>"
    ],
    [
      "è",
      "rement</w>"
    ],
    [
      "c",
      "ap"
    ],
    [
      "m",
      "our"
    ],
    [
      "laiss",
      "er</w>"
    ],
    [
      "dé",
      "p"
    ],
    [
      "pen",
      "ser</w>"
    ],
    [
      "in",
      "te</w>"
    ],
    [
      "parti",
      "cu"
    ],
    [
      "m",
      "ili"
    ],
    [
      "b",
      "elles</w>"
    ],
    [
      "d",
      "om"
    ],
    [
      "a",
      "tions</w>"
    ],
    [
      "r",
      "a</w>"
    ],
    [
      "pa",
      "gne</w>"
    ],
    [
      "senti",
      "ment</w>"
    ],
    [
      "spe",
      "ct"
    ],
    [
      "m",
      "at"
    ],
    [
      "quel",
      "s</w>"
    ],
    [
      "ro",
      "dog"
    ],
    [
      "an",
      "im"
    ],
    [
      "t-",
      "on</w>"
    ],
    [
      "é",
      "vi"
    ],
    [
      "m",
      "eil"
    ],
    [
      "gu",
      "erre</w>"
    ],
    [
      "eil",
      "les</w>"
    ],
    [
      "a",
      "chev"
    ],
    [
      "f",
      "o"
    ],
    [
      "ac",
      "tions</w>"
    ],
    [
      "cr",
      "u</w>"
    ],
    [
      "ti",
      "tre</w>"
    ],
    [
      "u",
      "x</w>"
    ],
    [
      "su",
      "b"
    ],
    [
      "fid",
      "èle</w>"
    ],
    [
      "crain",
      "dre</w>"
    ],
    [
      "occa",
      "sion</w>"
    ],
    [
      "r",
      "et"
    ],
    [
      "rodog",
      "une</w>"
    ],
    [
      "d",
      "avantage</w>"
    ],
    [
      "présen",
      "ce</w>"
    ],
    [
      "tém",
      "oign"
    ],
    [
      "é",
      "dit</w>"
    ],
    [
      "extr",
      "ême</w>"
    ],
    [
      "quel",
      "qu'un</w>"
    ],
    [
      "ob",
      "é"
    ],
    [
      "fr",
      "ance</w>"
    ],
    [
      "mé",
      "pris</w>"
    ],
    [
      "mal",
      "heureux</w>"
    ],
    [
      "l'",
      "ac"
    ],
    [
      "aur",
      "oit</w>"
    ],
    [
      "s",
      "oient</w>"
    ],
    [
      "c",
      "ab"
    ],
    [
      "mer",
      "v"
    ],
    [
      "li",
      "r</w>"
    ],
    [
      "eu",
      "s"
    ],
    [
      "po",
      "é"
    ],
    [
      "im",
      "ag"
    ],
    [
      "publi",
      "c</w>"
    ],
    [
      "re",
      "gr"
    ],
    [
      "peu",
      "vent</w>"
    ],
    [
      "cli",
      "n"
    ],
    [
      "pomp",
      "ée</w>"
    ],
    [
      "org",
      "on</w>"
    ],
    [
      "ti",
      "er</w>"
    ],
    [
      "cour",
      "rou"
    ],
    [
      "on",
      "i"
    ],
    [
      "vain",
      "c"
    ],
    [
      "per",
      "te</w>"
    ],
    [
      "si",
      "re</w>"
    ],
    [
      "l",
      "ang"
    ],
    [
      "cert",
      "ain</w>"
    ],
    [
      "sé",
      "v"
    ],
    [
      "er",
      "n"
    ],
    [
      "g",
      "or"
    ],
    [
      "s",
      "oi"
    ],
    [
      "cour",
      "t</w>"
    ],
    [
      "pens",
      "ée</w>"
    ],
    [
      "montr",
      "er</w>"
    ],
    [
      "b",
      "at"
    ],
    [
      "u",
      "sage</w>"
    ],
    [
      "l'",
      "ai</w>"
    ],
    [
      "s",
      "an"
    ],
    [
      "déf",
      "en"
    ],
    [
      "pos",
      "sible</w>"
    ],
    [
      "mes",
      "sieurs</w>"
    ],
    [
      "jalou",
      "x</w>"
    ],
    [
      "rece",
      "voir</w>"
    ],
    [
      "ly",
      "s"
    ],
    [
      "nécess",
      "aire</w>"
    ],
    [
      "ç",
      "ons</w>"
    ],
    [
      "u",
      "se</w>"
    ],
    [
      "un",
      "s</w>"
    ],
    [
      "po",
      "li"
    ],
    [
      "espag",
      "no"
    ],
    [
      "cli",
      "t"
    ],
    [
      "clit",
      "andre</w>"
    ],
    [
      "eff",
      "ort</w>"
    ],
    [
      "l'",
      "âme</w>"
    ],
    [
      "f",
      "ou"
    ],
    [
      "l'",
      "une</w>"
    ],
    [
      "comb",
      "at</w>"
    ],
    [
      "for",
      "me</w>"
    ],
    [
      "gu",
      "eil</w>"
    ],
    [
      "z",
      "e</w>"
    ],
    [
      "ili",
      "té</w>"
    ],
    [
      "ti",
      "le</w>"
    ],
    [
      "cher",
      "che</w>"
    ],
    [
      "par",
      "tout</w>"
    ],
    [
      "sui",
      "t</w>"
    ],
    [
      "affai",
      "res</w>"
    ],
    [
      "ju",
      "re</w>"
    ],
    [
      "ma",
      "xi"
    ],
    [
      "né",
      "es</w>"
    ],
    [
      "pr",
      "u"
    ],
    [
      "pi",
      "erre</w>"
    ],
    [
      "tr",
      "oisi"
    ],
    [
      "rais",
      "onn"
    ],
    [
      "siè",
      "cle</w>"
    ],
    [
      "pal",
      "ais</w>"
    ],
    [
      "ci",
      "e</w>"
    ],
    [
      "som",
      "mes</w>"
    ],
    [
      "s",
      "al"
    ],
    [
      "se",
      "cours</w>"
    ],
    [
      "ain",
      "es</w>"
    ],
    [
      "ri",
      "ch"
    ],
    [
      "qu",
      "ali"
    ],
    [
      "a",
      "ti"
    ],
    [
      "rel",
      "i"
    ],
    [
      "in",
      "i"
    ],
    [
      "moi",
      "-même</w>"
    ],
    [
      "adr",
      "esse</w>"
    ],
    [
      "u",
      "rs</w>"
    ],
    [
      "venge",
      "ance</w>"
    ],
    [
      "troisi",
      "ème</w>"
    ],
    [
      "m'",
      "est</w>"
    ],
    [
      "ê",
      "ts</w>"
    ],
    [
      "ennem",
      "is</w>"
    ],
    [
      "t",
      "es"
    ],
    [
      "ven",
      "ger</w>"
    ],
    [
      "r",
      "ez</w>"
    ],
    [
      "d",
      "ez</w>"
    ],
    [
      "d",
      "ence</w>"
    ],
    [
      "cr",
      "oi"
    ],
    [
      "riv",
      "al</w>"
    ],
    [
      "re",
      "c"
    ],
    [
      "daph",
      "nis</w>"
    ],
    [
      "ser",
      "t</w>"
    ],
    [
      "courrou",
      "x</w>"
    ],
    [
      "ang",
      "éli"
    ],
    [
      "l'",
      "uni"
    ],
    [
      "fi",
      "gu"
    ],
    [
      "b",
      "an"
    ],
    [
      "in",
      "ter"
    ],
    [
      "f",
      "éli"
    ],
    [
      "aus",
      "sitôt</w>"
    ],
    [
      "l'h",
      "i"
    ],
    [
      "j",
      "eu</w>"
    ],
    [
      "bi",
      "ens</w>"
    ],
    [
      "or",
      "ts</w>"
    ],
    [
      "tri",
      "ste</w>"
    ],
    [
      "premi",
      "ers</w>"
    ],
    [
      "il",
      "es</w>"
    ],
    [
      "re",
      "dou"
    ],
    [
      "crain",
      "te</w>"
    ],
    [
      "nourri",
      "ce</w>"
    ],
    [
      "b",
      "us</w>"
    ],
    [
      "dem",
      "ois"
    ],
    [
      "angéli",
      "que</w>"
    ],
    [
      "mili",
      "eu</w>"
    ],
    [
      "li",
      "s"
    ],
    [
      "écri",
      "t</w>"
    ],
    [
      "tir",
      "cis</w>"
    ],
    [
      "cou",
      "rir</w>"
    ],
    [
      "vi",
      "ennent</w>"
    ],
    [
      "d'",
      "amour</w>"
    ],
    [
      "ti",
      "re</w>"
    ],
    [
      "ét",
      "aient</w>"
    ],
    [
      "ouvr",
      "ages</w>"
    ],
    [
      "trouv",
      "é</w>"
    ],
    [
      "r",
      "ang</w>"
    ],
    [
      "ri",
      "s"
    ],
    [
      "vin",
      "g"
    ],
    [
      "servi",
      "ce</w>"
    ],
    [
      "v",
      "ani"
    ],
    [
      "d",
      "ement</w>"
    ],
    [
      "som",
      "me</w>"
    ],
    [
      "natu",
      "r"
    ],
    [
      "g",
      "es</w>"
    ],
    [
      "so",
      "lu"
    ],
    [
      "ma",
      "ti"
    ],
    [
      "l'hi",
      "stoire</w>"
    ],
    [
      "mo",
      "de</w>"
    ],
    [
      "paro",
      "ître</w>"
    ],
    [
      "ari",
      "sto"
    ],
    [
      "aristo",
      "te</w>"
    ],
    [
      "j",
      "o"
    ],
    [
      "méde",
      "ci"
    ],
    [
      "c",
      "ence</w>"
    ],
    [
      "fl",
      "ori"
    ],
    [
      "ign",
      "or"
    ],
    [
      "éri",
      "r</w>"
    ],
    [
      "lu",
      "mi"
    ],
    [
      "sou",
      "r"
    ],
    [
      "secon",
      "d</w>"
    ],
    [
      "nom",
      "bre</w>"
    ],
    [
      "mar",
      "quis</w>"
    ],
    [
      "ss",
      "ement</w>"
    ],
    [
      "fr",
      "oi"
    ],
    [
      "esti",
      "me</w>"
    ],
    [
      "jus",
      "ques</w>"
    ],
    [
      "par",
      "er</w>"
    ],
    [
      "m",
      "aux</w>"
    ],
    [
      "plu",
      "sieurs</w>"
    ],
    [
      "con",
      "di"
    ],
    [
      "si",
      "gn"
    ],
    [
      "flor",
      "ame</w>"
    ],
    [
      "t",
      "ons</w>"
    ],
    [
      "pou",
      "ss"
    ],
    [
      "rem",
      "ar"
    ],
    [
      "ti",
      "enne</w>"
    ],
    [
      "ab",
      "an"
    ],
    [
      "di",
      "ffi"
    ],
    [
      "don",
      "e</w>"
    ],
    [
      "su",
      "per"
    ],
    [
      "son",
      "ge</w>"
    ],
    [
      "naiss",
      "ance</w>"
    ],
    [
      "ti",
      "ne</w>"
    ],
    [
      "sc",
      "u"
    ],
    [
      "fa",
      "çon</w>"
    ],
    [
      "dem",
      "eure</w>"
    ],
    [
      "qu'",
      "elles</w>"
    ],
    [
      "tar",
      "tu"
    ],
    [
      "pau",
      "li"
    ],
    [
      "el",
      "le"
    ],
    [
      "ri",
      "di"
    ],
    [
      "l",
      "oi</w>"
    ],
    [
      "di",
      "x</w>"
    ],
    [
      "ri",
      "re</w>"
    ],
    [
      "grâ",
      "ces</w>"
    ],
    [
      "en",
      "ten"
    ],
    [
      "go",
      "ût</w>"
    ],
    [
      "vi",
      "eux</w>"
    ],
    [
      "vr",
      "ai"
    ],
    [
      "fam",
      "ille</w>"
    ],
    [
      "d'",
      "esprit</w>"
    ],
    [
      "trai",
      "te</w>"
    ],
    [
      "ber",
      "t</w>"
    ],
    [
      "pri",
      "e</w>"
    ],
    [
      "c",
      "élie</w>"
    ],
    [
      "cel",
      "ui"
    ],
    [
      "vi",
      "eill"
    ],
    [
      "ridi",
      "cu"
    ],
    [
      "voy",
      "ant</w>"
    ],
    [
      "gr",
      "o"
    ],
    [
      "q",
      "</w>"
    ],
    [
      "quit",
      "te</w>"
    ],
    [
      "sé",
      "es</w>"
    ],
    [
      "pren",
      "ez</w>"
    ],
    [
      "em",
      "por"
    ],
    [
      "m",
      "oire</w>"
    ],
    [
      "li",
      "s</w>"
    ],
    [
      "est-",
      "à-"
    ],
    [
      "est-à-",
      "dire</w>"
    ],
    [
      "ap",
      "pas</w>"
    ],
    [
      "épou",
      "x</w>"
    ],
    [
      "respec",
      "t</w>"
    ],
    [
      "tartu",
      "ffe</w>"
    ],
    [
      "so",
      "eur</w>"
    ],
    [
      "au",
      "teur</w>"
    ],
    [
      "ang",
      "er</w>"
    ],
    [
      "in",
      "ven"
    ],
    [
      "or",
      "dre</w>"
    ],
    [
      "u",
      "m</w>"
    ],
    [
      "pauli",
      "ne</w>"
    ],
    [
      "em",
      "b"
    ],
    [
      "pass",
      "é</w>"
    ],
    [
      "s-",
      "tu</w>"
    ],
    [
      "f",
      "s</w>"
    ],
    [
      "vict",
      "oire</w>"
    ],
    [
      "intér",
      "êt</w>"
    ],
    [
      "pa",
      "ti"
    ],
    [
      "clé",
      "andre</w>"
    ],
    [
      "c",
      "en"
    ],
    [
      "éch",
      "app"
    ],
    [
      "ail",
      "l"
    ],
    [
      "p",
      "pe</w>"
    ],
    [
      "ym",
      "en</w>"
    ],
    [
      "dé",
      "d"
    ],
    [
      "demois",
      "elle</w>"
    ],
    [
      "mé",
      "moire</w>"
    ],
    [
      "eu",
      "x-"
    ],
    [
      "tri",
      "bu"
    ],
    [
      "d'",
      "où</w>"
    ],
    [
      "él",
      "oign"
    ],
    [
      "h",
      "eure</w>"
    ],
    [
      "p",
      "oi"
    ],
    [
      "di",
      "n</w>"
    ],
    [
      "f",
      "aux</w>"
    ],
    [
      "chap",
      "i"
    ],
    [
      "con",
      "dam"
    ],
    [
      "t",
      "oit</w>"
    ],
    [
      "ti",
      "ers</w>"
    ],
    [
      "si",
      "s</w>"
    ],
    [
      "é",
      "lev"
    ],
    [
      "des",
      "tin"
    ],
    [
      "lou",
      "is</w>"
    ],
    [
      "h",
      "o"
    ],
    [
      "vau",
      "t</w>"
    ],
    [
      "di",
      "tes</w>"
    ],
    [
      "no",
      "tes</w>"
    ],
    [
      "per",
      "du</w>"
    ],
    [
      "sen",
      "tir</w>"
    ],
    [
      "tra",
      "ître</w>"
    ],
    [
      "al",
      "ement</w>"
    ],
    [
      "oc",
      "cu"
    ],
    [
      "f",
      "e"
    ],
    [
      "ex",
      "am"
    ],
    [
      "men",
      "teur</w>"
    ],
    [
      "or",
      "gueil</w>"
    ],
    [
      "ch",
      "r"
    ],
    [
      "ori",
      "té</w>"
    ],
    [
      "long",
      "</w>"
    ],
    [
      "di",
      "te</w>"
    ],
    [
      "f",
      "âch"
    ],
    [
      "augu",
      "ste</w>"
    ],
    [
      "pass",
      "age</w>"
    ],
    [
      "lu",
      "cr"
    ],
    [
      "lucr",
      "èce</w>"
    ],
    [
      "o",
      "re</w>"
    ],
    [
      "ca",
      "pable</w>"
    ],
    [
      "sur",
      "tout</w>"
    ],
    [
      "b",
      "é"
    ],
    [
      "in",
      "er</w>"
    ],
    [
      "let",
      "tres</w>"
    ],
    [
      "ar",
      "ante</w>"
    ],
    [
      "rou",
      "en</w>"
    ],
    [
      "orig",
      "in"
    ],
    [
      "f",
      "all"
    ],
    [
      "g",
      "ence</w>"
    ],
    [
      "endr",
      "a</w>"
    ],
    [
      "av",
      "eu"
    ],
    [
      "ri",
      "t</w>"
    ],
    [
      "act",
      "eurs</w>"
    ],
    [
      "pu",
      "l"
    ],
    [
      "att",
      "endre</w>"
    ],
    [
      "reli",
      "gi"
    ],
    [
      "vo",
      "eux</w>"
    ],
    [
      "u",
      "t"
    ],
    [
      "s",
      "oi</w>"
    ],
    [
      "pay",
      "s</w>"
    ],
    [
      "t",
      "yr"
    ],
    [
      "d",
      "an</w>"
    ],
    [
      "ag",
      "ne</w>"
    ],
    [
      "arri",
      "ve</w>"
    ],
    [
      "ren",
      "contre</w>"
    ],
    [
      "con",
      "fu"
    ],
    [
      "a",
      "tique</w>"
    ],
    [
      "vi",
      "si"
    ],
    [
      "c",
      "ède</w>"
    ],
    [
      "c",
      "é</w>"
    ],
    [
      "eu",
      "res</w>"
    ],
    [
      "vr",
      "ais"
    ],
    [
      "vrais",
      "embl"
    ],
    [
      "peti",
      "ts</w>"
    ],
    [
      "l'au",
      "teur</w>"
    ],
    [
      "tri",
      "om"
    ],
    [
      "jug",
      "ement</w>"
    ],
    [
      "an",
      "née</w>"
    ],
    [
      "po",
      "si"
    ],
    [
      "qu'",
      "avec</w>"
    ],
    [
      "re",
      "cu"
    ],
    [
      "at",
      "eur</w>"
    ],
    [
      "ô",
      "</w>"
    ],
    [
      "ag",
      "n"
    ],
    [
      "o",
      "ffi"
    ],
    [
      "eus",
      "ement</w>"
    ],
    [
      "secon",
      "de</w>"
    ],
    [
      "ap",
      "prendre</w>"
    ],
    [
      "él",
      "o"
    ],
    [
      "r",
      "emp"
    ],
    [
      "ma",
      "demoiselle</w>"
    ],
    [
      "ple",
      "in</w>"
    ],
    [
      "elle",
      "-même</w>"
    ],
    [
      "t",
      "ort</w>"
    ],
    [
      "re",
      "tour</w>"
    ],
    [
      "fr",
      "app"
    ],
    [
      "b",
      "or"
    ],
    [
      "étr",
      "ange</w>"
    ],
    [
      "u",
      "tile</w>"
    ],
    [
      "ét",
      "ern"
    ],
    [
      "comp",
      "te</w>"
    ],
    [
      "lys",
      "andre</w>"
    ],
    [
      "ais",
      "ément</w>"
    ],
    [
      "t-",
      "elle</w>"
    ],
    [
      "titu",
      "de</w>"
    ],
    [
      "quoi",
      "que</w>"
    ],
    [
      "des",
      "tin</w>"
    ],
    [
      "par",
      "ti</w>"
    ],
    [
      "contr",
      "ain"
    ],
    [
      "â",
      "t</w>"
    ],
    [
      "s",
      "avez</w>"
    ],
    [
      "d'",
      "eux</w>"
    ],
    [
      "deman",
      "der</w>"
    ],
    [
      "pouv",
      "ez</w>"
    ],
    [
      "com",
      "te</w>"
    ],
    [
      "trou",
      "pe</w>"
    ],
    [
      "an",
      "e</w>"
    ],
    [
      "on",
      "s-"
    ],
    [
      "ri",
      "fi"
    ],
    [
      "l'",
      "état</w>"
    ],
    [
      "suiv",
      "ant</w>"
    ],
    [
      "dé",
      "cl"
    ],
    [
      "ri",
      "es</w>"
    ],
    [
      "mal",
      "h"
    ],
    [
      "bon",
      "té</w>"
    ],
    [
      "se",
      "p"
    ],
    [
      "mar",
      "ge</w>"
    ],
    [
      "gu",
      "ère</w>"
    ],
    [
      "amour",
      "eux</w>"
    ],
    [
      "entre",
      "tien</w>"
    ],
    [
      "j'",
      "avois</w>"
    ],
    [
      "l",
      "armes</w>"
    ],
    [
      "fer",
      "a</w>"
    ],
    [
      "cin",
      "q</w>"
    ],
    [
      "r",
      "ô"
    ],
    [
      "gor",
      "gi"
    ],
    [
      "gorgi",
      "bus</w>"
    ],
    [
      "mor",
      "on</w>"
    ],
    [
      "ac",
      "cu"
    ],
    [
      "p",
      "è"
    ],
    [
      "has",
      "ar"
    ],
    [
      "l'h",
      "eure</w>"
    ],
    [
      "conn",
      "u</w>"
    ],
    [
      "di",
      "vi"
    ],
    [
      "n",
      "ent</w>"
    ],
    [
      "vou",
      "s-"
    ],
    [
      "t",
      "ait</w>"
    ],
    [
      "dori",
      "ne</w>"
    ],
    [
      "go",
      "û"
    ],
    [
      "no",
      "ble</w>"
    ],
    [
      "es",
      "té</w>"
    ],
    [
      "en",
      "ces</w>"
    ],
    [
      "o",
      "sité</w>"
    ],
    [
      "dis",
      "-je</w>"
    ],
    [
      "tré",
      "pas</w>"
    ],
    [
      "tes-",
      "vous</w>"
    ],
    [
      "ai",
      "l</w>"
    ],
    [
      "quit",
      "ter</w>"
    ],
    [
      "d",
      "el"
    ],
    [
      "or",
      "able</w>"
    ],
    [
      "ai",
      "r"
    ],
    [
      "reç",
      "u</w>"
    ],
    [
      "ré",
      "sou"
    ],
    [
      "ca",
      "tion</w>"
    ],
    [
      "bi",
      "ne</w>"
    ],
    [
      "chr",
      "y"
    ],
    [
      "pos",
      "é</w>"
    ],
    [
      "dis",
      "si"
    ],
    [
      "ét",
      "onn"
    ],
    [
      "mé",
      "n"
    ],
    [
      "has",
      "ard</w>"
    ],
    [
      "ét",
      "oient</w>"
    ],
    [
      "b",
      "ons</w>"
    ],
    [
      "écl",
      "at"
    ],
    [
      "i",
      "rs</w>"
    ],
    [
      "gran",
      "deur</w>"
    ],
    [
      "sac",
      "rifi"
    ],
    [
      "ver",
      "tus</w>"
    ],
    [
      "m",
      "y"
    ],
    [
      "i",
      "ss"
    ],
    [
      "t",
      "exte</w>"
    ],
    [
      "pr",
      "on"
    ],
    [
      "sa",
      "bine</w>"
    ],
    [
      "alci",
      "don</w>"
    ],
    [
      "pourr",
      "a</w>"
    ],
    [
      "eff",
      "orts</w>"
    ],
    [
      "pr",
      "ê"
    ],
    [
      "g",
      "ouver"
    ],
    [
      "qu",
      "ent</w>"
    ],
    [
      "d'",
      "y</w>"
    ],
    [
      "gen",
      "re</w>"
    ],
    [
      "o",
      "ch"
    ],
    [
      "pourr",
      "oit</w>"
    ],
    [
      "s",
      "il"
    ],
    [
      "vani",
      "té</w>"
    ],
    [
      "pour",
      "tant</w>"
    ],
    [
      "con",
      "su"
    ],
    [
      "pl",
      "eurs</w>"
    ],
    [
      "n",
      "égli"
    ],
    [
      "l'",
      "effet</w>"
    ],
    [
      "u",
      "r"
    ],
    [
      "vi",
      "te</w>"
    ],
    [
      "heur",
      "euse</w>"
    ],
    [
      "o",
      "so"
    ],
    [
      "derni",
      "ère</w>"
    ],
    [
      "v",
      "ôtre</w>"
    ],
    [
      "a",
      "re</w>"
    ],
    [
      "ch",
      "ère</w>"
    ],
    [
      "fr",
      "ères</w>"
    ],
    [
      "écl",
      "at</w>"
    ],
    [
      "et",
      "c</w>"
    ],
    [
      "in",
      "gr"
    ],
    [
      "t",
      "ab"
    ],
    [
      "su",
      "jets</w>"
    ],
    [
      "con",
      "te</w>"
    ],
    [
      "d'",
      "ailleurs</w>"
    ],
    [
      "voudr",
      "ois</w>"
    ],
    [
      "â",
      "mes</w>"
    ],
    [
      "ja",
      "son</w>"
    ],
    [
      "cl",
      "oris</w>"
    ],
    [
      "ri",
      "er</w>"
    ],
    [
      "f",
      "at"
    ],
    [
      "eu",
      "e</w>"
    ],
    [
      "p",
      "les</w>"
    ],
    [
      "ennem",
      "i</w>"
    ],
    [
      "re",
      "pos</w>"
    ],
    [
      "sim",
      "ple</w>"
    ],
    [
      "ma",
      "j"
    ],
    [
      "dui",
      "re</w>"
    ],
    [
      "c",
      "que</w>"
    ],
    [
      "pas",
      "sions</w>"
    ],
    [
      "gl",
      "ori"
    ],
    [
      "mi",
      "en</w>"
    ],
    [
      "g",
      "</w>"
    ],
    [
      "médeci",
      "n</w>"
    ],
    [
      "pron",
      "on"
    ],
    [
      "ar",
      "cha"
    ],
    [
      "archa",
      "ï"
    ],
    [
      "b",
      "</w>"
    ],
    [
      "e",
      "rie</w>"
    ],
    [
      "av",
      "en"
    ],
    [
      "é",
      "cu"
    ],
    [
      "vin",
      "t</w>"
    ],
    [
      "c",
      "él"
    ],
    [
      "p",
      "an"
    ],
    [
      "pai",
      "x</w>"
    ],
    [
      "sen",
      "sible</w>"
    ],
    [
      "enti",
      "ère</w>"
    ],
    [
      "ren",
      "contr"
    ],
    [
      "eu",
      "ve</w>"
    ],
    [
      "per",
      "mis</w>"
    ],
    [
      "f",
      "ac"
    ],
    [
      "lan",
      "gue</w>"
    ],
    [
      "c'",
      "étoit</w>"
    ],
    [
      "mi",
      "r"
    ],
    [
      "s",
      "au"
    ],
    [
      "r",
      "eté</w>"
    ],
    [
      "caract",
      "ère</w>"
    ],
    [
      "l'",
      "en"
    ],
    [
      "d",
      "ant</w>"
    ],
    [
      "gran",
      "des</w>"
    ],
    [
      "jou",
      "er</w>"
    ],
    [
      "ré",
      "s</w>"
    ],
    [
      "o",
      "eu"
    ],
    [
      "ch",
      "ange</w>"
    ],
    [
      "d'",
      "elle</w>"
    ],
    [
      "so",
      "li"
    ],
    [
      "entr",
      "er</w>"
    ],
    [
      "mon",
      "t"
    ],
    [
      "génér",
      "eux</w>"
    ],
    [
      "v",
      "es</w>"
    ],
    [
      "ra",
      "re</w>"
    ],
    [
      "i",
      "ta"
    ],
    [
      "ri",
      "gueur</w>"
    ],
    [
      "pie",
      "ds</w>"
    ],
    [
      "x-",
      "tu</w>"
    ],
    [
      "g",
      "age</w>"
    ],
    [
      "fau",
      "t-il</w>"
    ],
    [
      "en",
      "tes</w>"
    ],
    [
      "mi",
      "ne</w>"
    ],
    [
      "am",
      "bi"
    ],
    [
      "suppli",
      "ce</w>"
    ],
    [
      "sév",
      "ère</w>"
    ],
    [
      "my",
      "st"
    ],
    [
      "b",
      "ri"
    ],
    [
      "r",
      "ob"
    ],
    [
      "n",
      "aître</w>"
    ],
    [
      "pér",
      "il</w>"
    ],
    [
      "regar",
      "de</w>"
    ],
    [
      "dori",
      "mant</w>"
    ],
    [
      "rais",
      "ons</w>"
    ],
    [
      "fu",
      "reur</w>"
    ],
    [
      "s",
      "onn"
    ],
    [
      "ch",
      "emi"
    ],
    [
      "ordin",
      "aire</w>"
    ],
    [
      "es",
      "père</w>"
    ],
    [
      "phil",
      "oso"
    ],
    [
      "souv",
      "er"
    ],
    [
      "j",
      "e"
    ],
    [
      "tr",
      "ui"
    ],
    [
      "com",
      "pli"
    ],
    [
      "con",
      "tent</w>"
    ],
    [
      "ave",
      "cque</w>"
    ],
    [
      "in",
      "f"
    ],
    [
      "c",
      "al"
    ],
    [
      "lor",
      "s</w>"
    ],
    [
      "t",
      "é"
    ],
    [
      "b",
      "res</w>"
    ],
    [
      "im",
      "pu"
    ],
    [
      "d'",
      "autre</w>"
    ],
    [
      "r",
      "age</w>"
    ],
    [
      "d",
      "res</w>"
    ],
    [
      "em",
      "br"
    ],
    [
      "l",
      "é</w>"
    ],
    [
      "u",
      "es</w>"
    ],
    [
      "éli",
      "se</w>"
    ],
    [
      "phil",
      "andre</w>"
    ],
    [
      "v",
      "ont</w>"
    ],
    [
      "ass",
      "er</w>"
    ],
    [
      "malh",
      "eurs</w>"
    ],
    [
      "ver",
      "s"
    ],
    [
      "con",
      "c"
    ],
    [
      "condui",
      "te</w>"
    ],
    [
      "dé",
      "gui"
    ],
    [
      "j'",
      "aime</w>"
    ],
    [
      "dori",
      "se</w>"
    ],
    [
      "ali",
      "dor</w>"
    ],
    [
      "soi",
      "-même</w>"
    ],
    [
      "t",
      "al"
    ],
    [
      "per",
      "fi"
    ],
    [
      "m",
      "ét"
    ],
    [
      "personn",
      "ages</w>"
    ],
    [
      "chapi",
      "tre</w>"
    ],
    [
      "espagno",
      "l</w>"
    ],
    [
      "maxi",
      "me</w>"
    ],
    [
      "j",
      "ette</w>"
    ],
    [
      "an",
      "nées</w>"
    ],
    [
      "publi",
      "que</w>"
    ],
    [
      "pa",
      "gn"
    ],
    [
      "ang",
      "es</w>"
    ],
    [
      "ag",
      "er</w>"
    ],
    [
      "ô",
      "ne</w>"
    ],
    [
      "cham",
      "bre</w>"
    ],
    [
      "com",
      "par"
    ],
    [
      "ser",
      "ve</w>"
    ],
    [
      "donn",
      "ent</w>"
    ],
    [
      "j",
      "</w>"
    ],
    [
      "val",
      "et</w>"
    ],
    [
      "am",
      "</w>"
    ],
    [
      "rè",
      "gle</w>"
    ],
    [
      "n",
      "e"
    ],
    [
      "c",
      "as"
    ],
    [
      "en",
      "suite</w>"
    ],
    [
      "co",
      "û"
    ],
    [
      "por",
      "trait</w>"
    ],
    [
      "u",
      "ser</w>"
    ],
    [
      "mi",
      "e</w>"
    ],
    [
      "ré",
      "v"
    ],
    [
      "mauv",
      "aise</w>"
    ],
    [
      "er",
      "t</w>"
    ],
    [
      "pa",
      "re</w>"
    ],
    [
      "ti",
      "f</w>"
    ],
    [
      "te",
      "rie</w>"
    ],
    [
      "ph",
      "i"
    ],
    [
      "pro",
      "pr"
    ],
    [
      "hér",
      "os</w>"
    ],
    [
      "sci",
      "ence</w>"
    ],
    [
      "ré",
      "si"
    ],
    [
      "d",
      "an"
    ],
    [
      "empl",
      "oy"
    ],
    [
      "par",
      "aît</w>"
    ],
    [
      "agn",
      "ès</w>"
    ],
    [
      "ili",
      "e</w>"
    ],
    [
      "mati",
      "ère</w>"
    ],
    [
      "for",
      "te</w>"
    ],
    [
      "d'h",
      "onneur</w>"
    ],
    [
      "souff",
      "re</w>"
    ],
    [
      "qu",
      "ant</w>"
    ],
    [
      "par",
      "t"
    ],
    [
      "o",
      "h</w>"
    ],
    [
      "véri",
      "table</w>"
    ],
    [
      "par",
      "fait</w>"
    ],
    [
      "suffi",
      "t</w>"
    ],
    [
      "s",
      "oir</w>"
    ],
    [
      "eff",
      "ets</w>"
    ],
    [
      "ph",
      "y"
    ],
    [
      "ti",
      "me</w>"
    ],
    [
      "gar",
      "cie</w>"
    ],
    [
      "anti",
      "och"
    ],
    [
      "quer",
      "elle</w>"
    ],
    [
      "il",
      "ler</w>"
    ],
    [
      "i",
      "dée</w>"
    ],
    [
      "ti",
      "e</w>"
    ],
    [
      "conn",
      "oiss"
    ],
    [
      "peti",
      "te</w>"
    ],
    [
      "ex",
      "cel"
    ],
    [
      "intér",
      "êts</w>"
    ],
    [
      "romp",
      "re</w>"
    ],
    [
      "é",
      "par"
    ],
    [
      "j'aur",
      "ois</w>"
    ],
    [
      "souv",
      "enir</w>"
    ],
    [
      "hi",
      "stoire</w>"
    ],
    [
      "la",
      "quelle</w>"
    ],
    [
      "l'",
      "action</w>"
    ],
    [
      "con",
      "s"
    ],
    [
      "céli",
      "dée</w>"
    ],
    [
      "l'",
      "air</w>"
    ],
    [
      "offen",
      "se</w>"
    ],
    [
      "ét",
      "ois</w>"
    ],
    [
      "chang",
      "er</w>"
    ],
    [
      "désor",
      "mais</w>"
    ],
    [
      "ter",
      "mes</w>"
    ],
    [
      "fer",
      "me</w>"
    ],
    [
      "em",
      "pr"
    ],
    [
      "am",
      "arante</w>"
    ],
    [
      "li",
      "ste</w>"
    ],
    [
      "gu",
      "es</w>"
    ],
    [
      "ré",
      "com"
    ],
    [
      "att",
      "end"
    ],
    [
      "lumi",
      "ère</w>"
    ],
    [
      "t",
      "ard</w>"
    ],
    [
      "parl",
      "é</w>"
    ],
    [
      "cr",
      "ains</w>"
    ],
    [
      "puni",
      "r</w>"
    ],
    [
      "vain",
      "qu"
    ],
    [
      "por",
      "tent</w>"
    ],
    [
      "ti",
      "ques</w>"
    ],
    [
      "j",
      "é"
    ],
    [
      "dou",
      "leurs</w>"
    ],
    [
      "des",
      "se"
    ],
    [
      "desse",
      "ins</w>"
    ],
    [
      "des",
      "irs</w>"
    ],
    [
      "b",
      "ois</w>"
    ],
    [
      "t",
      "eux</w>"
    ],
    [
      "ju",
      "ger</w>"
    ],
    [
      "ch",
      "ent</w>"
    ],
    [
      "mé",
      "di"
    ],
    [
      "déf",
      "endre</w>"
    ],
    [
      "m",
      "ois</w>"
    ],
    [
      "con",
      "f"
    ],
    [
      "conn",
      "ois</w>"
    ],
    [
      "cu",
      "l"
    ],
    [
      "off",
      "re</w>"
    ],
    [
      "prét",
      "en"
    ],
    [
      "doi",
      "vent</w>"
    ],
    [
      "com",
      "pl"
    ],
    [
      "vo",
      "lu"
    ],
    [
      "in",
      "qui"
    ],
    [
      "hau",
      "te</w>"
    ],
    [
      "fui",
      "te</w>"
    ],
    [
      "s",
      "me</w>"
    ],
    [
      "tra",
      "h"
    ],
    [
      "al",
      "bert</w>"
    ],
    [
      "antioch",
      "us</w>"
    ],
    [
      "honn",
      "ête</w>"
    ],
    [
      "meil",
      "leur</w>"
    ],
    [
      "voul",
      "ez-vous</w>"
    ],
    [
      "conse",
      "il</w>"
    ],
    [
      "con",
      "ver"
    ],
    [
      "s'",
      "ils</w>"
    ],
    [
      "ap",
      "er"
    ],
    [
      "ét",
      "ab"
    ],
    [
      "ren",
      "du</w>"
    ],
    [
      "g",
      "les</w>"
    ],
    [
      "puis",
      "qu'il</w>"
    ],
    [
      "v",
      "il"
    ],
    [
      "vol",
      "taire</w>"
    ],
    [
      "ser",
      "ait</w>"
    ],
    [
      "céli",
      "mène</w>"
    ],
    [
      "méli",
      "sse</w>"
    ],
    [
      "qu'",
      "aux</w>"
    ],
    [
      "b",
      "al"
    ],
    [
      "espér",
      "ance</w>"
    ],
    [
      "s",
      "ois</w>"
    ],
    [
      "es",
      "cl"
    ],
    [
      "vous-",
      "même</w>"
    ],
    [
      "prin",
      "ces</w>"
    ],
    [
      "fais",
      "ant</w>"
    ],
    [
      "alci",
      "ppe</w>"
    ],
    [
      "as",
      "-tu</w>"
    ],
    [
      "illu",
      "stre</w>"
    ],
    [
      "t-",
      "ils</w>"
    ],
    [
      "di",
      "vers</w>"
    ],
    [
      "ail",
      "les</w>"
    ],
    [
      "so",
      "y"
    ],
    [
      "d",
      "i</w>"
    ],
    [
      "z",
      "èle</w>"
    ],
    [
      "s",
      "ai"
    ],
    [
      "tr",
      "ône</w>"
    ],
    [
      "regr",
      "et</w>"
    ],
    [
      "au",
      "di"
    ],
    [
      "r",
      "ant</w>"
    ],
    [
      "y",
      "le</w>"
    ],
    [
      "am",
      "ment</w>"
    ],
    [
      "v",
      "ari"
    ],
    [
      "r",
      "am"
    ],
    [
      "ju",
      "ge</w>"
    ],
    [
      "fr",
      "uit</w>"
    ],
    [
      "sil",
      "ence</w>"
    ],
    [
      "tom",
      "be</w>"
    ],
    [
      "comm",
      "ence</w>"
    ],
    [
      "r",
      "ar"
    ],
    [
      "accor",
      "d</w>"
    ],
    [
      "tra",
      "hi"
    ],
    [
      "a",
      "c</w>"
    ],
    [
      "jalou",
      "sie</w>"
    ],
    [
      "féli",
      "x</w>"
    ],
    [
      "oni",
      "ce</w>"
    ],
    [
      "celui",
      "-ci</w>"
    ],
    [
      "espér",
      "er</w>"
    ],
    [
      "plain",
      "dre</w>"
    ],
    [
      "chemi",
      "n</w>"
    ],
    [
      "lang",
      "age</w>"
    ],
    [
      "dis",
      "tin"
    ],
    [
      "de",
      "vient</w>"
    ],
    [
      "ch",
      "â"
    ],
    [
      "a",
      "dé"
    ],
    [
      "av",
      "aient</w>"
    ],
    [
      "nom",
      "s</w>"
    ],
    [
      "ch",
      "és</w>"
    ],
    [
      "trouv",
      "ent</w>"
    ],
    [
      "onn",
      "es</w>"
    ],
    [
      "tu",
      "res</w>"
    ],
    [
      "è",
      "que</w>"
    ],
    [
      "ré",
      "pu"
    ],
    [
      "ém",
      "ilie</w>"
    ],
    [
      "n'",
      "étoit</w>"
    ],
    [
      "viol",
      "ence</w>"
    ],
    [
      "cert",
      "aine</w>"
    ],
    [
      "mu",
      "l"
    ],
    [
      "ass",
      "embl"
    ],
    [
      "n",
      "on"
    ],
    [
      "suiv",
      "ante</w>"
    ],
    [
      "maj",
      "esté</w>"
    ],
    [
      "am",
      "ants</w>"
    ],
    [
      "l",
      "oi"
    ],
    [
      "ob",
      "serv"
    ],
    [
      "gé",
      "nie</w>"
    ],
    [
      "te",
      "-"
    ],
    [
      "char",
      "ge</w>"
    ],
    [
      "t",
      "oi"
    ],
    [
      "qu'",
      "après</w>"
    ],
    [
      "personn",
      "age</w>"
    ],
    [
      "pati",
      "ence</w>"
    ],
    [
      "br",
      "û"
    ],
    [
      "c'",
      "est-à-dire</w>"
    ],
    [
      "li",
      "re</w>"
    ],
    [
      "d",
      "eurs</w>"
    ],
    [
      "veu",
      "ve</w>"
    ],
    [
      "franç",
      "ois</w>"
    ],
    [
      "er",
      "ce</w>"
    ],
    [
      "no",
      "tice</w>"
    ],
    [
      "di",
      "è"
    ],
    [
      "b",
      "â"
    ],
    [
      "nouv",
      "elles</w>"
    ],
    [
      "per",
      "su"
    ],
    [
      "ving",
      "t</w>"
    ],
    [
      "ill",
      "é</w>"
    ],
    [
      "indi",
      "gne</w>"
    ],
    [
      "représen",
      "tation</w>"
    ],
    [
      "trou",
      "ble</w>"
    ],
    [
      "lu",
      "s</w>"
    ],
    [
      "obli",
      "ge</w>"
    ],
    [
      "av",
      "an"
    ],
    [
      "ég",
      "alement</w>"
    ],
    [
      "contin",
      "u"
    ],
    [
      "bl",
      "ement</w>"
    ],
    [
      "s",
      "éri"
    ],
    [
      "moi",
      "tié</w>"
    ],
    [
      "impor",
      "t"
    ],
    [
      "i",
      "er</w>"
    ],
    [
      "n",
      "esse</w>"
    ],
    [
      "du",
      "ction</w>"
    ],
    [
      "jus",
      "qu</w>"
    ],
    [
      "l'ar",
      "gent</w>"
    ],
    [
      "tomb",
      "er</w>"
    ],
    [
      "por",
      "té</w>"
    ],
    [
      "é",
      "p"
    ],
    [
      "en",
      "gag"
    ],
    [
      "agi",
      "t</w>"
    ],
    [
      "d'",
      "</w>"
    ],
    [
      "cr",
      "aign"
    ],
    [
      "quelqu",
      "es-"
    ],
    [
      "si",
      "ne</w>"
    ],
    [
      "b",
      "el</w>"
    ],
    [
      "soupi",
      "rs</w>"
    ],
    [
      "at",
      "te"
    ],
    [
      "pen",
      "sées</w>"
    ],
    [
      "li",
      "bre</w>"
    ],
    [
      "pi",
      "t</w>"
    ],
    [
      "moy",
      "ens</w>"
    ],
    [
      "el",
      "s</w>"
    ],
    [
      "comb",
      "at"
    ],
    [
      "rô",
      "le</w>"
    ],
    [
      "poë",
      "me</w>"
    ],
    [
      "ta",
      "tions</w>"
    ],
    [
      "clin",
      "dor</w>"
    ],
    [
      "ridicu",
      "le</w>"
    ],
    [
      "réci",
      "t</w>"
    ],
    [
      "em",
      "ble</w>"
    ],
    [
      "comm",
      "un</w>"
    ],
    [
      "dem",
      "ain</w>"
    ],
    [
      "trou",
      "bl"
    ],
    [
      "pour",
      "vu</w>"
    ],
    [
      "obli",
      "gé</w>"
    ],
    [
      "lu",
      "cile</w>"
    ],
    [
      "agré",
      "able</w>"
    ],
    [
      "c",
      "an"
    ],
    [
      "bl",
      "ess"
    ],
    [
      "ons-",
      "nous</w>"
    ],
    [
      "si",
      "en</w>"
    ],
    [
      "at",
      "eurs</w>"
    ],
    [
      "tu",
      "de</w>"
    ],
    [
      "dés",
      "espoir</w>"
    ],
    [
      "h",
      "y"
    ],
    [
      "au",
      "-dessus</w>"
    ],
    [
      "sou",
      "d"
    ],
    [
      "commenc",
      "ement</w>"
    ],
    [
      "em",
      "</w>"
    ],
    [
      "lé",
      "andre</w>"
    ],
    [
      "p",
      "ym"
    ],
    [
      "pym",
      "ante</w>"
    ],
    [
      "emb",
      "arr"
    ],
    [
      "l'",
      "objet</w>"
    ],
    [
      "f",
      "ri"
    ],
    [
      "tu",
      "e</w>"
    ],
    [
      "roy",
      "au"
    ],
    [
      "ali",
      "er</w>"
    ],
    [
      "veu",
      "lent</w>"
    ],
    [
      "e",
      "ils</w>"
    ],
    [
      "é",
      "ti"
    ],
    [
      "con",
      "cu"
    ],
    [
      "v",
      "er</w>"
    ],
    [
      "loi",
      "sir</w>"
    ],
    [
      "pr",
      "esse</w>"
    ],
    [
      "a",
      "dor"
    ],
    [
      "étu",
      "de</w>"
    ],
    [
      "op",
      "ini"
    ],
    [
      "tru",
      "ff"
    ],
    [
      "princi",
      "pa"
    ],
    [
      "tou",
      "che</w>"
    ],
    [
      "d'",
      "in"
    ],
    [
      "de",
      "vi"
    ],
    [
      "souff",
      "rez</w>"
    ],
    [
      "b",
      "el"
    ],
    [
      "min",
      "is"
    ],
    [
      "mé",
      "s</w>"
    ],
    [
      "em",
      "bre</w>"
    ],
    [
      "diè",
      "gue</w>"
    ],
    [
      "l",
      "âch"
    ],
    [
      "dé",
      "fau"
    ],
    [
      "défau",
      "ts</w>"
    ],
    [
      "d",
      "ons</w>"
    ],
    [
      "ca",
      "t</w>"
    ],
    [
      "p",
      "ût</w>"
    ],
    [
      "douc",
      "eur</w>"
    ],
    [
      "mal",
      "a"
    ],
    [
      "natur",
      "el</w>"
    ],
    [
      "endr",
      "ai</w>"
    ],
    [
      "al",
      "lu"
    ],
    [
      "dr",
      "am"
    ],
    [
      "poé",
      "tique</w>"
    ],
    [
      "mari",
      "ane</w>"
    ],
    [
      "céli",
      "dan</w>"
    ],
    [
      "pri",
      "t</w>"
    ],
    [
      "ven",
      "ez</w>"
    ],
    [
      "jus",
      "qu'au</w>"
    ],
    [
      "in",
      "t</w>"
    ],
    [
      "i",
      "t</w>"
    ],
    [
      "fun",
      "este</w>"
    ],
    [
      "cel",
      "le"
    ],
    [
      "gn",
      "er</w>"
    ],
    [
      "sé",
      "n"
    ],
    [
      "amou",
      "rs</w>"
    ],
    [
      "empr",
      "un"
    ],
    [
      "l'",
      "avoir</w>"
    ],
    [
      "y",
      "p"
    ],
    [
      "archaï",
      "sme</w>"
    ],
    [
      "autr",
      "efois</w>"
    ],
    [
      "conserv",
      "er</w>"
    ],
    [
      "g",
      "ée</w>"
    ],
    [
      "lo",
      "g"
    ],
    [
      "fai",
      "soit</w>"
    ],
    [
      "u",
      "l"
    ],
    [
      "aim",
      "é</w>"
    ],
    [
      "tel",
      "li"
    ],
    [
      "s",
      "ante</w>"
    ],
    [
      "appar",
      "ence</w>"
    ],
    [
      "si",
      "ez</w>"
    ],
    [
      "consi",
      "dér"
    ],
    [
      "ver",
      "t</w>"
    ],
    [
      "vainqu",
      "eur</w>"
    ],
    [
      "g",
      "re"
    ],
    [
      "t",
      "esse</w>"
    ],
    [
      "l",
      "âche</w>"
    ],
    [
      "char",
      "mes</w>"
    ],
    [
      "cert",
      "ains</w>"
    ],
    [
      "n",
      "ez</w>"
    ],
    [
      "c",
      "ens</w>"
    ],
    [
      "tour",
      "ne</w>"
    ],
    [
      "er",
      "ai</w>"
    ],
    [
      "es",
      "sion</w>"
    ],
    [
      "con",
      "t"
    ],
    [
      "ar",
      "tifi"
    ],
    [
      "vainc",
      "re</w>"
    ],
    [
      "char",
      "lo"
    ],
    [
      "charlo",
      "tte</w>"
    ],
    [
      "d",
      "ents</w>"
    ],
    [
      "f",
      "ar"
    ],
    [
      "d",
      "eu"
    ],
    [
      "fer",
      "ai</w>"
    ],
    [
      "regar",
      "ds</w>"
    ],
    [
      "m",
      "eur"
    ],
    [
      "puiss",
      "ant</w>"
    ],
    [
      "di",
      "able</w>"
    ],
    [
      "derni",
      "ers</w>"
    ],
    [
      "r",
      "on"
    ],
    [
      "ag",
      "ri"
    ],
    [
      "u",
      "re</w>"
    ],
    [
      "st",
      "yle</w>"
    ],
    [
      "cou",
      "tu"
    ],
    [
      "dé",
      "vo"
    ],
    [
      "conn",
      "aiss"
    ],
    [
      "i",
      "x</w>"
    ],
    [
      "donn",
      "ée</w>"
    ],
    [
      "mo",
      "eurs</w>"
    ],
    [
      "adr",
      "aste</w>"
    ],
    [
      "t",
      "ol"
    ],
    [
      "com",
      "mu"
    ],
    [
      "pru",
      "dence</w>"
    ],
    [
      "l'",
      "ab"
    ],
    [
      "gag",
      "ner</w>"
    ],
    [
      "y",
      "er</w>"
    ],
    [
      "off",
      "rir</w>"
    ],
    [
      "cr",
      "o"
    ],
    [
      "choi",
      "sir</w>"
    ],
    [
      "per",
      "d</w>"
    ],
    [
      "ca",
      "cher</w>"
    ],
    [
      "ay",
      "e</w>"
    ],
    [
      "vi",
      "r"
    ],
    [
      "aim",
      "ez</w>"
    ],
    [
      "li",
      "br"
    ],
    [
      "p",
      "eux</w>"
    ],
    [
      "foi",
      "blesse</w>"
    ],
    [
      "dé",
      "pit</w>"
    ],
    [
      "égli",
      "se</w>"
    ],
    [
      "cri",
      "min"
    ],
    [
      "fâch",
      "eux</w>"
    ],
    [
      "secr",
      "ets</w>"
    ],
    [
      "è",
      "rent</w>"
    ],
    [
      "fr",
      "ont</w>"
    ],
    [
      "ri",
      "ère</w>"
    ],
    [
      "parl",
      "ez</w>"
    ],
    [
      "nouv",
      "eaux</w>"
    ],
    [
      "ch",
      "agri"
    ],
    [
      "m",
      "eill"
    ],
    [
      "ven",
      "ue</w>"
    ],
    [
      "h",
      "é"
    ],
    [
      "gni",
      "té</w>"
    ],
    [
      "aff",
      "ec"
    ],
    [
      "conn",
      "aître</w>"
    ],
    [
      "truff",
      "al"
    ],
    [
      "truffal",
      "din</w>"
    ],
    [
      "pè",
      "dre</w>"
    ],
    [
      "or",
      "onte</w>"
    ],
    [
      "sol",
      "s</w>"
    ],
    [
      "ro",
      "si"
    ],
    [
      "veu",
      "x-tu</w>"
    ],
    [
      "gn",
      "es</w>"
    ],
    [
      "jet",
      "er</w>"
    ],
    [
      "dou",
      "ce</w>"
    ],
    [
      "ex",
      "pri"
    ],
    [
      "ouv",
      "re</w>"
    ],
    [
      "le",
      "cteur</w>"
    ],
    [
      "val",
      "eur</w>"
    ],
    [
      "mi",
      "t</w>"
    ],
    [
      "bu",
      "t</w>"
    ],
    [
      "vrai",
      "ment</w>"
    ],
    [
      "pro",
      "vin"
    ],
    [
      "des",
      "c"
    ],
    [
      "d",
      "a</w>"
    ],
    [
      "sour",
      "ce</w>"
    ],
    [
      "cu",
      "s</w>"
    ],
    [
      "i",
      "que</w>"
    ],
    [
      "rosi",
      "dor</w>"
    ],
    [
      "et",
      "tre</w>"
    ],
    [
      "ce",
      "ci</w>"
    ],
    [
      "jeu",
      "nes</w>"
    ],
    [
      "v",
      "el"
    ],
    [
      "ap",
      "pu"
    ],
    [
      "por",
      "ts</w>"
    ],
    [
      "empê",
      "cher</w>"
    ],
    [
      "par",
      "u</w>"
    ],
    [
      "vi",
      "s</w>"
    ],
    [
      "h",
      "ymen</w>"
    ],
    [
      "l'",
      "ont</w>"
    ],
    [
      "jeu",
      "nesse</w>"
    ],
    [
      "ri",
      "che</w>"
    ],
    [
      "é",
      "pée</w>"
    ],
    [
      "s",
      "y"
    ],
    [
      "ch",
      "ris"
    ],
    [
      "au",
      "dit</w>"
    ],
    [
      "si",
      "t</w>"
    ],
    [
      "four",
      "ni"
    ],
    [
      "ap",
      "prend</w>"
    ],
    [
      "ég",
      "al</w>"
    ],
    [
      "s",
      "ages</w>"
    ],
    [
      "l'ar",
      "t</w>"
    ],
    [
      "mo",
      "des"
    ],
    [
      "do",
      "cteur</w>"
    ],
    [
      "t",
      "endr"
    ],
    [
      "tr",
      "ès</w>"
    ],
    [
      "assu",
      "re</w>"
    ],
    [
      "v",
      "rir</w>"
    ],
    [
      "-",
      "là</w>"
    ],
    [
      "dér",
      "ob"
    ],
    [
      "préf",
      "ér"
    ],
    [
      "t",
      "il</w>"
    ],
    [
      "présen",
      "te</w>"
    ],
    [
      "imag",
      "in"
    ],
    [
      "r",
      "ê"
    ],
    [
      "ch",
      "ement</w>"
    ],
    [
      "ali",
      "té</w>"
    ],
    [
      "dé",
      "t"
    ],
    [
      "x",
      "iv</w>"
    ],
    [
      "propr",
      "es</w>"
    ],
    [
      "écou",
      "ter</w>"
    ],
    [
      "posi",
      "tion</w>"
    ],
    [
      "sin",
      "c"
    ],
    [
      "fi",
      "er</w>"
    ],
    [
      "par",
      "eille</w>"
    ],
    [
      "ser",
      "ez</w>"
    ],
    [
      "em",
      "pire</w>"
    ],
    [
      "fu",
      "rent</w>"
    ],
    [
      "pou",
      "voit</w>"
    ],
    [
      "quali",
      "tés</w>"
    ],
    [
      "eux-",
      "mêmes</w>"
    ],
    [
      "des",
      "sous</w>"
    ],
    [
      "condi",
      "tion</w>"
    ],
    [
      "écri",
      "re</w>"
    ],
    [
      "c",
      "tions</w>"
    ],
    [
      "génér",
      "al</w>"
    ],
    [
      "po",
      "pul"
    ],
    [
      "mé",
      "pri"
    ],
    [
      "ai",
      "rement</w>"
    ],
    [
      "écou",
      "te</w>"
    ],
    [
      "aut",
      "orité</w>"
    ],
    [
      "rè",
      "gles</w>"
    ],
    [
      "ari",
      "ste</w>"
    ],
    [
      "lis",
      "ette</w>"
    ],
    [
      "ci",
      "-dessus</w>"
    ],
    [
      "cou",
      "pable</w>"
    ],
    [
      "tour",
      "ner</w>"
    ],
    [
      "de",
      "vr"
    ],
    [
      "so",
      "le"
    ],
    [
      "quelques-",
      "uns</w>"
    ],
    [
      "con",
      "ter</w>"
    ],
    [
      "r",
      "eurs</w>"
    ],
    [
      "vi",
      "ve</w>"
    ],
    [
      "conse",
      "ils</w>"
    ],
    [
      "d",
      "ang"
    ],
    [
      "en",
      "vers</w>"
    ],
    [
      "prom",
      "is</w>"
    ],
    [
      "quel",
      "les</w>"
    ],
    [
      "ab",
      "lement</w>"
    ],
    [
      "adé",
      "mie</w>"
    ],
    [
      "j",
      "ac"
    ],
    [
      "cli",
      "mène</w>"
    ],
    [
      "chré",
      "tiens</w>"
    ],
    [
      "z",
      "</w>"
    ],
    [
      "pren",
      "ant</w>"
    ],
    [
      "l",
      "ar"
    ],
    [
      "a",
      "ï"
    ],
    [
      "ter",
      "min"
    ],
    [
      "pré",
      "par"
    ],
    [
      "gre",
      "c</w>"
    ],
    [
      "pie",
      "d</w>"
    ],
    [
      "dé",
      "faut</w>"
    ],
    [
      "p",
      "es</w>"
    ],
    [
      "pr",
      "ête</w>"
    ],
    [
      "ple",
      "ine</w>"
    ],
    [
      "ég",
      "yp"
    ],
    [
      "religi",
      "on</w>"
    ],
    [
      "so",
      "lu</w>"
    ],
    [
      "l",
      "i</w>"
    ],
    [
      "l",
      "s</w>"
    ],
    [
      "aven",
      "ture</w>"
    ],
    [
      "cru",
      "elle</w>"
    ],
    [
      "c",
      "aus"
    ],
    [
      "mi",
      "se</w>"
    ],
    [
      "atten",
      "d</w>"
    ],
    [
      "h",
      "uit</w>"
    ],
    [
      "im",
      "porte</w>"
    ],
    [
      "m'",
      "y</w>"
    ],
    [
      "p",
      "er</w>"
    ],
    [
      "sor",
      "tes</w>"
    ],
    [
      "l'in",
      "f"
    ],
    [
      "dev",
      "ez</w>"
    ],
    [
      "ren",
      "é</w>"
    ],
    [
      "no",
      "</w>"
    ],
    [
      "pi",
      "été</w>"
    ],
    [
      "p",
      "tol"
    ],
    [
      "ï",
      "r</w>"
    ],
    [
      "s",
      "tr"
    ],
    [
      "l",
      "à"
    ],
    [
      "là",
      "-dessus</w>"
    ],
    [
      "arriv",
      "er</w>"
    ],
    [
      "ser",
      "ois</w>"
    ],
    [
      "mouv",
      "ement</w>"
    ],
    [
      "assur",
      "er</w>"
    ],
    [
      "l'",
      "en</w>"
    ],
    [
      "ac",
      "cep"
    ],
    [
      "qu",
      "ante</w>"
    ],
    [
      "dé",
      "sirs</w>"
    ],
    [
      "pri",
      "son</w>"
    ],
    [
      "con",
      "sé"
    ],
    [
      "const",
      "ance</w>"
    ],
    [
      "g",
      "ent"
    ],
    [
      "è",
      "nes</w>"
    ],
    [
      "n",
      "ement</w>"
    ],
    [
      "com",
      "plais"
    ],
    [
      "m",
      "ens</w>"
    ],
    [
      "ob",
      "st"
    ],
    [
      "répu",
      "tation</w>"
    ],
    [
      "gro",
      "s-"
    ],
    [
      "ou",
      "tr"
    ],
    [
      "rem",
      "ède</w>"
    ],
    [
      "enti",
      "er</w>"
    ],
    [
      "t",
      "âche</w>"
    ],
    [
      "ais",
      "ons</w>"
    ],
    [
      "su",
      "s"
    ],
    [
      "vi",
      "enne</w>"
    ],
    [
      "qu",
      "ence</w>"
    ],
    [
      "je",
      "an</w>"
    ],
    [
      "app",
      "li"
    ],
    [
      "excu",
      "se</w>"
    ],
    [
      "ag",
      "ir</w>"
    ],
    [
      "sou",
      "ci</w>"
    ],
    [
      "jus",
      "tifi"
    ],
    [
      "laiss",
      "é</w>"
    ],
    [
      "admir",
      "able</w>"
    ],
    [
      "r",
      "ue</w>"
    ],
    [
      "t",
      "y"
    ],
    [
      "an",
      "dr"
    ],
    [
      "ent",
      "ends</w>"
    ],
    [
      "so",
      "t</w>"
    ],
    [
      "pl",
      "ein"
    ],
    [
      "ch",
      "ée</w>"
    ],
    [
      "autr",
      "ement</w>"
    ],
    [
      "pro",
      "fon"
    ],
    [
      "s",
      "ag"
    ],
    [
      "décl",
      "ar"
    ],
    [
      "si",
      "n</w>"
    ],
    [
      "con",
      "fon"
    ],
    [
      "év",
      "én"
    ],
    [
      "n",
      "ette</w>"
    ],
    [
      "j",
      "oin"
    ],
    [
      "triom",
      "ph"
    ],
    [
      "de",
      "voi"
    ],
    [
      "rap",
      "port</w>"
    ],
    [
      "impri",
      "mer</w>"
    ],
    [
      "trouv",
      "er"
    ],
    [
      "b",
      "onnes</w>"
    ],
    [
      "répon",
      "dre</w>"
    ],
    [
      "résou",
      "dre</w>"
    ],
    [
      "aff",
      "e"
    ],
    [
      "el",
      "i"
    ],
    [
      "u",
      "vre</w>"
    ],
    [
      "l",
      "oy"
    ],
    [
      "com",
      "pag"
    ],
    [
      "vieill",
      "ard</w>"
    ],
    [
      "soy",
      "ez</w>"
    ],
    [
      "confi",
      "ance</w>"
    ],
    [
      "pu",
      "re</w>"
    ],
    [
      "é",
      "qui"
    ],
    [
      "ac",
      "es</w>"
    ],
    [
      "b",
      "é</w>"
    ],
    [
      "saur",
      "oit</w>"
    ],
    [
      "merv",
      "eill"
    ],
    [
      "fam",
      "ili"
    ],
    [
      "qu",
      "es"
    ],
    [
      "gros-",
      "rené</w>"
    ],
    [
      "l'ac",
      "adémie</w>"
    ],
    [
      "par",
      "aître</w>"
    ],
    [
      "lev",
      "er</w>"
    ],
    [
      "ent",
      "end"
    ],
    [
      "jou",
      "ir</w>"
    ],
    [
      "av",
      "oient</w>"
    ],
    [
      "curi",
      "osité</w>"
    ],
    [
      "tou",
      "rs</w>"
    ],
    [
      "sole",
      "il</w>"
    ],
    [
      "n'",
      "eût</w>"
    ],
    [
      "n'",
      "aur"
    ],
    [
      "lon",
      "gue</w>"
    ],
    [
      "ob",
      "s"
    ],
    [
      "tr",
      "uit</w>"
    ],
    [
      "pro",
      "fi"
    ],
    [
      "voy",
      "ons</w>"
    ],
    [
      "d'",
      "accord</w>"
    ],
    [
      "poss",
      "é"
    ],
    [
      "fein",
      "te</w>"
    ],
    [
      "ch",
      "air</w>"
    ],
    [
      "ma",
      "s"
    ],
    [
      "pr",
      "euve</w>"
    ],
    [
      "du",
      "rant</w>"
    ],
    [
      "ill",
      "et</w>"
    ],
    [
      "l'or",
      "dre</w>"
    ],
    [
      "l'é",
      "cl"
    ],
    [
      "car",
      "din"
    ],
    [
      "cardin",
      "al</w>"
    ],
    [
      "ur",
      "an"
    ],
    [
      "uran",
      "ie</w>"
    ],
    [
      "phil",
      "inte</w>"
    ],
    [
      "chry",
      "sante</w>"
    ],
    [
      "fall",
      "oit</w>"
    ],
    [
      "jus",
      "tement</w>"
    ],
    [
      "ci",
      "r"
    ],
    [
      "av",
      "ez-vous</w>"
    ],
    [
      "foi",
      "ble</w>"
    ],
    [
      "préci",
      "pi"
    ],
    [
      "hom",
      "m"
    ],
    [
      "ambi",
      "tion</w>"
    ],
    [
      "met",
      "s</w>"
    ],
    [
      "b",
      "es</w>"
    ],
    [
      "s",
      "ang"
    ],
    [
      "crain",
      "t</w>"
    ],
    [
      "ô",
      "tres</w>"
    ],
    [
      "j'",
      "étois</w>"
    ],
    [
      "é",
      "ge</w>"
    ],
    [
      "v",
      "ains</w>"
    ],
    [
      "gal",
      "ant</w>"
    ],
    [
      "m'",
      "ont</w>"
    ],
    [
      "f",
      "en"
    ],
    [
      "ob",
      "tenir</w>"
    ],
    [
      "arr",
      "a"
    ],
    [
      "n'",
      "avez</w>"
    ],
    [
      "ô",
      "ter</w>"
    ],
    [
      "sur",
      "prise</w>"
    ],
    [
      "soud",
      "ain</w>"
    ],
    [
      "c",
      "av"
    ],
    [
      "cin",
      "qui"
    ],
    [
      "thé",
      "o"
    ],
    [
      "mi",
      "re</w>"
    ],
    [
      "ca",
      "pri"
    ],
    [
      "c",
      "s</w>"
    ],
    [
      "t",
      "elles</w>"
    ],
    [
      "dis",
      "ent</w>"
    ],
    [
      "éri",
      "té</w>"
    ],
    [
      "mor",
      "ts</w>"
    ],
    [
      "tir",
      "é</w>"
    ],
    [
      "re",
      "traite</w>"
    ],
    [
      "autr",
      "ui</w>"
    ],
    [
      "j'aur",
      "ai</w>"
    ],
    [
      "pui",
      "s-je</w>"
    ],
    [
      "a",
      "dore</w>"
    ],
    [
      "c",
      "ents</w>"
    ],
    [
      "che",
      "f</w>"
    ],
    [
      "t",
      "eurs</w>"
    ],
    [
      "qu",
      "at"
    ],
    [
      "qu",
      "ement</w>"
    ],
    [
      "affr",
      "ont</w>"
    ],
    [
      "dé",
      "pl"
    ],
    [
      "diffi",
      "cile</w>"
    ],
    [
      "ac",
      "les</w>"
    ],
    [
      "cam",
      "ille</w>"
    ],
    [
      "o",
      "eil</w>"
    ],
    [
      "thé",
      "ante</w>"
    ],
    [
      "á",
      "</w>"
    ],
    [
      "in",
      "sol"
    ],
    [
      "ais",
      "é</w>"
    ],
    [
      "consu",
      "l"
    ],
    [
      "ma",
      "li"
    ],
    [
      "j'",
      "ose</w>"
    ],
    [
      "au",
      "té</w>"
    ],
    [
      "fl",
      "exi"
    ],
    [
      "donn",
      "ez</w>"
    ],
    [
      "trai",
      "ter</w>"
    ],
    [
      "d'",
      "ar"
    ],
    [
      "ir",
      "ri"
    ],
    [
      "ô",
      "te</w>"
    ],
    [
      "s",
      "ée</w>"
    ],
    [
      "expli",
      "quer</w>"
    ],
    [
      "û",
      "</w>"
    ],
    [
      "br",
      "av"
    ],
    [
      "h",
      "ab"
    ],
    [
      "comm",
      "erce</w>"
    ],
    [
      "pouv",
      "ait</w>"
    ],
    [
      "fai",
      "sait</w>"
    ],
    [
      "m",
      "lle</w>"
    ],
    [
      "hi",
      "st"
    ],
    [
      "cinqui",
      "ème</w>"
    ],
    [
      "clé",
      "ante</w>"
    ],
    [
      "phy",
      "lis</w>"
    ],
    [
      "ét",
      "onne</w>"
    ],
    [
      "figu",
      "re</w>"
    ],
    [
      "pl",
      "eur"
    ],
    [
      "gr",
      "os"
    ],
    [
      "obli",
      "ger</w>"
    ],
    [
      "sou",
      "tenir</w>"
    ],
    [
      "tr",
      "ente</w>"
    ],
    [
      "promp",
      "t</w>"
    ],
    [
      "tendr",
      "esse</w>"
    ],
    [
      "suiv",
      "i</w>"
    ],
    [
      "nom",
      "me</w>"
    ],
    [
      "è",
      "bre</w>"
    ],
    [
      "pr",
      "êt</w>"
    ],
    [
      "ajou",
      "te</w>"
    ],
    [
      "r",
      "appel"
    ],
    [
      "ita",
      "li"
    ],
    [
      "de",
      "hors</w>"
    ],
    [
      "dev",
      "ait</w>"
    ],
    [
      "ré",
      "solu"
    ],
    [
      "scu",
      "dér"
    ],
    [
      "scudér",
      "y</w>"
    ],
    [
      "pré",
      "su"
    ],
    [
      "chris",
      "t</w>"
    ],
    [
      "t",
      "oy"
    ],
    [
      "fa",
      "cile</w>"
    ],
    [
      "log",
      "is</w>"
    ],
    [
      "sû",
      "r</w>"
    ],
    [
      "fat",
      "al</w>"
    ],
    [
      "qu'",
      "est-ce</w>"
    ],
    [
      "esp",
      "èce</w>"
    ],
    [
      "gar",
      "der</w>"
    ],
    [
      "sa",
      "che</w>"
    ],
    [
      "con",
      "qu"
    ],
    [
      "man",
      "quer</w>"
    ],
    [
      "v",
      "é</w>"
    ],
    [
      "ou",
      "tre</w>"
    ],
    [
      "ti",
      "ennent</w>"
    ],
    [
      "f",
      "illes</w>"
    ],
    [
      "enten",
      "d</w>"
    ],
    [
      "ré",
      "us"
    ],
    [
      "telli",
      "gence</w>"
    ],
    [
      "sé",
      "par"
    ],
    [
      "t",
      "ables</w>"
    ],
    [
      "dr",
      "a</w>"
    ],
    [
      "arrê",
      "ter</w>"
    ],
    [
      "nu",
      "l</w>"
    ],
    [
      "tr",
      "aî"
    ],
    [
      "aff",
      "li"
    ],
    [
      "h",
      "al"
    ],
    [
      "sur",
      "pris</w>"
    ],
    [
      "p",
      "â"
    ],
    [
      "al",
      "ar"
    ],
    [
      "mal",
      "ade</w>"
    ],
    [
      "n",
      "s</w>"
    ],
    [
      "arr",
      "ête</w>"
    ],
    [
      "è",
      "tes</w>"
    ],
    [
      "d'",
      "autant</w>"
    ],
    [
      "r",
      "ends</w>"
    ],
    [
      "lég",
      "i"
    ],
    [
      "ç",
      "a</w>"
    ],
    [
      "indi",
      "ffér"
    ],
    [
      "dou",
      "ter</w>"
    ],
    [
      "sain",
      "t-"
    ],
    [
      "jus",
      "tes</w>"
    ],
    [
      "dé",
      "ci"
    ],
    [
      "ex",
      "er"
    ],
    [
      "ég",
      "ale</w>"
    ],
    [
      "trav",
      "ail</w>"
    ],
    [
      "aim",
      "able</w>"
    ],
    [
      "re",
      "pen"
    ],
    [
      "d",
      "û</w>"
    ],
    [
      "f",
      "ant"
    ],
    [
      "roy",
      "ale</w>"
    ],
    [
      "gu",
      "er"
    ],
    [
      "mon",
      "seigneur</w>"
    ],
    [
      "ô",
      "tel</w>"
    ],
    [
      "rou",
      "g"
    ],
    [
      "comédi",
      "ens</w>"
    ],
    [
      "cat",
      "h"
    ],
    [
      "l",
      "es"
    ],
    [
      "h",
      "en"
    ],
    [
      "mat",
      "am"
    ],
    [
      "matam",
      "ore</w>"
    ],
    [
      "devoi",
      "rs</w>"
    ],
    [
      "jé",
      "su"
    ],
    [
      "jésu",
      "s-"
    ],
    [
      "jésus-",
      "christ</w>"
    ],
    [
      "concu",
      "pi"
    ],
    [
      "concupi",
      "sc"
    ],
    [
      "ptol",
      "om"
    ],
    [
      "ptolom",
      "ée</w>"
    ],
    [
      "ca",
      "liste</w>"
    ],
    [
      "ser",
      "ai</w>"
    ],
    [
      "oi",
      "t-il</w>"
    ],
    [
      "mis",
      "ér"
    ],
    [
      "par",
      "eil</w>"
    ],
    [
      "par",
      "eils</w>"
    ],
    [
      "voi",
      "ent</w>"
    ],
    [
      "cour",
      "ti"
    ],
    [
      "croy",
      "ez</w>"
    ],
    [
      "qu'",
      "ici</w>"
    ],
    [
      "hu",
      "main</w>"
    ],
    [
      "offi",
      "ce</w>"
    ],
    [
      "pag",
      "es</w>"
    ],
    [
      "tan",
      "dis</w>"
    ],
    [
      "li",
      "ers</w>"
    ],
    [
      "déd",
      "aign"
    ],
    [
      "si",
      "enne</w>"
    ],
    [
      "anci",
      "ens</w>"
    ],
    [
      "hi",
      "er</w>"
    ],
    [
      "ci",
      "te</w>"
    ],
    [
      "el",
      "mire</w>"
    ],
    [
      "om",
      "bre</w>"
    ],
    [
      "in",
      "fin"
    ],
    [
      "par",
      "faite</w>"
    ],
    [
      "peu",
      "ples</w>"
    ],
    [
      "laiss",
      "ez</w>"
    ],
    [
      "trui",
      "re</w>"
    ],
    [
      "achev",
      "é</w>"
    ],
    [
      "f",
      "al"
    ],
    [
      "av",
      "ance</w>"
    ],
    [
      "n",
      "eu"
    ],
    [
      "et",
      "tes</w>"
    ],
    [
      "cin",
      "quante</w>"
    ],
    [
      "beau",
      "tés</w>"
    ],
    [
      "adr",
      "ess"
    ],
    [
      "men",
      "tir</w>"
    ],
    [
      "mar",
      "que</w>"
    ],
    [
      "fau",
      "sse</w>"
    ],
    [
      "répon",
      "se</w>"
    ],
    [
      "origin",
      "al</w>"
    ],
    [
      "pro",
      "f"
    ],
    [
      "g",
      "our"
    ],
    [
      "ins",
      "pi"
    ],
    [
      "premi",
      "ères</w>"
    ],
    [
      "spect",
      "acle</w>"
    ],
    [
      "entr",
      "et"
    ],
    [
      "si",
      "ens</w>"
    ],
    [
      "nu",
      "lle</w>"
    ],
    [
      "br",
      "an"
    ],
    [
      "cour",
      "onne</w>"
    ],
    [
      "b",
      "a"
    ],
    [
      "ol",
      "o"
    ],
    [
      "du",
      "e</w>"
    ],
    [
      "l",
      "ée</w>"
    ],
    [
      "ap",
      "prouv"
    ],
    [
      "a",
      "sc"
    ],
    [
      "bl",
      "â"
    ],
    [
      "pré",
      "cé"
    ],
    [
      "du",
      "c</w>"
    ],
    [
      "nom",
      "mer</w>"
    ],
    [
      "mad",
      "elon</w>"
    ],
    [
      "ce",
      "au</w>"
    ],
    [
      "récom",
      "pense</w>"
    ],
    [
      "ui",
      "ts</w>"
    ],
    [
      "v",
      "é"
    ],
    [
      "compag",
      "nie</w>"
    ],
    [
      "te",
      "au</w>"
    ],
    [
      "di",
      "sc"
    ],
    [
      "ca",
      "pa"
    ],
    [
      "é",
      "gar"
    ],
    [
      "dé",
      "b"
    ],
    [
      "n'",
      "ose</w>"
    ],
    [
      "t",
      "end"
    ],
    [
      "plu",
      "part</w>"
    ],
    [
      "a",
      "les</w>"
    ],
    [
      "trai",
      "té</w>"
    ],
    [
      "cru",
      "el</w>"
    ],
    [
      "ay",
      "ez</w>"
    ],
    [
      "in",
      "tro"
    ],
    [
      "ci",
      "v"
    ],
    [
      "opini",
      "on</w>"
    ],
    [
      "aur",
      "ait</w>"
    ],
    [
      "d'",
      "im"
    ],
    [
      "ai",
      "gne</w>"
    ],
    [
      "m",
      "e"
    ],
    [
      "pi",
      "de</w>"
    ],
    [
      "soup",
      "ç"
    ],
    [
      "d",
      "ame</w>"
    ],
    [
      "enf",
      "ant</w>"
    ],
    [
      "lou",
      "p</w>"
    ],
    [
      "assur",
      "ance</w>"
    ],
    [
      "pro",
      "di"
    ],
    [
      "aut",
      "eurs</w>"
    ],
    [
      "aper",
      "ç"
    ],
    [
      "r",
      "ai</w>"
    ],
    [
      "dir",
      "ai</w>"
    ],
    [
      "perfi",
      "de</w>"
    ],
    [
      "b",
      "ass"
    ],
    [
      "l'inf",
      "ante</w>"
    ],
    [
      "mu",
      "r"
    ],
    [
      "pro",
      "duit</w>"
    ],
    [
      "veu",
      "ille</w>"
    ],
    [
      "dang",
      "er"
    ],
    [
      "l'",
      "occasion</w>"
    ],
    [
      "témoign",
      "age</w>"
    ],
    [
      "affe",
      "ction</w>"
    ],
    [
      "r",
      "ail"
    ],
    [
      "ex",
      "cès</w>"
    ],
    [
      "d",
      "as</w>"
    ],
    [
      "lu",
      "cas</w>"
    ],
    [
      "m",
      "yr"
    ],
    [
      "l",
      "as</w>"
    ],
    [
      "enn",
      "es</w>"
    ],
    [
      "l'",
      "ai"
    ],
    [
      "aveu",
      "gle</w>"
    ],
    [
      "sembl",
      "able</w>"
    ],
    [
      "l'",
      "affaire</w>"
    ],
    [
      "dép",
      "ens</w>"
    ],
    [
      "celle",
      "-ci</w>"
    ],
    [
      "ap",
      "pris</w>"
    ],
    [
      "hum",
      "aine</w>"
    ],
    [
      "conten",
      "ter</w>"
    ],
    [
      "glori",
      "eux</w>"
    ],
    [
      "for",
      "mer</w>"
    ],
    [
      "par",
      "tir</w>"
    ],
    [
      "cri",
      "mes</w>"
    ],
    [
      "po",
      "que</w>"
    ],
    [
      "popul",
      "aire</w>"
    ],
    [
      "l'h",
      "ôtel</w>"
    ],
    [
      "pres",
      "sions</w>"
    ],
    [
      "i",
      "bi"
    ],
    [
      "do",
      "ris</w>"
    ],
    [
      "b",
      "ér"
    ],
    [
      "du",
      "re</w>"
    ],
    [
      "obé",
      "ir</w>"
    ],
    [
      "a",
      "bi"
    ],
    [
      "o",
      "t"
    ],
    [
      "l'",
      "amitié</w>"
    ],
    [
      "t",
      "â"
    ],
    [
      "vi",
      "ce</w>"
    ],
    [
      "quali",
      "té</w>"
    ],
    [
      "excel",
      "l"
    ],
    [
      "hon",
      "teux</w>"
    ],
    [
      "cam",
      "pagne</w>"
    ],
    [
      "c",
      "on</w>"
    ],
    [
      "al",
      "li"
    ],
    [
      "chang",
      "ement</w>"
    ],
    [
      "in",
      "ten"
    ],
    [
      "oeu",
      "vres</w>"
    ],
    [
      "la",
      "tin</w>"
    ],
    [
      "oi",
      "sse</w>"
    ],
    [
      "enti",
      "èrement</w>"
    ],
    [
      "ti",
      "ve</w>"
    ],
    [
      "sag",
      "esse</w>"
    ],
    [
      "co",
      "qu"
    ],
    [
      "gu",
      "érir</w>"
    ],
    [
      "dev",
      "oit</w>"
    ],
    [
      "g",
      "ez</w>"
    ],
    [
      "in",
      "utile</w>"
    ],
    [
      "qu",
      "ar"
    ],
    [
      "ren",
      "on"
    ],
    [
      "es-",
      "tu</w>"
    ],
    [
      "sin",
      "gu"
    ],
    [
      "r",
      "avi"
    ],
    [
      "curi",
      "eux</w>"
    ],
    [
      "l'é",
      "pée</w>"
    ],
    [
      "ré",
      "g"
    ],
    [
      "saur",
      "ois</w>"
    ],
    [
      "cert",
      "aines</w>"
    ],
    [
      "four",
      "be</w>"
    ],
    [
      "é",
      "tou"
    ],
    [
      "rem",
      "er"
    ],
    [
      "cô",
      "tés</w>"
    ],
    [
      "servi",
      "teur</w>"
    ],
    [
      "avou",
      "e</w>"
    ],
    [
      "gr",
      "ange</w>"
    ],
    [
      "l'écl",
      "at</w>"
    ],
    [
      "fi",
      "déli"
    ],
    [
      "déf",
      "oris</w>"
    ],
    [
      "san",
      "che</w>"
    ],
    [
      "ass",
      "é</w>"
    ],
    [
      "c",
      "u</w>"
    ],
    [
      "co",
      "le</w>"
    ],
    [
      "né",
      "ces"
    ],
    [
      "im",
      "possible</w>"
    ],
    [
      "per",
      "met"
    ],
    [
      "différ",
      "ence</w>"
    ],
    [
      "hor",
      "reur</w>"
    ],
    [
      "sa",
      "lut</w>"
    ],
    [
      "att",
      "ends</w>"
    ],
    [
      "mi",
      "enne</w>"
    ],
    [
      "ress",
      "embl"
    ],
    [
      "accom",
      "mo"
    ],
    [
      "tra",
      "duction</w>"
    ],
    [
      "chré",
      "tien</w>"
    ],
    [
      "exam",
      "en</w>"
    ],
    [
      "vainc",
      "u</w>"
    ],
    [
      "for",
      "tu"
    ],
    [
      "verr",
      "ez</w>"
    ],
    [
      "volon",
      "té</w>"
    ],
    [
      "re",
      "vient</w>"
    ],
    [
      "con",
      "ç"
    ],
    [
      "tromp",
      "e</w>"
    ],
    [
      "li",
      "on</w>"
    ],
    [
      "trans",
      "ports</w>"
    ],
    [
      "s",
      "ter</w>"
    ],
    [
      "admi",
      "re</w>"
    ],
    [
      "v",
      "ement</w>"
    ],
    [
      "verr",
      "a</w>"
    ],
    [
      "cré",
      "dit</w>"
    ],
    [
      "particu",
      "lier</w>"
    ],
    [
      "v",
      "ê"
    ],
    [
      "ac",
      "tes</w>"
    ],
    [
      "ret",
      "en"
    ],
    [
      "serv",
      "i</w>"
    ],
    [
      "le",
      "quel</w>"
    ],
    [
      "dui",
      "te</w>"
    ],
    [
      "h",
      "eures</w>"
    ],
    [
      "cri",
      "tique</w>"
    ],
    [
      "po",
      "st"
    ],
    [
      "né",
      "an"
    ],
    [
      "néan",
      "moins</w>"
    ],
    [
      "t",
      "o</w>"
    ],
    [
      "sur",
      "prendre</w>"
    ],
    [
      "vraisembl",
      "able</w>"
    ],
    [
      "anim",
      "al</w>"
    ],
    [
      "j",
      "oindre</w>"
    ],
    [
      "royau",
      "me</w>"
    ],
    [
      "sauv",
      "er</w>"
    ],
    [
      "l'or",
      "eille</w>"
    ],
    [
      "h",
      "â"
    ],
    [
      "mé",
      "tier</w>"
    ],
    [
      "so",
      "t"
    ],
    [
      "contr",
      "e"
    ],
    [
      "ri",
      "ers</w>"
    ],
    [
      "rav",
      "i</w>"
    ],
    [
      "représen",
      "ter</w>"
    ],
    [
      "so",
      "ci"
    ],
    [
      "em",
      "ment</w>"
    ],
    [
      "empl",
      "oi</w>"
    ],
    [
      "douc",
      "eurs</w>"
    ],
    [
      "ét",
      "ein"
    ],
    [
      "e",
      "p"
    ],
    [
      "chev",
      "al</w>"
    ],
    [
      "escl",
      "ave</w>"
    ],
    [
      "ma",
      "tin</w>"
    ],
    [
      "di",
      "gnité</w>"
    ],
    [
      "pé",
      "ché</w>"
    ],
    [
      "franç",
      "ais</w>"
    ],
    [
      "caract",
      "ères</w>"
    ],
    [
      "dis",
      "-"
    ],
    [
      "do",
      "</w>"
    ],
    [
      "mari",
      "nette</w>"
    ],
    [
      "sain",
      "te</w>"
    ],
    [
      "dé",
      "di"
    ],
    [
      "mé",
      "ch"
    ],
    [
      "pay",
      "er</w>"
    ],
    [
      "donn",
      "a</w>"
    ],
    [
      "er",
      "ois</w>"
    ],
    [
      "m'",
      "avez</w>"
    ],
    [
      "d'",
      "autrui</w>"
    ],
    [
      "s",
      "cru"
    ],
    [
      "sou",
      "l"
    ],
    [
      "pr",
      "atique</w>"
    ],
    [
      "pé",
      "né"
    ],
    [
      "d",
      "ente</w>"
    ],
    [
      "satis",
      "fait</w>"
    ],
    [
      "en",
      "voie</w>"
    ],
    [
      "der",
      "rière</w>"
    ],
    [
      "quat",
      "ri"
    ],
    [
      "entr",
      "ée</w>"
    ],
    [
      "gu",
      "ill"
    ],
    [
      "ques",
      "tion</w>"
    ],
    [
      "ch",
      "al"
    ],
    [
      "volu",
      "me</w>"
    ],
    [
      "dram",
      "atique</w>"
    ],
    [
      "con",
      "fid"
    ],
    [
      "par",
      "don</w>"
    ],
    [
      "hist",
      "ori"
    ],
    [
      "j",
      "ar"
    ],
    [
      "n'",
      "ait</w>"
    ],
    [
      "li",
      "té</w>"
    ],
    [
      "m",
      "oin"
    ],
    [
      "comm",
      "une</w>"
    ],
    [
      "par",
      "ut</w>"
    ],
    [
      "t",
      "endre</w>"
    ],
    [
      "g",
      "ri"
    ],
    [
      "t",
      "aine</w>"
    ],
    [
      "entret",
      "enir</w>"
    ],
    [
      "occu",
      "p"
    ],
    [
      "pren",
      "nent</w>"
    ],
    [
      "ci",
      "er</w>"
    ],
    [
      "st",
      "ance</w>"
    ],
    [
      "fen",
      "être</w>"
    ],
    [
      "enn",
      "ui</w>"
    ],
    [
      "l'",
      "usage</w>"
    ],
    [
      "l",
      "ante</w>"
    ],
    [
      "avou",
      "er</w>"
    ],
    [
      "atta",
      "che</w>"
    ],
    [
      "fau",
      "ss"
    ],
    [
      "imi",
      "tation</w>"
    ],
    [
      "ab",
      "solu"
    ],
    [
      "dé",
      "si"
    ],
    [
      "ch",
      "aî"
    ],
    [
      "fidéli",
      "té</w>"
    ],
    [
      "al",
      "ain</w>"
    ],
    [
      "myr",
      "til</w>"
    ],
    [
      "tromp",
      "er</w>"
    ],
    [
      "s",
      "ons</w>"
    ],
    [
      "parl",
      "ant</w>"
    ],
    [
      "tran",
      "qu"
    ],
    [
      "lou",
      "anges</w>"
    ],
    [
      "ét",
      "ats</w>"
    ],
    [
      "str",
      "at"
    ],
    [
      "exemp",
      "les</w>"
    ],
    [
      "s",
      "ant</w>"
    ],
    [
      "u",
      "te</w>"
    ],
    [
      "ré",
      "flexi"
    ],
    [
      "méri",
      "ter</w>"
    ],
    [
      "em",
      "porte</w>"
    ],
    [
      "au",
      "d"
    ],
    [
      "dr",
      "oits</w>"
    ],
    [
      "ré",
      "duit</w>"
    ],
    [
      "g",
      "men"
    ],
    [
      "ven",
      "us</w>"
    ],
    [
      "an",
      "ch"
    ],
    [
      "tr",
      "embl"
    ],
    [
      "dis",
      "cr"
    ],
    [
      "f",
      "ou</w>"
    ],
    [
      "meill",
      "eure</w>"
    ],
    [
      "quatri",
      "ème</w>"
    ],
    [
      "artifi",
      "ce</w>"
    ],
    [
      "cap",
      "i"
    ],
    [
      "mu",
      "si"
    ],
    [
      "mé",
      "née</w>"
    ],
    [
      "chagri",
      "n</w>"
    ],
    [
      "pé",
      "ni"
    ],
    [
      "mar",
      "ty"
    ],
    [
      "con",
      "sentir</w>"
    ],
    [
      "conver",
      "sa"
    ],
    [
      "ac",
      "cab"
    ],
    [
      "xx",
      "x"
    ],
    [
      "flori",
      "ce</w>"
    ],
    [
      "vi",
      "eille</w>"
    ],
    [
      "seu",
      "ls</w>"
    ],
    [
      "v",
      "aine</w>"
    ],
    [
      "chi",
      "en</w>"
    ],
    [
      "g",
      "er"
    ],
    [
      "é",
      "pi"
    ],
    [
      "mar",
      "che</w>"
    ],
    [
      "fav",
      "eurs</w>"
    ],
    [
      "dis",
      "pu"
    ],
    [
      "atten",
      "tion</w>"
    ],
    [
      "ser",
      "ont</w>"
    ],
    [
      "c",
      "ture</w>"
    ],
    [
      "ari",
      "té</w>"
    ],
    [
      "philoso",
      "phe</w>"
    ],
    [
      "ni",
      "er</w>"
    ],
    [
      "hon",
      "or"
    ],
    [
      "v",
      "aill"
    ],
    [
      "m",
      "il</w>"
    ],
    [
      "eu",
      "s</w>"
    ],
    [
      "ais",
      "er</w>"
    ],
    [
      "ren",
      "tr"
    ],
    [
      "ren",
      "te</w>"
    ],
    [
      "mala",
      "die</w>"
    ],
    [
      "in",
      "et</w>"
    ],
    [
      "parl",
      "ent</w>"
    ],
    [
      "tu",
      "eux</w>"
    ],
    [
      "soup",
      "çons</w>"
    ],
    [
      "par",
      "oisse</w>"
    ],
    [
      "défen",
      "se</w>"
    ],
    [
      "el",
      "lement</w>"
    ],
    [
      "in",
      "titu"
    ],
    [
      "ti",
      "onn"
    ],
    [
      "tro",
      "</w>"
    ],
    [
      "lu",
      "cin"
    ],
    [
      "lucin",
      "de</w>"
    ],
    [
      "concupisc",
      "ence</w>"
    ],
    [
      "cré",
      "use</w>"
    ],
    [
      "super",
      "f"
    ],
    [
      "mo",
      "d"
    ],
    [
      "mouv",
      "ements</w>"
    ],
    [
      "pa",
      "tri"
    ],
    [
      "vi",
      "ces</w>"
    ],
    [
      "dé",
      "sir</w>"
    ],
    [
      "di",
      "té</w>"
    ],
    [
      "gu",
      "eurs</w>"
    ],
    [
      "ré",
      "ment</w>"
    ],
    [
      "du",
      "s</w>"
    ],
    [
      "sembl",
      "ent</w>"
    ],
    [
      "au",
      "gmen"
    ],
    [
      "sol",
      "d"
    ],
    [
      "refu",
      "s</w>"
    ],
    [
      "sc",
      "ep"
    ],
    [
      "rel",
      "e"
    ],
    [
      "méri",
      "té</w>"
    ],
    [
      "ca",
      "che</w>"
    ],
    [
      "at",
      "traits</w>"
    ],
    [
      "rece",
      "v"
    ],
    [
      "-",
      "b</w>"
    ],
    [
      "dis",
      "ait</w>"
    ],
    [
      "ge",
      "org"
    ],
    [
      "do",
      "c"
    ],
    [
      "av",
      "eu</w>"
    ],
    [
      "ass",
      "ass"
    ],
    [
      "mar",
      "tine</w>"
    ],
    [
      "tr",
      "es"
    ],
    [
      "b",
      "ête</w>"
    ],
    [
      "anim",
      "aux</w>"
    ],
    [
      "som",
      "m"
    ],
    [
      "reç",
      "oit</w>"
    ],
    [
      "néces",
      "sité</w>"
    ],
    [
      "tri",
      "st"
    ],
    [
      "g",
      "no"
    ],
    [
      "meil",
      "leurs</w>"
    ],
    [
      "tou",
      "cher</w>"
    ],
    [
      "fer",
      "oit</w>"
    ],
    [
      "or",
      "eilles</w>"
    ],
    [
      "ré",
      "gner</w>"
    ],
    [
      "prét",
      "endre</w>"
    ],
    [
      "ex",
      "ac"
    ],
    [
      "tour",
      "n"
    ],
    [
      "aur",
      "ez</w>"
    ],
    [
      "plac",
      "é</w>"
    ],
    [
      "repen",
      "tir</w>"
    ],
    [
      "combat",
      "tre</w>"
    ],
    [
      "de",
      "venu</w>"
    ],
    [
      "cer",
      "tes</w>"
    ],
    [
      "ut",
      "iles</w>"
    ],
    [
      "franç",
      "aise</w>"
    ],
    [
      "o",
      "th"
    ],
    [
      "condi",
      "tions</w>"
    ],
    [
      "an",
      "s"
    ],
    [
      "ans",
      "el"
    ],
    [
      "ansel",
      "me</w>"
    ],
    [
      "l'ar",
      "deur</w>"
    ],
    [
      "sc",
      "ènes</w>"
    ],
    [
      "cr",
      "ois"
    ],
    [
      "contrain",
      "te</w>"
    ],
    [
      "dam",
      "is</w>"
    ],
    [
      "sén",
      "èque</w>"
    ],
    [
      "pein",
      "es</w>"
    ],
    [
      "vou",
      "lut</w>"
    ],
    [
      "s",
      "ex"
    ],
    [
      "natu",
      "rel"
    ],
    [
      "t-",
      "ce</w>"
    ],
    [
      "har",
      "di"
    ],
    [
      "diver",
      "ses</w>"
    ],
    [
      "paro",
      "ît</w>"
    ],
    [
      "pi",
      "er"
    ],
    [
      "viv",
      "ant</w>"
    ],
    [
      "puiss",
      "ants</w>"
    ],
    [
      "f",
      "ol"
    ],
    [
      "aban",
      "donne</w>"
    ],
    [
      "ven",
      "ge</w>"
    ],
    [
      "gent",
      "il"
    ],
    [
      "appu",
      "i</w>"
    ],
    [
      "bl",
      "eu</w>"
    ],
    [
      "t",
      "ements</w>"
    ],
    [
      "ban",
      "ni"
    ],
    [
      "con",
      "sen"
    ],
    [
      "fam",
      "eux</w>"
    ],
    [
      "n'",
      "être</w>"
    ],
    [
      "obst",
      "acle</w>"
    ],
    [
      "ti",
      "ssement</w>"
    ],
    [
      "sep",
      "t</w>"
    ],
    [
      "ss",
      "ements</w>"
    ],
    [
      "o",
      "gr"
    ],
    [
      "si",
      "tu"
    ],
    [
      "per",
      "fe"
    ],
    [
      "perfe",
      "ction</w>"
    ],
    [
      "pourr",
      "ait</w>"
    ],
    [
      "sé",
      "cu"
    ],
    [
      "trah",
      "ir</w>"
    ],
    [
      "arr",
      "êt</w>"
    ],
    [
      "res",
      "sentiment</w>"
    ],
    [
      "oi",
      "se"
    ],
    [
      "m",
      "eurs</w>"
    ],
    [
      "fri",
      "vo"
    ],
    [
      "ap",
      "parti"
    ],
    [
      "impor",
      "tu"
    ],
    [
      "i",
      "-"
    ],
    [
      "oubli",
      "er</w>"
    ],
    [
      "v",
      "ul"
    ],
    [
      "ten",
      "u</w>"
    ],
    [
      "g",
      "ère</w>"
    ],
    [
      "n",
      "ôtre</w>"
    ],
    [
      "conno",
      "ît</w>"
    ],
    [
      "f",
      "ré"
    ],
    [
      "pl",
      "i</w>"
    ],
    [
      "pro",
      "cu"
    ],
    [
      "dé",
      "plaire</w>"
    ],
    [
      "end",
      "ue</w>"
    ],
    [
      "mi",
      "té</w>"
    ],
    [
      "au",
      "-"
    ],
    [
      "f",
      "uit</w>"
    ],
    [
      "c",
      "les</w>"
    ],
    [
      "rob",
      "e</w>"
    ],
    [
      "s",
      "tes</w>"
    ],
    [
      "qui",
      "n</w>"
    ],
    [
      "pro",
      "te"
    ],
    [
      "sacrifi",
      "ce</w>"
    ],
    [
      "l'",
      "es"
    ],
    [
      "avi",
      "ez</w>"
    ],
    [
      "cav",
      "alier</w>"
    ],
    [
      "extr",
      "é"
    ],
    [
      "péri",
      "r</w>"
    ],
    [
      "bi",
      "bli"
    ],
    [
      "rich",
      "eli"
    ],
    [
      "richeli",
      "eu</w>"
    ],
    [
      "obé",
      "iss"
    ],
    [
      "visi",
      "te</w>"
    ],
    [
      "xi",
      "ème</w>"
    ],
    [
      "alc",
      "andre</w>"
    ],
    [
      "g",
      "o</w>"
    ],
    [
      "ex",
      "écu"
    ],
    [
      "p",
      "ères</w>"
    ],
    [
      "cher",
      "ch"
    ],
    [
      "in",
      "com"
    ],
    [
      "souver",
      "ain</w>"
    ],
    [
      "o",
      "t</w>"
    ],
    [
      "endr",
      "oits</w>"
    ],
    [
      "misér",
      "able</w>"
    ],
    [
      "ch",
      "asse</w>"
    ],
    [
      "en",
      "voy"
    ],
    [
      "éclat",
      "er</w>"
    ],
    [
      "pou",
      "sse</w>"
    ],
    [
      "de",
      "b"
    ],
    [
      "r",
      "aste</w>"
    ],
    [
      "exi",
      "que</w>"
    ],
    [
      "cer",
      "v"
    ],
    [
      "le",
      "çon</w>"
    ],
    [
      "so",
      "r</w>"
    ],
    [
      "eu",
      "sse</w>"
    ],
    [
      "au",
      "d</w>"
    ],
    [
      "am",
      "ent</w>"
    ],
    [
      "di",
      "tes-"
    ],
    [
      "satis",
      "faire</w>"
    ],
    [
      "tém",
      "oin</w>"
    ],
    [
      "évi",
      "ter</w>"
    ],
    [
      "per",
      "ds</w>"
    ],
    [
      "ci",
      "ter</w>"
    ],
    [
      "lors",
      "qu'il</w>"
    ],
    [
      "r",
      "oit</w>"
    ],
    [
      "conn",
      "ue</w>"
    ],
    [
      "in",
      "juste</w>"
    ],
    [
      "im",
      "age</w>"
    ],
    [
      "péné",
      "tr"
    ],
    [
      "mi",
      "ens</w>"
    ],
    [
      "jou",
      "e</w>"
    ],
    [
      "f",
      "er</w>"
    ],
    [
      "dem",
      "i</w>"
    ],
    [
      "empê",
      "che</w>"
    ],
    [
      "ani",
      "me</w>"
    ],
    [
      "ci",
      "r</w>"
    ],
    [
      "a",
      "dou"
    ],
    [
      "rè",
      "gne</w>"
    ],
    [
      "crois",
      "y</w>"
    ],
    [
      "peti",
      "tes</w>"
    ],
    [
      "dem",
      "</w>"
    ],
    [
      "lu",
      "y</w>"
    ],
    [
      "ar",
      "onte</w>"
    ],
    [
      "pi",
      "s</w>"
    ],
    [
      "ob",
      "scu"
    ],
    [
      "étr",
      "ang"
    ],
    [
      "con",
      "so"
    ],
    [
      "dép",
      "end"
    ],
    [
      "mor",
      "tel</w>"
    ],
    [
      "bl",
      "âme</w>"
    ],
    [
      "confu",
      "s</w>"
    ],
    [
      "par",
      "avant</w>"
    ],
    [
      "temp",
      "le</w>"
    ],
    [
      "ren",
      "tre</w>"
    ],
    [
      "sû",
      "reté</w>"
    ],
    [
      "accom",
      "pagn"
    ],
    [
      "douc",
      "ement</w>"
    ],
    [
      "sembl",
      "ables</w>"
    ],
    [
      "ri",
      "ble</w>"
    ],
    [
      "myst",
      "ère</w>"
    ],
    [
      "mar",
      "s</w>"
    ],
    [
      "suiv",
      "ants</w>"
    ],
    [
      "impor",
      "tune</w>"
    ],
    [
      "in",
      "sen"
    ],
    [
      "é",
      "car"
    ],
    [
      "l'",
      "être</w>"
    ],
    [
      "br",
      "ave</w>"
    ],
    [
      "all",
      "em"
    ],
    [
      "diffi",
      "cul"
    ],
    [
      "habi",
      "ts</w>"
    ],
    [
      "op",
      "pose</w>"
    ],
    [
      "préci",
      "eux</w>"
    ],
    [
      "raisonn",
      "able</w>"
    ],
    [
      "tyr",
      "an"
    ],
    [
      "e",
      "ri"
    ],
    [
      "poss",
      "ède</w>"
    ],
    [
      "ex",
      "pression</w>"
    ],
    [
      "asc",
      "agne</w>"
    ],
    [
      "l",
      "exique</w>"
    ],
    [
      "san",
      "té</w>"
    ],
    [
      "fais",
      "ons</w>"
    ],
    [
      "men",
      "ace</w>"
    ],
    [
      "char",
      "gé</w>"
    ],
    [
      "sav",
      "ent</w>"
    ],
    [
      "comb",
      "ats</w>"
    ],
    [
      "dou",
      "ble</w>"
    ],
    [
      "vi",
      "er</w>"
    ],
    [
      "b",
      "re"
    ],
    [
      "secr",
      "ète</w>"
    ],
    [
      "condui",
      "re</w>"
    ],
    [
      "sor",
      "s</w>"
    ],
    [
      "poli",
      "tique</w>"
    ],
    [
      "échapp",
      "e</w>"
    ],
    [
      "com",
      "ble</w>"
    ],
    [
      "ai",
      "de</w>"
    ],
    [
      "promp",
      "tement</w>"
    ],
    [
      "rom",
      "ains</w>"
    ],
    [
      "aver",
      "tir</w>"
    ],
    [
      "cham",
      "p</w>"
    ],
    [
      "g",
      "ou"
    ],
    [
      "hum",
      "ble</w>"
    ],
    [
      "destin",
      "ée</w>"
    ],
    [
      "dam",
      "es</w>"
    ],
    [
      "ci",
      "dent</w>"
    ],
    [
      "fav",
      "orable</w>"
    ],
    [
      "él",
      "ève</w>"
    ],
    [
      "n'",
      "avoir</w>"
    ],
    [
      "assur",
      "é</w>"
    ],
    [
      "per",
      "tin"
    ],
    [
      "sui",
      "vie</w>"
    ],
    [
      "oi",
      "res</w>"
    ],
    [
      "décou",
      "vrir</w>"
    ],
    [
      "fai",
      "l"
    ],
    [
      "char",
      "me</w>"
    ],
    [
      "j",
      "an"
    ],
    [
      "per",
      "sécu"
    ],
    [
      "tri",
      "ne</w>"
    ],
    [
      "n",
      "ou"
    ],
    [
      "l'",
      "aime</w>"
    ],
    [
      "ex",
      "tra"
    ],
    [
      "georg",
      "ette</w>"
    ],
    [
      "e",
      "re</w>"
    ],
    [
      "co",
      "eurs</w>"
    ],
    [
      "l'uni",
      "vers</w>"
    ],
    [
      "p",
      "es"
    ],
    [
      "mo",
      "qu"
    ],
    [
      "e",
      "ine</w>"
    ],
    [
      "mon",
      "arque</w>"
    ],
    [
      "gno",
      "re</w>"
    ],
    [
      "am",
      "en"
    ],
    [
      "è",
      "vre</w>"
    ],
    [
      "fu",
      "y"
    ],
    [
      "r",
      "ui"
    ],
    [
      "sa",
      "lu"
    ],
    [
      "gr",
      "os</w>"
    ],
    [
      "puiss",
      "ent</w>"
    ],
    [
      "té",
      "moins</w>"
    ],
    [
      "s'",
      "en"
    ],
    [
      "est-",
      "elle</w>"
    ],
    [
      "f",
      "eu"
    ],
    [
      "compli",
      "ment</w>"
    ],
    [
      "flat",
      "ter</w>"
    ],
    [
      "l",
      "ève</w>"
    ],
    [
      "rom",
      "ain</w>"
    ],
    [
      "tel",
      "lement</w>"
    ],
    [
      "com",
      "prendre</w>"
    ],
    [
      "demeur",
      "er</w>"
    ],
    [
      "regar",
      "der</w>"
    ],
    [
      "dé",
      "fi"
    ],
    [
      "ar",
      "re</w>"
    ],
    [
      "es",
      "ch"
    ],
    [
      "f",
      "â"
    ],
    [
      "bé",
      "j"
    ],
    [
      "béj",
      "art</w>"
    ],
    [
      "deb",
      "rie</w>"
    ],
    [
      "parl",
      "ons</w>"
    ],
    [
      "em",
      "ens</w>"
    ],
    [
      "ap",
      "pré"
    ],
    [
      "p",
      "tion</w>"
    ],
    [
      "ro",
      "y</w>"
    ],
    [
      "conn",
      "aît</w>"
    ],
    [
      "dor",
      "aste</w>"
    ],
    [
      "l",
      "eu"
    ],
    [
      "re",
      "venir</w>"
    ],
    [
      "ven",
      "ant</w>"
    ],
    [
      "qu",
      "et</w>"
    ],
    [
      "pro",
      "vi"
    ],
    [
      "mar",
      "cher</w>"
    ],
    [
      "m",
      "anger</w>"
    ],
    [
      "repro",
      "che</w>"
    ],
    [
      "déli",
      "ca"
    ],
    [
      "n'",
      "avoit</w>"
    ],
    [
      "l'",
      "ouvrage</w>"
    ],
    [
      "n",
      "ui"
    ],
    [
      "assu",
      "rément</w>"
    ],
    [
      "l'in",
      "tér"
    ],
    [
      "ren",
      "om"
    ],
    [
      "mê",
      "ler</w>"
    ],
    [
      "cé",
      "der</w>"
    ],
    [
      "conten",
      "te</w>"
    ],
    [
      "appro",
      "che</w>"
    ],
    [
      "par",
      "ents</w>"
    ],
    [
      "parti",
      "es</w>"
    ],
    [
      "obli",
      "g"
    ],
    [
      "dev",
      "ons</w>"
    ],
    [
      "di",
      "tes-vous</w>"
    ],
    [
      "br",
      "ill"
    ],
    [
      "con",
      "science</w>"
    ],
    [
      "coutu",
      "me</w>"
    ],
    [
      "f",
      "ers</w>"
    ],
    [
      "s",
      "ez</w>"
    ],
    [
      "jo",
      "del"
    ],
    [
      "jodel",
      "et</w>"
    ],
    [
      "minis",
      "tre</w>"
    ],
    [
      "pan",
      "cr"
    ],
    [
      "pancr",
      "ace</w>"
    ],
    [
      "ag",
      "lante</w>"
    ],
    [
      "g",
      "éraste</w>"
    ],
    [
      "cri",
      "s</w>"
    ],
    [
      "pro",
      "cès</w>"
    ],
    [
      "pro",
      "che</w>"
    ],
    [
      "c",
      "t</w>"
    ],
    [
      "er",
      "oit</w>"
    ],
    [
      "all",
      "oit</w>"
    ],
    [
      "voy",
      "age</w>"
    ],
    [
      "dis",
      "ant</w>"
    ],
    [
      "p",
      "auv"
    ],
    [
      "pauv",
      "res</w>"
    ],
    [
      "ap",
      "pl"
    ],
    [
      "sin",
      "on</w>"
    ],
    [
      "ser",
      "s</w>"
    ],
    [
      "fo",
      "lie</w>"
    ],
    [
      "c",
      "ée</w>"
    ],
    [
      "pri",
      "ses</w>"
    ],
    [
      "uni",
      "que</w>"
    ],
    [
      "r",
      "i</w>"
    ],
    [
      "cor",
      "ri"
    ],
    [
      "décou",
      "vre</w>"
    ],
    [
      "mont",
      "agne</w>"
    ],
    [
      "habi",
      "le</w>"
    ],
    [
      "ch",
      "éri"
    ],
    [
      "e",
      "ries</w>"
    ],
    [
      "sa",
      "le</w>"
    ],
    [
      "l",
      "et</w>"
    ],
    [
      "li",
      "n"
    ],
    [
      "le",
      "au</w>"
    ],
    [
      "complais",
      "ance</w>"
    ],
    [
      "souv",
      "en"
    ],
    [
      "expli",
      "que</w>"
    ],
    [
      "confu",
      "sion</w>"
    ],
    [
      "c'",
      "en</w>"
    ],
    [
      "trahi",
      "son</w>"
    ],
    [
      "ép",
      "ître</w>"
    ],
    [
      "épou",
      "ser</w>"
    ],
    [
      "mo",
      "</w>"
    ],
    [
      "ér",
      "o"
    ],
    [
      "a",
      "d</w>"
    ],
    [
      "voul",
      "oit</w>"
    ],
    [
      "soupç",
      "onn"
    ],
    [
      "fran",
      "chi"
    ],
    [
      "pouss",
      "er</w>"
    ],
    [
      "ten",
      "ce</w>"
    ],
    [
      "l",
      "ab"
    ],
    [
      "volon",
      "tiers</w>"
    ],
    [
      "n",
      "or"
    ],
    [
      "ri",
      "ons</w>"
    ],
    [
      "occa",
      "sions</w>"
    ],
    [
      "atu",
      "re</w>"
    ],
    [
      "capa",
      "bles</w>"
    ],
    [
      "ê",
      "tes-vous</w>"
    ],
    [
      "mag",
      "ni"
    ],
    [
      "magni",
      "fi"
    ],
    [
      "s'",
      "agit</w>"
    ],
    [
      "au",
      "tour</w>"
    ],
    [
      "lég",
      "er</w>"
    ],
    [
      "tu",
      "er</w>"
    ],
    [
      "part",
      "age</w>"
    ],
    [
      "al",
      "o"
    ],
    [
      "th",
      "e</w>"
    ],
    [
      "m",
      "eu"
    ],
    [
      "achev",
      "er</w>"
    ],
    [
      "eff",
      "roi</w>"
    ],
    [
      "ti",
      "s</w>"
    ],
    [
      "re",
      "tirer</w>"
    ],
    [
      "gentil",
      "homme</w>"
    ],
    [
      "pen",
      "d</w>"
    ],
    [
      "s",
      "tu"
    ],
    [
      "im",
      "mo"
    ],
    [
      "représen",
      "tée</w>"
    ],
    [
      "rar",
      "es</w>"
    ],
    [
      "an",
      "terie</w>"
    ],
    [
      "an",
      "d"
    ],
    [
      "mis",
      "sion</w>"
    ],
    [
      "fai",
      "blesse</w>"
    ],
    [
      "m'",
      "as</w>"
    ],
    [
      "li",
      "t"
    ],
    [
      "ph",
      "ra"
    ],
    [
      "fai",
      "ble</w>"
    ],
    [
      "i",
      "si"
    ],
    [
      "isi",
      "dore</w>"
    ],
    [
      "cré",
      "on</w>"
    ],
    [
      "ju",
      "pi"
    ],
    [
      "d",
      "en"
    ],
    [
      "oi",
      "se</w>"
    ],
    [
      "t",
      "or"
    ],
    [
      "mir",
      "acle</w>"
    ],
    [
      "l'h",
      "u"
    ],
    [
      "chi",
      "ens</w>"
    ],
    [
      "écou",
      "tez</w>"
    ],
    [
      "ter",
      "mine</w>"
    ],
    [
      "c",
      "eux-"
    ],
    [
      "maî",
      "tres</w>"
    ],
    [
      "jour",
      "née</w>"
    ],
    [
      "ap",
      "pr"
    ],
    [
      "av",
      "es</w>"
    ],
    [
      "no",
      "bles</w>"
    ],
    [
      "habi",
      "t</w>"
    ],
    [
      "l'intér",
      "êt</w>"
    ],
    [
      "v",
      "as</w>"
    ],
    [
      "ro",
      "t</w>"
    ],
    [
      "ss",
      "ant</w>"
    ],
    [
      "al",
      "er</w>"
    ],
    [
      "rav",
      "ie</w>"
    ],
    [
      "per",
      "eur</w>"
    ],
    [
      "for",
      "ces</w>"
    ],
    [
      "li",
      "vr"
    ],
    [
      "merveill",
      "eux</w>"
    ],
    [
      "triom",
      "phe</w>"
    ],
    [
      "in",
      "clin"
    ],
    [
      "conc",
      "lu"
    ],
    [
      "po",
      "cri"
    ],
    [
      "consi",
      "dé"
    ],
    [
      "i",
      "do"
    ],
    [
      "ex",
      "poser</w>"
    ],
    [
      "l",
      "au"
    ],
    [
      "chal",
      "eur</w>"
    ],
    [
      "roug",
      "ir</w>"
    ],
    [
      "com",
      "ique</w>"
    ],
    [
      "par",
      "c</w>"
    ],
    [
      "vi",
      "c"
    ],
    [
      "éti",
      "ez</w>"
    ],
    [
      "servi",
      "ces</w>"
    ],
    [
      "dr",
      "oi"
    ],
    [
      "désor",
      "dre</w>"
    ],
    [
      "comédi",
      "es</w>"
    ],
    [
      "ai",
      "ses</w>"
    ],
    [
      "b",
      "all"
    ],
    [
      "ly",
      "cas</w>"
    ],
    [
      "sé",
      "leu"
    ],
    [
      "mon",
      "d</w>"
    ],
    [
      "né",
      "arque</w>"
    ],
    [
      "di",
      "se</w>"
    ],
    [
      "pri",
      "er</w>"
    ],
    [
      "mis",
      "ère</w>"
    ],
    [
      "l'",
      "âge</w>"
    ],
    [
      "au",
      "paravant</w>"
    ],
    [
      "ce",
      "voir</w>"
    ],
    [
      "vel",
      "op"
    ],
    [
      "ch",
      "ant"
    ],
    [
      "voi",
      "sin"
    ],
    [
      "c",
      "ui"
    ],
    [
      "f",
      "es"
    ],
    [
      "m",
      "ez</w>"
    ],
    [
      "pl",
      "ains</w>"
    ],
    [
      "rem",
      "arque</w>"
    ],
    [
      "s",
      "an</w>"
    ],
    [
      "r",
      "ace</w>"
    ],
    [
      "le",
      "rie</w>"
    ],
    [
      "soci",
      "été</w>"
    ],
    [
      "illu",
      "sion</w>"
    ],
    [
      "in",
      "es</w>"
    ],
    [
      "bour",
      "ge"
    ],
    [
      "lou",
      "er</w>"
    ],
    [
      "nom",
      "mé</w>"
    ],
    [
      "atten",
      "te</w>"
    ],
    [
      "ru",
      "se</w>"
    ],
    [
      "contin",
      "ue</w>"
    ],
    [
      "ach",
      "et"
    ],
    [
      "heur",
      "eusement</w>"
    ],
    [
      "pri",
      "ère</w>"
    ],
    [
      "è",
      "les</w>"
    ],
    [
      "l'ex",
      "cès</w>"
    ],
    [
      "dé",
      "es</w>"
    ],
    [
      "n'",
      "était</w>"
    ],
    [
      "x",
      "iii</w>"
    ],
    [
      "lit",
      "tér"
    ],
    [
      "intér",
      "ess"
    ],
    [
      "gal",
      "erie</w>"
    ],
    [
      "cath",
      "os</w>"
    ],
    [
      "lé",
      "on"
    ],
    [
      "d'",
      "imprimer</w>"
    ],
    [
      "clé",
      "on</w>"
    ],
    [
      "ly",
      "car"
    ],
    [
      "lycar",
      "sis</w>"
    ],
    [
      "plain",
      "te</w>"
    ],
    [
      "tré",
      "sor</w>"
    ],
    [
      "ré",
      "solu</w>"
    ],
    [
      "l",
      "our"
    ],
    [
      "sinc",
      "ère</w>"
    ],
    [
      "outr",
      "age</w>"
    ],
    [
      "i",
      "gnore</w>"
    ],
    [
      "l'au",
      "di"
    ],
    [
      "d'",
      "or</w>"
    ],
    [
      "l'av",
      "is</w>"
    ],
    [
      "sot",
      "ti"
    ],
    [
      "donn",
      "ant</w>"
    ],
    [
      "con",
      "j"
    ],
    [
      "de",
      "venir</w>"
    ],
    [
      "ach",
      "ève</w>"
    ],
    [
      "mur",
      "mu"
    ],
    [
      "laiss",
      "e-"
    ],
    [
      "flat",
      "te</w>"
    ],
    [
      "po",
      "l"
    ],
    [
      "ro",
      "pe</w>"
    ],
    [
      "fr",
      "ay"
    ],
    [
      "cab",
      "inet</w>"
    ],
    [
      "phil",
      "is</w>"
    ],
    [
      "ab",
      "at"
    ],
    [
      "t",
      "éri"
    ],
    [
      "andr",
      "ès</w>"
    ],
    [
      "dou",
      "ze</w>"
    ],
    [
      "prét",
      "exte</w>"
    ],
    [
      "a",
      "der</w>"
    ],
    [
      "inno",
      "cence</w>"
    ],
    [
      "ha",
      "ïr</w>"
    ],
    [
      "curi",
      "ace</w>"
    ],
    [
      "ai",
      "t-il</w>"
    ],
    [
      "augu",
      "s"
    ],
    [
      "séleu",
      "cus</w>"
    ],
    [
      "qu",
      "érir</w>"
    ],
    [
      "pu",
      "t</w>"
    ],
    [
      "sex",
      "e</w>"
    ],
    [
      "trav",
      "ers</w>"
    ],
    [
      "doi",
      "ve</w>"
    ],
    [
      "pe",
      "au</w>"
    ],
    [
      "s",
      "tres</w>"
    ],
    [
      "l'h",
      "abi"
    ],
    [
      "l'",
      "envie</w>"
    ],
    [
      "ch",
      "ute</w>"
    ],
    [
      "f",
      "ace</w>"
    ],
    [
      "si",
      "er</w>"
    ],
    [
      "ouv",
      "rir</w>"
    ],
    [
      "mi",
      "r</w>"
    ],
    [
      "employ",
      "er</w>"
    ],
    [
      "rép",
      "an"
    ],
    [
      "sal",
      "le</w>"
    ],
    [
      "g",
      "lement</w>"
    ],
    [
      "l'",
      "eau</w>"
    ],
    [
      "re",
      "tran"
    ],
    [
      "pr",
      "ati"
    ],
    [
      "écl",
      "air"
    ],
    [
      "go",
      "gne</w>"
    ],
    [
      "extr",
      "av"
    ],
    [
      "extrav",
      "ag"
    ],
    [
      "pér",
      "ils</w>"
    ],
    [
      "ten",
      "ez</w>"
    ],
    [
      "am",
      "ène</w>"
    ],
    [
      "o",
      "tin</w>"
    ],
    [
      "déli",
      "cat"
    ],
    [
      "or",
      "dres</w>"
    ],
    [
      "comédi",
      "en</w>"
    ],
    [
      "su",
      "bli"
    ],
    [
      "bar",
      "bou"
    ],
    [
      "vi",
      "gueur</w>"
    ],
    [
      "léon",
      "or</w>"
    ],
    [
      "hal",
      "i</w>"
    ],
    [
      "pass",
      "ant</w>"
    ],
    [
      "re",
      "prendre</w>"
    ],
    [
      "h",
      "er"
    ],
    [
      "trav",
      "aux</w>"
    ],
    [
      "provin",
      "ce</w>"
    ],
    [
      "m",
      "eur</w>"
    ],
    [
      "l'in",
      "s"
    ],
    [
      "di",
      "vin"
    ],
    [
      "at",
      "tribu"
    ],
    [
      "hasar",
      "der</w>"
    ],
    [
      "vr",
      "ais</w>"
    ],
    [
      "coû",
      "te</w>"
    ],
    [
      "pro",
      "dui"
    ],
    [
      "trouv",
      "a</w>"
    ],
    [
      "scru",
      "pu"
    ],
    [
      "mani",
      "ères</w>"
    ],
    [
      "ar",
      "gent</w>"
    ],
    [
      "tr",
      "a</w>"
    ],
    [
      "ex",
      "pl"
    ],
    [
      "ven",
      "ons</w>"
    ],
    [
      "ré",
      "gl"
    ],
    [
      "lo",
      "s</w>"
    ],
    [
      "cin",
      "s</w>"
    ],
    [
      "re",
      "tire</w>"
    ],
    [
      "sain",
      "ts</w>"
    ],
    [
      "meur",
      "t</w>"
    ],
    [
      "s-",
      "moi</w>"
    ],
    [
      "chang",
      "é</w>"
    ],
    [
      "t",
      "aille</w>"
    ],
    [
      "del",
      "à</w>"
    ],
    [
      "é",
      "bl"
    ],
    [
      "imag",
      "iner</w>"
    ],
    [
      "pein",
      "ture</w>"
    ],
    [
      "ren",
      "de</w>"
    ],
    [
      "si",
      "e"
    ],
    [
      "rencontr",
      "er</w>"
    ],
    [
      "laiss",
      "ent</w>"
    ],
    [
      "écl",
      "ai"
    ],
    [
      "reconn",
      "oiss"
    ],
    [
      "con",
      "sol"
    ],
    [
      "tromp",
      "é</w>"
    ],
    [
      "trans",
      "port</w>"
    ],
    [
      "bien",
      "sé"
    ],
    [
      "n'",
      "avait</w>"
    ],
    [
      "tou",
      "chant</w>"
    ],
    [
      "l'au",
      "t"
    ],
    [
      "ra",
      "ci"
    ],
    [
      "raci",
      "ne</w>"
    ],
    [
      "ri",
      "us</w>"
    ],
    [
      "clari",
      "mond</w>"
    ],
    [
      "plai",
      "gn"
    ],
    [
      "i",
      "ers</w>"
    ],
    [
      "dissi",
      "mu"
    ],
    [
      "enn",
      "u"
    ],
    [
      "or",
      "n"
    ],
    [
      "bâ",
      "ton</w>"
    ],
    [
      "v",
      "an"
    ],
    [
      "fui",
      "r</w>"
    ],
    [
      "ch",
      "ers</w>"
    ],
    [
      "tal",
      "ent</w>"
    ],
    [
      "val",
      "oir</w>"
    ],
    [
      "ca",
      "ché</w>"
    ],
    [
      "d'",
      "aller</w>"
    ],
    [
      "man",
      "che</w>"
    ],
    [
      "mom",
      "ents</w>"
    ],
    [
      "brû",
      "le</w>"
    ],
    [
      "t'",
      "a</w>"
    ],
    [
      "su",
      "re</w>"
    ],
    [
      "écri",
      "ts</w>"
    ],
    [
      "mag",
      "is"
    ],
    [
      "pro",
      "pose</w>"
    ],
    [
      "oi",
      "s-je</w>"
    ],
    [
      "man",
      "qu"
    ],
    [
      "ces",
      "si"
    ],
    [
      "ni",
      "té</w>"
    ],
    [
      "répon",
      "d</w>"
    ],
    [
      "fou",
      "dre</w>"
    ],
    [
      "châ",
      "ti"
    ],
    [
      "l'h",
      "ymen</w>"
    ],
    [
      "d'",
      "ici</w>"
    ],
    [
      "tal",
      "ents</w>"
    ],
    [
      "er",
      "g"
    ],
    [
      "pré",
      "pare</w>"
    ],
    [
      "refu",
      "ser</w>"
    ],
    [
      "prom",
      "esse</w>"
    ],
    [
      "jug",
      "ez</w>"
    ],
    [
      "aph",
      "e</w>"
    ],
    [
      "rob",
      "ert</w>"
    ],
    [
      "c'",
      "était</w>"
    ],
    [
      "barbou",
      "illé</w>"
    ],
    [
      "reconn",
      "aiss"
    ],
    [
      "di",
      "ce</w>"
    ],
    [
      "cé",
      "dé</w>"
    ],
    [
      "spect",
      "ateurs</w>"
    ],
    [
      "pens",
      "é</w>"
    ],
    [
      "sc",
      "ri"
    ],
    [
      "augus",
      "tin</w>"
    ],
    [
      "oi",
      "ne</w>"
    ],
    [
      "laiss",
      "ons</w>"
    ],
    [
      "courti",
      "sans</w>"
    ],
    [
      "re",
      "tir"
    ],
    [
      "fr",
      "ais</w>"
    ],
    [
      "son",
      "gez</w>"
    ],
    [
      "pi",
      "rer</w>"
    ],
    [
      "con",
      "cer"
    ],
    [
      "de",
      "bout</w>"
    ],
    [
      "re",
      "pas</w>"
    ],
    [
      "d'",
      "état</w>"
    ],
    [
      "ri",
      "ez-vous</w>"
    ],
    [
      "affr",
      "anch"
    ],
    [
      "os",
      "é</w>"
    ],
    [
      "son",
      "ger</w>"
    ],
    [
      "ai",
      "e</w>"
    ],
    [
      "légi",
      "time</w>"
    ],
    [
      "impri",
      "mé</w>"
    ],
    [
      "qu",
      "in"
    ],
    [
      "dis",
      "grâce</w>"
    ],
    [
      "t",
      "ez-vous</w>"
    ],
    [
      "t",
      "ois</w>"
    ],
    [
      "vi",
      "en"
    ],
    [
      "al",
      "ex"
    ],
    [
      "ingr",
      "at</w>"
    ],
    [
      "souhai",
      "te</w>"
    ],
    [
      "for",
      "fait</w>"
    ],
    [
      "fau",
      "tes</w>"
    ],
    [
      "ail",
      "s</w>"
    ],
    [
      "poë",
      "tes</w>"
    ],
    [
      "du",
      "parc</w>"
    ],
    [
      "remar",
      "quer</w>"
    ],
    [
      "x",
      "i</w>"
    ],
    [
      "l'",
      "espagnol</w>"
    ],
    [
      "g",
      "ê"
    ],
    [
      "senti",
      "mens</w>"
    ],
    [
      "crimin",
      "el</w>"
    ],
    [
      "mas",
      "que</w>"
    ],
    [
      "inno",
      "cent</w>"
    ],
    [
      "bon",
      "tés</w>"
    ],
    [
      "s",
      "pi"
    ],
    [
      "vi",
      "eil</w>"
    ],
    [
      "mé",
      "es</w>"
    ],
    [
      "avant",
      "ages</w>"
    ],
    [
      "ball",
      "et</w>"
    ],
    [
      "cas",
      "tro</w>"
    ],
    [
      "jupi",
      "ter</w>"
    ],
    [
      "im",
      "pi"
    ],
    [
      "rem",
      "ettre</w>"
    ],
    [
      "capri",
      "ce</w>"
    ],
    [
      "mour",
      "ant</w>"
    ],
    [
      "f",
      "able</w>"
    ],
    [
      "dis",
      "oit</w>"
    ],
    [
      "philoso",
      "ph"
    ],
    [
      "join",
      "t</w>"
    ],
    [
      "croy",
      "ant</w>"
    ],
    [
      "pro",
      "ch"
    ],
    [
      "ar",
      "ds</w>"
    ],
    [
      "épar",
      "gn"
    ],
    [
      "sac",
      "ré</w>"
    ],
    [
      "homm",
      "age</w>"
    ],
    [
      "soup",
      "çon</w>"
    ],
    [
      "cél",
      "èbre</w>"
    ],
    [
      "di",
      "re"
    ],
    [
      "quit",
      "té</w>"
    ],
    [
      "in",
      "du"
    ],
    [
      "souhai",
      "ts</w>"
    ],
    [
      "pein",
      "dre</w>"
    ],
    [
      "ar",
      "mée</w>"
    ],
    [
      "danger",
      "eux</w>"
    ],
    [
      "mé",
      "prise</w>"
    ],
    [
      "su",
      "e</w>"
    ],
    [
      "pro",
      "ver"
    ],
    [
      "étou",
      "ff"
    ],
    [
      "jou",
      "é</w>"
    ],
    [
      "g",
      "endre</w>"
    ],
    [
      "ou",
      "x</w>"
    ],
    [
      "in",
      "ju"
    ],
    [
      "am",
      "ante</w>"
    ],
    [
      "on",
      "e</w>"
    ],
    [
      "for",
      "cer</w>"
    ],
    [
      "fer",
      "n"
    ],
    [
      "jan",
      "vier</w>"
    ],
    [
      "bibli",
      "oth"
    ],
    [
      "el",
      "li"
    ],
    [
      "si",
      "es</w>"
    ],
    [
      "x",
      "ii</w>"
    ],
    [
      "m'",
      "avoir</w>"
    ],
    [
      "ri",
      "gour"
    ],
    [
      "pens",
      "ez</w>"
    ],
    [
      "dé",
      "loy"
    ],
    [
      "marty",
      "re</w>"
    ],
    [
      "deu",
      "xième</w>"
    ],
    [
      "la",
      "onice</w>"
    ],
    [
      "franchi",
      "se</w>"
    ],
    [
      "temp",
      "ér"
    ],
    [
      "ch",
      "ass"
    ],
    [
      "con",
      "que</w>"
    ],
    [
      "con",
      "duit</w>"
    ],
    [
      "entre",
      "prise</w>"
    ],
    [
      "do",
      "s</w>"
    ],
    [
      "b",
      "ag"
    ],
    [
      "n'",
      "êtes</w>"
    ],
    [
      "br",
      "ou"
    ],
    [
      "d",
      "anger</w>"
    ],
    [
      "pass",
      "ent</w>"
    ],
    [
      "péri",
      "ence</w>"
    ],
    [
      "tin",
      "s</w>"
    ],
    [
      "cri",
      "er</w>"
    ],
    [
      "d",
      "omp"
    ],
    [
      "atte",
      "inte</w>"
    ],
    [
      "g",
      "rec"
    ],
    [
      "n",
      "t</w>"
    ],
    [
      "troubl",
      "er</w>"
    ],
    [
      "ta",
      "t</w>"
    ],
    [
      "n'",
      "o"
    ],
    [
      "ch",
      "at</w>"
    ],
    [
      "laiss",
      "ez-moi</w>"
    ],
    [
      "cont",
      "empor"
    ],
    [
      "ch",
      "ante</w>"
    ],
    [
      "préten",
      "d</w>"
    ],
    [
      "scep",
      "tre</w>"
    ],
    [
      "mari",
      "s</w>"
    ],
    [
      "mor",
      "te</w>"
    ],
    [
      "enten",
      "du</w>"
    ],
    [
      "an",
      "non"
    ],
    [
      "maxi",
      "mes</w>"
    ],
    [
      "cou",
      "vert</w>"
    ],
    [
      "volon",
      "tés</w>"
    ],
    [
      "vi",
      "n</w>"
    ],
    [
      "ho",
      "là</w>"
    ],
    [
      "pec",
      "t</w>"
    ],
    [
      "bi",
      "z"
    ],
    [
      "n",
      "elle</w>"
    ],
    [
      "fl",
      "att"
    ],
    [
      "em",
      "press"
    ],
    [
      "j",
      "ui"
    ],
    [
      "con",
      "sens</w>"
    ],
    [
      "pri",
      "vil"
    ],
    [
      "flam",
      "mes</w>"
    ],
    [
      "dét",
      "ails</w>"
    ],
    [
      "for",
      "cé</w>"
    ],
    [
      "pos",
      "ée</w>"
    ],
    [
      "l'uni",
      "té</w>"
    ],
    [
      "il",
      "ement</w>"
    ],
    [
      "inf",
      "âme</w>"
    ],
    [
      "li",
      "cence</w>"
    ],
    [
      "lâch",
      "eté</w>"
    ],
    [
      "p",
      "se</w>"
    ],
    [
      "comman",
      "dement</w>"
    ],
    [
      "conversa",
      "tion</w>"
    ],
    [
      "eur",
      "y"
    ],
    [
      "vari",
      "antes</w>"
    ],
    [
      "æ",
      "</w>"
    ],
    [
      "tres",
      "or</w>"
    ],
    [
      "tin",
      "t</w>"
    ],
    [
      "toi",
      "-même</w>"
    ],
    [
      "met",
      "tent</w>"
    ],
    [
      "l",
      "à-"
    ],
    [
      "mor",
      "ceau</w>"
    ],
    [
      "entre",
      "tiens</w>"
    ],
    [
      "l'im",
      "pression</w>"
    ],
    [
      "di",
      "gnes</w>"
    ],
    [
      "inven",
      "tion</w>"
    ],
    [
      "br",
      "u"
    ],
    [
      "n'",
      "est-ce</w>"
    ],
    [
      "fav",
      "or"
    ],
    [
      "en",
      "gage</w>"
    ],
    [
      "ri",
      "ches</w>"
    ],
    [
      "par",
      "donn"
    ],
    [
      "mor",
      "ale</w>"
    ],
    [
      "ou",
      "rs</w>"
    ],
    [
      "élo",
      "quence</w>"
    ],
    [
      "conn",
      "us</w>"
    ],
    [
      "destin",
      "s</w>"
    ],
    [
      "eu",
      "ssent</w>"
    ],
    [
      "plain",
      "t</w>"
    ],
    [
      "évén",
      "ements</w>"
    ],
    [
      "tou",
      "ché</w>"
    ],
    [
      "con",
      "ven"
    ],
    [
      "fin",
      "ir</w>"
    ],
    [
      "sou",
      "pire</w>"
    ],
    [
      "ins",
      "truit</w>"
    ],
    [
      "l'",
      "y</w>"
    ],
    [
      "for",
      "ts</w>"
    ],
    [
      "sup",
      "por"
    ],
    [
      "r",
      "ay"
    ],
    [
      "é",
      "pouv"
    ],
    [
      "man",
      "quent</w>"
    ],
    [
      "man",
      "qué</w>"
    ],
    [
      "pré",
      "cau"
    ],
    [
      "gu",
      "éri"
    ],
    [
      "neu",
      "f</w>"
    ],
    [
      "n'",
      "avons</w>"
    ],
    [
      "par",
      "donne</w>"
    ],
    [
      "assembl",
      "ée</w>"
    ],
    [
      "di",
      "x-"
    ],
    [
      "d",
      "ate</w>"
    ],
    [
      "itali",
      "en</w>"
    ],
    [
      "in",
      "é</w>"
    ],
    [
      "persu",
      "ader</w>"
    ],
    [
      "aut",
      "ori"
    ],
    [
      "par",
      "aiss"
    ],
    [
      "mon",
      "si"
    ],
    [
      "di",
      "manche</w>"
    ],
    [
      "chap",
      "</w>"
    ],
    [
      "daph",
      "né</w>"
    ],
    [
      "oeu",
      "vre</w>"
    ],
    [
      "ibi",
      "dem</w>"
    ],
    [
      "m",
      "air"
    ],
    [
      "mair",
      "et</w>"
    ],
    [
      "fern",
      "and</w>"
    ],
    [
      "b",
      "o"
    ],
    [
      "le",
      "çons</w>"
    ],
    [
      "li",
      "bér"
    ],
    [
      "n'",
      "as</w>"
    ],
    [
      "cru",
      "t</w>"
    ],
    [
      "présen",
      "ter</w>"
    ],
    [
      "élev",
      "er</w>"
    ],
    [
      "ren",
      "ard</w>"
    ],
    [
      "sé",
      "jour</w>"
    ],
    [
      "soli",
      "de</w>"
    ],
    [
      "n",
      "aï"
    ],
    [
      "por",
      "tant</w>"
    ],
    [
      "p",
      "este</w>"
    ],
    [
      "di",
      "t-on</w>"
    ],
    [
      "ang",
      "let"
    ],
    [
      "anglet",
      "erre</w>"
    ],
    [
      "merv",
      "eille</w>"
    ],
    [
      "mar",
      "ques</w>"
    ],
    [
      "ss",
      "ez</w>"
    ],
    [
      "accor",
      "de</w>"
    ],
    [
      "poi",
      "ds</w>"
    ],
    [
      "ob",
      "jets</w>"
    ],
    [
      "ajou",
      "ter</w>"
    ],
    [
      "élo",
      "ge</w>"
    ],
    [
      "qu'",
      "ainsi</w>"
    ],
    [
      "oi",
      "gne</w>"
    ],
    [
      "ré",
      "parer</w>"
    ],
    [
      "l'uni",
      "que</w>"
    ],
    [
      "rap",
      "porte</w>"
    ],
    [
      "l'",
      "idée</w>"
    ],
    [
      "ins",
      "tru"
    ],
    [
      "a-",
      "t-elle</w>"
    ],
    [
      "trav",
      "er"
    ],
    [
      "au",
      "cu"
    ],
    [
      "ch",
      "oir</w>"
    ],
    [
      "libr",
      "aire</w>"
    ],
    [
      "bat",
      "aille</w>"
    ],
    [
      "fant",
      "ai"
    ],
    [
      "ordin",
      "aires</w>"
    ],
    [
      "ven",
      "tion</w>"
    ],
    [
      "desc",
      "endre</w>"
    ],
    [
      "musi",
      "que</w>"
    ],
    [
      "imi",
      "ter</w>"
    ],
    [
      "ap",
      "porte</w>"
    ],
    [
      "es",
      "pagne</w>"
    ],
    [
      "ç",
      "à</w>"
    ],
    [
      "remp",
      "lir</w>"
    ],
    [
      "pren",
      "ne</w>"
    ],
    [
      "le",
      "cture</w>"
    ],
    [
      "gen",
      "oux</w>"
    ],
    [
      "pro",
      "b"
    ],
    [
      "mê",
      "l"
    ],
    [
      "mê",
      "le</w>"
    ],
    [
      "--",
      "sganarelle</w>"
    ],
    [
      "dé",
      "plaisir</w>"
    ],
    [
      "ins",
      "pire</w>"
    ],
    [
      "hau",
      "tement</w>"
    ],
    [
      "l'",
      "espoir</w>"
    ],
    [
      "dem",
      "ment</w>"
    ],
    [
      "on",
      "se</w>"
    ],
    [
      "ma",
      "s</w>"
    ],
    [
      "eury",
      "ale</w>"
    ],
    [
      "sonn",
      "et</w>"
    ],
    [
      "pas",
      "ques</w>"
    ],
    [
      "l'",
      "achevé</w>"
    ],
    [
      "ar",
      "ti"
    ],
    [
      "superf",
      "lus</w>"
    ],
    [
      "fau",
      "dra</w>"
    ],
    [
      "fr",
      "uits</w>"
    ],
    [
      "différ",
      "entes</w>"
    ],
    [
      "ma",
      "ch"
    ],
    [
      "m",
      "aisons</w>"
    ],
    [
      "ass",
      "ent</w>"
    ],
    [
      "modes",
      "tie</w>"
    ],
    [
      "char",
      "mant</w>"
    ],
    [
      "pa",
      "st"
    ],
    [
      "v",
      "ill"
    ],
    [
      "mar",
      "ch"
    ],
    [
      "or",
      "ds</w>"
    ],
    [
      "ri",
      "gueurs</w>"
    ],
    [
      "mé",
      "chant</w>"
    ],
    [
      "bl",
      "an"
    ],
    [
      "méde",
      "cins</w>"
    ],
    [
      "qu'",
      "a</w>"
    ],
    [
      "ren",
      "ver"
    ],
    [
      "esti",
      "mer</w>"
    ],
    [
      "ap",
      "o"
    ],
    [
      "a",
      "des</w>"
    ],
    [
      "moin",
      "dres</w>"
    ],
    [
      "ren",
      "fer"
    ],
    [
      "lu",
      "x</w>"
    ],
    [
      "v",
      "ant</w>"
    ],
    [
      "poss",
      "ession</w>"
    ],
    [
      "natur",
      "elle</w>"
    ],
    [
      "l'",
      "année</w>"
    ],
    [
      "ridicu",
      "les</w>"
    ],
    [
      "remar",
      "qu"
    ],
    [
      "lo",
      "pe</w>"
    ],
    [
      "const",
      "ances</w>"
    ],
    [
      "ving",
      "t-"
    ],
    [
      "bour",
      "gogne</w>"
    ],
    [
      "re",
      "au</w>"
    ],
    [
      "pro",
      "s"
    ],
    [
      "bal",
      "z"
    ],
    [
      "balz",
      "ac</w>"
    ],
    [
      "poé",
      "sie</w>"
    ],
    [
      "or",
      "phi"
    ],
    [
      "orphi",
      "se</w>"
    ],
    [
      "corn",
      "élie</w>"
    ],
    [
      "n'",
      "ayant</w>"
    ],
    [
      "m",
      "ang"
    ],
    [
      "pourr",
      "ois</w>"
    ],
    [
      "apparti",
      "ent</w>"
    ],
    [
      "hum",
      "ains</w>"
    ],
    [
      "de",
      "au</w>"
    ],
    [
      "all",
      "é"
    ],
    [
      "vi",
      "f</w>"
    ],
    [
      "f",
      "ête</w>"
    ],
    [
      "rich",
      "esses</w>"
    ],
    [
      "divi",
      "ne</w>"
    ],
    [
      "jus",
      "qu'ici</w>"
    ],
    [
      "doi",
      "s-je</w>"
    ],
    [
      "t'",
      "ai</w>"
    ],
    [
      "peu",
      "t-il</w>"
    ],
    [
      "ci",
      "-"
    ],
    [
      "conten",
      "ts</w>"
    ],
    [
      "ex",
      "près</w>"
    ],
    [
      "présen",
      "ts</w>"
    ],
    [
      "fau",
      "droit</w>"
    ],
    [
      "préf",
      "ace</w>"
    ],
    [
      "d",
      "ait</w>"
    ],
    [
      "v",
      "én"
    ],
    [
      "si",
      "blement</w>"
    ],
    [
      "pier",
      "rot</w>"
    ],
    [
      "romp",
      "t</w>"
    ],
    [
      "rui",
      "ne</w>"
    ],
    [
      "mar",
      "ais</w>"
    ],
    [
      "é",
      "prouv"
    ],
    [
      "fa",
      "ti"
    ],
    [
      "mes",
      "ure</w>"
    ],
    [
      "promp",
      "te</w>"
    ],
    [
      "épou",
      "se</w>"
    ],
    [
      "dé",
      "bi"
    ],
    [
      "l'av",
      "ou"
    ],
    [
      "tyr",
      "an</w>"
    ],
    [
      "m",
      "eure</w>"
    ],
    [
      "plac",
      "er</w>"
    ],
    [
      "jui",
      "n</w>"
    ],
    [
      "l'",
      "avez</w>"
    ],
    [
      "véri",
      "tés</w>"
    ],
    [
      "ac",
      "teur</w>"
    ],
    [
      "l'ab",
      "bé</w>"
    ],
    [
      "obéiss",
      "ance</w>"
    ],
    [
      "répon",
      "ds</w>"
    ],
    [
      "doc",
      "trine</w>"
    ],
    [
      "nou",
      "s-"
    ],
    [
      "confid",
      "ence</w>"
    ],
    [
      "dé",
      "plaisirs</w>"
    ],
    [
      "ti",
      "fs</w>"
    ],
    [
      "tour",
      "ments</w>"
    ],
    [
      "ré",
      "gu"
    ],
    [
      "--",
      "don</w>"
    ],
    [
      "la",
      "dite</w>"
    ],
    [
      "dam",
      "on</w>"
    ],
    [
      "appel",
      "er</w>"
    ],
    [
      "b",
      "oi"
    ],
    [
      "riv",
      "aux</w>"
    ],
    [
      "com",
      "pagn"
    ],
    [
      "e-",
      "là</w>"
    ],
    [
      "fon",
      "dement</w>"
    ],
    [
      "d'",
      "aimer</w>"
    ],
    [
      "ins",
      "truire</w>"
    ],
    [
      "tri",
      "b"
    ],
    [
      "ér",
      "i</w>"
    ],
    [
      "mon",
      "ter</w>"
    ],
    [
      "voul",
      "ant</w>"
    ],
    [
      "ab",
      "use</w>"
    ],
    [
      "st",
      "ère</w>"
    ],
    [
      "ac",
      "quis</w>"
    ],
    [
      "pro",
      "jets</w>"
    ],
    [
      "rem",
      "ords</w>"
    ],
    [
      "mar",
      "bre</w>"
    ],
    [
      "prét",
      "ends</w>"
    ],
    [
      "étern",
      "elle</w>"
    ],
    [
      "différ",
      "ents</w>"
    ],
    [
      "séri",
      "eux</w>"
    ],
    [
      "siè",
      "cles</w>"
    ],
    [
      "é",
      "bran"
    ],
    [
      "mén",
      "age</w>"
    ],
    [
      "ess",
      "er</w>"
    ],
    [
      "ess",
      "ai</w>"
    ],
    [
      "l'h",
      "y"
    ],
    [
      "h",
      "éri"
    ],
    [
      "qu",
      "o"
    ],
    [
      "défen",
      "d</w>"
    ],
    [
      "in",
      "telligence</w>"
    ],
    [
      "doi",
      "g"
    ],
    [
      "s",
      "ais"
    ],
    [
      "tri",
      "stes</w>"
    ],
    [
      "ri",
      "n"
    ],
    [
      "fein",
      "t</w>"
    ],
    [
      "biblioth",
      "èque</w>"
    ],
    [
      "la",
      "tine</w>"
    ],
    [
      "particu",
      "li"
    ],
    [
      "cer",
      "te</w>"
    ],
    [
      "mét",
      "aph"
    ],
    [
      "nouv",
      "e"
    ],
    [
      "verr",
      "ons</w>"
    ],
    [
      "étern",
      "el</w>"
    ],
    [
      "li",
      "es</w>"
    ],
    [
      "chap",
      "el"
    ],
    [
      "lumi",
      "ères</w>"
    ],
    [
      "distin",
      "gu"
    ],
    [
      "li",
      "aison</w>"
    ],
    [
      "ant",
      "oine</w>"
    ],
    [
      "des",
      "ir</w>"
    ],
    [
      "oise",
      "au</w>"
    ],
    [
      "ac",
      "quérir</w>"
    ],
    [
      "fi",
      "rent</w>"
    ],
    [
      "mu",
      "rs</w>"
    ],
    [
      "qui",
      "conque</w>"
    ],
    [
      "mod",
      "èle</w>"
    ],
    [
      "ri",
      "ne</w>"
    ],
    [
      "super",
      "be</w>"
    ],
    [
      "plein",
      "s</w>"
    ],
    [
      "è",
      "bres</w>"
    ],
    [
      "g",
      "â"
    ],
    [
      "in",
      "connu</w>"
    ],
    [
      "froi",
      "d</w>"
    ],
    [
      "endr",
      "ont</w>"
    ],
    [
      "consi",
      "ste</w>"
    ],
    [
      "chap",
      "eau</w>"
    ],
    [
      "rem",
      "pli</w>"
    ],
    [
      "uni",
      "vers"
    ],
    [
      "scrupu",
      "le</w>"
    ],
    [
      "n",
      "és</w>"
    ],
    [
      "mor",
      "tels</w>"
    ],
    [
      "ti",
      "t</w>"
    ],
    [
      "merv",
      "eilles</w>"
    ],
    [
      "o",
      "dieux</w>"
    ],
    [
      "d'",
      "horace</w>"
    ],
    [
      "accep",
      "ter</w>"
    ],
    [
      "j",
      "eux</w>"
    ],
    [
      "fi",
      "x"
    ],
    [
      "t",
      "euse</w>"
    ],
    [
      "souff",
      "ert</w>"
    ],
    [
      "s",
      "és</w>"
    ],
    [
      "n",
      "oir</w>"
    ],
    [
      "no",
      "blesse</w>"
    ],
    [
      "ébl",
      "ou"
    ],
    [
      "saur",
      "ai</w>"
    ],
    [
      "serv",
      "ent</w>"
    ],
    [
      "compar",
      "aison</w>"
    ],
    [
      "cou",
      "leur</w>"
    ],
    [
      "vrai",
      "e</w>"
    ],
    [
      "pos",
      "ture</w>"
    ],
    [
      "bou",
      "tique</w>"
    ],
    [
      "fein",
      "dre</w>"
    ],
    [
      "per",
      "met</w>"
    ],
    [
      "en",
      "vir"
    ],
    [
      "con",
      "serve</w>"
    ],
    [
      "no",
      "taire</w>"
    ],
    [
      "fid",
      "èles</w>"
    ],
    [
      "d'",
      "après</w>"
    ],
    [
      "ré",
      "es</w>"
    ],
    [
      "li",
      "ens</w>"
    ],
    [
      "subli",
      "me</w>"
    ],
    [
      "l'aut",
      "orité</w>"
    ],
    [
      "pourr",
      "ez</w>"
    ],
    [
      "re",
      "connoître</w>"
    ],
    [
      "rail",
      "lerie</w>"
    ],
    [
      "poli",
      "dore</w>"
    ],
    [
      "triomph",
      "er</w>"
    ],
    [
      "naturel",
      "lement</w>"
    ],
    [
      "ém",
      "in"
    ],
    [
      "jus",
      "que</w>"
    ],
    [
      "cir",
      "constances</w>"
    ],
    [
      "x",
      "ène</w>"
    ],
    [
      "phil",
      "ène</w>"
    ],
    [
      "l'audi",
      "teur</w>"
    ],
    [
      "cl",
      "aver"
    ],
    [
      "claver",
      "et</w>"
    ],
    [
      "t",
      "ais"
    ],
    [
      "voy",
      "ez-vous</w>"
    ],
    [
      "l",
      "â"
    ],
    [
      "on",
      "de</w>"
    ],
    [
      "rap",
      "i"
    ],
    [
      "sen",
      "ce</w>"
    ],
    [
      "lou",
      "ange</w>"
    ],
    [
      "m",
      "au"
    ],
    [
      "f",
      "ît</w>"
    ],
    [
      "pu",
      "deur</w>"
    ],
    [
      "cour",
      "onn"
    ],
    [
      "qui",
      "té</w>"
    ],
    [
      "m'",
      "étonne</w>"
    ],
    [
      "quar",
      "tier</w>"
    ],
    [
      "fol",
      "le</w>"
    ],
    [
      "atta",
      "que</w>"
    ],
    [
      "rou",
      "te</w>"
    ],
    [
      "prom",
      "en"
    ],
    [
      "che",
      "veux</w>"
    ],
    [
      "dé",
      "part</w>"
    ],
    [
      "accom",
      "pli"
    ],
    [
      "pi",
      "sto"
    ],
    [
      "ai",
      "g"
    ],
    [
      "at",
      "h"
    ],
    [
      "mes",
      "u"
    ],
    [
      "tom",
      "beau</w>"
    ],
    [
      "pouv",
      "ons</w>"
    ],
    [
      "si",
      "gne</w>"
    ],
    [
      "celui",
      "-là</w>"
    ],
    [
      "obli",
      "ge"
    ],
    [
      "ré",
      "pli"
    ],
    [
      "connoiss",
      "ance</w>"
    ],
    [
      "rar",
      "ement</w>"
    ],
    [
      "ti",
      "eux</w>"
    ],
    [
      "cep",
      "tion</w>"
    ],
    [
      "délicat",
      "esse</w>"
    ],
    [
      "con",
      "trai"
    ],
    [
      "peut-",
      "on</w>"
    ],
    [
      "l",
      "è"
    ],
    [
      "ca",
      "tions</w>"
    ],
    [
      "conten",
      "tement</w>"
    ],
    [
      "d'",
      "aristote</w>"
    ],
    [
      "aud",
      "ace</w>"
    ],
    [
      "n'",
      "aura</w>"
    ],
    [
      "fi",
      "e</w>"
    ],
    [
      "ex",
      "pose</w>"
    ],
    [
      "t",
      "ées</w>"
    ],
    [
      "mari",
      "er</w>"
    ],
    [
      "justifi",
      "er</w>"
    ],
    [
      "monsi",
      "eu</w>"
    ],
    [
      "gér",
      "oni"
    ],
    [
      "géroni",
      "mo</w>"
    ],
    [
      "ju",
      "lie</w>"
    ],
    [
      "c",
      "oin</w>"
    ],
    [
      "lég",
      "ère</w>"
    ],
    [
      "au",
      "quel</w>"
    ],
    [
      "al",
      "armes</w>"
    ],
    [
      "l'",
      "exemple</w>"
    ],
    [
      "gé",
      "ni"
    ],
    [
      "fer",
      "ois</w>"
    ],
    [
      "oubli",
      "e</w>"
    ],
    [
      "craign",
      "ez</w>"
    ],
    [
      "orig",
      "ine</w>"
    ],
    [
      "atta",
      "quer</w>"
    ],
    [
      "in",
      "justice</w>"
    ],
    [
      "expl",
      "oits</w>"
    ],
    [
      "v",
      "ôtres</w>"
    ],
    [
      "su",
      "t</w>"
    ],
    [
      "vi",
      "endra</w>"
    ],
    [
      "eil",
      "lir</w>"
    ],
    [
      "par",
      "oiss"
    ],
    [
      "ser",
      "oient</w>"
    ],
    [
      "a",
      "z"
    ],
    [
      "ri",
      "que</w>"
    ],
    [
      "myst",
      "ères</w>"
    ],
    [
      "fa",
      "çons</w>"
    ],
    [
      "aur",
      "ont</w>"
    ],
    [
      "au-",
      "dessous</w>"
    ],
    [
      "aban",
      "donner</w>"
    ],
    [
      "l'",
      "anti"
    ],
    [
      "tes",
      "t"
    ],
    [
      "dé",
      "ç"
    ],
    [
      "an",
      "ne</w>"
    ],
    [
      "achet",
      "er</w>"
    ],
    [
      "man",
      "de</w>"
    ],
    [
      "témoign",
      "er</w>"
    ],
    [
      "pau",
      "l</w>"
    ],
    [
      "j'",
      "espère</w>"
    ],
    [
      "cré",
      "du"
    ],
    [
      "b",
      "ap"
    ],
    [
      "é",
      "poque</w>"
    ],
    [
      "méli",
      "certe</w>"
    ],
    [
      "confi",
      "r"
    ],
    [
      "égyp",
      "te</w>"
    ],
    [
      "ret",
      "enir</w>"
    ],
    [
      "vraisembl",
      "ance</w>"
    ],
    [
      "spi",
      "ri"
    ],
    [
      "spiri",
      "tu"
    ],
    [
      "mat",
      "hu"
    ],
    [
      "ly",
      "si"
    ],
    [
      "lysi",
      "das</w>"
    ],
    [
      "tu",
      "é</w>"
    ],
    [
      "bi",
      "an</w>"
    ],
    [
      "éro",
      "xène</w>"
    ],
    [
      "pr",
      "e"
    ],
    [
      "lu",
      "c"
    ],
    [
      "ph",
      "otin</w>"
    ],
    [
      "on",
      "d"
    ],
    [
      "ap",
      "prends</w>"
    ],
    [
      "nu",
      "l"
    ],
    [
      "vé",
      "cu</w>"
    ],
    [
      "dites-",
      "moi</w>"
    ],
    [
      "tu",
      "r"
    ],
    [
      "profon",
      "de</w>"
    ],
    [
      "trouv",
      "ez</w>"
    ],
    [
      "vul",
      "g"
    ],
    [
      "cas",
      "t"
    ],
    [
      "gr",
      "esse</w>"
    ],
    [
      "es",
      "tes</w>"
    ],
    [
      "j'",
      "entends</w>"
    ],
    [
      "ci",
      "toy"
    ],
    [
      "min",
      "i"
    ],
    [
      "cl",
      "ar"
    ],
    [
      "cé",
      "ré"
    ],
    [
      "céré",
      "mon"
    ],
    [
      "enf",
      "er</w>"
    ],
    [
      "profi",
      "ter</w>"
    ],
    [
      "bar",
      "b"
    ],
    [
      "dé",
      "tes"
    ],
    [
      "m",
      "il"
    ],
    [
      "th",
      "ie</w>"
    ],
    [
      "cri",
      "t</w>"
    ],
    [
      "plai",
      "se</w>"
    ],
    [
      "-",
      "toi</w>"
    ],
    [
      "man",
      "u"
    ],
    [
      "dé",
      "ta"
    ],
    [
      "ter",
      "me</w>"
    ],
    [
      "fantai",
      "sie</w>"
    ],
    [
      "s",
      "avons</w>"
    ],
    [
      "l",
      "es-"
    ],
    [
      "ru",
      "de</w>"
    ],
    [
      "prom",
      "ets</w>"
    ],
    [
      "préci",
      "euses</w>"
    ],
    [
      "par",
      "fois</w>"
    ],
    [
      "avan",
      "cer</w>"
    ],
    [
      "pos",
      "ent</w>"
    ],
    [
      "offen",
      "ser</w>"
    ],
    [
      "obs",
      "tin"
    ],
    [
      "am",
      "en</w>"
    ],
    [
      "rom",
      "an</w>"
    ],
    [
      "sol",
      "li"
    ],
    [
      "croy",
      "ois</w>"
    ],
    [
      "ct",
      "eurs</w>"
    ],
    [
      "sy",
      "l"
    ],
    [
      "quer",
      "el"
    ],
    [
      "erg",
      "aste</w>"
    ],
    [
      "n",
      "éri"
    ],
    [
      "néri",
      "ne</w>"
    ],
    [
      "si",
      "gni"
    ],
    [
      "arra",
      "cher</w>"
    ],
    [
      "repro",
      "cher</w>"
    ],
    [
      "inten",
      "tions</w>"
    ],
    [
      "im",
      "pertin"
    ],
    [
      "al",
      "var</w>"
    ],
    [
      "pli",
      "cité</w>"
    ],
    [
      "ré",
      "duire</w>"
    ],
    [
      "mauv",
      "aises</w>"
    ],
    [
      "ja",
      "dis</w>"
    ],
    [
      "g",
      "il"
    ],
    [
      "at",
      "tr"
    ],
    [
      "attr",
      "ap"
    ],
    [
      "condam",
      "ner</w>"
    ],
    [
      "honn",
      "eurs</w>"
    ],
    [
      "ré",
      "publique</w>"
    ],
    [
      "mar",
      "ché</w>"
    ],
    [
      "jus",
      "qu"
    ],
    [
      "jusqu",
      "e-là</w>"
    ],
    [
      "ou",
      "ï"
    ],
    [
      "l'em",
      "pire</w>"
    ],
    [
      "é",
      "tour"
    ],
    [
      "n'",
      "aime</w>"
    ],
    [
      "l",
      "ant</w>"
    ],
    [
      "val",
      "ets</w>"
    ],
    [
      "c",
      "ente</w>"
    ],
    [
      "ess",
      "eur</w>"
    ],
    [
      "rend",
      "ent</w>"
    ],
    [
      "ven",
      "oit</w>"
    ],
    [
      "l'in",
      "no"
    ],
    [
      "ér",
      "ence</w>"
    ],
    [
      "bless",
      "é</w>"
    ],
    [
      "gag",
      "né</w>"
    ],
    [
      "o",
      "ût</w>"
    ],
    [
      "ap",
      "prenez</w>"
    ],
    [
      "difficul",
      "té</w>"
    ],
    [
      "dir",
      "a</w>"
    ],
    [
      "voul",
      "ois</w>"
    ],
    [
      "l'é",
      "pou"
    ],
    [
      "vain",
      "es</w>"
    ],
    [
      "ét",
      "endue</w>"
    ],
    [
      "prom",
      "ettre</w>"
    ],
    [
      "refu",
      "se</w>"
    ],
    [
      "att",
      "endant</w>"
    ],
    [
      "dis",
      "poser</w>"
    ],
    [
      "hy",
      "pocri"
    ],
    [
      "qu",
      "ée</w>"
    ],
    [
      "honn",
      "êtes</w>"
    ],
    [
      "in",
      "utiles</w>"
    ],
    [
      "diver",
      "tir</w>"
    ],
    [
      "o",
      "ct"
    ],
    [
      "absolu",
      "ment</w>"
    ],
    [
      "sc",
      "and"
    ],
    [
      "ar",
      "deurs</w>"
    ],
    [
      "ven",
      "g"
    ],
    [
      "rê",
      "v"
    ],
    [
      "phra",
      "se</w>"
    ],
    [
      "plac",
      "es</w>"
    ],
    [
      "cons",
      "tant</w>"
    ],
    [
      "por",
      "traits</w>"
    ],
    [
      "él",
      "év"
    ],
    [
      "pri",
      "sonn"
    ],
    [
      "dem",
      "ents</w>"
    ],
    [
      "sup",
      "pri"
    ],
    [
      "chry",
      "sal"
    ],
    [
      "chrysal",
      "de</w>"
    ],
    [
      "seu",
      "les</w>"
    ],
    [
      "poë",
      "mes</w>"
    ],
    [
      "ê",
      "</w>"
    ],
    [
      "enn",
      "emi"
    ],
    [
      "pr",
      "oie</w>"
    ],
    [
      "ré",
      "serv"
    ],
    [
      "gr",
      "a"
    ],
    [
      "consi",
      "d"
    ],
    [
      "chev",
      "alier</w>"
    ],
    [
      "j",
      "eté</w>"
    ],
    [
      "cri",
      "e</w>"
    ],
    [
      "pouv",
      "ant</w>"
    ],
    [
      "de",
      "gré</w>"
    ],
    [
      "commenc",
      "é</w>"
    ],
    [
      "g",
      "li"
    ],
    [
      "trib",
      "ue</w>"
    ],
    [
      "pro",
      "fond</w>"
    ],
    [
      "nui",
      "re</w>"
    ],
    [
      "divi",
      "n</w>"
    ],
    [
      "jug",
      "es</w>"
    ]
  ],
  "vocab": {
    "<pad>": 0,
    "<unk>": 1,
    "<bos>": 2,
    "<eos>": 3,
    "'": 4,
    "-": 5,
    "</w>": 6,
    "a": 7,
    "b": 8,
    "c": 9,
    "d": 10,
    "e": 11,
    "f": 12,
    "g": 13,
    "h": 14,
    "i": 15,
    "j": 16,
    "k": 17,
    "l": 18,
    "m": 19,
    "n": 20,
    "o": 21,
    "p": 22,
    "q": 23,
    "r": 24,
    "s": 25,
    "t": 26,
    "u": 27,
    "v": 28,
    "w": 29,
    "x": 30,
    "y": 31,
    "z": 32,
    "à": 33,
    "á": 34,
    "â": 35,
    "æ": 36,
    "ç": 37,
    "è": 38,
    "é": 39,
    "ê": 40,
    "ë": 41,
    "í": 42,
    "î": 43,
    "ï": 44,
    "ñ": 45,
    "ó": 46,
    "ô": 47,
    "ù": 48,
    "ú": 49,
    "û": 50,
    "ü": 51,
    "e</w>": 52,
    "s</w>": 53,
    "t</w>": 54,
    "en": 55,
    "ou": 56,
    "r</w>": 57,
    "on": 58,
    "qu": 59,
    "es</w>": 60,
    "ai": 61,
    "de</w>": 62,
    "an": 63,
    "re</w>": 64,
    "a</w>": 65,
    "le</w>": 66,
    "eu": 67,
    "i</w>": 68,
    "oi": 69,
    "et</w>": 70,
    "il": 71,
    "on</w>": 72,
    "ne</w>": 73,
    "es": 74,
    "au": 75,
    "te</w>": 76,
    "pa": 77,
    "que</w>": 78,
    "ri": 79,
    "n</w>": 80,
    "en</w>": 81,
    "la</w>": 82,
    "er</w>": 83,
    "er": 84,
    "ce</w>": 85,
    "el": 86,
    "ous</w>": 87,
    "à</w>": 88,
    "me</w>": 89,
    "il</w>": 90,
    "ti": 91,
    "or": 92,
    "les</w>": 93,
    "ent</w>": 94,
    "ch": 95,
    "x</w>": 96,
    "di": 97,
    "em": 98,
    "l'": 99,
    "se</w>": 100,
    "tr": 101,
    "om": 102,
    "tre</w>": 103,
    "é</w>": 104,
    "pr": 105,
    "un</w>": 106,
    "lu": 107,
    "qu'": 108,
    "li": 109,
    "ar": 110,
    "vous</w>": 111,
    "av": 112,
    "je</w>": 113,
    "est</w>": 114,
    "pou": 115,
    "u</w>": 116,
    "d'": 117,
    "qui</w>": 118,
    "eur</w>": 119,
    "ans</w>": 120,
    "in": 121,
    "su": 122,
    "ez": 123,
    "si": 124,
    "eux</w>": 125,
    "al": 126,
    "ant</w>": 127,
    "fai": 128,
    "con": 129,
    "pour</w>": 130,
    "tou": 131,
    "elle</w>": 132,
    "ez</w>": 133,
    "vi": 134,
    "une</w>": 135,
    "si</w>": 136,
    "des</w>": 137,
    "am": 138,
    "par": 139,
    "et": 140,
    "ais</w>": 141,
    "com": 142,
    "rs</w>": 143,
    "dé": 144,
    "d</w>": 145,
    "dans</w>": 146,
    "ag": 147,
    "ont</w>": 148,
    "oit</w>": 149,
    "n'": 150,
    "son</w>": 151,
    "plu": 152,
    "du</w>": 153,
    "ss": 154,
    "vo": 155,
    "c</w>": 156,
    "re": 157,
    "pas</w>": 158,
    "ts</w>": 159,
    "oi</w>": 160,
    "plus</w>": 161,
    "au</w>": 162,
    "bi": 163,
    "ui": 164,
    "té</w>": 165,
    "ois</w>": 166,
    "par</w>": 167,
    "ère</w>": 168,
    "oin": 169,
    "cou": 170,
    "ci": 171,
    "end": 172,
    "pri": 173,
    "ons</w>": 174,
    "ac": 175,
    "oir</w>": 176,
    "eu</w>": 177,
    "ses</w>": 178,
    "gr": 179,
    "ab": 180,
    "tes</w>": 181,
    "ouv": 182,
    "fi": 183,
    "mais</w>": 184,
    "ré": 185,
    "qu'il</w>": 186,
    "ait</w>": 187,
    "ement</w>": 188,
    "ap": 189,
    "no": 190,
    "ain": 191,
    "sa</w>": 192,
    "nous</w>": 193,
    "pl": 194,
    "tout</w>": 195,
    "mes</w>": 196,
    "at": 197,
    "ét": 198,
    "onn": 199,
    "mon</w>": 200,
    "ces</w>": 201,
    "lui</w>": 202,
    "ette</w>": 203,
    "cr": 204,
    "ai</w>": 205,
    "ff": 206,
    "bien</w>": 207,
    "s'": 208,
    "tion</w>": 209,
    "fait</w>": 210,
    "eurs</w>": 211,
    "y</w>": 212,
    "ar</w>": 213,
    "mi": 214,
[...]
