{
  "vocab_size": 2000,
  "merges": [
    [
      "e",
      "</w>"
    ],
    [
      "s",
      "</w>"
    ],
    [
      "t",
      "</w>"
    ],
    [
      "n",
      "</w>"
    ],
    [
      "o",
      "u"
    ],
    [
      "r",
      "</w>"
    ],
    [
      "e",
      "n"
    ],
    [
      "o",
      "i"
    ],
    [
      "q",
      "u"
    ],
    [
      "e",
      "s</w>"
    ],
    [
      "a",
      "n"
    ],
    [
      "l",
      "e</w>"
    ],
    [
      "a",
      "i"
    ],
    [
      "a",
      "</w>"
    ],
    [
      "r",
      "e</w>"
    ],
    [
      "e",
      "u"
    ],
    [
      "a",
      "u"
    ],
    [
      "d",
      "e</w>"
    ],
    [
      "o",
      "n"
    ],
    [
      "i",
      "l"
    ],
    [
      "o",
      "n</w>"
    ],
    [
      "e",
      "t</w>"
    ],
    [
      "e",
      "n</w>"
    ],
    [
      "i",
      "</w>"
    ],
    [
      "n",
      "e</w>"
    ],
    [
      "l",
      "'"
    ],
    [
      "c",
      "h"
    ],
    [
      "e",
      "r"
    ],
    [
      "p",
      "a"
    ],
    [
      "u",
      "n</w>"
    ],
    [
      "e",
      "r</w>"
    ],
    [
      "l",
      "a</w>"
    ],
    [
      "il",
      "</w>"
    ],
    [
      "e",
      "s"
    ],
    [
      "en",
      "t</w>"
    ],
    [
      "x",
      "</w>"
    ],
    [
      "qu",
      "e</w>"
    ],
    [
      "o",
      "r"
    ],
    [
      "l",
      "es</w>"
    ],
    [
      "oi",
      "t</w>"
    ],
    [
      "t",
      "e</w>"
    ],
    [
      "r",
      "i"
    ],
    [
      "d",
      "i"
    ],
    [
      "à",
      "</w>"
    ],
    [
      "e",
      "l"
    ],
    [
      "t",
      "r"
    ],
    [
      "ou",
      "s</w>"
    ],
    [
      "s",
      "e</w>"
    ],
    [
      "an",
      "t</w>"
    ],
    [
      "c",
      "e</w>"
    ],
    [
      "o",
      "m"
    ],
    [
      "t",
      "re</w>"
    ],
    [
      "e",
      "m"
    ],
    [
      "a",
      "r"
    ],
    [
      "l",
      "u"
    ],
    [
      "d",
      "'"
    ],
    [
      "qu",
      "'"
    ],
    [
      "p",
      "r"
    ],
    [
      "t",
      "i"
    ],
    [
      "m",
      "e</w>"
    ],
    [
      "t",
      "ou"
    ],
    [
      "s",
      "s"
    ],
    [
      "v",
      "i"
    ],
    [
      "au",
      "</w>"
    ],
    [
      "t",
      "s</w>"
    ],
    [
      "u",
      "</w>"
    ],
    [
      "é",
      "</w>"
    ],
    [
      "eu",
      "x</w>"
    ],
    [
      "a",
      "l"
    ],
    [
      "a",
      "v"
    ],
    [
      "eu",
      "r</w>"
    ],
    [
      "ou",
      "r"
    ],
    [
      "s",
      "u"
    ],
    [
      "f",
      "ai"
    ],
    [
      "e",
      "z"
    ],
    [
      "s",
      "on</w>"
    ],
    [
      "j",
      "e</w>"
    ],
    [
      "a",
      "g"
    ],
    [
      "es",
      "t</w>"
    ],
    [
      "ou",
      "r</w>"
    ],
    [
      "d",
      "</w>"
    ],
    [
      "an",
      "s</w>"
    ],
    [
      "d",
      "es</w>"
    ],
    [
      "v",
      "ous</w>"
    ],
    [
      "r",
      "e"
    ],
    [
      "c",
      "on"
    ],
    [
      "n",
      "'"
    ],
    [
      "m",
      "ai"
    ],
    [
      "é",
      "t"
    ],
    [
      "l",
      "i"
    ],
    [
      "qu",
      "i</w>"
    ],
    [
      "ez",
      "</w>"
    ],
    [
      "i",
      "n"
    ],
    [
      "d",
      "u</w>"
    ],
    [
      "b",
      "i"
    ],
    [
      "c",
      "om"
    ],
    [
      "u",
      "ne</w>"
    ],
    [
      "s",
      "'"
    ],
    [
      "on",
      "t</w>"
    ],
    [
      "el",
      "le</w>"
    ],
    [
      "a",
      "m"
    ],
    [
      "oi",
      "s</w>"
    ],
    [
      "pa",
      "r"
    ],
    [
      "au",
      "x</w>"
    ],
    [
      "p",
      "lu"
    ],
    [
      "en",
      "d"
    ],
    [
      "oi",
      "</w>"
    ],
    [
      "p",
      "our</w>"
    ],
    [
      "tou",
      "t</w>"
    ],
    [
      "u",
      "i"
    ],
    [
      "f",
      "i"
    ],
    [
      "ou",
      "v"
    ],
    [
      "s",
      "i"
    ],
    [
      "e",
      "t"
    ],
    [
      "t",
      "-"
    ],
    [
      "s",
      "a</w>"
    ],
    [
      "pa",
      "s</w>"
    ],
    [
      "d",
      "é"
    ],
    [
      "oi",
      "n"
    ],
    [
      "p",
      "l"
    ],
    [
      "v",
      "o"
    ],
    [
      "plu",
      "s</w>"
    ],
    [
      "eu",
      "r"
    ],
    [
      "p",
      "ri"
    ],
    [
      "ag",
      "e</w>"
    ],
    [
      "c",
      "r"
    ],
    [
      "di",
      "t</w>"
    ],
    [
      "a",
      "t"
    ],
    [
      "a",
      "p"
    ],
    [
      "g",
      "r"
    ],
    [
      "è",
      "re</w>"
    ],
    [
      "s",
      "i</w>"
    ],
    [
      "c",
      "</w>"
    ],
    [
      "on",
      "s</w>"
    ],
    [
      "en",
      "s</w>"
    ],
    [
      "m",
      "i"
    ],
    [
      "lu",
      "i</w>"
    ],
    [
      "v",
      "oi"
    ],
    [
      "e",
      "au</w>"
    ],
    [
      "mai",
      "s</w>"
    ],
    [
      "bi",
      "en</w>"
    ],
    [
      "eu",
      "</w>"
    ],
    [
      "ou",
      "p"
    ],
    [
      "d",
      "ans</w>"
    ],
    [
      "c",
      "es</w>"
    ],
    [
      "em",
      "p"
    ],
    [
      "pa",
      "r</w>"
    ],
    [
      "s",
      "es</w>"
    ],
    [
      "a",
      "b"
    ],
    [
      "su",
      "r</w>"
    ],
    [
      "n",
      "ous</w>"
    ],
    [
      "u",
      "t</w>"
    ],
    [
      "a",
      "c"
    ],
    [
      "l",
      "eur</w>"
    ],
    [
      "qu'",
      "il</w>"
    ],
    [
      "f",
      "or"
    ],
    [
      "fai",
      "t</w>"
    ],
    [
      "eur",
      "s</w>"
    ],
    [
      "c",
      "i"
    ],
    [
      "n",
      "o"
    ],
    [
      "qu",
      "el"
    ],
    [
      "et",
      "te</w>"
    ],
    [
      "t",
      "er</w>"
    ],
    [
      "p",
      "i"
    ],
    [
      "il",
      "s</w>"
    ],
    [
      "oi",
      "ent</w>"
    ],
    [
      "i",
      "m"
    ],
    [
      "an",
      "g"
    ],
    [
      "g",
      "n"
    ],
    [
      "s",
      "er"
    ],
    [
      "au",
      "tre</w>"
    ],
    [
      "t",
      "ant</w>"
    ],
    [
      "c",
      "'"
    ],
    [
      "our",
      "s</w>"
    ],
    [
      "on",
      "n"
    ],
    [
      "ai",
      "n"
    ],
    [
      "pr",
      "o"
    ],
    [
      "r",
      "é"
    ],
    [
      "p",
      "oin"
    ],
    [
      "j",
      "'"
    ],
    [
      "s",
      "ans</w>"
    ],
    [
      "t",
      "es</w>"
    ],
    [
      "c",
      "o"
    ],
    [
      "t",
      "é</w>"
    ],
    [
      "a",
      "ss"
    ],
    [
      "an",
      "d</w>"
    ],
    [
      "ai",
      "</w>"
    ],
    [
      "poin",
      "t</w>"
    ],
    [
      "m",
      "a"
    ],
    [
      "c",
      "a"
    ],
    [
      "ét",
      "oit</w>"
    ],
    [
      "t-",
      "il</w>"
    ],
    [
      "p",
      "er"
    ],
    [
      "fai",
      "re</w>"
    ],
    [
      "d'",
      "un</w>"
    ],
    [
      "é",
      "e</w>"
    ],
    [
      "t",
      "ous</w>"
    ],
    [
      "r",
      "en"
    ],
    [
      "j",
      "u"
    ],
    [
      "eu",
      "t</w>"
    ],
    [
      "er",
      "s</w>"
    ],
    [
      "m",
      "es</w>"
    ],
    [
      "c",
      "ette</w>"
    ],
    [
      "c'",
      "est</w>"
    ],
    [
      "y",
      "</w>"
    ],
    [
      "p",
      "or"
    ],
    [
      "g",
      "u"
    ],
    [
      "s",
      "o"
    ],
    [
      "al",
      "</w>"
    ],
    [
      "p",
      "o"
    ],
    [
      "s",
      "e"
    ],
    [
      "é",
      "s</w>"
    ],
    [
      "c",
      "i</w>"
    ],
    [
      "p",
      "ui"
    ],
    [
      "g",
      "e</w>"
    ],
    [
      "r",
      "a"
    ],
    [
      "n",
      "i"
    ],
    [
      "f",
      "f"
    ],
    [
      "r",
      "oit</w>"
    ],
    [
      "m",
      "on"
    ],
    [
      "en",
      "t"
    ],
    [
      "ou",
      "</w>"
    ],
    [
      "c",
      "e"
    ],
    [
      "p",
      "e"
    ],
    [
      "s",
      "se</w>"
    ],
    [
      "h",
      "om"
    ],
    [
      "l",
      "à</w>"
    ],
    [
      "com",
      "me</w>"
    ],
    [
      "il",
      "le</w>"
    ],
    [
      "au",
      "t</w>"
    ],
    [
      "em",
      "ent</w>"
    ],
    [
      "ê",
      "me</w>"
    ],
    [
      "i",
      "s</w>"
    ],
    [
      "oup",
      "</w>"
    ],
    [
      "m",
      "oi</w>"
    ],
    [
      "t",
      "emp"
    ],
    [
      "f",
      "ut</w>"
    ],
    [
      "s",
      "ou"
    ],
    [
      "l'",
      "autre</w>"
    ],
    [
      "m",
      "on</w>"
    ],
    [
      "d",
      "e"
    ],
    [
      "v",
      "en"
    ],
    [
      "r",
      "es</w>"
    ],
    [
      "di",
      "s"
    ],
    [
      "e",
      "x"
    ],
    [
      "é",
      "c"
    ],
    [
      "l",
      "ai"
    ],
    [
      "s",
      "ont</w>"
    ],
    [
      "g",
      "ens</w>"
    ],
    [
      "s",
      "or"
    ],
    [
      "r",
      "ai"
    ],
    [
      "m",
      "or"
    ],
    [
      "è",
      "s</w>"
    ],
    [
      "r",
      "ent</w>"
    ],
    [
      "ch",
      "e</w>"
    ],
    [
      "m",
      "o"
    ],
    [
      "e",
      "c</w>"
    ],
    [
      "ô",
      "t</w>"
    ],
    [
      "al",
      "l"
    ],
    [
      "d",
      "eux</w>"
    ],
    [
      "au",
      "ss"
    ],
    [
      "l",
      "o"
    ],
    [
      "ez",
      "-"
    ],
    [
      "j",
      "ours</w>"
    ],
    [
      "u",
      "re</w>"
    ],
    [
      "ê",
      "te</w>"
    ],
    [
      "av",
      "oit</w>"
    ],
    [
      "quel",
      "que</w>"
    ],
    [
      "c",
      "our"
    ],
    [
      "m",
      "ême</w>"
    ],
    [
      "ai",
      "n</w>"
    ],
    [
      "em",
      "b"
    ],
    [
      "î",
      "tre</w>"
    ],
    [
      "û",
      "t</w>"
    ],
    [
      "c",
      "er"
    ],
    [
      "an",
      "ts</w>"
    ],
    [
      "d",
      "s</w>"
    ],
    [
      "t",
      "u</w>"
    ],
    [
      "-",
      "-"
    ],
    [
      "qu'",
      "on</w>"
    ],
    [
      "m",
      "'"
    ],
    [
      "ê",
      "tre</w>"
    ],
    [
      "hom",
      "me</w>"
    ],
    [
      "au",
      "v"
    ],
    [
      "fi",
      "n</w>"
    ],
    [
      "c",
      "or"
    ],
    [
      "temp",
      "s</w>"
    ],
    [
      "vo",
      "y"
    ],
    [
      "fi",
      "t</w>"
    ],
    [
      "f",
      "r"
    ],
    [
      "qu",
      "and</w>"
    ],
    [
      "av",
      "ec</w>"
    ],
    [
      "ri",
      "en</w>"
    ],
    [
      "m",
      "é"
    ],
    [
      "l",
      "</w>"
    ],
    [
      "ar",
      "d</w>"
    ],
    [
      "no",
      "tre</w>"
    ],
    [
      "ch",
      "i"
    ],
    [
      "il",
      "l"
    ],
    [
      "an",
      "ce</w>"
    ],
    [
      "end",
      "re</w>"
    ],
    [
      "d",
      "on"
    ],
    [
      "p",
      "eu</w>"
    ],
    [
      "pa",
      "ss"
    ],
    [
      "ch",
      "a"
    ],
    [
      "el",
      "</w>"
    ],
    [
      "m",
      "ar"
    ],
    [
      "m",
      "a</w>"
    ],
    [
      "mai",
      "n"
    ],
    [
      "c",
      "u"
    ],
    [
      "é",
      "r"
    ],
    [
      "tr",
      "ouv"
    ],
    [
      "l",
      "eurs</w>"
    ],
    [
      "s",
      "ai"
    ],
    [
      "i",
      "t"
    ],
    [
      "m",
      "oin"
    ],
    [
      "s",
      "-"
    ],
    [
      "oi",
      "r</w>"
    ],
    [
      "for",
      "t</w>"
    ],
    [
      "p",
      "our"
    ],
    [
      "i",
      "n</w>"
    ],
    [
      "v",
      "ou"
    ],
    [
      "m",
      "ent</w>"
    ],
    [
      "es",
      "se</w>"
    ],
    [
      "ab",
      "le</w>"
    ],
    [
      "an",
      "im"
    ],
    [
      "oi",
      "n</w>"
    ],
    [
      "c",
      "el"
    ],
    [
      "pri",
      "t</w>"
    ],
    [
      "c",
      "et</w>"
    ],
    [
      "vi",
      "ent</w>"
    ],
    [
      "n'",
      "est</w>"
    ],
    [
      "j",
      "our</w>"
    ],
    [
      "at",
      "t"
    ],
    [
      "en",
      "ts</w>"
    ],
    [
      "d",
      "ou"
    ],
    [
      "pl",
      "ai"
    ],
    [
      "d",
      "em"
    ],
    [
      "l",
      "e"
    ],
    [
      "l'",
      "h"
    ],
    [
      "f",
      "aut</w>"
    ],
    [
      "p",
      "en"
    ],
    [
      "ch",
      "o"
    ],
    [
      "d",
      "es"
    ],
    [
      "en",
      "f"
    ],
    [
      "s'",
      "en</w>"
    ],
    [
      "di",
      "t-il</w>"
    ],
    [
      "p",
      "h"
    ],
    [
      "en",
      "co"
    ],
    [
      "t",
      "er"
    ],
    [
      "s",
      "oit</w>"
    ],
    [
      "ma",
      "ître</w>"
    ],
    [
      "qu'",
      "un</w>"
    ],
    [
      "n",
      "i</w>"
    ],
    [
      "pui",
      "s</w>"
    ],
    [
      "r",
      "s</w>"
    ],
    [
      "n",
      "u"
    ],
    [
      "b",
      "r"
    ],
    [
      "o",
      "b"
    ],
    [
      "l'",
      "on</w>"
    ],
    [
      "d'",
      "une</w>"
    ],
    [
      "tr",
      "es</w>"
    ],
    [
      "ap",
      "p"
    ],
    [
      "i",
      "ne</w>"
    ],
    [
      "n",
      "on</w>"
    ],
    [
      "on",
      "g"
    ],
    [
      "t",
      "on</w>"
    ],
    [
      "ch",
      "ez</w>"
    ],
    [
      "vo",
      "tre</w>"
    ],
    [
      "o",
      "ù"
    ],
    [
      "où",
      "</w>"
    ],
    [
      "b",
      "on</w>"
    ],
    [
      "p",
      "eu"
    ],
    [
      "n'",
      "en</w>"
    ],
    [
      "o",
      "p"
    ],
    [
      "a",
      "s</w>"
    ],
    [
      "oi",
      "re</w>"
    ],
    [
      "ui",
      "t</w>"
    ],
    [
      "s",
      "t"
    ],
    [
      "j",
      "a"
    ],
    [
      "d",
      "onn"
    ],
    [
      "ch",
      "er</w>"
    ],
    [
      "pr",
      "ès</w>"
    ],
    [
      "m",
      "al"
    ],
    [
      "voi",
      "r</w>"
    ],
    [
      "s",
      "eu"
    ],
    [
      "vi",
      "e</w>"
    ],
    [
      "o",
      "y"
    ],
    [
      "--",
      "</w>"
    ],
    [
      "qu",
      "oi</w>"
    ],
    [
      "om",
      "b"
    ],
    [
      "ain",
      "si</w>"
    ],
    [
      "tr",
      "ai"
    ],
    [
      "pr",
      "é"
    ],
    [
      "m",
      "ou"
    ],
    [
      "e",
      "f"
    ],
    [
      "tou",
      "jours</w>"
    ],
    [
      "v",
      "ers</w>"
    ],
    [
      "auss",
      "i</w>"
    ],
    [
      "ri",
      "s</w>"
    ],
    [
      "ca",
      "r</w>"
    ],
    [
      "ez-",
      "vous</w>"
    ],
    [
      "don",
      "c</w>"
    ],
    [
      "p",
      "u"
    ],
    [
      "b",
      "eau</w>"
    ],
    [
      "g",
      "er</w>"
    ],
    [
      "h",
      "u"
    ],
    [
      "cer",
      "t"
    ],
    [
      "l",
      "oup</w>"
    ],
    [
      "m",
      "an"
    ],
    [
      "t",
      "u"
    ],
    [
      "é",
      "l"
    ],
    [
      "l'",
      "un</w>"
    ],
    [
      "ch",
      "ac"
    ],
    [
      "di",
      "re</w>"
    ],
    [
      "b",
      "ou"
    ],
    [
      "d",
      "re</w>"
    ],
    [
      "moin",
      "s</w>"
    ],
    [
      "di",
      "eu</w>"
    ],
    [
      "g",
      "ar"
    ],
    [
      "l",
      "le</w>"
    ],
    [
      "r",
      "a</w>"
    ],
    [
      "ti",
      "t</w>"
    ],
    [
      "f",
      "u"
    ],
    [
      "cho",
      "se</w>"
    ],
    [
      "di",
      "eux</w>"
    ],
    [
      "chac",
      "un</w>"
    ],
    [
      "f",
      "on"
    ],
    [
      "on",
      "ne</w>"
    ],
    [
      "i",
      "r</w>"
    ],
    [
      "en",
      "ce</w>"
    ],
    [
      "no",
      "s</w>"
    ],
    [
      "ch",
      "er"
    ],
    [
      "end",
      "ant</w>"
    ],
    [
      "ri",
      "r</w>"
    ],
    [
      "tou",
      "te</w>"
    ],
    [
      "t",
      "a</w>"
    ],
    [
      "c",
      "oup</w>"
    ],
    [
      "r",
      "es"
    ],
    [
      "t",
      "en"
    ],
    [
      "mi",
      "eux</w>"
    ],
    [
      "n",
      "t</w>"
    ],
    [
      "qu'",
      "à</w>"
    ],
    [
      "d",
      "ont</w>"
    ],
    [
      "i",
      "gn"
    ],
    [
      "e",
      "ût</w>"
    ],
    [
      "v",
      "er"
    ],
    [
      "c",
      "ou"
    ],
    [
      "pr",
      "en"
    ],
    [
      "j'",
      "ai</w>"
    ],
    [
      "p",
      "eut</w>"
    ],
    [
      "s",
      "er</w>"
    ],
    [
      "en",
      "fin</w>"
    ],
    [
      "f",
      "</w>"
    ],
    [
      "m",
      "en"
    ],
    [
      "r",
      "oi</w>"
    ],
    [
      "tou",
      "r</w>"
    ],
    [
      "v",
      "e</w>"
    ],
    [
      "a",
      "y"
    ],
    [
      "s",
      "in"
    ],
    [
      "an",
      "t"
    ],
    [
      "vi",
      "t</w>"
    ],
    [
      "ja",
      "mais</w>"
    ],
    [
      "ju",
      "s"
    ],
    [
      "su",
      "i"
    ],
    [
      "m",
      "u"
    ],
    [
      "pri",
      "s</w>"
    ],
    [
      "b",
      "e"
    ],
    [
      "s",
      "emb"
    ],
    [
      "tr",
      "op"
    ],
    [
      "trop",
      "</w>"
    ],
    [
      "b",
      "l"
    ],
    [
      "a",
      "t</w>"
    ],
    [
      "p",
      "auv"
    ],
    [
      "v",
      "a</w>"
    ],
    [
      "u",
      "e</w>"
    ],
    [
      "v",
      "oit</w>"
    ],
    [
      "en",
      "tre</w>"
    ],
    [
      "c",
      "ri"
    ],
    [
      "p",
      "e</w>"
    ],
    [
      "p",
      "endant</w>"
    ],
    [
      "s",
      "age</w>"
    ],
    [
      "h",
      "</w>"
    ],
    [
      "a",
      "f"
    ],
    [
      "tou",
      "r"
    ],
    [
      "pri",
      "n"
    ],
    [
      "f",
      "er"
    ],
    [
      "au",
      "r"
    ],
    [
      "enco",
      "r</w>"
    ],
    [
      "m",
      "al</w>"
    ],
    [
      "h",
      "a"
    ],
    [
      "p",
      "le</w>"
    ],
    [
      "il",
      "les</w>"
    ],
    [
      "n",
      "ouv"
    ],
    [
      "é",
      "g"
    ],
    [
      "v",
      "re</w>"
    ],
    [
      "con",
      "tre</w>"
    ],
    [
      "c",
      "ent</w>"
    ],
    [
      "anim",
      "al</w>"
    ],
    [
      "ch",
      "ar"
    ],
    [
      "qu",
      "es</w>"
    ],
    [
      "mor",
      "t</w>"
    ],
    [
      "voi",
      "là</w>"
    ],
    [
      "par",
      "t</w>"
    ],
    [
      "l'",
      "ai"
    ],
    [
      "lai",
      "ss"
    ],
    [
      "ai",
      "re</w>"
    ],
    [
      "rai",
      "son</w>"
    ],
    [
      "s",
      "ouv"
    ],
    [
      "g",
      "e"
    ],
    [
      "t",
      "ête</w>"
    ],
    [
      "-",
      "ci</w>"
    ],
    [
      "gr",
      "an"
    ],
    [
      "em",
      "i"
    ],
    [
      "c",
      "ar"
    ],
    [
      "ay",
      "ant</w>"
    ],
    [
      "ce",
      "la</w>"
    ],
    [
      "g",
      "ent</w>"
    ],
    [
      "p",
      "s</w>"
    ],
    [
      "é",
      "ri"
    ],
    [
      "or",
      "s</w>"
    ],
    [
      "ét",
      "ant</w>"
    ],
    [
      "t",
      "el</w>"
    ],
    [
      "b",
      "er"
    ],
    [
      "a",
      "d"
    ],
    [
      "j",
      "et</w>"
    ],
    [
      "s",
      "om"
    ],
    [
      "è",
      "res</w>"
    ],
    [
      "t",
      "ri"
    ],
    [
      "ang",
      "er</w>"
    ],
    [
      "gr",
      "and</w>"
    ],
    [
      "g",
      "l"
    ],
    [
      "g",
      "ne</w>"
    ],
    [
      "ai",
      "s</w>"
    ],
    [
      "seu",
      "l</w>"
    ],
    [
      "m",
      "et"
    ],
    [
      "è",
      "rent</w>"
    ],
    [
      "s",
      "en"
    ],
    [
      "ti",
      "on</w>"
    ],
    [
      "mi",
      "t</w>"
    ],
    [
      "vou",
      "l"
    ],
    [
      "t",
      "omb"
    ],
    [
      "s",
      "a"
    ],
    [
      "p",
      "ou"
    ],
    [
      "es",
      "prit</w>"
    ],
    [
      "s",
      "ous</w>"
    ],
    [
      "av",
      "oir</w>"
    ],
    [
      "sor",
      "t</w>"
    ],
    [
      "o",
      "s</w>"
    ],
    [
      "ren",
      "ard</w>"
    ],
    [
      "ju",
      "pi"
    ],
    [
      "l'",
      "ar"
    ],
    [
      "pi",
      "e"
    ],
    [
      "pe",
      "ine</w>"
    ],
    [
      "p",
      "ère</w>"
    ],
    [
      "l'",
      "homme</w>"
    ],
    [
      "s'",
      "il</w>"
    ],
    [
      "t-",
      "on</w>"
    ],
    [
      "e",
      "-"
    ],
    [
      "t",
      "oit</w>"
    ],
    [
      "i",
      "e</w>"
    ],
    [
      "au",
      "tres</w>"
    ],
    [
      "en",
      "tr"
    ],
    [
      "f",
      "l"
    ],
    [
      "e",
      "ts</w>"
    ],
    [
      "î",
      "t</w>"
    ],
    [
      "cert",
      "ain</w>"
    ],
    [
      "v",
      "ant</w>"
    ],
    [
      "f",
      "au"
    ],
    [
      "pr",
      "endre</w>"
    ],
    [
      "su",
      "is</w>"
    ],
    [
      "j'",
      "en</w>"
    ],
    [
      "f",
      "a"
    ],
    [
      "vo",
      "s</w>"
    ],
    [
      "ai",
      "ne</w>"
    ],
    [
      "ti",
      "r</w>"
    ],
    [
      "eu",
      "re</w>"
    ],
    [
      "li",
      "on</w>"
    ],
    [
      "por",
      "te</w>"
    ],
    [
      "pr",
      "emi"
    ],
    [
      "auss",
      "it"
    ],
    [
      "aussit",
      "ôt</w>"
    ],
    [
      "li",
      "eu</w>"
    ],
    [
      "ti",
      "n</w>"
    ],
    [
      "be",
      "au"
    ],
    [
      "p",
      "ouv"
    ],
    [
      "ar",
      "ri"
    ],
    [
      "t",
      "el"
    ],
    [
      "u",
      "i</w>"
    ],
    [
      "ef",
      "ois</w>"
    ],
    [
      "mon",
      "de</w>"
    ],
    [
      "s",
      "é"
    ],
    [
      "af",
      "faire</w>"
    ],
    [
      "e",
      "v"
    ],
    [
      "t",
      "'"
    ],
    [
      "cha",
      "t</w>"
    ],
    [
      "ra",
      "t</w>"
    ],
    [
      "oi",
      "s"
    ],
    [
      "c",
      "ours</w>"
    ],
    [
      "es",
      "si"
    ],
    [
      "tr",
      "ois</w>"
    ],
    [
      "pl",
      "e"
    ],
    [
      "u",
      "r</w>"
    ],
    [
      "oi",
      "e</w>"
    ],
    [
      "an",
      "te</w>"
    ],
    [
      "pauv",
      "re</w>"
    ],
    [
      "bou",
      "t</w>"
    ],
    [
      "com",
      "pa"
    ],
    [
      "om",
      "p"
    ],
    [
      "b",
      "le</w>"
    ],
    [
      "l'",
      "é"
    ],
    [
      "com",
      "m"
    ],
    [
      "e",
      "ill"
    ],
    [
      "a",
      "près</w>"
    ],
    [
      "r",
      "ai</w>"
    ],
    [
      "u",
      "s</w>"
    ],
    [
      "am",
      "i</w>"
    ],
    [
      "f",
      "ont</w>"
    ],
    [
      "l",
      "ong"
    ],
    [
      "a",
      "n</w>"
    ],
    [
      "mal",
      "h"
    ],
    [
      "or",
      "d</w>"
    ],
    [
      "jupi",
      "ter</w>"
    ],
    [
      "l",
      "l"
    ],
    [
      "s",
      "ant</w>"
    ],
    [
      "ass",
      "ez</w>"
    ],
    [
      "y",
      "eux</w>"
    ],
    [
      "main",
      "s</w>"
    ],
    [
      "si",
      "r</w>"
    ],
    [
      "d",
      "er</w>"
    ],
    [
      "e",
      "ille</w>"
    ],
    [
      "b",
      "e</w>"
    ],
    [
      "l'",
      "in"
    ],
    [
      "gr",
      "â"
    ],
    [
      "peu",
      "ple</w>"
    ],
    [
      "ch",
      "ev"
    ],
    [
      "j",
      "eu"
    ],
    [
      "vi",
      "nt</w>"
    ],
    [
      "ai",
      "lle</w>"
    ],
    [
      "en",
      "n"
    ],
    [
      "enf",
      "ants</w>"
    ],
    [
      "pa",
      "y"
    ],
    [
      "all",
      "oit</w>"
    ],
    [
      "souv",
      "ent</w>"
    ],
    [
      "t",
      "une</w>"
    ],
    [
      "er",
      "re</w>"
    ],
    [
      "r",
      "o"
    ],
    [
      "l'",
      "â"
    ],
    [
      "s",
      "ent</w>"
    ],
    [
      "pl",
      "ain"
    ],
    [
      "pe",
      "ti"
    ],
    [
      "r",
      "eur</w>"
    ],
    [
      "d",
      "roit</w>"
    ],
    [
      "mi",
      "s</w>"
    ],
    [
      "anim",
      "aux</w>"
    ],
    [
      "tr",
      "av"
    ],
    [
      "f",
      "ils</w>"
    ],
    [
      "pa",
      "re"
    ],
    [
      "se",
      "ign"
    ],
    [
      "qu",
      "it"
    ],
    [
      "f",
      "em"
    ],
    [
      "tr",
      "é"
    ],
    [
      "r",
      "ois</w>"
    ],
    [
      "c'",
      "étoit</w>"
    ],
    [
      "t-",
      "elle</w>"
    ],
    [
      "n",
      "s</w>"
    ],
    [
      "s",
      "onn"
    ],
    [
      "v",
      "u</w>"
    ],
    [
      "chi",
      "en</w>"
    ],
    [
      "t",
      "és</w>"
    ],
    [
      "e",
      "aux</w>"
    ],
    [
      "au",
      "tr"
    ],
    [
      "j",
      "ou"
    ],
    [
      "a",
      "ts</w>"
    ],
    [
      "ce",
      "pendant</w>"
    ],
    [
      "lo",
      "g"
    ],
    [
      "ch",
      "é</w>"
    ],
    [
      "cor",
      "ps</w>"
    ],
    [
      "ti",
      "r"
    ],
    [
      "l",
      "er</w>"
    ],
    [
      "lu",
      "t</w>"
    ],
    [
      "g",
      "o"
    ],
    [
      "con",
      "tr"
    ],
    [
      "v",
      "ent</w>"
    ],
    [
      "n",
      "om"
    ],
    [
      "d",
      "er"
    ],
    [
      "ré",
      "p"
    ],
    [
      "o",
      "c"
    ],
    [
      "su",
      "r"
    ],
    [
      "com",
      "p"
    ],
    [
      "ar",
      "r"
    ],
    [
      "â",
      "t</w>"
    ],
    [
      "t",
      "oi</w>"
    ],
    [
      "t",
      "é"
    ],
    [
      "l",
      "oin</w>"
    ],
    [
      "oup",
      "s</w>"
    ],
    [
      "g",
      "ag"
    ],
    [
      "qu",
      "i"
    ],
    [
      "am",
      "our</w>"
    ],
    [
      "compa",
      "gn"
    ],
    [
      "h",
      "aut</w>"
    ],
    [
      "f",
      "our"
    ],
    [
      "qu",
      "ant</w>"
    ],
    [
      "oi",
      "ss"
    ],
    [
      "sou",
      "ris</w>"
    ],
    [
      "di",
      "s</w>"
    ],
    [
      "pren",
      "d</w>"
    ],
    [
      "u",
      "ni"
    ],
    [
      "n",
      "er</w>"
    ],
    [
      "r",
      "u"
    ],
    [
      "c",
      "l"
    ],
    [
      "b",
      "re</w>"
    ],
    [
      "b",
      "ois</w>"
    ],
    [
      "tr",
      "a"
    ],
    [
      "t",
      "es"
    ],
    [
      "el",
      "les</w>"
    ],
    [
      "au",
      "tant</w>"
    ],
    [
      "for",
      "tune</w>"
    ],
    [
      "av",
      "ent"
    ],
    [
      "pie",
      "ds</w>"
    ],
    [
      "-",
      "même</w>"
    ],
    [
      "t",
      "ent</w>"
    ],
    [
      "cel",
      "ui"
    ],
    [
      "v",
      "eux</w>"
    ],
    [
      "t",
      "eur</w>"
    ],
    [
      "mo",
      "ts</w>"
    ],
    [
      "for",
      "ce</w>"
    ],
    [
      "ê",
      "tes</w>"
    ],
    [
      "grâ",
      "ce</w>"
    ],
    [
      "beau",
      "coup</w>"
    ],
    [
      "t",
      "ôt</w>"
    ],
    [
      "n",
      "at"
    ],
    [
      "a",
      "de</w>"
    ],
    [
      "b",
      "onne</w>"
    ],
    [
      "semb",
      "l"
    ],
    [
      "es",
      "s"
    ],
    [
      "ha",
      "bi"
    ],
    [
      "tou",
      "tes</w>"
    ],
    [
      "dem",
      "an"
    ],
    [
      "o",
      "r</w>"
    ],
    [
      "pl",
      "a"
    ],
    [
      "ti",
      "ent</w>"
    ],
    [
      "l",
      "on"
    ],
    [
      "qu'",
      "elle</w>"
    ],
    [
      "t",
      "or"
    ],
    [
      "c",
      "am"
    ],
    [
      "prin",
      "ce</w>"
    ],
    [
      "sai",
      "t</w>"
    ],
    [
      "i",
      "t</w>"
    ],
    [
      "b",
      "elle</w>"
    ],
    [
      "ois",
      "eau</w>"
    ],
    [
      "voi",
      "ci</w>"
    ],
    [
      "qu'",
      "en</w>"
    ],
    [
      "s",
      "oup"
    ],
    [
      "s",
      "ons</w>"
    ],
    [
      "cr",
      "oy"
    ],
    [
      "ch",
      "am"
    ],
    [
      "ch",
      "em"
    ],
    [
      "quel",
      "</w>"
    ],
    [
      "v",
      "eut</w>"
    ],
    [
      "d",
      "oit</w>"
    ],
    [
      "-",
      "je</w>"
    ],
    [
      "cel",
      "ui</w>"
    ],
    [
      "ch",
      "an"
    ],
    [
      "ét",
      "oient</w>"
    ],
    [
      "m",
      "er</w>"
    ],
    [
      "f",
      "ois</w>"
    ],
    [
      "f",
      "in"
    ],
    [
      "enco",
      "re</w>"
    ],
    [
      "b",
      "ête</w>"
    ],
    [
      "log",
      "is</w>"
    ],
    [
      "au",
      "roit</w>"
    ],
    [
      "s",
      "auv"
    ],
    [
      "a",
      "-"
    ],
    [
      "ag",
      "es</w>"
    ],
    [
      "cr",
      "o"
    ],
    [
      "pr",
      "om"
    ],
    [
      "fem",
      "me</w>"
    ],
    [
      "end",
      "s</w>"
    ],
    [
      "ple",
      "in</w>"
    ],
    [
      "r",
      "em"
    ],
    [
      "don",
      "ne</w>"
    ],
    [
      "n'",
      "étoit</w>"
    ],
    [
      "ch",
      "ass"
    ],
    [
      "ce",
      "ci</w>"
    ],
    [
      "ain",
      "s</w>"
    ],
    [
      "d'",
      "h"
    ],
    [
      "tr",
      "oup"
    ],
    [
      "b",
      "â"
    ],
    [
      "cr",
      "é"
    ],
    [
      "ra",
      "s</w>"
    ],
    [
      "él",
      "é"
    ],
    [
      "à",
      "-"
    ],
    [
      "sou",
      "ff"
    ],
    [
      "com",
      "ment</w>"
    ],
    [
      "ti",
      "er</w>"
    ],
    [
      "a",
      "vi"
    ],
    [
      "v",
      "er</w>"
    ],
    [
      "i",
      "ère</w>"
    ],
    [
      "pr",
      "ét"
    ],
    [
      "peti",
      "ts</w>"
    ],
    [
      "ab",
      "les</w>"
    ],
    [
      "ter",
      "re</w>"
    ],
    [
      "celui",
      "-ci</w>"
    ],
    [
      "eu",
      "se</w>"
    ],
    [
      "o",
      "ff"
    ],
    [
      "é",
      "tr"
    ],
    [
      "li",
      "eux</w>"
    ],
    [
      "b",
      "li"
    ],
    [
      "main",
      "t</w>"
    ],
    [
      "on",
      "de</w>"
    ],
    [
      "qu'",
      "au</w>"
    ],
    [
      "con",
      "n"
    ],
    [
      "g",
      "le</w>"
    ],
    [
      "ri",
      "t</w>"
    ],
    [
      "sai",
      "s</w>"
    ],
    [
      "ang",
      "e</w>"
    ],
    [
      "r",
      "ou"
    ],
    [
      "ci",
      "el</w>"
    ],
    [
      "l'",
      "or"
    ],
    [
      "g",
      "ri"
    ],
    [
      "c",
      "eux</w>"
    ],
    [
      "c",
      "our</w>"
    ],
    [
      "end",
      "r"
    ],
    [
      "d",
      "ent</w>"
    ],
    [
      "al",
      "ors</w>"
    ],
    [
      "emp",
      "or"
    ],
    [
      "ti",
      "é</w>"
    ],
    [
      "pro",
      "po"
    ],
    [
      "vi",
      "ens</w>"
    ],
    [
      "b",
      "u"
    ],
    [
      "por",
      "ter</w>"
    ],
    [
      "t",
      "te</w>"
    ],
    [
      "v",
      "ois</w>"
    ],
    [
      "ar",
      "t</w>"
    ],
    [
      "qu",
      "a"
    ],
    [
      "avent",
      "ure</w>"
    ],
    [
      "jeu",
      "ne</w>"
    ],
    [
      "cour",
      "t</w>"
    ],
    [
      "si",
      "re</w>"
    ],
    [
      "mai",
      "n</w>"
    ],
    [
      "end",
      "roit</w>"
    ],
    [
      "r",
      "age</w>"
    ],
    [
      "e",
      "h</w>"
    ],
    [
      "l'",
      "en"
    ],
    [
      "d",
      "or"
    ],
    [
      "eur",
      "eux</w>"
    ],
    [
      "su",
      "s</w>"
    ],
    [
      "t",
      "ons</w>"
    ],
    [
      "mai",
      "son</w>"
    ],
    [
      "quel",
      "ques</w>"
    ],
    [
      "donn",
      "er</w>"
    ],
    [
      "plai",
      "sir</w>"
    ],
    [
      "ven",
      "ir</w>"
    ],
    [
      "ab",
      "ord</w>"
    ],
    [
      "qu'",
      "ils</w>"
    ],
    [
      "n",
      "es</w>"
    ],
    [
      "tel",
      "s</w>"
    ],
    [
      "cr",
      "ut</w>"
    ],
    [
      "s",
      "ens</w>"
    ],
    [
      "ap",
      "pro"
    ],
    [
      "pui",
      "ss"
    ],
    [
      "fon",
      "d</w>"
    ],
    [
      "m",
      "om"
    ],
    [
      "m",
      "essi"
    ],
    [
      "nouv",
      "eau</w>"
    ],
    [
      "c",
      "ouv"
    ],
    [
      "cha",
      "que</w>"
    ],
    [
      "m",
      "oi"
    ],
    [
      "oin",
      "s</w>"
    ],
    [
      "long",
      "</w>"
    ],
    [
      "gran",
      "ds</w>"
    ],
    [
      "c",
      "au"
    ],
    [
      "m",
      "i</w>"
    ],
    [
      "es",
      "p"
    ],
    [
      "l",
      "y"
    ],
    [
      "cher",
      "cher</w>"
    ],
    [
      "t-",
      "ce</w>"
    ],
    [
      "d'",
      "être</w>"
    ],
    [
      "fai",
      "soit</w>"
    ],
    [
      "t",
      "ez</w>"
    ],
    [
      "s",
      "tr"
    ],
    [
      "qu",
      "er</w>"
    ],
    [
      "m",
      "ille</w>"
    ],
    [
      "ni",
      "er</w>"
    ],
    [
      "ex",
      "emp"
    ],
    [
      "ti",
      "n"
    ],
    [
      "in",
      "s</w>"
    ],
    [
      "en",
      "d</w>"
    ],
    [
      "gu",
      "e</w>"
    ],
    [
      "con",
      "se"
    ],
    [
      "am",
      "is</w>"
    ],
    [
      "ç",
      "on</w>"
    ],
    [
      "s",
      "oin</w>"
    ],
    [
      "ca",
      "s</w>"
    ],
    [
      "d",
      "u"
    ],
    [
      "i",
      "ci</w>"
    ],
    [
      "éc",
      "ou"
    ],
    [
      "m",
      "ère</w>"
    ],
    [
      "qua",
      "tre</w>"
    ],
    [
      "met",
      "tre</w>"
    ],
    [
      "d",
      "eur</w>"
    ],
    [
      "ser",
      "t</w>"
    ],
    [
      "l",
      "à-"
    ],
    [
      "cr",
      "u"
    ],
    [
      "s",
      "av"
    ],
    [
      "voi",
      "x</w>"
    ],
    [
      "chi",
      "ens</w>"
    ],
    [
      "d",
      "ès</w>"
    ],
    [
      "dou",
      "x</w>"
    ],
    [
      "p",
      "ai"
    ],
    [
      "o",
      "</w>"
    ],
    [
      "ai",
      "gn"
    ],
    [
      "b",
      "es"
    ],
    [
      "so",
      "r</w>"
    ],
    [
      "trouv",
      "a</w>"
    ],
    [
      "mo",
      "t</w>"
    ],
    [
      "i",
      "er</w>"
    ],
    [
      "di",
      "n"
    ],
    [
      "l",
      "ou"
    ],
    [
      "voi",
      "si"
    ],
    [
      "premi",
      "er</w>"
    ],
    [
      "gu",
      "erre</w>"
    ],
    [
      "des",
      "sus</w>"
    ],
    [
      "de",
      "vant</w>"
    ],
    [
      "g",
      "é"
    ],
    [
      "h",
      "ô"
    ],
    [
      "d",
      "r"
    ],
    [
      "n",
      "a"
    ],
    [
      "t",
      "h"
    ],
    [
      "p",
      "eur</w>"
    ],
    [
      "é",
      "ch"
    ],
    [
      "m",
      "er"
    ],
    [
      "gr",
      "é</w>"
    ],
    [
      "l'",
      "animal</w>"
    ],
    [
      "lai",
      "sse</w>"
    ],
    [
      "s",
      "é</w>"
    ],
    [
      "h",
      "ar"
    ],
    [
      "d",
      "ents</w>"
    ],
    [
      "tr",
      "an"
    ],
    [
      "j",
      "our"
    ],
    [
      "a",
      "dieu</w>"
    ],
    [
      "vi",
      "eux</w>"
    ],
    [
      "au",
      "c"
    ],
    [
      "g",
      "al"
    ],
    [
      "onn",
      "eur</w>"
    ],
    [
      "s",
      "te</w>"
    ],
    [
      "em",
      "pl"
    ],
    [
      "sin",
      "ge</w>"
    ],
    [
      "n'",
      "y</w>"
    ],
    [
      "b",
      "as</w>"
    ],
    [
      "av",
      "er"
    ],
    [
      "d'",
      "eux</w>"
    ],
    [
      "c",
      "eau</w>"
    ],
    [
      "pri",
      "x</w>"
    ],
    [
      "tré",
      "sor</w>"
    ],
    [
      "n'",
      "a</w>"
    ],
    [
      "seu",
      "l"
    ],
    [
      "quel",
      "qu'un</w>"
    ],
    [
      "r",
      "om"
    ],
    [
      "m",
      "</w>"
    ],
    [
      "pass",
      "er</w>"
    ],
    [
      "f",
      "able</w>"
    ],
    [
      "n",
      "ez</w>"
    ],
    [
      "t",
      "ure</w>"
    ],
    [
      "sor",
      "te</w>"
    ],
    [
      "f",
      "oi</w>"
    ],
    [
      "cr",
      "ois</w>"
    ],
    [
      "com",
      "b"
    ],
    [
      "voy",
      "ant</w>"
    ],
    [
      "ez-",
      "moi</w>"
    ],
    [
      "on",
      "ge</w>"
    ],
    [
      "messi",
      "eurs</w>"
    ],
    [
      "ch",
      "es</w>"
    ],
    [
      "i",
      "r"
    ],
    [
      "re",
      "prit</w>"
    ],
    [
      "par",
      "o"
    ],
    [
      "pen",
      "se</w>"
    ],
    [
      "s",
      "oins</w>"
    ],
    [
      "omb",
      "re</w>"
    ],
    [
      "ét",
      "é</w>"
    ],
    [
      "nu",
      "l</w>"
    ],
    [
      "s",
      "oient</w>"
    ],
    [
      "d'",
      "abord</w>"
    ],
    [
      "c",
      "s</w>"
    ],
    [
      "chem",
      "in</w>"
    ],
    [
      "all",
      "er</w>"
    ],
    [
      "semb",
      "le</w>"
    ],
    [
      "peu",
      "t-"
    ],
    [
      "peut-",
      "être</w>"
    ],
    [
      "br",
      "uit</w>"
    ],
    [
      "dis",
      "oit</w>"
    ],
    [
      "j",
      "à</w>"
    ],
    [
      "par",
      "l"
    ],
    [
      "su",
      "jet</w>"
    ],
    [
      "s",
      "onne</w>"
    ],
    [
      "li",
      "t</w>"
    ],
    [
      "nat",
      "ure</w>"
    ],
    [
      "è",
      "te</w>"
    ],
    [
      "p",
      "â"
    ],
    [
      "cou",
      "rir</w>"
    ],
    [
      "ser",
      "vi"
    ],
    [
      "s",
      "ong"
    ],
    [
      "l'â",
      "ne</w>"
    ],
    [
      "end",
      "oit</w>"
    ],
    [
      "m",
      "ang"
    ],
    [
      "res",
      "te</w>"
    ],
    [
      "ign",
      "or"
    ],
    [
      "s",
      "û"
    ],
    [
      "il",
      "i"
    ],
    [
      "re",
      "par"
    ],
    [
      "oi",
      "t-il</w>"
    ],
    [
      "u",
      "f</w>"
    ],
    [
      "hom",
      "mes</w>"
    ],
    [
      "n",
      "é</w>"
    ],
    [
      "hu",
      "mains</w>"
    ],
    [
      "par",
      "mi</w>"
    ],
    [
      "c",
      "er</w>"
    ],
    [
      "u",
      "r"
    ],
    [
      "qu",
      "er"
    ],
    [
      "re",
      "gar"
    ],
    [
      "i",
      "st"
    ],
    [
      "seign",
      "eur</w>"
    ],
    [
      "f",
      "ût</w>"
    ],
    [
      "quel",
      "qu"
    ],
    [
      "av",
      "ant</w>"
    ],
    [
      "l'",
      "oiseau</w>"
    ],
    [
      "dé",
      "jà</w>"
    ],
    [
      "â",
      "me</w>"
    ],
    [
      "d'",
      "autres</w>"
    ],
    [
      "qu'",
      "une</w>"
    ],
    [
      "nom",
      "</w>"
    ],
    [
      "po",
      "ss"
    ],
    [
      "eu",
      "e</w>"
    ],
    [
      "di",
      "t-on</w>"
    ],
    [
      "pe",
      "tit</w>"
    ],
    [
      "e",
      "illes</w>"
    ],
    [
      "f",
      "s</w>"
    ],
    [
      "b",
      "our"
    ],
    [
      "cr",
      "oit</w>"
    ],
    [
      "tr",
      "omp"
    ],
    [
      "m'",
      "en</w>"
    ],
    [
      "l",
      "ang"
    ],
    [
      "fai",
      "s</w>"
    ],
    [
      "av",
      "oient</w>"
    ],
    [
      "ré",
      "e</w>"
    ],
    [
      "m",
      "in"
    ],
    [
      "vi",
      "eill"
    ],
    [
      "pr",
      "u"
    ],
    [
      "h",
      "ér"
    ],
    [
      "bi",
      "ent"
    ],
    [
      "bient",
      "ôt</w>"
    ],
    [
      "dé",
      "li"
    ],
    [
      "lu",
      "i"
    ],
    [
      "ti",
      "ens</w>"
    ],
    [
      "di",
      "e</w>"
    ],
    [
      "è",
      "me</w>"
    ],
    [
      "voisi",
      "n</w>"
    ],
    [
      "es",
      "t-ce</w>"
    ],
    [
      "a",
      "le</w>"
    ],
    [
      "ch",
      "oit</w>"
    ],
    [
      "ber",
      "ger</w>"
    ],
    [
      "è",
      "s-"
    ],
    [
      "mom",
      "ent</w>"
    ],
    [
      "v",
      "rai</w>"
    ],
    [
      "p",
      "é"
    ],
    [
      "l'ai",
      "r</w>"
    ],
    [
      "ser",
      "oit</w>"
    ],
    [
      "m",
      "au"
    ],
    [
      "dis",
      "cours</w>"
    ],
    [
      "è",
      "le</w>"
    ],
    [
      "ch",
      "oi"
    ],
    [
      "t",
      "aire</w>"
    ],
    [
      "ob",
      "jet</w>"
    ],
    [
      "v",
      "ont</w>"
    ],
    [
      "uni",
      "vers</w>"
    ],
    [
      "at",
      "tr"
    ],
    [
      "so",
      "t</w>"
    ],
    [
      "co",
      "l"
    ],
    [
      "p",
      "ut</w>"
    ],
    [
      "trouv",
      "e</w>"
    ],
    [
      "repar",
      "tit</w>"
    ],
    [
      "pour",
      "quoi</w>"
    ],
    [
      "er",
      "be</w>"
    ],
    [
      "t",
      "elle</w>"
    ],
    [
      "l'",
      "esprit</w>"
    ],
    [
      "c",
      "oups</w>"
    ],
    [
      "s",
      "ang"
    ],
    [
      "vou",
      "lut</w>"
    ],
    [
      "n",
      "uit</w>"
    ],
    [
      "ai",
      "t</w>"
    ],
    [
      "tes",
      "-"
    ],
    [
      "ci",
      "eux</w>"
    ],
    [
      "c",
      "an"
    ],
    [
      "pa",
      "sse</w>"
    ],
    [
      "e",
      "ff"
    ],
    [
      "ch",
      "ant</w>"
    ],
    [
      "éc",
      "ri"
    ],
    [
      "élé",
      "ph"
    ],
    [
      "m",
      "et</w>"
    ],
    [
      "qu",
      "elle</w>"
    ],
    [
      "par",
      "t"
    ],
    [
      "som",
      "me</w>"
    ],
    [
      "ob",
      "li"
    ],
    [
      "e",
      "il"
    ],
    [
      "m",
      "anger</w>"
    ],
    [
      "so",
      "le"
    ],
    [
      "sole",
      "il</w>"
    ],
    [
      "oi",
      "gn"
    ],
    [
      "b",
      "re"
    ],
    [
      "al",
      "la</w>"
    ],
    [
      "avi",
      "s</w>"
    ],
    [
      "mé",
      "ri"
    ],
    [
      "g",
      "re"
    ],
    [
      "ê",
      "ts</w>"
    ],
    [
      "re",
      "tour"
    ],
    [
      "d'",
      "hu"
    ],
    [
      "pr",
      "es"
    ],
    [
      "en",
      "te</w>"
    ],
    [
      "c",
      "elle</w>"
    ],
    [
      "ai",
      "ss"
    ],
    [
      "v",
      "al"
    ],
    [
      "ap",
      "er"
    ],
    [
      "cr",
      "ain"
    ],
    [
      "li",
      "e</w>"
    ],
    [
      "t",
      "an"
    ],
    [
      "f",
      "ri"
    ],
    [
      "autr",
      "efois</w>"
    ],
    [
      "m",
      "é</w>"
    ],
    [
      "ét",
      "at</w>"
    ],
    [
      "er",
      "reur</w>"
    ],
    [
      "pe",
      "in"
    ],
    [
      "att",
      "a"
    ],
    [
      "b",
      "</w>"
    ],
    [
      "h",
      "él"
    ],
    [
      "a",
      "me</w>"
    ],
    [
      "a",
      "ff"
    ],
    [
      "u",
      "rs</w>"
    ],
    [
      "seul",
      "ement</w>"
    ],
    [
      "ar",
      "ds</w>"
    ],
    [
      "main",
      "te</w>"
    ],
    [
      "pu",
      "bli"
    ],
    [
      "par",
      "tout</w>"
    ],
    [
      "ser",
      "a</w>"
    ],
    [
      "quelqu",
      "efois</w>"
    ],
    [
      "m",
      "oit</w>"
    ],
    [
      "vi",
      "n"
    ],
    [
      "v",
      "ain</w>"
    ],
    [
      "ha",
      "s"
    ],
    [
      "trai",
      "ts</w>"
    ],
    [
      "f",
      "am"
    ],
    [
      "gr",
      "o"
    ],
    [
      "dé",
      "f"
    ],
    [
      "p",
      "éri"
    ],
    [
      "f",
      "fi"
    ],
    [
      "av",
      "ant"
    ],
    [
      "avant",
      "age</w>"
    ],
    [
      "voi",
      "sin"
    ],
    [
      "ti",
      "que</w>"
    ],
    [
      "tr",
      "ès-"
    ],
    [
      "ui",
      "re</w>"
    ],
    [
      "l'",
      "o"
    ],
    [
      "e",
      "in"
    ],
    [
      "en",
      "ne</w>"
    ],
    [
      "è",
      "vre</w>"
    ],
    [
      "f",
      "o"
    ],
    [
      "t",
      "ant"
    ],
    [
      "tant",
      "ôt</w>"
    ],
    [
      "pr",
      "oie</w>"
    ],
    [
      "d",
      "am"
    ],
    [
      "s",
      "el"
    ],
    [
      "sel",
      "on</w>"
    ],
    [
      "m",
      "our"
    ],
    [
      "fi",
      "rent</w>"
    ],
    [
      "app",
      "el"
    ],
    [
      "som",
      "mes</w>"
    ],
    [
      "at",
      "eur</w>"
    ],
    [
      "m",
      "auv"
    ],
    [
      "cau",
      "se</w>"
    ],
    [
      "t-",
      "ils</w>"
    ],
    [
      "auc",
      "un</w>"
    ],
    [
      "hél",
      "as</w>"
    ],
    [
      "t",
      "al"
    ],
    [
      "l'",
      "amour</w>"
    ],
    [
      "se",
      "aux</w>"
    ],
    [
      "mi",
      "r"
    ],
    [
      "v",
      "rai"
    ],
    [
      "gl",
      "oire</w>"
    ],
    [
      "pour",
      "tant</w>"
    ],
    [
      "m",
      "ée</w>"
    ],
    [
      "p",
      "re</w>"
    ],
    [
      "mon",
      "ar"
    ],
    [
      "su",
      "l"
    ],
    [
      "qu",
      "et</w>"
    ],
    [
      "lui",
      "-même</w>"
    ],
    [
      "bi",
      "ens</w>"
    ],
    [
      "l'",
      "im"
    ],
    [
      "cer",
      "f</w>"
    ],
    [
      "i",
      "re</w>"
    ],
    [
      "f",
      "ille</w>"
    ],
    [
      "là-",
      "dessus</w>"
    ],
    [
      "exemp",
      "le</w>"
    ],
    [
      "rép",
      "on"
    ],
    [
      "ra",
      "ts</w>"
    ],
    [
      "qu",
      "eue</w>"
    ],
    [
      "s",
      "que</w>"
    ],
    [
      "l",
      "ap"
    ],
    [
      "p",
      "eau</w>"
    ],
    [
      "l",
      "é"
    ],
    [
      "j",
      "e"
    ],
    [
      "plai",
      "re</w>"
    ],
    [
      "s",
      "c"
    ],
    [
      "s-",
      "je</w>"
    ],
    [
      "au",
      "tour</w>"
    ],
    [
      "ch",
      "ang"
    ],
    [
      "malh",
      "eureux</w>"
    ],
    [
      "l'",
      "ours</w>"
    ],
    [
      "l",
      "ent</w>"
    ],
    [
      "j",
      "oie</w>"
    ],
    [
      "v",
      "eu"
    ],
    [
      "n",
      "éc"
    ],
    [
      "bes",
      "oin</w>"
    ],
    [
      "l'ar",
      "gent</w>"
    ],
    [
      "l'",
      "univers</w>"
    ],
    [
      "c",
      "ès</w>"
    ],
    [
      "r",
      "ap"
    ],
    [
      "on",
      "s-"
    ],
    [
      "s",
      "oi</w>"
    ],
    [
      "ê",
      "t</w>"
    ],
    [
      "des",
      "tin</w>"
    ],
    [
      "mi",
      "s"
    ],
    [
      "i",
      "té</w>"
    ],
    [
      "d",
      "ame</w>"
    ],
    [
      "ti",
      "ers</w>"
    ],
    [
      "di",
      "ff"
    ],
    [
      "gu",
      "ère</w>"
    ],
    [
      "entr",
      "e"
    ],
    [
      "enf",
      "ant</w>"
    ],
    [
      "arri",
      "ve</w>"
    ],
    [
      "mou",
      "rir</w>"
    ],
    [
      "s-",
      "tu</w>"
    ],
    [
      "po",
      "se</w>"
    ],
    [
      "nouv",
      "elle</w>"
    ],
    [
      "t",
      "â"
    ],
    [
      "con",
      "no"
    ],
    [
      "d'",
      "où</w>"
    ],
    [
      "enn",
      "em"
    ],
    [
      "a-",
      "t-il</w>"
    ],
    [
      "au",
      "jour"
    ],
    [
      "aujour",
      "d'hu"
    ],
    [
      "aujourd'hu",
      "i</w>"
    ],
    [
      "n'",
      "avoit</w>"
    ],
    [
      "mon",
      "tr"
    ],
    [
      "t",
      "able</w>"
    ],
    [
      "en",
      "du</w>"
    ],
    [
      "d",
      "om"
    ],
    [
      "per",
      "sonne</w>"
    ],
    [
      "su",
      "c"
    ],
    [
      "per",
      "sonn"
    ],
    [
      "l'ai",
      "gle</w>"
    ],
    [
      "cor",
      "beau</w>"
    ],
    [
      "chev",
      "al</w>"
    ],
    [
      "c",
      "ô"
    ],
    [
      "ti",
      "ère</w>"
    ],
    [
      "b",
      "ec</w>"
    ],
    [
      "pass",
      "ant</w>"
    ],
    [
      "a",
      "ri"
    ],
    [
      "ex",
      "tr"
    ],
    [
      "extr",
      "ême</w>"
    ],
    [
      "attr",
      "ap"
    ],
    [
      "di",
      "t-elle</w>"
    ],
    [
      "pass",
      "é</w>"
    ],
    [
      "b",
      "ut</w>"
    ],
    [
      "j",
      "ar"
    ],
    [
      "n",
      "ée</w>"
    ],
    [
      "chass",
      "eur</w>"
    ],
    [
      "g",
      "i"
    ],
    [
      "co",
      "q"
    ],
    [
      "plu",
      "tôt</w>"
    ],
    [
      "es",
      "pri"
    ],
    [
      "tr",
      "ou</w>"
    ],
    [
      "pay",
      "s</w>"
    ],
    [
      "é",
      "ren"
    ],
    [
      "chi",
      "ne</w>"
    ],
    [
      "pro",
      "pre</w>"
    ],
    [
      "j",
      "et"
    ],
    [
      "ge",
      "ance</w>"
    ],
    [
      "av",
      "ez</w>"
    ],
    [
      "e",
      "c"
    ],
    [
      "br",
      "ou"
    ],
    [
      "tou",
      "rs</w>"
    ],
    [
      "h",
      "i"
    ],
    [
      "ré",
      "ci"
    ],
    [
      "r",
      "endre</w>"
    ],
    [
      "qu'",
      "aux</w>"
    ],
    [
      "di",
      "vers</w>"
    ],
    [
      "m",
      "ag"
    ],
    [
      "man",
      "ière</w>"
    ],
    [
      "trai",
      "t</w>"
    ],
    [
      "sui",
      "v"
    ],
    [
      "f",
      "ou"
    ],
    [
      "b",
      "or"
    ],
    [
      "s",
      "our"
    ],
    [
      "dem",
      "eure</w>"
    ],
    [
      "p",
      "an"
    ],
    [
      "s",
      "onge</w>"
    ],
    [
      "voy",
      "age</w>"
    ],
    [
      "l",
      "oups</w>"
    ],
    [
      "cri",
      "er</w>"
    ],
    [
      "â",
      "ne</w>"
    ],
    [
      "conse",
      "il</w>"
    ],
    [
      "ai",
      "ll"
    ],
    [
      "r",
      "emp"
    ],
    [
      "ap",
      "o"
    ],
    [
      "am",
      "b"
    ],
    [
      "s'",
      "enf"
    ],
    [
      "pai",
      "x</w>"
    ],
    [
      "d'",
      "en</w>"
    ],
    [
      "b",
      "au"
    ],
    [
      "pla",
      "ît</w>"
    ],
    [
      "ti",
      "re</w>"
    ],
    [
      "al",
      "ou"
    ],
    [
      "gr",
      "en"
    ],
    [
      "tir",
      "er</w>"
    ],
    [
      "ouv",
      "er"
    ],
    [
      "trouv",
      "er</w>"
    ],
    [
      "a",
      "h</w>"
    ],
    [
      "v",
      "ais</w>"
    ],
    [
      "v",
      "a"
    ],
    [
      "a",
      "ch"
    ],
    [
      "ar",
      "mes</w>"
    ],
    [
      "per",
      "d"
    ],
    [
      "espri",
      "ts</w>"
    ],
    [
      "se",
      "in</w>"
    ],
    [
      "v",
      "an"
    ],
    [
      "ist",
      "oire</w>"
    ],
    [
      "éléph",
      "ant</w>"
    ],
    [
      "hér",
      "os</w>"
    ],
    [
      "ag",
      "er</w>"
    ],
    [
      "d'",
      "é"
    ],
    [
      "vieill",
      "ard</w>"
    ],
    [
      "tor",
      "t</w>"
    ],
    [
      "r",
      "er</w>"
    ],
    [
      "par",
      "le</w>"
    ],
    [
      "d",
      "on</w>"
    ],
    [
      "s",
      "ée</w>"
    ],
    [
      "d",
      "anger</w>"
    ],
    [
      "ouv",
      "rage</w>"
    ],
    [
      "mo",
      "y"
    ],
    [
      "n'",
      "ont</w>"
    ],
    [
      "d",
      "avantage</w>"
    ],
    [
      "moin",
      "dre</w>"
    ],
    [
      "cr",
      "aign"
    ],
    [
      "n",
      "ô"
    ],
    [
      "con",
      "te</w>"
    ],
    [
      "co",
      "û"
    ],
    [
      "conn",
      "oiss"
    ],
    [
      "voy",
      "ez</w>"
    ],
    [
      "comm",
      "un</w>"
    ],
    [
      "mou",
      "ton</w>"
    ],
    [
      "j'",
      "aur"
    ],
    [
      "o",
      "h</w>"
    ],
    [
      "l'",
      "am"
    ],
    [
      "l'",
      "une</w>"
    ],
    [
      "ar",
      "gent</w>"
    ],
    [
      "fr",
      "ère</w>"
    ],
    [
      "o",
      "t</w>"
    ],
    [
      "ra",
      "ce</w>"
    ],
    [
      "-",
      "là</w>"
    ],
    [
      "b",
      "el"
    ],
    [
      "gr",
      "os</w>"
    ],
    [
      "f",
      "ou</w>"
    ],
    [
      "s'",
      "en"
    ],
    [
      "dem",
      "eur"
    ],
    [
      "sor",
      "tir</w>"
    ],
    [
      "l'",
      "av"
    ],
    [
      "â",
      "ge</w>"
    ],
    [
      "ti",
      "nt</w>"
    ],
    [
      "ser",
      "p"
    ],
    [
      "s'",
      "y</w>"
    ],
    [
      "a",
      "fin</w>"
    ],
    [
      "por",
      "t"
    ],
    [
      "ti",
      "le</w>"
    ],
    [
      "r",
      "am"
    ],
    [
      "s",
      "al"
    ],
    [
      "qu",
      "oi"
    ],
    [
      "d",
      "oi"
    ],
    [
      "am",
      "ent</w>"
    ],
    [
      "par",
      "ler</w>"
    ],
    [
      "tra",
      "î"
    ],
    [
      "r",
      "end"
    ],
    [
      "ri",
      "e</w>"
    ],
    [
      "g",
      "ui"
    ],
    [
      "ri",
      "v"
    ],
    [
      "su",
      "p"
    ],
    [
      "ren",
      "contre</w>"
    ],
    [
      "din",
      "aire</w>"
    ],
    [
      "vi",
      "vre</w>"
    ],
    [
      "malh",
      "eur</w>"
    ],
    [
      "jus",
      "te</w>"
    ],
    [
      "t'",
      "en</w>"
    ],
    [
      "è",
      "de</w>"
    ],
    [
      "propo",
      "s</w>"
    ],
    [
      "has",
      "ard</w>"
    ],
    [
      "for",
      "ts</w>"
    ],
    [
      "pré",
      "sen"
    ],
    [
      "sé",
      "jour</w>"
    ],
    [
      "t",
      "ér"
    ],
    [
      "r",
      "oient</w>"
    ],
    [
      "be",
      "aux</w>"
    ],
    [
      "es",
      "-"
    ],
    [
      "bi",
      "s</w>"
    ],
    [
      "es",
      "t-il</w>"
    ],
    [
      "trai",
      "te</w>"
    ],
    [
      "troup",
      "eau</w>"
    ],
    [
      "v",
      "ill"
    ],
    [
      "emp",
      "ê"
    ],
    [
      "con",
      "tent</w>"
    ],
    [
      "sou",
      "h"
    ],
    [
      "aper",
      "ç"
    ],
    [
      "des",
      "c"
    ],
    [
      "so",
      "pe</w>"
    ],
    [
      "tr",
      "ou"
    ],
    [
      "m",
      "age</w>"
    ],
    [
      "g",
      "a"
    ],
    [
      "mon",
      "si"
    ],
    [
      "monsi",
      "eur</w>"
    ],
    [
      "mar",
      "i</w>"
    ],
    [
      "plai",
      "gn"
    ],
    [
      "t",
      "oy"
    ],
    [
      "c",
      "ris</w>"
    ],
    [
      "voul",
      "oit</w>"
    ],
    [
      "pla",
      "ce</w>"
    ],
    [
      "arr",
      "ê"
    ],
    [
      "app",
      "elle</w>"
    ],
    [
      "n",
      "our"
    ],
    [
      "é",
      "es</w>"
    ],
    [
      "fai",
      "ts</w>"
    ],
    [
      "sang",
      "</w>"
    ],
    [
      "ju",
      "ge</w>"
    ],
    [
      "jar",
      "di"
    ],
    [
      "s",
      "tre</w>"
    ],
    [
      "l'",
      "ab"
    ],
    [
      "mauv",
      "ais</w>"
    ],
    [
      "ad",
      "r"
    ],
    [
      "cert",
      "ains</w>"
    ],
    [
      "h",
      "onn"
    ],
    [
      "étr",
      "ang"
    ],
    [
      "c",
      "oup"
    ],
    [
      "tu",
      "e</w>"
    ],
    [
      "l",
      "ég"
    ],
    [
      "vo",
      "lon"
    ],
    [
      "diff",
      "éren"
    ],
    [
      "l'h",
      "istoire</w>"
    ],
    [
      "cam",
      "ar"
    ],
    [
      "b",
      "ras</w>"
    ],
    [
      "l'",
      "au"
    ],
    [
      "monar",
      "que</w>"
    ],
    [
      "f",
      "av"
    ],
    [
      "go",
      "û"
    ],
    [
      "comm",
      "une</w>"
    ],
    [
      "s",
      "ci"
    ],
    [
      "pen",
      "ser</w>"
    ],
    [
      "t",
      "ement</w>"
    ],
    [
      "voi",
      "e</w>"
    ],
    [
      "g",
      "é</w>"
    ],
    [
      "pare",
      "ils</w>"
    ],
    [
      "emp",
      "ire</w>"
    ],
    [
      "par",
      "ti"
    ],
    [
      "ti",
      "ons</w>"
    ],
    [
      "s'",
      "é"
    ],
    [
      "com",
      "men"
    ],
    [
      "j",
      "ets</w>"
    ],
    [
      "por",
      "t</w>"
    ],
    [
      "g",
      "â"
    ],
    [
      "l'",
      "affaire</w>"
    ],
    [
      "mor",
      "ts</w>"
    ],
    [
      "cam",
      "pa"
    ],
    [
      "ber",
      "g"
    ],
    [
      "si",
      "on</w>"
    ],
    [
      "ass",
      "emb"
    ],
    [
      "mou",
      "tons</w>"
    ],
    [
      "ren",
      "d</w>"
    ],
    [
      "s",
      "aur"
    ],
    [
      "m",
      "ois</w>"
    ],
    [
      "er",
      "ai</w>"
    ],
    [
      "d",
      "ons</w>"
    ],
    [
      "pouv",
      "oit</w>"
    ],
    [
      "u",
      "fs</w>"
    ],
    [
      "è",
      "ne</w>"
    ],
    [
      "cel",
      "le"
    ],
    [
      "pré",
      "s"
    ],
    [
      "oi",
      "ts</w>"
    ],
    [
      "oc",
      "cu"
    ],
    [
      "ai",
      "l"
    ],
    [
      "deman",
      "de</w>"
    ],
    [
      "r",
      "ob"
    ],
    [
      "re",
      "pas</w>"
    ],
    [
      "pie",
      "d</w>"
    ],
    [
      "l'",
      "eau</w>"
    ],
    [
      "v",
      "ille</w>"
    ],
    [
      "m",
      "eu"
    ],
    [
      "vo",
      "leurs</w>"
    ],
    [
      "ren",
      "contr"
    ],
    [
      "se",
      "cr"
    ],
    [
      "d'",
      "ac"
    ],
    [
      "plain",
      "te</w>"
    ],
    [
      "l",
      "ant</w>"
    ],
    [
      "deman",
      "d"
    ],
    [
      "ap",
      "pr"
    ],
    [
      "vi",
      "te</w>"
    ],
    [
      "serp",
      "ent</w>"
    ],
    [
      "ç",
      "ons</w>"
    ],
    [
      "ét",
      "onn"
    ],
    [
      "croy",
      "oit</w>"
    ],
    [
      "si",
      "rs</w>"
    ],
    [
      "v",
      "ain"
    ],
    [
      "donn",
      "a</w>"
    ],
    [
      "adr",
      "esse</w>"
    ],
    [
      "mé",
      "n"
    ],
    [
      "b",
      "at"
    ],
    [
      "a",
      "sse</w>"
    ],
    [
      "t",
      "eux</w>"
    ],
    [
      "di",
      "rent</w>"
    ],
    [
      "r",
      "ez</w>"
    ],
    [
      "ma",
      "chine</w>"
    ],
    [
      "tran",
      "s"
    ],
    [
      "pru",
      "d"
    ],
    [
      "e",
      "oit</w>"
    ],
    [
      "camar",
      "ade</w>"
    ],
    [
      "a",
      "ce</w>"
    ],
    [
      "pro",
      "fon"
    ],
    [
      "de",
      "dans</w>"
    ],
    [
      "sui",
      "t</w>"
    ],
    [
      "si",
      "t</w>"
    ],
    [
      "de",
      "voit</w>"
    ],
    [
      "sembl",
      "able</w>"
    ],
    [
      "fl",
      "att"
    ],
    [
      "m",
      "eil"
    ],
    [
      "meil",
      "leur</w>"
    ],
    [
      "c",
      "t"
    ],
    [
      "è",
      "ce</w>"
    ],
    [
      "app",
      "é"
    ],
    [
      "f",
      "ous</w>"
    ],
    [
      "l'h",
      "eure</w>"
    ],
    [
      "ar",
      "bre</w>"
    ],
    [
      "b",
      "an"
    ],
    [
      "ch",
      "anger</w>"
    ],
    [
      "so",
      "y"
    ],
    [
      "der",
      "ni"
    ],
    [
      "pa",
      "lai"
    ],
    [
      "palai",
      "s</w>"
    ],
    [
      "ch",
      "ap"
    ],
    [
      "fai",
      "m</w>"
    ],
    [
      "end",
      "ra</w>"
    ],
    [
      "m",
      "ets</w>"
    ],
    [
      "pres",
      "que</w>"
    ],
    [
      "ch",
      "a</w>"
    ],
    [
      "c",
      "esse</w>"
    ],
    [
      "tr",
      "o"
    ],
    [
      "p",
      "</w>"
    ],
    [
      "si",
      "m"
    ],
    [
      "b",
      "ons</w>"
    ],
    [
      "s",
      "oir</w>"
    ],
    [
      "bau",
      "d"
    ],
    [
      "con",
      "t"
    ],
    [
      "souh",
      "ai"
    ],
    [
      "é",
      "sope</w>"
    ],
    [
      "je",
      "an</w>"
    ],
    [
      "b",
      "on"
    ],
    [
      "nu",
      "lle</w>"
    ],
    [
      "t",
      "ar"
    ],
    [
      "con",
      "ten"
    ],
    [
      "dis",
      "oit-il</w>"
    ],
    [
      "g",
      "ou"
    ],
    [
      "voy",
      "oit</w>"
    ],
    [
      "fai",
      "sant</w>"
    ],
    [
      "pou",
      "x</w>"
    ],
    [
      "ja",
      "dis</w>"
    ],
    [
      "i",
      "ss"
    ],
    [
      "l",
      "ac"
    ],
    [
      "su",
      "per"
    ],
    [
      "f",
      "lu"
    ],
    [
      "d",
      "ra</w>"
    ],
    [
      "î",
      "te</w>"
    ],
    [
      "ag",
      "ré"
    ],
    [
      "pi",
      "re</w>"
    ],
    [
      "col",
      "ère</w>"
    ],
    [
      "f",
      "alloit</w>"
    ],
    [
      "l",
      "ois</w>"
    ],
    [
      "fr",
      "an"
    ],
    [
      "ap",
      "par"
    ],
    [
      "bi",
      "en"
    ],
    [
      "vi",
      "eille</w>"
    ],
    [
      "tu",
      "de</w>"
    ],
    [
      "cr",
      "oire</w>"
    ],
    [
      "d",
      "o"
    ],
    [
      "p",
      "es"
    ],
    [
      "ch",
      "au"
    ],
    [
      "fu",
      "reur</w>"
    ],
    [
      "cham",
      "ps</w>"
    ],
    [
      "con",
      "si"
    ],
    [
      "éc",
      "u"
    ],
    [
      "t",
      "onn"
    ],
    [
      "publi",
      "que</w>"
    ],
    [
      "r",
      "oy"
    ],
    [
      "tomb",
      "e</w>"
    ],
    [
      "è",
      "ve</w>"
    ],
    [
      "cu",
      "le</w>"
    ],
    [
      "en",
      "vie</w>"
    ],
    [
      "jus",
      "qu'au</w>"
    ],
    [
      "rai",
      "sonn"
    ],
    [
      "c",
      "lo"
    ],
    [
      "l'",
      "empor"
    ],
    [
      "pl",
      "an"
    ],
    [
      "f",
      "ar"
    ],
    [
      "quer",
      "elle</w>"
    ],
    [
      "pl",
      "eur"
    ],
    [
      "hu",
      "m"
    ],
    [
      "r",
      "ons</w>"
    ],
    [
      "four",
      "ni"
    ],
    [
      "cert",
      "aine</w>"
    ],
    [
      "sen",
      "ti"
    ],
    [
      "oi",
      "si"
    ],
    [
      "em",
      "ents</w>"
    ],
    [
      "dis",
      "-je</w>"
    ],
    [
      "f",
      "ui"
    ],
    [
      "t",
      "ants</w>"
    ],
    [
      "s",
      "avoir</w>"
    ],
    [
      "réci",
      "t</w>"
    ],
    [
      "fai",
      "te</w>"
    ],
    [
      "de",
      "v"
    ],
    [
      "l",
      "or"
    ],
    [
      "se",
      "cours</w>"
    ],
    [
      "é",
      "n"
    ],
    [
      "er",
      "mi"
    ],
    [
      "l'",
      "</w>"
    ],
    [
      "b",
      "ord</w>"
    ],
    [
      "v",
      "eill"
    ],
    [
      "dé",
      "tr"
    ],
    [
      "ap",
      "prendre</w>"
    ],
    [
      "bre",
      "bis</w>"
    ],
    [
      "voisin",
      "age</w>"
    ],
    [
      "re",
      "vi"
    ],
    [
      "s",
      "tant</w>"
    ],
    [
      "ons-",
      "nous</w>"
    ],
    [
      "er",
      "a</w>"
    ],
    [
      "ti",
      "ns</w>"
    ],
    [
      "ac",
      "cour"
    ],
    [
      "s",
      "tres</w>"
    ],
    [
      "or",
      "eilles</w>"
    ],
    [
      "autr",
      "ui</w>"
    ],
    [
      "ennem",
      "i</w>"
    ],
    [
      "f",
      "es"
    ],
    [
      "mar",
      "ch"
    ],
    [
      "ca",
      "ts</w>"
    ],
    [
      "v",
      "éri"
    ],
    [
      "nu",
      "e</w>"
    ],
    [
      "ff",
      "e</w>"
    ],
    [
      "cour",
      "age</w>"
    ],
    [
      "baud",
      "et</w>"
    ],
    [
      "m'",
      "a</w>"
    ],
    [
      "l'",
      "a</w>"
    ],
    [
      "p",
      "oi"
    ],
    [
      "m",
      "ent"
    ],
    [
      "su",
      "t</w>"
    ],
    [
      "v",
      "é</w>"
    ],
    [
      "mou",
      "che</w>"
    ],
    [
      "b",
      "ri"
    ],
    [
      "ci",
      "er</w>"
    ],
    [
      "at",
      "te</w>"
    ],
    [
      "dé",
      "esse</w>"
    ],
    [
      "so",
      "l"
    ],
    [
      "retour",
      "ne</w>"
    ],
    [
      "fr",
      "ères</w>"
    ],
    [
      "gal",
      "ant</w>"
    ],
    [
      "r",
      "onde</w>"
    ],
    [
      "l'",
      "es"
    ],
    [
      "v",
      "</w>"
    ],
    [
      "s",
      "eau</w>"
    ],
    [
      "mau",
      "dit</w>"
    ],
    [
      "l",
      "ors</w>"
    ],
    [
      "ph",
      "il"
    ],
    [
      "dem",
      "i"
    ],
    [
      "demi",
      "-"
    ],
    [
      "on",
      "d"
    ],
    [
      "se",
      "con"
    ],
    [
      "lo",
      "ger</w>"
    ],
    [
      "i",
      "ers</w>"
    ],
    [
      "lu",
      "</w>"
    ],
    [
      "pour",
      "roit</w>"
    ],
    [
      "in",
      "gr"
    ],
    [
      "lai",
      "t</w>"
    ],
    [
      "quoi",
      "que</w>"
    ],
    [
      "l'",
      "ombre</w>"
    ],
    [
      "e",
      "il</w>"
    ],
    [
      "des",
      "sein</w>"
    ],
    [
      "l",
      "ar"
    ],
    [
      "u",
      "ly"
    ],
    [
      "uly",
      "sse</w>"
    ],
    [
      "bâ",
      "ton</w>"
    ],
    [
      "gar",
      "d"
    ],
    [
      "ven",
      "ez</w>"
    ],
    [
      "d",
      "uit</w>"
    ],
    [
      "ou",
      "ï"
    ],
    [
      "fi",
      "er</w>"
    ],
    [
      "b",
      "elles</w>"
    ],
    [
      "i",
      "on</w>"
    ],
    [
      "cru",
      "elle</w>"
    ],
    [
      "fa",
      "çon</w>"
    ],
    [
      "ch",
      "ef"
    ],
    [
      "ai",
      "rs</w>"
    ],
    [
      "gro",
      "ss"
    ],
    [
      "ag",
      "it</w>"
    ],
    [
      "av",
      "an"
    ],
    [
      "der",
      "nier</w>"
    ],
    [
      "re",
      "vient</w>"
    ],
    [
      "m",
      "ê"
    ],
    [
      "d",
      "ét"
    ],
    [
      "prin",
      "ci"
    ],
    [
      "temp",
      "le</w>"
    ],
    [
      "all",
      "é"
    ],
    [
      "ju",
      "ger</w>"
    ],
    [
      "lo",
      "t</w>"
    ],
    [
      "î",
      "tr"
    ],
    [
      "lor",
      "sque</w>"
    ],
    [
      "m",
      "pe</w>"
    ],
    [
      "gran",
      "de</w>"
    ],
    [
      "ter",
      "ri"
    ],
    [
      "c",
      "en"
    ],
    [
      "ch",
      "ant"
    ],
    [
      "n'",
      "eût</w>"
    ],
    [
      "c",
      "ui"
    ],
    [
      "all",
      "ez</w>"
    ],
    [
      "con",
      "ter</w>"
    ],
    [
      "b",
      "al"
    ],
    [
      "m",
      "â"
    ],
    [
      "endr",
      "ont</w>"
    ],
    [
      "fa",
      "sse</w>"
    ],
    [
      "nu",
      "s</w>"
    ],
    [
      "éch",
      "app"
    ],
    [
      "pauv",
      "res</w>"
    ],
    [
      "en",
      "seign"
    ],
    [
      "pr",
      "omp"
    ],
    [
      "li",
      "s</w>"
    ],
    [
      "mé",
      "tier</w>"
    ],
    [
      "compagn",
      "on</w>"
    ],
    [
      "y",
      "th"
    ],
    [
      "mer",
      "v"
    ],
    [
      "tri",
      "ste</w>"
    ],
    [
      "gr",
      "as</w>"
    ],
    [
      "cr",
      "a"
    ],
    [
      "celle",
      "-ci</w>"
    ],
    [
      "ignor",
      "ant</w>"
    ],
    [
      "ri",
      "re</w>"
    ],
    [
      "ma",
      "j"
    ],
    [
      "maj",
      "es"
    ],
    [
      "ten",
      "oit</w>"
    ],
    [
      "cu",
      "l"
    ],
    [
      "enn",
      "ent</w>"
    ],
    [
      "servi",
      "r</w>"
    ],
    [
      "long",
      "temps</w>"
    ],
    [
      "t",
      "age</w>"
    ],
    [
      "r",
      "é</w>"
    ],
    [
      "av",
      "ec"
    ],
    [
      "avec",
      "que</w>"
    ],
    [
      "a",
      "re</w>"
    ],
    [
      "couv",
      "er"
    ],
    [
      "r",
      "at"
    ],
    [
      "dou",
      "te</w>"
    ],
    [
      "cour",
      "rou"
    ],
    [
      "s'",
      "écri"
    ],
    [
      "ch",
      "ère</w>"
    ],
    [
      "r",
      "ong"
    ],
    [
      "moi",
      "tié</w>"
    ],
    [
      "m",
      "il"
    ],
    [
      "gren",
      "ou"
    ],
    [
      "pi",
      "que</w>"
    ],
    [
      "s",
      "au"
    ],
    [
      "c",
      "ou</w>"
    ],
    [
      "m",
      "es"
    ],
    [
      "ma",
      "tin</w>"
    ],
    [
      "li",
      "èvre</w>"
    ],
    [
      "cer",
      "v"
    ],
    [
      "mal",
      "gré</w>"
    ],
    [
      "ti",
      "sans</w>"
    ],
    [
      "premi",
      "ère</w>"
    ],
    [
      "s",
      "avoit</w>"
    ],
    [
      "s",
      "oi"
    ],
    [
      "pi",
      "tié</w>"
    ],
    [
      "néc",
      "es"
    ],
    [
      "néces",
      "sai"
    ],
    [
      "j",
      "oin"
    ],
    [
      "vo",
      "l"
    ],
    [
      "trouv",
      "ant</w>"
    ],
    [
      "h",
      "au"
    ],
    [
      "mé",
      "ch"
    ],
    [
      "y",
      "m"
    ],
    [
      "pou",
      "ss"
    ],
    [
      "re",
      "fu"
    ],
    [
      "y",
      "er</w>"
    ],
    [
      "plai",
      "sirs</w>"
    ],
    [
      "g",
      "en"
    ],
    [
      "p",
      "è"
    ],
    [
      "im",
      "por"
    ],
    [
      "di",
      "tes-"
    ],
    [
      "mis",
      "ér"
    ],
    [
      "pare",
      "il</w>"
    ],
    [
      "x",
      "e</w>"
    ],
    [
      "troup",
      "e</w>"
    ],
    [
      "dé",
      "p"
    ],
    [
      "tor",
      "tue</w>"
    ],
    [
      "pro",
      "fi"
    ],
    [
      "pri",
      "se</w>"
    ],
    [
      "ac",
      "le</w>"
    ],
    [
      "eff",
      "et</w>"
    ],
    [
      "per",
      "te</w>"
    ],
    [
      "t",
      "eau</w>"
    ],
    [
      "pouv",
      "oir</w>"
    ],
    [
      "l'h",
      "onneur</w>"
    ],
    [
      "o",
      "l"
    ],
    [
      "s",
      "ain"
    ],
    [
      "s",
      "ag"
    ],
    [
      "compagn",
      "ons</w>"
    ],
    [
      "di",
      "gn"
    ],
    [
      "a",
      "si"
    ],
    [
      "sû",
      "r</w>"
    ],
    [
      "af",
      "fai"
    ],
    [
      "affai",
      "res</w>"
    ],
    [
      "mor",
      "ceau</w>"
    ],
    [
      "ou",
      "bli"
    ],
    [
      "tr",
      "oisi"
    ],
    [
      "troisi",
      "ème</w>"
    ],
    [
      "re",
      "ç"
    ],
    [
      "l'h",
      "u"
    ],
    [
      "ef",
      "forts</w>"
    ],
    [
      "pr",
      "ê"
    ],
    [
      "et",
      "tes</w>"
    ],
    [
      "moy",
      "en</w>"
    ],
    [
      "di",
      "vi"
    ],
    [
      "esp",
      "èce</w>"
    ],
    [
      "appé",
      "tit</w>"
    ],
    [
      "par",
      "ut</w>"
    ],
    [
      "com",
      "mo"
    ],
    [
      "eu",
      "x"
    ],
    [
      "hô",
      "tes</w>"
    ],
    [
      "er",
      "oit</w>"
    ],
    [
      "cho",
      "ses</w>"
    ],
    [
      "lap",
      "in</w>"
    ],
    [
      "m",
      "eill"
    ],
    [
      "c",
      "li"
    ],
    [
      "ser",
      "v"
    ],
    [
      "nô",
      "tre</w>"
    ],
    [
      "soy",
      "ez</w>"
    ],
    [
      "re",
      "traite</w>"
    ],
    [
      "plu",
      "t</w>"
    ],
    [
      "com",
      "bien</w>"
    ],
    [
      "s'",
      "étoit</w>"
    ],
    [
      "ô",
      "</w>"
    ],
    [
      "pr",
      "ends</w>"
    ],
    [
      "d'",
      "am"
    ],
    [
      "gag",
      "n"
    ],
    [
      "d'",
      "autrui</w>"
    ],
    [
      "l'h",
      "erbe</w>"
    ],
    [
      "dis",
      "ant</w>"
    ],
    [
      "ag",
      "n"
    ],
    [
      "march",
      "and</w>"
    ],
    [
      "dem",
      "ain</w>"
    ],
    [
      "ass",
      "ur"
    ],
    [
      "sai",
      "son</w>"
    ],
    [
      "m",
      "ents</w>"
    ],
    [
      "in",
      "str"
    ],
    [
      "v",
      "ue</w>"
    ],
    [
      "po",
      "s</w>"
    ],
    [
      "s",
      "ter</w>"
    ],
    [
      "coq",
      "</w>"
    ],
    [
      "dé",
      "b"
    ],
    [
      "d'",
      "in"
    ],
    [
      "qu",
      "al"
    ],
    [
      "i",
      "ci"
    ],
    [
      "majes",
      "té</w>"
    ],
    [
      "cor",
      "de</w>"
    ],
    [
      "fr",
      "om"
    ],
    [
      "from",
      "age</w>"
    ],
    [
      "c",
      "é"
    ],
    [
      "d",
      "ant</w>"
    ],
    [
      "mal",
      "ade</w>"
    ],
    [
      "occu",
      "p"
    ],
    [
      "ui",
      "ss"
    ],
    [
      "pri",
      "e</w>"
    ],
    [
      "ex",
      "cu"
    ],
    [
      "tour",
      "n"
    ],
    [
      "con",
      "trai"
    ],
    [
      "j'",
      "y</w>"
    ],
    [
      "h",
      "o"
    ],
    [
      "sur",
      "tout</w>"
    ],
    [
      "cham",
      "p</w>"
    ],
    [
      "ren",
      "om"
    ],
    [
      "h",
      "on"
    ],
    [
      "u",
      "tile</w>"
    ],
    [
      "n'",
      "o"
    ],
    [
      "f",
      "er</w>"
    ],
    [
      "for",
      "me</w>"
    ],
    [
      "s'",
      "ab"
    ],
    [
      "vill",
      "age</w>"
    ],
    [
      "v",
      "aut</w>"
    ],
    [
      "s",
      "em"
    ],
    [
      "bl",
      "an"
    ],
    [
      "courrou",
      "x</w>"
    ],
    [
      "lac",
      "s</w>"
    ],
    [
      "li",
      "er</w>"
    ],
    [
      "l",
      "ass"
    ],
    [
      "f",
      "illes</w>"
    ],
    [
      "char",
      "ge</w>"
    ],
    [
      "s'",
      "étant</w>"
    ],
    [
      "bel",
      "ette</w>"
    ],
    [
      "po",
      "t</w>"
    ],
    [
      "poss",
      "é"
    ],
    [
      "eu",
      "ve</w>"
    ],
    [
      "par",
      "tir</w>"
    ],
    [
      "cor",
      "nes</w>"
    ],
    [
      "ce",
      "aux</w>"
    ],
    [
      "ag",
      "ne</w>"
    ],
    [
      "n'",
      "ayant</w>"
    ],
    [
      "le",
      "çon</w>"
    ],
    [
      "é",
      "rir</w>"
    ],
    [
      "man",
      "qu"
    ],
    [
      "tomb",
      "er</w>"
    ],
    [
      "sé",
      "ment</w>"
    ],
    [
      "sa",
      "c</w>"
    ],
    [
      "har",
      "ang"
    ],
    [
      "méch",
      "ants</w>"
    ],
    [
      "de",
      "puis</w>"
    ],
    [
      "lon",
      "gu"
    ],
    [
      "an",
      "n"
    ],
    [
      "pein",
      "es</w>"
    ],
    [
      "c",
      "oin</w>"
    ],
    [
      "laiss",
      "er</w>"
    ],
    [
      "s",
      "u</w>"
    ],
    [
      "fau",
      "t-il</w>"
    ],
    [
      "per",
      "du</w>"
    ],
    [
      "sui",
      "te</w>"
    ],
    [
      "l",
      "g"
    ],
    [
      "ven",
      "ts</w>"
    ],
    [
      "fr",
      "uit</w>"
    ],
    [
      "s-",
      "là</w>"
    ],
    [
      "comm",
      "ère</w>"
    ],
    [
      "dites-",
      "moi</w>"
    ],
    [
      "fai",
      "soient</w>"
    ],
    [
      "esp",
      "ér"
    ],
    [
      "er",
      "ie</w>"
    ],
    [
      "b",
      "les</w>"
    ],
    [
      "si",
      "tôt</w>"
    ],
    [
      "d",
      "èle</w>"
    ],
    [
      "compagn",
      "ie</w>"
    ],
    [
      "lo",
      "ge</w>"
    ]
  ],
  "vocab": {
    "<pad>": 0,
    "<unk>": 1,
    "<bos>": 2,
    "<eos>": 3,
    "'": 4,
    "-": 5,
    "</w>": 6,
    "a": 7,
    "b": 8,
    "c": 9,
    "d": 10,
    "e": 11,
    "f": 12,
    "g": 13,
    "h": 14,
    "i": 15,
    "j": 16,
    "l": 17,
    "m": 18,
    "n": 19,
    "o": 20,
    "p": 21,
    "q": 22,
    "r": 23,
    "s": 24,
    "t": 25,
    "u": 26,
    "v": 27,
    "w": 28,
    "x": 29,
    "y": 30,
    "z": 31,
    "à": 32,
    "â": 33,
    "ç": 34,
    "è": 35,
    "é": 36,
    "ê": 37,
    "ë": 38,
    "î": 39,
    "ï": 40,
    "ô": 41,
    "ù": 42,
    "û": 43,
    "e</w>": 44,
    "s</w>": 45,
    "t</w>": 46,
    "n</w>": 47,
    "ou": 48,
    "r</w>": 49,
    "en": 50,
    "oi": 51,
    "qu": 52,
    "es</w>": 53,
    "an": 54,
    "le</w>": 55,
    "ai": 56,
    "a</w>": 57,
    "re</w>": 58,
    "eu": 59,
    "au": 60,
    "de</w>": 61,
    "on": 62,
    "il": 63,
    "on</w>": 64,
    "et</w>": 65,
    "en</w>": 66,
    "i</w>": 67,
    "ne</w>": 68,
    "l'": 69,
    "ch": 70,
    "er": 71,
    "pa": 72,
    "un</w>": 73,
    "er</w>": 74,
    "la</w>": 75,
    "il</w>": 76,
    "es": 77,
    "ent</w>": 78,
    "x</w>": 79,
    "que</w>": 80,
    "or": 81,
    "les</w>": 82,
    "oit</w>": 83,
    "te</w>": 84,
    "ri": 85,
    "di": 86,
    "à</w>": 87,
    "el": 88,
    "tr": 89,
    "ous</w>": 90,
    "se</w>": 91,
    "ant</w>": 92,
    "ce</w>": 93,
    "om": 94,
    "tre</w>": 95,
    "em": 96,
    "ar": 97,
    "lu": 98,
    "d'": 99,
    "qu'": 100,
    "pr": 101,
    "ti": 102,
    "me</w>": 103,
    "tou": 104,
    "ss": 105,
    "vi": 106,
    "au</w>": 107,
    "ts</w>": 108,
    "u</w>": 109,
    "é</w>": 110,
    "eux</w>": 111,
    "al": 112,
    "av": 113,
    "eur</w>": 114,
    "our": 115,
    "su": 116,
    "fai": 117,
    "ez": 118,
    "son</w>": 119,
    "je</w>": 120,
    "ag": 121,
    "est</w>": 122,
    "our</w>": 123,
    "d</w>": 124,
    "ans</w>": 125,
    "des</w>": 126,
    "vous</w>": 127,
    "re": 128,
    "con": 129,
    "n'": 130,
    "mai": 131,
    "ét": 132,
    "li": 133,
    "qui</w>": 134,
    "ez</w>": 135,
    "in": 136,
    "du</w>": 137,
    "bi": 138,
    "com": 139,
    "une</w>": 140,
    "s'": 141,
    "ont</w>": 142,
    "elle</w>": 143,
    "am": 144,
    "ois</w>": 145,
    "par": 146,
    "aux</w>": 147,
    "plu": 148,
    "end": 149,
    "oi</w>": 150,
    "pour</w>": 151,
    "tout</w>": 152,
    "ui": 153,
    "fi": 154,
    "ouv": 155,
    "si": 156,
    "et": 157,
    "t-": 158,
    "sa</w>": 159,
    "pas</w>": 160,
    "dé": 161,
    "oin": 162,
    "pl": 163,
    "vo": 164,
    "plus</w>": 165,
    "eur": 166,
    "pri": 167,
    "age</w>": 168,
    "cr": 169,
    "dit</w>": 170,
    "at": 171,
    "ap": 172,
    "gr": 173,
    "ère</w>": 174,
    "si</w>": 175,
    "c</w>": 176,
    "ons</w>": 177,
    "ens</w>": 178,
    "mi": 179,
    "lui</w>": 180,
    "voi": 181,
    "eau</w>": 182,
    "mais</w>": 183,
    "bien</w>": 184,
    "eu</w>": 185,
    "oup": 186,
    "dans</w>": 187,
    "ces</w>": 188,
    "emp": 189,
    "par</w>": 190,
    "ses</w>": 191,
    "ab": 192,
    "sur</w>": 193,
    "nous</w>": 194,
    "ut</w>": 195,
    "ac": 196,
    "leur</w>": 197,
    "qu'il</w>": 198,
    "for": 199,
    "fait</w>": 200,
    "eurs</w>": 201,
    "ci": 202,
    "no": 203,
    "quel": 204,
    "ette</w>": 205,
    "ter</w>": 206,
    "pi": 207,
    "ils</w>": 208,
    "oient</w>": 209,
    "im": 210,
    "ang": 211,
    "gn": 212,
    "ser": 213,
    "autre</w>": 214,
    "tant</w>": 215,
    "c'": 216,
    "ours</w>": 217,
    "onn": 218,
    "ain": 219,
    "pro": 220,
    "ré": 221,
    "poin": 222,
    "j'": 223,
    "sans</w>": 224,
    "tes</w>": 225,
    "co": 226,
    "té</w>": 227,
    "ass": 228,
    "and</w>": 229,
    "ai</w>": 230,
    "point</w>": 231,
    "ma": 232,
    "ca": 233,
    "étoit</w>": 234,
    "t-il</w>": 235,
    "per": 236,
    "faire</w>": 237,
    "d'un</w>": 238,
    "ée</w>": 239,
    "tous</w>": 240,
    "ren": 241,
    "ju": 242,
    "eut</w>": 243,
    "ers</w>": 244,
    "mes</w>": 245,
    "cette</w>": 246,
    "c'est</w>": 247,
    "y</w>": 248,
    "por": 249,
    "gu": 250,
    "so": 251,
    "al</w>": 252,
    "po": 253,
    "se": 254,
    "és</w>": 255,
    "ci</w>": 256,
    "pui": 257,
    "ge</w>": 258,
    "ra": 259,
    "ni": 260,
    "ff": 261,
    "roit</w>": 262,
    "mon": 263,
    "ent": 264,
    "ou</w>": 265,
    "ce": 266,
    "pe": 267,
    "sse</w>": 268,
    "hom": 269,
    "là</w>": 270,
    "comme</w>": 271,
    "ille</w>": 272,
    "aut</w>": 273,
    "ement</w>": 274,
    "ême</w>": 275,
    "is</w>": 276,
    "oup</w>": 277,
    "moi</w>": 278,
    "temp": 279,
    "fut</w>": 280,
    "sou": 281,
    "l'autre</w>": 282,
    "mon</w>": 283,
    "de": 284,
    "ven": 285,
    "res</w>": 286,
    "dis": 287,
    "ex": 288,
    "éc": 289,
    "lai": 290,
    "sont</w>": 291,
    "gens</w>": 292,
    "sor": 293,
    "rai": 294,
    "mor": 295,
    "ès</w>": 296,
    "rent</w>": 297,
    "che</w>": 298,
    "mo": 299,
    "ec</w>": 300,
    "ôt</w>": 301,
    "all": 302,
    "deux</w>": 303,
    "auss": 304,
    "lo": 305,
    "ez-": 306,
    "jours</w>": 307,
    "ure</w>": 308,
    "ête</w>": 309,
    "avoit</w>": 310,
    "quelque</w>": 311,
    "cour": 312,
    "même</w>": 313,
    "ain</w>": 314,
    "emb": 315,
    "ître</w>": 316,
    "ût</w>": 317,
    "cer": 318,
    "ants</w>": 319,
    "ds</w>": 320,
    "tu</w>": 321,
    "--": 322,
    "qu'on</w>": 323,
    "m'": 324,
    "être</w>": 325,
    "homme</w>": 326,
    "auv": 327,
    "fin</w>": 328,
    "cor": 329,
    "temps</w>": 330,
    "voy": 331,
    "fit</w>": 332,
    "fr": 333,
    "quand</w>": 334,
    "avec</w>": 335,
    "rien</w>": 336,
    "mé": 337,
    "l</w>": 338,
    "ard</w>": 339,
    "notre</w>": 340,
    "chi": 341,
    "ill": 342,
    "ance</w>": 343,
    "endre</w>": 344,
    "don": 345,
    "peu</w>": 346,
    "pass": 347,
    "cha": 348,
    "el</w>": 349,
    "mar": 350,
    "ma</w>": 351,
    "main": 352,
    "cu": 353,
    "ér": 354,
    "trouv": 355,
    "leurs</w>": 356,
    "sai": 357,
    "it": 358,
    "moin": 359,
    "s-": 360,
    "oir</w>": 361,
    "fort</w>": 362,
    "pour": 363,
    "in</w>": 364,
    "vou": 365,
    "ment</w>": 366,
    "esse</w>": 367,
    "able</w>": 368,
    "anim": 369,
    "oin</w>": 370,
    "cel": 371,
    "prit</w>": 372,
    "cet</w>": 373,
    "vient</w>": 374,
    "n'est</w>": 375,
    "jour</w>": 376,
    "att": 377,
    "ents</w>": 378,
    "dou": 379,
    "plai": 380,
    "dem": 381,
    "le": 382,
    "l'h": 383,
    "faut</w>": 384,
    "pen": 385,
    "cho": 386,
    "des": 387,
    "enf": 388,
    "s'en</w>": 389,
    "dit-il</w>": 390,
    "ph": 391,
    "enco": 392,
    "ter": 393,
    "soit</w>": 394,
    "maître</w>": 395,
    "qu'un</w>": 396,
    "ni</w>": 397,
    "puis</w>": 398,
    "rs</w>": 399,
    "nu": 400,
    "br": 401,
    "ob": 402,
    "l'on</w>": 403,
    "d'une</w>": 404,
    "tres</w>": 405,
    "app": 406,
    "ine</w>": 407,
    "non</w>": 408,
    "ong": 409,
    "ton</w>": 410,
    "chez</w>": 411,
    "votre</w>": 412,
    "où": 413,
    "où</w>": 414,
    "bon</w>": 415,
    "peu": 416,
    "n'en</w>": 417,
    "op": 418,
    "as</w>": 419,
    "oire</w>": 420,
    "uit</w>": 421,
    "st": 422,
    "ja": 423,
    "donn": 424,
    "cher</w>": 425,
    "près</w>": 426,
    "mal": 427,
    "voir</w>": 428,
    "seu": 429,
    "vie</w>": 430,
    "oy": 431,
    "--</w>": 432,
    "quoi</w>": 433,
    "omb": 434,
    "ainsi</w>": 435,
    "trai": 436,
    "pré": 437,
    "mou": 438,
    "ef": 439,
    "toujours</w>": 440,
    "vers</w>": 441,
    "aussi</w>": 442,
    "ris</w>": 443,
    "car</w>": 444,
    "ez-vous</w>": 445,
    "donc</w>": 446,
    "pu": 447,
    "beau</w>": 448,
    "ger</w>": 449,
    "hu": 450,
    "cert": 451,
    "loup</w>": 452,
    "man": 453,
    "tu": 454,
    "él": 455,
    "l'un</w>": 456,
    "chac": 457,
    "dire</w>": 458,
    "bou": 459,
    "dre</w>": 460,
    "moins</w>": 461,
    "dieu</w>": 462,
    "gar": 463,
    "lle</w>": 464,
    "ra</w>": 465,
    "tit</w>": 466,
    "fu": 467,
    "chose</w>": 468,
    "dieux</w>": 469,
    "chacun</w>": 470,
    "fon": 471,
    "onne</w>": 472,
    "ir</w>": 473,
    "ence</w>": 474,
    "nos</w>": 475,
    "cher": 476,
    "endant</w>": 477,
    "rir</w>": 478,
    "toute</w>": 479,
    "ta</w>": 480,
    "coup</w>": 481,
    "res": 482,
    "ten": 483,
    "mieux</w>": 484,
    "nt</w>": 485,
    "qu'à</w>": 486,
    "dont</w>": 487,
    "ign": 488,
    "eût</w>": 489,
    "ver": 490,
    "cou": 491,
    "pren": 492,
    "j'ai</w>": 493,
    "peut</w>": 494,
    "ser</w>": 495,
    "enfin</w>": 496,
    "f</w>": 497,
    "men": 498,
    "roi</w>": 499,
    "tour</w>": 500,
    "ve</w>": 501,
    "ay": 502,
    "sin": 503,
    "ant": 504,
    "vit</w>": 505,
    "jamais</w>": 506,
    "jus": 507,
    "sui": 508,
    "mu": 509,
    "pris</w>": 510,
    "be": 511,
    "semb": 512,
    "trop": 513,
    "trop</w>": 514,
    "bl": 515,
    "at</w>": 516,
    "pauv": 517,
    "va</w>": 518,
    "ue</w>": 519,
    "voit</w>": 520,
    "entre</w>": 521,
    "cri": 522,
    "pe</w>": 523,
    "pendant</w>": 524,
    "sage</w>": 525,
    "h</w>": 526,
    "af": 527,
    "tour": 528,
    "prin": 529,
    "fer": 530,
    "aur": 531,
    "encor</w>": 532,
    "mal</w>": 533,
    "ha": 534,
    "ple</w>": 535,
    "illes</w>": 536,
    "nouv": 537,
    "ég": 538,
    "vre</w>": 539,
    "contre</w>": 540,
    "cent</w>": 541,
    "animal</w>": 542,
    "char": 543,
    "ques</w>": 544,
    "mort</w>": 545,
    "voilà</w>": 546,
    "part</w>": 547,
    "l'ai": 548,
    "laiss": 549,
    "aire</w>": 550,
    "raison</w>": 551,
    "souv": 552,
    "ge": 553,
    "tête</w>": 554,
    "-ci</w>": 555,
    "gran": 556,
    "emi": 557,
    "car": 558,
    "ayant</w>": 559,
    "cela</w>": 560,
    "gent</w>": 561,
    "ps</w>": 562,
    "éri": 563,
    "ors</w>": 564,
    "étant</w>": 565,
    "tel</w>": 566,
    "ber": 567,
    "ad": 568,
    "jet</w>": 569,
    "som": 570,
    "ères</w>": 571,
    "tri": 572,
    "anger</w>": 573,
    "grand</w>": 574,
    "gl": 575,
    "gne</w>": 576,
    "ais</w>": 577,
    "seul</w>": 578,
    "met": 579,
    "èrent</w>": 580,
    "sen": 581,
    "tion</w>": 582,
    "mit</w>": 583,
    "voul": 584,
    "tomb": 585,
    "sa": 586,
    "pou": 587,
    "esprit</w>": 588,
    "sous</w>": 589,
    "avoir</w>": 590,
    "sort</w>": 591,
    "os</w>": 592,
    "renard</w>": 593,
    "jupi": 594,
    "l'ar": 595,
    "pie": 596,
    "peine</w>": 597,
    "père</w>": 598,
    "l'homme</w>": 599,
    "s'il</w>": 600,
    "t-on</w>": 601,
    "e-": 602,
    "toit</w>": 603,
    "ie</w>": 604,
    "autres</w>": 605,
    "entr": 606,
    "fl": 607,
    "ets</w>": 608,
    "ît</w>": 609,
    "certain</w>": 610,
    "vant</w>": 611,
    "fau": 612,
    "prendre</w>": 613,
    "suis</w>": 614,
    "j'en</w>": 615,
    "fa": 616,
    "vos</w>": 617,
    "aine</w>": 618,
    "tir</w>": 619,
    "eure</w>": 620,
    "lion</w>": 621,
    "porte</w>": 622,
    "premi": 623,
    "aussit": 624,
    "aussitôt</w>": 625,
    "lieu</w>": 626,
    "tin</w>": 627,
    "beau": 628,
    "pouv": 629,
    "arri": 630,
    "tel": 631,
    "ui</w>": 632,
    "efois</w>": 633,
    "monde</w>": 634,
    "sé": 635,
    "affaire</w>": 636,
    "ev": 637,
    "t'": 638,
    "chat</w>": 639,
    "rat</w>": 640,
    "ois": 641,
    "cours</w>": 642,
    "essi": 643,
    "trois</w>": 644,
    "ple": 645,
    "ur</w>": 646,
    "oie</w>": 647,
    "ante</w>": 648,
    "pauvre</w>": 649,
    "bout</w>": 650,
    "compa": 651,
    "omp": 652,
    "ble</w>": 653,
    "l'é": 654,
    "comm": 655,
    "eill": 656,
    "après</w>": 657,
    "rai</w>": 658,
    "us</w>": 659,
    "ami</w>": 660,
    "font</w>": 661,
    "long": 662,
    "an</w>": 663,
    "malh": 664,
    "ord</w>": 665,
    "jupiter</w>": 666,
    "ll": 667,
    "sant</w>": 668,
    "assez</w>": 669,
    "yeux</w>": 670,
    "mains</w>": 671,
    "sir</w>": 672,
    "der</w>": 673,
    "eille</w>": 674,
    "be</w>": 675,
    "l'in": 676,
    "grâ": 677,
    "peuple</w>": 678,
    "chev": 679,
    "jeu": 680,
    "vint</w>": 681,
    "aille</w>": 682,
    "enn": 683,
    "enfants</w>": 684,
    "pay": 685,
    "alloit</w>": 686,
    "souvent</w>": 687,
    "tune</w>": 688,
    "erre</w>": 689,
    "ro": 690,
    "l'â": 691,
    "sent</w>": 692,
    "plain": 693,
    "peti": 694,
    "reur</w>": 695,
    "droit</w>": 696,
    "mis</w>": 697,
    "animaux</w>": 698,
    "trav": 699,
    "fils</w>": 700,
    "pare": 701,
    "seign": 702,
    "quit": 703,
    "fem": 704,
    "tré": 705,
    "rois</w>": 706,
    "c'étoit</w>": 707,
    "t-elle</w>": 708,
    "ns</w>": 709,
    "sonn": 710,
    "vu</w>": 711,
    "chien</w>": 712,
    "tés</w>": 713,
    "eaux</w>": 714,
    "autr": 715,
    "jou": 716,
    "ats</w>": 717,
    "cependant</w>": 718,
    "log": 719,
    "ché</w>": 720,
    "corps</w>": 721,
    "tir": 722,
    "ler</w>": 723,
    "lut</w>": 724,
    "go": 725,
    "contr": 726,
    "vent</w>": 727,
    "nom": 728,
    "der": 729,
    "rép": 730,
    "oc": 731,
    "sur": 732,
    "comp": 733,
    "arr": 734,
    "ât</w>": 735,
    "toi</w>": 736,
    "té": 737,
    "loin</w>": 738,
    "oups</w>": 739,
    "gag": 740,
    "qui": 741,
    "amour</w>": 742,
    "compagn": 743,
    "haut</w>": 744,
    "four": 745,
    "quant</w>": 746,
    "oiss": 747,
    "souris</w>": 748,
    "dis</w>": 749,
    "prend</w>": 750,
    "uni": 751,
    "ner</w>": 752,
    "ru": 753,
    "cl": 754,
    "bre</w>": 755,
    "bois</w>": 756,
    "tra": 757,
    "tes": 758,
    "elles</w>": 759,
    "autant</w>": 760,
    "fortune</w>": 761,
    "avent": 762,
    "pieds</w>": 763,
    "-même</w>": 764,
    "tent</w>": 765,
    "celui": 766,
    "veux</w>": 767,
    "teur</w>": 768,
    "mots</w>": 769,
    "force</w>": 770,
    "êtes</w>": 771,
    "grâce</w>": 772,
    "beaucoup</w>": 773,
    "tôt</w>": 774,
    "nat": 775,
    "ade</w>": 776,
    "bonne</w>": 777,
    "sembl": 778,
    "ess": 779,
    "habi": 780,
    "toutes</w>": 781,
    "deman": 782,
    "or</w>": 783,
    "pla": 784,
    "tient</w>": 785,
    "lon": 786,
    "qu'elle</w>": 787,
    "tor": 788,
    "cam": 789,
    "prince</w>": 790,
    "sait</w>": 791,
    "it</w>": 792,
    "belle</w>": 793,
    "oiseau</w>": 794,
    "voici</w>": 795,
    "qu'en</w>": 796,
    "soup": 797,
    "sons</w>": 798,
    "croy": 799,
    "cham": 800,
    "chem": 801,
    "quel</w>": 802,
    "veut</w>": 803,
    "doit</w>": 804,
    "-je</w>": 805,
    "celui</w>": 806,
    "chan": 807,
    "étoient</w>": 808,
    "mer</w>": 809,
    "fois</w>": 810,
    "fin": 811,
    "encore</w>": 812,
    "bête</w>": 813,
    "logis</w>": 814,
    "auroit</w>": 815,
    "sauv": 816,
    "a-": 817,
    "ages</w>": 818,
    "cro": 819,
    "prom": 820,
    "femme</w>": 821,
    "ends</w>": 822,
    "plein</w>": 823,
    "rem": 824,
    "donne</w>": 825,
    "n'étoit</w>": 826,
    "chass": 827,
    "ceci</w>": 828,
    "ains</w>": 829,
    "d'h": 830,
    "troup": 831,
    "bâ": 832,
    "cré": 833,
    "ras</w>": 834,
    "élé": 835,
    "à-": 836,
    "souff": 837,
    "comment</w>": 838,
    "tier</w>": 839,
    "avi": 840,
    "ver</w>": 841,
    "ière</w>": 842,
    "prét": 843,
    "petits</w>": 844,
    "ables</w>": 845,
    "terre</w>": 846,
    "celui-ci</w>": 847,
    "euse</w>": 848,
    "off": 849,
    "étr": 850,
    "lieux</w>": 851,
    "bli": 852,
    "maint</w>": 853,
    "onde</w>": 854,
    "qu'au</w>": 855,
    "conn": 856,
    "gle</w>": 857,
    "rit</w>": 858,
    "sais</w>": 859,
    "ange</w>": 860,
    "rou": 861,
    "ciel</w>": 862,
    "l'or": 863,
    "gri": 864,
    "ceux</w>": 865,
    "cour</w>": 866,
    "endr": 867,
    "dent</w>": 868,
    "alors</w>": 869,
    "empor": 870,
    "tié</w>": 871,
    "propo": 872,
    "viens</w>": 873,
    "bu": 874,
    "porter</w>": 875,
    "tte</w>": 876,
    "vois</w>": 877,
    "art</w>": 878,
    "qua": 879,
    "aventure</w>": 880,
    "jeune</w>": 881,
    "court</w>": 882,
    "sire</w>": 883,
    "main</w>": 884,
    "endroit</w>": 885,
    "rage</w>": 886,
    "eh</w>": 887,
    "l'en": 888,
    "dor": 889,
    "eureux</w>": 890,
    "sus</w>": 891,
    "tons</w>": 892,
    "maison</w>": 893,
    "quelques</w>": 894,
    "donner</w>": 895,
    "plaisir</w>": 896,
    "venir</w>": 897,
    "abord</w>": 898,
    "qu'ils</w>": 899,
    "nes</w>": 900,
    "tels</w>": 901,
    "crut</w>": 902,
    "sens</w>": 903,
    "appro": 904,
    "puiss": 905,
    "fond</w>": 906,
    "mom": 907,
    "messi": 908,
    "nouveau</w>": 909,
    "couv": 910,
    "chaque</w>": 911,
    "moi": 912,
    "oins</w>": 913,
    "long</w>": 914,
    "grands</w>": 915,
    "cau": 916,
    "mi</w>": 917,
    "esp": 918,
    "ly": 919,
    "chercher</w>": 920,
    "t-ce</w>": 921,
    "d'être</w>": 922,
    "faisoit</w>": 923,
    "tez</w>": 924,
    "str": 925,
    "quer</w>": 926,
    "mille</w>": 927,
    "nier</w>": 928,
    "exemp": 929,
    "tin": 930,
    "ins</w>": 931,
    "end</w>": 932,
    "gue</w>": 933,
    "conse": 934,
    "amis</w>": 935,
    "çon</w>": 936,
    "soin</w>": 937,
    "cas</w>": 938,
    "du": 939,
    "ici</w>": 940,
    "écou": 941,
    "mère</w>": 942,
    "quatre</w>": 943,
    "mettre</w>": 944,
    "deur</w>": 945,
    "sert</w>": 946,
    "là-": 947,
    "cru": 948,
    "sav": 949,
    "voix</w>": 950,
    "chiens</w>": 951,
    "dès</w>": 952,
    "doux</w>": 953,
    "pai": 954,
    "o</w>": 955,
    "aign": 956,
    "bes": 957,
    "sor</w>": 958,
    "trouva</w>": 959,
    "mot</w>": 960,
    "ier</w>": 961,
    "din": 962,
    "lou": 963,
    "voisi": 964,
    "premier</w>": 965,
    "guerre</w>": 966,
    "dessus</w>": 967,
    "devant</w>": 968,
    "gé": 969,
    "hô": 970,
    "dr": 971,
    "na": 972,
    "th": 973,
    "peur</w>": 974,
    "éch": 975,
    "mer": 976,
    "gré</w>": 977,
    "l'animal</w>": 978,
    "laisse</w>": 979,
    "sé</w>": 980,
    "har": 981,
    "dents</w>": 982,
    "tran": 983,
    "jour": 984,
    "adieu</w>": 985,
    "vieux</w>": 986,
    "auc": 987,
    "gal": 988,
    "onneur</w>": 989,
    "ste</w>": 990,
    "empl": 991,
    "singe</w>": 992,
    "n'y</w>": 993,
    "bas</w>": 994,
    "aver": 995,
    "d'eux</w>": 996,
    "ceau</w>": 997,
    "prix</w>": 998,
    "trésor</w>": 999,
    "n'a</w>": 1000,
    "seul": 1001,
    "quelqu'un</w>": 1002,
    "rom": 1003,
    "m</w>": 1004,
    "passer</w>": 1005,
    "fable</w>": 1006,
    "nez</w>": 1007,
    "ture</w>": 1008,
    "sorte</w>": 1009,
    "foi</w>": 1010,
    "crois</w>": 1011,
    "comb": 1012,
    "voyant</w>": 1013,
    "ez-moi</w>": 1014,
    "onge</w>": 1015,
    "messieurs</w>": 1016,
    "ches</w>": 1017,
    "ir": 1018,
    "reprit</w>": 1019,
    "paro": 1020,
    "pense</w>": 1021,
    "soins</w>": 1022,
    "ombre</w>": 1023,
    "été</w>": 1024,
    "nul</w>": 1025,
    "soient</w>": 1026,
    "d'abord</w>": 1027,
    "cs</w>": 1028,
    "chemin</w>": 1029,
    "aller</w>": 1030,
    "semble</w>": 1031,
    "peut-": 1032,
    "peut-être</w>": 1033,
    "bruit</w>": 1034,
    "disoit</w>": 1035,
    "jà</w>": 1036,
    "parl": 1037,
    "sujet</w>": 1038,
    "sonne</w>": 1039,
    "lit</w>": 1040,
    "nature</w>": 1041,
    "ète</w>": 1042,
    "pâ": 1043,
    "courir</w>": 1044,
    "servi": 1045,
    "song": 1046,
    "l'âne</w>": 1047,
    "endoit</w>": 1048,
    "mang": 1049,
    "reste</w>": 1050,
    "ignor": 1051,
    "sû": 1052,
    "ili": 1053,
    "repar": 1054,
    "oit-il</w>": 1055,
    "uf</w>": 1056,
    "hommes</w>": 1057,
    "né</w>": 1058,
    "humains</w>": 1059,
    "parmi</w>": 1060,
    "cer</w>": 1061,
    "ur": 1062,
    "quer": 1063,
    "regar": 1064,
    "ist": 1065,
    "seigneur</w>": 1066,
    "fût</w>": 1067,
    "quelqu": 1068,
    "avant</w>": 1069,
    "l'oiseau</w>": 1070,
    "déjà</w>": 1071,
    "âme</w>": 1072,
    "d'autres</w>": 1073,
    "qu'une</w>": 1074,
    "nom</w>": 1075,
    "poss": 1076,
    "eue</w>": 1077,
    "dit-on</w>": 1078,
    "petit</w>": 1079,
    "eilles</w>": 1080,
    "fs</w>": 1081,
    "bour": 1082,
    "croit</w>": 1083,
    "tromp": 1084,
    "m'en</w>": 1085,
    "lang": 1086,
    "fais</w>": 1087,
    "avoient</w>": 1088,
    "rée</w>": 1089,
    "min": 1090,
    "vieill": 1091,
    "pru": 1092,
    "hér": 1093,
    "bient": 1094,
    "bientôt</w>": 1095,
    "déli": 1096,
    "lui": 1097,
    "tiens</w>": 1098,
    "die</w>": 1099,
    "ème</w>": 1100,
    "voisin</w>": 1101,
    "est-ce</w>": 1102,
    "ale</w>": 1103,
    "choit</w>": 1104,
    "berger</w>": 1105,
    "ès-": 1106,
    "moment</w>": 1107,
    "vrai</w>": 1108,
    "pé": 1109,
    "l'air</w>": 1110,
    "seroit</w>": 1111,
    "mau": 1112,
    "discours</w>": 1113,
    "èle</w>": 1114,
    "choi": 1115,
    "taire</w>": 1116,
    "objet</w>": 1117,
    "vont</w>": 1118,
    "univers</w>": 1119,
    "attr": 1120,
    "sot</w>": 1121,
    "col": 1122,
    "put</w>": 1123,
    "trouve</w>": 1124,
    "repartit</w>": 1125,
    "pourquoi</w>": 1126,
    "erbe</w>": 1127,
    "telle</w>": 1128,
    "l'esprit</w>": 1129,
    "coups</w>": 1130,
    "sang": 1131,
    "voulut</w>": 1132,
    "nuit</w>": 1133,
    "ait</w>": 1134,
    "tes-": 1135,
    "cieux</w>": 1136,
    "can": 1137,
    "passe</w>": 1138,
    "eff": 1139,
    "chant</w>": 1140,
    "écri": 1141,
    "éléph": 1142,
    "met</w>": 1143,
    "quelle</w>": 1144,
    "part": 1145,
    "somme</w>": 1146,
    "obli": 1147,
    "eil": 1148,
    "manger</w>": 1149,
    "sole": 1150,
    "soleil</w>": 1151,
    "oign": 1152,
    "bre": 1153,
    "alla</w>": 1154,
    "avis</w>": 1155,
    "méri": 1156,
    "gre": 1157,
    "êts</w>": 1158,
    "retour": 1159,
    "d'hu": 1160,
    "pres": 1161,
    "ente</w>": 1162,
    "celle</w>": 1163,
    "aiss": 1164,
    "val": 1165,
    "aper": 1166,
    "crain": 1167,
    "lie</w>": 1168,
    "tan": 1169,
    "fri": 1170,
    "autrefois</w>": 1171,
    "mé</w>": 1172,
    "état</w>": 1173,
    "erreur</w>": 1174,
    "pein": 1175,
    "atta": 1176,
    "b</w>": 1177,
    "hél": 1178,
    "ame</w>": 1179,
    "aff": 1180,
    "urs</w>": 1181,
    "seulement</w>": 1182,
    "ards</w>": 1183,
    "mainte</w>": 1184,
    "publi": 1185,
    "partout</w>": 1186,
    "sera</w>": 1187,
    "quelquefois</w>": 1188,
    "moit</w>": 1189,
    "vin": 1190,
    "vain</w>": 1191,
    "has": 1192,
    "traits</w>": 1193,
    "fam": 1194,
    "gro": 1195,
    "déf": 1196,
    "péri": 1197,
    "ffi": 1198,
    "avant": 1199,
    "avantage</w>": 1200,
    "voisin": 1201,
    "tique</w>": 1202,
    "très-": 1203,
    "uire</w>": 1204,
    "l'o": 1205,
    "ein": 1206,
    "enne</w>": 1207,
    "èvre</w>": 1208,
    "fo": 1209,
    "tant": 1210,
    "tantôt</w>": 1211,
    "proie</w>": 1212,
    "dam": 1213,
    "sel": 1214,
    "selon</w>": 1215,
    "mour": 1216,
    "firent</w>": 1217,
    "appel": 1218,
    "sommes</w>": 1219,
    "ateur</w>": 1220,
    "mauv": 1221,
    "cause</w>": 1222,
    "t-ils</w>": 1223,
    "aucun</w>": 1224,
    "hélas</w>": 1225,
    "tal": 1226,
    "l'amour</w>": 1227,
    "seaux</w>": 1228,
    "mir": 1229,
    "vrai": 1230,
    "gloire</w>": 1231,
    "pourtant</w>": 1232,
    "mée</w>": 1233,
    "pre</w>": 1234,
    "monar": 1235,
    "sul": 1236,
    "quet</w>": 1237,
    "lui-même</w>": 1238,
    "biens</w>": 1239,
    "l'im": 1240,
    "cerf</w>": 1241,
    "ire</w>": 1242,
    "fille</w>": 1243,
    "là-dessus</w>": 1244,
    "exemple</w>": 1245,
    "répon": 1246,
    "rats</w>": 1247,
    "queue</w>": 1248,
    "sque</w>": 1249,
    "lap": 1250,
    "peau</w>": 1251,
    "lé": 1252,
    "je": 1253,
    "plaire</w>": 1254,
    "sc": 1255,
    "s-je</w>": 1256,
    "autour</w>": 1257,
    "chang": 1258,
    "malheureux</w>": 1259,
    "l'ours</w>": 1260,
    "lent</w>": 1261,
    "joie</w>": 1262,
    "veu": 1263,
    "néc": 1264,
    "besoin</w>": 1265,
    "l'argent</w>": 1266,
    "l'univers</w>": 1267,
    "cès</w>": 1268,
    "rap": 1269,
    "ons-": 1270,
    "soi</w>": 1271,
    "êt</w>": 1272,
    "destin</w>": 1273,
    "mis": 1274,
    "ité</w>": 1275,
    "dame</w>": 1276,
    "tiers</w>": 1277,
    "diff": 1278,
    "guère</w>": 1279,
    "entre": 1280,
    "enfant</w>": 1281,
    "arrive</w>": 1282,
    "mourir</w>": 1283,
    "s-tu</w>": 1284,
    "pose</w>": 1285,
    "nouvelle</w>": 1286,
    "tâ": 1287,
    "conno": 1288,
    "d'où</w>": 1289,
    "ennem": 1290,
    "a-t-il</w>": 1291,
    "aujour": 1292,
    "aujourd'hu": 1293,
    "aujourd'hui</w>": 1294,
    "n'avoit</w>": 1295,
    "montr": 1296,
    "table</w>": 1297,
    "endu</w>": 1298,
    "dom": 1299,
    "personne</w>": 1300,
    "suc": 1301,
    "personn": 1302,
    "l'aigle</w>": 1303,
    "corbeau</w>": 1304,
    "cheval</w>": 1305,
    "cô": 1306,
    "tière</w>": 1307,
    "bec</w>": 1308,
    "passant</w>": 1309,
    "ari": 1310,
    "extr": 1311,
    "extrême</w>": 1312,
    "attrap": 1313,
    "dit-elle</w>": 1314,
    "passé</w>": 1315,
    "but</w>": 1316,
    "jar": 1317,
    "née</w>": 1318,
    "chasseur</w>": 1319,
    "gi": 1320,
    "coq": 1321,
    "plutôt</w>": 1322,
    "espri": 1323,
    "trou</w>": 1324,
    "pays</w>": 1325,
    "éren": 1326,
    "chine</w>": 1327,
    "propre</w>": 1328,
    "jet": 1329,
    "geance</w>": 1330,
    "avez</w>": 1331,
    "ec": 1332,
    "brou": 1333,
    "tours</w>": 1334,
    "hi": 1335,
    "réci": 1336,
    "rendre</w>": 1337,
    "qu'aux</w>": 1338,
    "divers</w>": 1339,
    "mag": 1340,
    "manière</w>": 1341,
    "trait</w>": 1342,
    "suiv": 1343,
    "fou": 1344,
    "bor": 1345,
    "sour": 1346,
    "demeure</w>": 1347,
    "pan": 1348,
    "songe</w>": 1349,
    "voyage</w>": 1350,
    "loups</w>": 1351,
    "crier</w>": 1352,
    "âne</w>": 1353,
    "conseil</w>": 1354,
    "aill": 1355,
    "remp": 1356,
    "apo": 1357,
    "amb": 1358,
    "s'enf": 1359,
    "paix</w>": 1360,
    "d'en</w>": 1361,
    "bau": 1362,
    "plaît</w>": 1363,
    "tire</w>": 1364,
    "alou": 1365,
    "gren": 1366,
    "tirer</w>": 1367,
    "ouver": 1368,
    "trouver</w>": 1369,
    "ah</w>": 1370,
    "vais</w>": 1371,
    "va": 1372,
    "ach": 1373,
    "armes</w>": 1374,
    "perd": 1375,
    "esprits</w>": 1376,
    "sein</w>": 1377,
    "van": 1378,
    "istoire</w>": 1379,
    "éléphant</w>": 1380,
    "héros</w>": 1381,
    "ager</w>": 1382,
    "d'é": 1383,
    "vieillard</w>": 1384,
    "tort</w>": 1385,
    "rer</w>": 1386,
    "parle</w>": 1387,
    "don</w>": 1388,
    "sée</w>": 1389,
    "danger</w>": 1390,
    "ouvrage</w>": 1391,
    "moy": 1392,
    "n'ont</w>": 1393,
    "davantage</w>": 1394,
    "moindre</w>": 1395,
    "craign": 1396,
    "nô": 1397,
    "conte</w>": 1398,
    "coû": 1399,
    "connoiss": 1400,
    "voyez</w>": 1401,
    "commun</w>": 1402,
    "mouton</w>": 1403,
    "j'aur": 1404,
    "oh</w>": 1405,
    "l'am": 1406,
    "l'une</w>": 1407,
    "argent</w>": 1408,
    "frère</w>": 1409,
    "ot</w>": 1410,
    "race</w>": 1411,
    "-là</w>": 1412,
    "bel": 1413,
    "gros</w>": 1414,
    "fou</w>": 1415,
    "s'en": 1416,
    "demeur": 1417,
    "sortir</w>": 1418,
    "l'av": 1419,
    "âge</w>": 1420,
    "tint</w>": 1421,
    "serp": 1422,
    "s'y</w>": 1423,
    "afin</w>": 1424,
    "port": 1425,
    "tile</w>": 1426,
    "ram": 1427,
    "sal": 1428,
    "quoi": 1429,
    "doi": 1430,
    "ament</w>": 1431,
    "parler</w>": 1432,
    "traî": 1433,
    "rend": 1434,
    "rie</w>": 1435,
    "gui": 1436,
    "riv": 1437,
    "sup": 1438,
    "rencontre</w>": 1439,
    "dinaire</w>": 1440,
    "vivre</w>": 1441,
    "malheur</w>": 1442,
    "juste</w>": 1443,
    "t'en</w>": 1444,
    "ède</w>": 1445,
    "propos</w>": 1446,
    "hasard</w>": 1447,
    "forts</w>": 1448,
    "présen": 1449,
    "séjour</w>": 1450,
    "tér": 1451,
    "roient</w>": 1452,
    "beaux</w>": 1453,
    "es-": 1454,
    "bis</w>": 1455,
    "est-il</w>": 1456,
    "traite</w>": 1457,
    "troupeau</w>": 1458,
    "vill": 1459,
    "empê": 1460,
    "content</w>": 1461,
    "souh": 1462,
    "aperç": 1463,
    "desc": 1464,
    "sope</w>": 1465,
    "trou": 1466,
    "mage</w>": 1467,
    "ga": 1468,
    "monsi": 1469,
    "monsieur</w>": 1470,
    "mari</w>": 1471,
    "plaign": 1472,
    "toy": 1473,
    "cris</w>": 1474,
    "vouloit</w>": 1475,
    "place</w>": 1476,
    "arrê": 1477,
    "appelle</w>": 1478,
    "nour": 1479,
    "ées</w>": 1480,
    "faits</w>": 1481,
    "sang</w>": 1482,
    "juge</w>": 1483,
    "jardi": 1484,
    "stre</w>": 1485,
    "l'ab": 1486,
    "mauvais</w>": 1487,
    "adr": 1488,
    "certains</w>": 1489,
    "honn": 1490,
    "étrang": 1491,
    "coup": 1492,
    "tue</w>": 1493,
    "lég": 1494,
    "volon": 1495,
    "différen": 1496,
    "l'histoire</w>": 1497,
    "camar": 1498,
    "bras</w>": 1499,
    "l'au": 1500,
    "monarque</w>": 1501,
    "fav": 1502,
    "goû": 1503,
    "commune</w>": 1504,
    "sci": 1505,
    "penser</w>": 1506,
    "tement</w>": 1507,
    "voie</w>": 1508,
    "gé</w>": 1509,
    "pareils</w>": 1510,
    "empire</w>": 1511,
    "parti": 1512,
    "tions</w>": 1513,
    "s'é": 1514,
    "commen": 1515,
    "jets</w>": 1516,
    "port</w>": 1517,
    "gâ": 1518,
    "l'affaire</w>": 1519,
    "morts</w>": 1520,
    "campa": 1521,
    "berg": 1522,
    "sion</w>": 1523,
    "assemb": 1524,
    "moutons</w>": 1525,
    "rend</w>": 1526,
    "saur": 1527,
    "mois</w>": 1528,
    "erai</w>": 1529,
    "dons</w>": 1530,
    "pouvoit</w>": 1531,
    "ufs</w>": 1532,
    "ène</w>": 1533,
    "celle": 1534,
    "prés": 1535,
    "oits</w>": 1536,
    "occu": 1537,
    "ail": 1538,
    "demande</w>": 1539,
    "rob": 1540,
    "repas</w>": 1541,
    "pied</w>": 1542,
    "l'eau</w>": 1543,
    "ville</w>": 1544,
    "meu": 1545,
    "voleurs</w>": 1546,
    "rencontr": 1547,
    "secr": 1548,
    "d'ac": 1549,
    "plainte</w>": 1550,
    "lant</w>": 1551,
    "demand": 1552,
    "appr": 1553,
    "vite</w>": 1554,
    "serpent</w>": 1555,
    "çons</w>": 1556,
    "étonn": 1557,
    "croyoit</w>": 1558,
    "sirs</w>": 1559,
    "vain": 1560,
    "donna</w>": 1561,
    "adresse</w>": 1562,
    "mén": 1563,
    "bat": 1564,
    "asse</w>": 1565,
    "teux</w>": 1566,
    "dirent</w>": 1567,
    "rez</w>": 1568,
    "machine</w>": 1569,
    "trans": 1570,
    "prud": 1571,
    "eoit</w>": 1572,
    "camarade</w>": 1573,
    "ace</w>": 1574,
    "profon": 1575,
    "dedans</w>": 1576,
    "suit</w>": 1577,
    "sit</w>": 1578,
    "devoit</w>": 1579,
    "semblable</w>": 1580,
    "flatt": 1581,
    "meil": 1582,
    "meilleur</w>": 1583,
    "ct": 1584,
    "èce</w>": 1585,
    "appé": 1586,
    "fous</w>": 1587,
    "l'heure</w>": 1588,
    "arbre</w>": 1589,
    "ban": 1590,
    "changer</w>": 1591,
    "soy": 1592,
    "derni": 1593,
    "palai": 1594,
    "palais</w>": 1595,
    "chap": 1596,
    "faim</w>": 1597,
    "endra</w>": 1598,
    "mets</w>": 1599,
    "presque</w>": 1600,
    "cha</w>": 1601,
    "cesse</w>": 1602,
    "tro": 1603,
    "p</w>": 1604,
    "sim": 1605,
    "bons</w>": 1606,
    "soir</w>": 1607,
    "baud": 1608,
    "cont": 1609,
    "souhai": 1610,
    "ésope</w>": 1611,
    "jean</w>": 1612,
    "bon": 1613,
    "nulle</w>": 1614,
    "tar": 1615,
    "conten": 1616,
    "disoit-il</w>": 1617,
    "gou": 1618,
    "voyoit</w>": 1619,
    "faisant</w>": 1620,
    "poux</w>": 1621,
    "jadis</w>": 1622,
    "iss": 1623,
    "lac": 1624,
    "super": 1625,
    "flu": 1626,
    "dra</w>": 1627,
    "îte</w>": 1628,
    "agré": 1629,
    "pire</w>": 1630,
    "colère</w>": 1631,
    "falloit</w>": 1632,
    "lois</w>": 1633,
    "fran": 1634,
    "appar": 1635,
    "bien": 1636,
    "vieille</w>": 1637,
    "tude</w>": 1638,
    "croire</w>": 1639,
    "do": 1640,
    "pes": 1641,
    "chau": 1642,
    "fureur</w>": 1643,
    "champs</w>": 1644,
    "consi": 1645,
    "écu": 1646,
    "tonn": 1647,
    "publique</w>": 1648,
    "roy": 1649,
    "tombe</w>": 1650,
    "ève</w>": 1651,
    "cule</w>": 1652,
    "envie</w>": 1653,
    "jusqu'au</w>": 1654,
    "raisonn": 1655,
    "clo": 1656,
    "l'empor": 1657,
    "plan": 1658,
    "far": 1659,
    "querelle</w>": 1660,
    "pleur": 1661,
    "hum": 1662,
    "rons</w>": 1663,
    "fourni": 1664,
    "certaine</w>": 1665,
    "senti": 1666,
    "oisi": 1667,
    "ements</w>": 1668,
    "dis-je</w>": 1669,
    "fui": 1670,
    "tants</w>": 1671,
    "savoir</w>": 1672,
    "récit</w>": 1673,
    "faite</w>": 1674,
    "dev": 1675,
    "lor": 1676,
    "secours</w>": 1677,
    "én": 1678,
    "ermi": 1679,
    "l'</w>": 1680,
    "bord</w>": 1681,
    "veill": 1682,
    "détr": 1683,
    "apprendre</w>": 1684,
    "brebis</w>": 1685,
    "voisinage</w>": 1686,
    "revi": 1687,
    "stant</w>": 1688,
    "ons-nous</w>": 1689,
    "era</w>": 1690,
    "tins</w>": 1691,
    "accour": 1692,
    "stres</w>": 1693,
    "oreilles</w>": 1694,
    "autrui</w>": 1695,
    "ennemi</w>": 1696,
    "fes": 1697,
    "march": 1698,
    "cats</w>": 1699,
    "véri": 1700,
    "nue</w>": 1701,
    "ffe</w>": 1702,
    "courage</w>": 1703,
    "baudet</w>": 1704,
    "m'a</w>": 1705,
    "l'a</w>": 1706,
    "poi": 1707,
    "ment": 1708,
    "sut</w>": 1709,
    "vé</w>": 1710,
    "mouche</w>": 1711,
    "bri": 1712,
    "cier</w>": 1713,
    "atte</w>": 1714,
    "déesse</w>": 1715,
    "sol": 1716,
    "retourne</w>": 1717,
    "frères</w>": 1718,
    "galant</w>": 1719,
    "ronde</w>": 1720,
    "l'es": 1721,
    "v</w>": 1722,
    "seau</w>": 1723,
    "maudit</w>": 1724,
    "lors</w>": 1725,
    "phil": 1726,
    "demi": 1727,
    "demi-": 1728,
    "ond": 1729,
    "secon": 1730,
    "loger</w>": 1731,
    "iers</w>": 1732,
    "lu</w>": 1733,
    "pourroit</w>": 1734,
    "ingr": 1735,
    "lait</w>": 1736,
    "quoique</w>": 1737,
    "l'ombre</w>": 1738,
    "eil</w>": 1739,
    "dessein</w>": 1740,
    "lar": 1741,
    "uly": 1742,
    "ulysse</w>": 1743,
    "bâton</w>": 1744,
    "gard": 1745,
    "venez</w>": 1746,
    "duit</w>": 1747,
    "ouï": 1748,
    "fier</w>": 1749,
    "belles</w>": 1750,
    "ion</w>": 1751,
    "cruelle</w>": 1752,
    "façon</w>": 1753,
    "chef": 1754,
    "airs</w>": 1755,
    "gross": 1756,
    "agit</w>": 1757,
    "avan": 1758,
    "dernier</w>": 1759,
    "revient</w>": 1760,
    "mê": 1761,
    "dét": 1762,
    "princi": 1763,
    "temple</w>": 1764,
    "allé": 1765,
    "juger</w>": 1766,
    "lot</w>": 1767,
    "îtr": 1768,
    "lorsque</w>": 1769,
    "mpe</w>": 1770,
    "grande</w>": 1771,
    "terri": 1772,
    "cen": 1773,
    "chant": 1774,
    "n'eût</w>": 1775,
    "cui": 1776,
    "allez</w>": 1777,
    "conter</w>": 1778,
    "bal": 1779,
    "mâ": 1780,
    "endront</w>": 1781,
    "fasse</w>": 1782,
    "nus</w>": 1783,
    "échapp": 1784,
    "pauvres</w>": 1785,
    "enseign": 1786,
    "promp": 1787,
    "lis</w>": 1788,
    "métier</w>": 1789,
    "compagnon</w>": 1790,
    "yth": 1791,
    "merv": 1792,
    "triste</w>": 1793,
    "gras</w>": 1794,
    "cra": 1795,
    "celle-ci</w>": 1796,
    "ignorant</w>": 1797,
    "rire</w>": 1798,
    "maj": 1799,
    "majes": 1800,
    "tenoit</w>": 1801,
    "cul": 1802,
    "ennent</w>": 1803,
    "servir</w>": 1804,
    "longtemps</w>": 1805,
    "tage</w>": 1806,
    "ré</w>": 1807,
    "avec": 1808,
    "avecque</w>": 1809,
    "are</w>": 1810,
    "couver": 1811,
    "rat": 1812,
    "doute</w>": 1813,
    "courrou": 1814,
    "s'écri": 1815,
    "chère</w>": 1816,
    "rong": 1817,
    "moitié</w>": 1818,
    "mil": 1819,
    "grenou": 1820,
    "pique</w>": 1821,
    "sau": 1822,
    "cou</w>": 1823,
    "mes": 1824,
    "matin</w>": 1825,
    "lièvre</w>": 1826,
    "cerv": 1827,
    "malgré</w>": 1828,
    "tisans</w>": 1829,
    "première</w>": 1830,
    "savoit</w>": 1831,
    "soi": 1832,
    "pitié</w>": 1833,
    "néces": 1834,
    "nécessai": 1835,
    "join": 1836,
    "vol": 1837,
    "trouvant</w>": 1838,
    "hau": 1839,
    "méch": 1840,
    "ym": 1841,
    "pouss": 1842,
    "refu": 1843,
    "yer</w>": 1844,
    "plaisirs</w>": 1845,
    "gen": 1846,
    "pè": 1847,
    "impor": 1848,
    "dites-": 1849,
    "misér": 1850,
    "pareil</w>": 1851,
    "xe</w>": 1852,
    "troupe</w>": 1853,
    "dép": 1854,
    "tortue</w>": 1855,
    "profi": 1856,
    "prise</w>": 1857,
    "acle</w>": 1858,
    "effet</w>": 1859,
    "perte</w>": 1860,
    "teau</w>": 1861,
    "pouvoir</w>": 1862,
    "l'honneur</w>": 1863,
    "ol": 1864,
    "sain": 1865,
    "sag": 1866,
    "compagnons</w>": 1867,
    "dign": 1868,
    "asi": 1869,
    "sûr</w>": 1870,
    "affai": 1871,
    "affaires</w>": 1872,
    "morceau</w>": 1873,
    "oubli": 1874,
    "troisi": 1875,
    "troisième</w>": 1876,
    "reç": 1877,
    "l'hu": 1878,
    "efforts</w>": 1879,
    "prê": 1880,
    "ettes</w>": 1881,
    "moyen</w>": 1882,
    "divi": 1883,
    "espèce</w>": 1884,
    "appétit</w>": 1885,
    "parut</w>": 1886,
    "commo": 1887,
    "eux": 1888,
    "hôtes</w>": 1889,
    "eroit</w>": 1890,
    "choses</w>": 1891,
    "lapin</w>": 1892,
    "meill": 1893,
    "cli": 1894,
    "serv": 1895,
    "nôtre</w>": 1896,
    "soyez</w>": 1897,
    "retraite</w>": 1898,
    "plut</w>": 1899,
    "combien</w>": 1900,
    "s'étoit</w>": 1901,
    "ô</w>": 1902,
    "prends</w>": 1903,
    "d'am": 1904,
    "gagn": 1905,
    "d'autrui</w>": 1906,
    "l'herbe</w>": 1907,
    "disant</w>": 1908,
    "agn": 1909,
    "marchand</w>": 1910,
    "demain</w>": 1911,
    "assur": 1912,
    "saison</w>": 1913,
    "ments</w>": 1914,
    "instr": 1915,
    "vue</w>": 1916,
    "pos</w>": 1917,
    "ster</w>": 1918,
    "coq</w>": 1919,
    "déb": 1920,
    "d'in": 1921,
    "qual": 1922,
    "ici": 1923,
    "majesté</w>": 1924,
    "corde</w>": 1925,
    "from": 1926,
    "fromage</w>": 1927,
    "cé": 1928,
    "dant</w>": 1929,
    "malade</w>": 1930,
    "occup": 1931,
    "uiss": 1932,
    "prie</w>": 1933,
    "excu": 1934,
    "tourn": 1935,
    "contrai": 1936,
    "j'y</w>": 1937,
    "ho": 1938,
    "surtout</w>": 1939,
    "champ</w>": 1940,
    "renom": 1941,
    "hon": 1942,
    "utile</w>": 1943,
    "n'o": 1944,
    "fer</w>": 1945,
    "forme</w>": 1946,
    "s'ab": 1947,
    "village</w>": 1948,
    "vaut</w>": 1949,
    "sem": 1950,
    "blan": 1951,
    "courroux</w>": 1952,
    "lacs</w>": 1953,
    "lier</w>": 1954,
    "lass": 1955,
    "filles</w>": 1956,
    "charge</w>": 1957,
    "s'étant</w>": 1958,
    "belette</w>": 1959,
    "pot</w>": 1960,
    "possé": 1961,
    "euve</w>": 1962,
    "partir</w>": 1963,
    "cornes</w>": 1964,
    "ceaux</w>": 1965,
    "agne</w>": 1966,
    "n'ayant</w>": 1967,
    "leçon</w>": 1968,
    "érir</w>": 1969,
    "manqu": 1970,
    "tomber</w>": 1971,
    "sément</w>": 1972,
    "sac</w>": 1973,
    "harang": 1974,
    "méchants</w>": 1975,
    "depuis</w>": 1976,
    "longu": 1977,
    "ann": 1978,
    "peines</w>": 1979,
    "coin</w>": 1980,
    "laisser</w>": 1981,
    "su</w>": 1982,
    "faut-il</w>": 1983,
    "perdu</w>": 1984,
    "suite</w>": 1985,
    "lg": 1986,
    "vents</w>": 1987,
    "fruit</w>": 1988,
    "s-là</w>": 1989,
    "commère</w>": 1990,
    "dites-moi</w>": 1991,
    "faisoient</w>": 1992,
    "espér": 1993,
    "erie</w>": 1994,
    "bles</w>": 1995,
    "sitôt</w>": 1996,
    "dèle</w>": 1997,
    "compagnie</w>": 1998,
    "loge</w>": 1999
  }
}