{
  "vocab_size": 32000,
  "min_freq": 2,
  "merges": [
    ["e", "</w>"],
    ["s", "</w>"],
    ["t", "</w>"],
    ["e", "s</w>"],
    ["e", "n"],
    ["o", "n"],
    ["d", "e</w>"],
    ["a", "n"],
    ["r", "</w>"],
    ["a", "</w>"],
    ["o", "u"],
    ["t", "i"],
    ["l", "e</w>"],
    ["a", "i"],
    ["q", "u"],
    ["r", "e</w>"],
    ["i", "n"],
    ["on", "</w>"],
    ["e", "r"],
    ["l", "a</w>"],
    ["a", "r"],
    ["a", "u"],
    ["e", "u"],
    ["e", "t</w>"],
    ["e", "s"],
    ["i", "l"],
    ["u", "n"],
    ["i", "</w>"],
    ["l", "es</w>"],
    ["o", "r"],
    ["p", "r"],
    ["e", "m"],
    ["en", "t</w>"],
    ["i", "s"],
    ["é", "</w>"],
    ["e", "l"],
    ["a", "l"],
    ["à", "</w>"],
    ["t", "r"],
    ["en", "</w>"],
    ["c", "h"],
    ["o", "m"],
    ["e", "r</w>"],
    ["t", "e</w>"],
    ["d", "u"],
    ["p", "a"],
    ["qu", "e</w>"],
    ["d", "es</w>"],
    ["l", "'"],
    ["c", "e</w>"],
    ["i", "t"],
    ["ti", "on</w>"],
    ["l", "i"],
    ["o", "i"],
    ["s", "u"],
    ["c", "on"],
    ["du", "</w>"],
    ["x", "</w>"],
    ["a", "v"],
    ["s", "i"],
    ["d", "i"],
    ["d", "'"],
    ["r", "i"],
    ["n", "e</w>"],
    ["il", "</w>"],
    ["d", "é"],
    ["m", "e</w>"],
    ["an", "s</w>"],
    ["un", "</w>"],
    ["s", "e</w>"],
    ["r", "é"],
    ["an", "t</w>"],
    ["es", "t</w>"],
    ["l", "u"],
    ["c", "om"],
    ["r", "e"],
    ["a", "t"],
    ["d", "</w>"],
    ["p", "ar"],
    ["c", "i"],
    ["un", "e</w>"],
    ["ai", "t</w>"],
    ["é", "t"],
    ["a", "m"],
    ["au", "</w>"],
    ["p", "ou"],
    ["em", "ent</w>"],
    ["c", "</w>"],
    ["t", "re</w>"],
    ["d", "ans</w>"],
    ["a", "g"],
    ["a", "c"],
    ["eu", "r</w>"],
    ["s", "s"],
    ["on", "s</w>"],
    ["p", "o"],
    ["a", "tion</w>"],
    ["e", "t"],
    ["a", "p"],
    ["pa", "r</w>"],
    ["v", "i"],
    ["a", "b"],
    ["é", "e</w>"],
    ["en", "t"],
    ["on", "t</w>"],
    ["pou", "r</w>"],
    ["é", "r"],
    ["qu", "i</w>"],
    ["g", "r"],
    ["pr", "o"],
    ["r", "s</w>"],
    ["ou", "s</w>"],
    ["ai", "n"],
    ["e", "x"],
    ["a", "ti"],
    ["r", "es</w>"],
    ["o", "l"],
    ["el", "le</w>"],
    ["y", "</w>"],
    ["o", "</w>"],
    ["i", "s</w>"],
    ["f", "i"],
    ["ou", "v"],
    ["p", "u"],
    ["au", "x</w>"],
    ["al", "</w>"],
    ["t", "ou"],
    ["t", "u"],
    ["ai", "s</w>"],
    ["i", "e</w>"],
    ["m", "</w>"],
    ["é", "s</w>"],
    ["t", "es</w>"],
    ["c", "u"],
    ["s", "on</w>"],
    ["on", "n"],
    ["f", "r"],
    ["c", "es</w>"],
    ["su", "r</w>"],
    ["p", "l"],
    ["r", "o"],
    ["-", "</w>"],
    ["eu", "x</w>"],
    ["p", "lu"],
    ["in", "</w>"],
    ["qu", "'"],
    ["e", "c"],
    ["m", "o"],
    ["t", "er"],
    ["è", "re</w>"],
    ["ai", "re</w>"],
    ["t", "s</w>"],
    ["a", "s"],
    ["d", "e"],
    ["g", "u"],
    ["i", "m"],
    ["pr", "é"],
    ["c", "ou"],
    ["p", "or"],
    ["l", "’"],
    ["it", "é</w>"],
    ["eu", "rs</w>"],
    ["t", "h"],
    ["n", "o"],
    ["e", "c</w>"],
    ["è", "s</w>"],
    ["f", "or"],
    ["m", "ar"],
    ["l", "</w>"],
    ["pa", "s</w>"],
    ["s", "t"],
    ["plu", "s</w>"],
    ["el", "</w>"],
    ["an", "ce</w>"],
    ["c", "o"],
    ["s", "e"],
    ["f", "</w>"],
    ["a", "d"],
    ["en", "d"],
    ["av", "ec</w>"],
    ["p", "er"],
    ["ou", "</w>"],
    ["s", "es</w>"],
    ["p", "i"],
    ["é", "ri"],
    ["g", "n"],
    ["s", "er"],
    ["f", "f"],
    ["b", "i"],
    ["com", "m"],
    ["l", "o"],
    ["oi", "s</w>"],
    ["qu", "es</w>"],
    ["j", "ou"],
    ["an", "</w>"],
    ["er", "s</w>"],
    ["j", "u"],
    ["p", "</w>"],
    ["é", "n"],
    ["é", "es</w>"],
    ["m", "on"],
    ["z", "</w>"],
    ["d", "’"],
    ["v", "o"],
    ["l", "e"],
    ["et", "te</w>"],
    ["a", "le</w>"],
    ["ag", "e</w>"],
    ["g", "</w>"],
    ["ét", "é</w>"],
    ["é", "g"],
    ["p", "h"],
    ["n", "</w>"],
    ["b", "u"],
    ["eu", "</w>"],
    ["a", "t</w>"],
    ["d", "is"],
    ["s", "ont</w>"],
    ["s", "a</w>"],
    ["r", "u"],
    ["t", "é</w>"],
    ["s", "'"],
    ["s", "o"],
    ["em", "b"],
    ["oi", "r</w>"],
    ["c", "l"],
    ["m", "es</w>"],
    ["an", "d"],
    ["m", "in"],
    ["t", "en"],
    ["s", "i</w>"],
    ["tr", "i"],
    ["ent", "s</w>"],
    ["n", "i"],
    ["il", "l"],
    ["par", "ti"],
    ["n", "'"],
    ["a", "ss"],
    ["oi", "t</w>"],
    ["g", "e</w>"],
    ["in", "e</w>"],
    ["c", "e"],
    ["c", "ette</w>"],
    ["b", "li"],
    ["i", "t</w>"],
    ["en", "s</w>"],
    ["il", "le</w>"],
    ["é", "l"],
    ["u", "</w>"],
    ["n", "ous</w>"],
    ["v", "er"],
    ["m", "ais</w>"],
    ["r", "es"],
    ["g", "i"],
    ["ai", "ent</w>"],
    ["p", "e</w>"],
    ["j", "e</w>"],
    ["tr", "es</w>"],
    ["ti", "ons</w>"],
    ["an", "d</w>"],
    ["a", "s</w>"],
    ["n", "om"],
    ["ati", "ons</w>"],
    ["m", "i"],
    ["en", "ce</w>"],
    ["t", "-"],
    ["f", "u"],
    ["e", "z</w>"],
    ["com", "me</w>"],
    ["il", "s</w>"],
    ["si", "on</w>"],
    ["v", "e</w>"],
    ["an", "g"],
    ["b", "r"],
    ["ch", "e</w>"],
    ["fr", "an"],
    ["v", "en"],
    ["l", "is"],
    ["an", "n"],
    ["o", "b"],
    ["t", "e"],
    ["c", "or"],
    ["ou", "r"],
    ["v", "ous</w>"],
    ["c", "ar"],
    ["m", "ê"],
    ["is", "t"],
    ["l", "eur</w>"],
    ["o", "c"],
    ["em", "i"],
    ["m", "ent</w>"],
    ["po", "s"],
    ["ain", "</w>"],
    ["h", "</w>"],
    ["o", "p"],
    ["p", "e"],
    ["ê", "tre</w>"],
    ["m", "u"],
    ["pr", "ès</w>"],
    ["au", "t"],
    ["al", "l"],
    ["el", "les</w>"],
    ["k", "</w>"],
    ["tou", "t</w>"],
    ["ai", "l"],
    ["un", "i"],
    ["lu", "i</w>"],
    ["m", "é"],
    ["in", "s</w>"],
    ["m", "a"],
    ["d", "eux</w>"],
    ["m", "an"],
    ["em", "p"],
    ["or", "i"],
    ["con", "s"],
    ["c", "r"],
    ["ai", "</w>"],
    ["c", "ol"],
    ["mê", "me</w>"],
    ["p", "eu"],
    ["es", "s"],
    ["pr", "emi"],
    ["oi", "re</w>"],
    ["c", "ri"],
    ["ét", "ait</w>"],
    ["i", "v"],
    ["f", "ait</w>"],
    ["ai", "res</w>"],
    ["f", "on"],
    ["en", "ti"],
    ["c", "a"],
    ["pu", "bli"],
    ["is", "e</w>"],
    ["qu'", "il</w>"],
    ["s", "ou"],
    ["por", "t"],
    ["e", "au</w>"],
    ["ai", "ss"],
    ["d'", "un</w>"],
    ["r", "en"],
    ["ai", "ne</w>"],
    ["pré", "s"],
    ["n", "es</w>"],
    ["or", "s</w>"],
    ["an", "ts</w>"],
    ["g", "én"],
    ["n", "u"],
    ["h", "u"],
    ["c", "er"],
    ["ab", "le</w>"],
    ["en", "tr"],
    ["en", "tre</w>"],
    ["l", "ement</w>"],
    ["t", "o"],
    ["d", "r"],
    ["b", "er"],
    ["ar", "d</w>"],
    ["is", "i"],
    ["c", "'"],
    ["ap", "p"],
    ["au", "ss"],
    ["d", "ont</w>"],
    ["s", "-"],
    ["in", "ter"],
    ["c", "tion</w>"],
    ["qu", "el"],
    ["pu", "is</w>"],
    ["av", "ait</w>"],
    ["d'", "une</w>"],
    ["ar", "ti"],
    ["é", "v"],
    ["com", "p"],
    ["t", "er</w>"],
    ["a", "près</w>"],
    ["bi", "en</w>"],
    ["d", "em"],
    ["su", "r"],
    ["ti", "que</w>"],
    ["ouv", "er"],
    ["fran", "ç"],
    ["a", "y"],
    ["b", "l"],
    ["f", "in"],
    ["g", "ne</w>"],
    ["ù", "</w>"],
    ["is", "s"],
    ["or", "d"],
    ["l", "eurs</w>"],
    ["dé", "c"],
    ["at", "u"],
    ["cu", "l"],
    ["it", "u"],
    ["pr", "i"],
    ["è", "me</w>"],
    ["b", "</w>"],
    ["p", "on"],
    ["m", "or"],
    ["o", "ù</w>"],
    ["al", "is"],
    ["an", "de</w>"],
    ["so", "ci"],
    ["s", "ain"],
    ["ch", "ar"],
    ["s", "ans</w>"],
    ["en", "ces</w>"],
    ["è", "res</w>"],
    ["r", "ent</w>"],
    ["n", "ouv"],
    ["tr", "av"],
    ["r", "el"],
    ["i", "r</w>"],
    ["ap", "h"],
    ["al", "i"],
    ["ch", "e"],
    ["tr", "o"],
    ["tr", "u"],
    ["f", "ai"],
    ["h", "om"],
    ["it", "s</w>"],
    ["b", "re</w>"],
    ["in", "t"],
    ["an", "t"],
    ["per", "s"],
    ["a", "ce</w>"],
    ["f", "fi"],
    ["auss", "i</w>"],
    ["gén", "ér"],
    ["en", "ne</w>"],
    ["i", "te</w>"],
    ["an", "te</w>"],
    ["di", "t</w>"],
    ["f", "ér"],
    ["con", "n"],
    ["c", "el"],
    ["b", "le</w>"],
    ["g", "ar"],
    ["in", "s"],
    ["on", "ne</w>"],
    ["in", "t</w>"],
    ["v", "oir</w>"],
    ["v", "</w>"],
    ["m", "il"],
    ["for", "m"],
    ["s", "y"],
    ["l", "on"],
    ["t", "emp"],
    ["e", "-"],
    ["'", "</w>"],
    ["cou", "r"],
    ["é", "m"],
    ["p", "end"],
    ["ju", "s"],
    ["au", "tres</w>"],
    ["d", "es"],
    ["t", "ous</w>"],
    ["al", "ement</w>"],
    ["r", "em"],
    ["er", "re</w>"],
    ["p", "é"],
    ["d", "o"],
    ["ai", "son</w>"],
    ["qu", "’"],
    ["u", "e</w>"],
    ["ti", "tu"],
    ["l'", "é"],
    ["d", "onn"],
    ["em", "ents</w>"],
    ["-", "-"],
    ["ch", "am"],
    ["pr", "in"],
    ["d", "ou"],
    ["gr", "aph"],
    ["t", "ant</w>"],
    ["n", "ati"],
    ["l", "a"],
    ["c'", "est</w>"],
    ["f", "aire</w>"],
    ["tu", "re</w>"],
    ["r", "a"],
    ["par", "is</w>"],
    ["r", "ou"],
    ["en", "s"],
    ["th", "e</w>"],
    ["s", "or"],
    ["pa", "y"],
    ["c", "ation</w>"],
    ["fr", "ance</w>"],
    ["tr", "ouv"],
    ["j", "o"],
    ["b", "e"],
    ["f", "in</w>"],
    ["ti", "n"],
    ["s", "ous</w>"],
    ["j", "</w>"],
    ["pou", "r"],
    ["li", "v"],
    ["c", "le</w>"],
    ["u", "ti"],
    ["m", "e"],
    ["po", "si"],
    ["ain", "si</w>"],
    ["t", "eur</w>"],
    ["s", "eu"],
    ["con", "tr"],
    ["h", "ist"],
    ["a", "î"],
    ["de", "v"],
    ["f", "ois</w>"],
    ["au", "r"],
    ["nati", "on"],
    ["qu", "i"],
    ["ag", "es</w>"],
    ["es", "se</w>"],
    ["tr", "an"],
    ["c", "i</w>"],
    ["i", "que</w>"],
    ["emb", "re</w>"],
    ["b", "o"],
    ["c", "ré"],
    ["end", "re</w>"],
    ["b", "ou"],
    ["av", "oir</w>"],
    ["pro", "du"],
    ["d", "er"],
    ["c", "é"],
    ["f", "l"],
    ["r", "n"],
    ["peu", "t</w>"],
    ["ci", "p"],
    ["f", "er"],
    ["u", "s</w>"],
    ["f", "il"],
    ["h", "o"],
    ["au", "tre</w>"],
    ["r", "ap"],
    ["d", "om"],
    ["t", "a"],
    ["v", "ers</w>"],
    ["an", "ci"],
    ["at", "s</w>"],
    ["e", "ff"],
    ["ar", "r"],
    ["h", "eu"],
    ["pend", "ant</w>"],
    ["o", "g"],
    ["c", "an"],
    ["ar", "i"],
    ["ch", "i"],
    ["ré", "fér"],
    ["m", "al"],
    ["m", "et"],
    ["re", "c"],
    ["d", "on"],
    ["temp", "s</w>"],
    ["jou", "rs</w>"],
    ["ain", "s</w>"],
    ["con", "tre</w>"],
    ["p", "éri"],
    ["ch", "</w>"],
    ["it", "és</w>"],
    ["a", "les</w>"],
    ["g", "o"],
    ["prés", "ent"],
    ["pa", "ss"],
    ["ti", "v"],
    ["s", "é"],
    ["al", "ité</w>"],
    ["en", "te</w>"],
    ["min", "is"],
    ["co", "re</w>"],
    ["v", "ille</w>"],
    ["t", "ement</w>"],
    ["d", "s</w>"],
    ["c", "s</w>"],
    ["h", "i"],
    ["si", "gn"],
    ["an", "ti"],
    ["j", "et</w>"],
    ["œ", "u"],
    ["ser", "v"],
    ["g", "e"],
    ["fu", "t</w>"],
    ["ver", "s"],
    ["mo", "ins</w>"],
    ["pe", "ti"],
    ["s", "se</w>"],
    ["pr", "es"],
    ["su", "iv"],
    ["el", "s</w>"],
    ["d", "ent</w>"],
    ["en", "core</w>"],
    ["v", "al"],
    ["i", "gn"],
    ["pers", "onn"],
    ["po", "li"],
    ["f", "au"],
    ["or", "g"],
    ["r", "om"],
    ["o", "r</w>"],
    ["b", "ar"],
    ["n", "on</w>"],
    ["s", "oit</w>"],
    ["r", "a</w>"],
    ["v", "oi"],
    ["or", "d</w>"],
    ["cou", "rs</w>"],
    ["de", "puis</w>"],
    ["référ", "ences</w>"],
    ["sain", "t-"],
    ["aiss", "ance</w>"],
    ["w", "</w>"],
    ["ti", "onn"],
    ["i", "i</w>"],
    ["u", "s"],
    ["nom", "</w>"],
    ["c", "in"],
    ["vo", "y"],
    ["uti", "lis"],
    ["f", "s</w>"],
    ["j", "e"],
    ["l'", "in"],
    ["su", "ite</w>"],
    ["en", "n"],
    ["gu", "e</w>"],
    ["d", "a"],
    ["s", "ol"],
    ["al", "ors</w>"],
    ["ch", "er"],
    ["l", "ég"],
    ["n", "é"],
    ["eu", "se</w>"],
    ["premi", "er</w>"],
    ["p", "eu</w>"],
    ["il", "i"],
    ["tran", "s"],
    ["di", "ff"],
    ["tr", "ois</w>"],
    ["is", "te</w>"],
    ["et", "s</w>"],
    ["gr", "and</w>"],
    ["ser", "vi"],
    ["ru", "e</w>"],
    ["tr", "ès</w>"],
    ["gr", "ou"],
    ["por", "t</w>"],
    ["s", "ec"],
    ["j", "eu"],
    ["a", "ff"],
    ["r", "é</w>"],
    ["su", "l"],
    ["con", "se"],
    ["d", "i</w>"],
    ["s", "’"],
    ["ai", "se</w>"],
    ["c", "lu"],
    ["parti", "e</w>"],
    ["s", "tr"],
    ["v", "ol"],
    ["par", "t</w>"],
    ["j", "'"],
    ["tou", "r</w>"],
    ["vi", "e</w>"],
    ["franç", "ais</w>"],
    ["c", "at"],
    ["ch", "o"],
    ["c", "ap"],
    ["graph", "ie</w>"],
    ["v", "ent</w>"],
    ["pay", "s</w>"],
    ["n", "e"],
    ["c", "ro"],
    ["ch", "es</w>"],
    ["m", "on</w>"],
    ["p", "ec"],
    ["av", "ant</w>"],
    ["l", "an"],
    ["ê", "te</w>"],
    ["eu", "ro"],
    ["v", "e"],
    ["s", "itu"],
    ["v", "in"],
    ["s", "al"],
    ["cer", "t"],
    ["tou", "tes</w>"],
    ["ét", "u"],
    ["m", "at"],
    ["f", "em"],
    ["o", "f</w>"],
    ["po", "int</w>"],
    ["ch", "er</w>"],
    ["d", "er</w>"],
    ["no", "tes</w>"],
    ["b", "our"],
    ["l", "ou"],
    ["c", "am"],
    ["premi", "ère</w>"],
    ["don", "c</w>"],
    ["in", "di"],
    ["f", "r</w>"],
    ["tr", "ai"],
    ["r", "ement</w>"],
    ["si", "è"],
    ["le", "v"],
    ["tr", "a"],
    ["pl", "o"],
    ["ch", "a"],
    ["ap", "par"],
    ["l", "et"],
    ["l'", "ex"],
    ["soci", "été</w>"],
    ["f", "o"],
    ["l'", "ar"],
    ["b", "at"],
    ["h", "ab"],
    ["av", "i"],
    ["m", "en"],
    ["si", "eurs</w>"],
    ["ab", "les</w>"],
    ["p", "s</w>"],
    ["s", "c"],
    ["él", "ec"],
    ["û", "t</w>"],
    ["m", "a</w>"],
    ["tri", "bu"],
    ["f", "am"],
    ["o", "t"],
    ["ce", "p"],
    ["b", "a"],
    ["ré", "e</w>"],
    ["t", "és</w>"],
    ["v", "es</w>"],
    ["an", "tes</w>"],
    ["pr", "en"],
    ["g", "es</w>"],
    ["l", "or"],
    ["vi", "ent</w>"],
    ["en", "f"],
    ["n", "’"],
    ["ég", "alement</w>"],
    ["mon", "de</w>"],
    ["m", "is"],
    ["hom", "me</w>"],
    ["ac", "t"],
    ["génér", "al</w>"],
    ["pa", "gn"],
    ["cel", "u"],
    ["c", "al"],
    ["v", "re</w>"],
    ["jou", "r</w>"],
    ["ter", "r"],
    ["c", "et</w>"],
    ["an", "ces</w>"],
    ["am", "</w>"],
    ["ex", "ter"],
    ["i", "r"],
    ["col", "l"],
    ["posi", "tion</w>"],
    ["am", "éri"],
    ["li", "ens</w>"],
    ["at", "eur</w>"],
    ["org", "an"],
    ["comm", "un"],
    ["o", "s</w>"],
    ["ré", "gi"],
    ["s", "om"],
    ["x", "i"],
    ["ai", "l</w>"],
    ["p", "li"],
    ["li", "eu</w>"],
    ["pu", "l"],
    ["in", "g</w>"],
    ["ti", "ques</w>"],
    ["pri", "x</w>"],
    ["no", "tre</w>"],
    ["vo", "lu"],
    ["ar", "ri"],
    ["a", "r</w>"],
    ["ai", "s"],
    ["v", "is"],
    ["mo", "y"],
    ["su", "p"],
    ["b", "e</w>"],
    ["v", "el"],
    ["au", "c"],
    ["v", "ou"],
    ["hist", "oire</w>"],
    ["th", "é"],
    ["é", "ch"],
    ["pré", "si"],
    ["q", "</w>"],
    ["c", "as</w>"],
    ["ét", "at</w>"],
    ["tou", "te</w>"],
    ["n", "é</w>"],
    ["b", "al"],
    ["j", "am"],
    ["emb", "l"],
    ["é", "di"],
    ["no", "t"],
    ["comm", "une</w>"],
    ["h", "au"],
    ["plu", "sieurs</w>"],
    ["è", "ne</w>"],
    ["atu", "re</w>"],
    ["d", "é</w>"],
    ["ô", "t</w>"],
    ["d", "re</w>"],
    ["s", "an"],
    ["t", "om"],
    ["t", "a</w>"],
    ["ail", "l"],
    ["qu", "elle</w>"],
    ["por", "te</w>"],
    ["g", "l"],
    ["t", "on</w>"],
    ["pl", "ac"],
    ["n'", "est</w>"],
    ["p", "es</w>"],
    ["i", "ti"],
    ["jus", "qu'"],
    ["quel", "ques</w>"],
    ["be", "au"],
    ["gu", "erre</w>"],
    ["v", "isi"],
    ["r", "is"],
    ["el", "l"],
    ["m", "ati"],
    ["g", "ouver"],
    ["s", "si"],
    ["b", "les</w>"],
    ["p", "en"],
    ["ffi", "ci"],
    ["pl", "ace</w>"],
    ["pr", "im"],
    ["l", "ors</w>"],
    ["qu'", "elle</w>"],
    ["it", "es</w>"],
    ["n", "i</w>"],
    ["as", "se</w>"],
    ["s", "ement</w>"],
    ["c", "ô"],
    ["gr", "ande</w>"],
    ["l", "é"],
    ["gouver", "n"],
    ["c", "au"],
    ["m", "é</w>"],
    ["on", "e</w>"],
    ["g", "en"],
    ["n", "aissance</w>"],
    ["p", "au"],
    ["che", "v"],
    ["e", "d</w>"],
    ["im", "port"],
    ["m", "ée</w>"],
    ["diff", "ér"],
    ["ain", "es</w>"],
    ["é", "cri"],
    ["b", "an"],
    ["pro", "f"],
    ["ori", "g"],
    ["exter", "nes</w>"],
    ["t", "y"],
    ["se", "ign"],
    ["ca", "r</w>"],
    ["tu", "</w>"],
    ["all", "em"],
    ["ch", "ez</w>"],
    ["ti", "</w>"],
    ["u", "l"],
    ["se", "p"],
    ["cou", "p</w>"],
    ["mor", "t</w>"],
    ["mon", "t"],
    ["vi", "r"],
    ["d", "ro"],
    ["ét", "ab"],
    ["ac", "tion</w>"],
    ["jou", "rn"],
    ["er", "ie</w>"],
    ["g", "a"],
    ["ré", "alis"],
    ["in", "es</w>"],
    ["l", "à</w>"],
    ["è", "rent</w>"],
    ["pr", "is</w>"],
    ["entr", "e"],
    ["se", "con"],
    ["il", "ité</w>"],
    ["lo", "i</w>"],
    ["grou", "pe</w>"],
    ["ro", "i</w>"],
    ["u", "m</w>"],
    ["dr", "oit</w>"],
    ["l", "y"],
    ["el", "lement</w>"],
    ["pr", "is"],
    ["améri", "c"],
    ["o", "ci"],
    ["di", "re</w>"],
    ["f", "é"],
    ["m", "ag"],
    ["m", "is</w>"],
    ["su", "c"],
    ["g", "er</w>"],
    ["p", "le</w>"],
    ["r", "er</w>"],
    ["cons", "tru"],
    ["ch", "an"],
    ["o", "graphie</w>"],
    ["for", "me</w>"],
    ["con", "t"],
    ["il", "les</w>"],
    ["m", "ent"],
    ["ét", "aient</w>"],
    ["ar", "t</w>"],
    ["ail", "le</w>"],
    ["e", "f"],
    ["ann", "ées</w>"],
    ["qu", "and</w>"],
    ["qu", "el</w>"],
    ["emb", "le</w>"],
    ["m", "er</w>"],
    ["e", "aux</w>"],
    ["m", "ents</w>"],
    ["am", "ment</w>"],
    ["fil", "m</w>"],
    ["tou", "jours</w>"],
    ["es", "si"],
    ["publi", "c</w>"],
    ["ser", "a</w>"],
    ["no", "s</w>"],
    ["arti", "cle</w>"],
    ["ouv", "r"],
    ["s", "éri"],
    ["comm", "er"],
    ["res", "pon"],
    ["s", "el"],
    ["es", "p"],
    ["mé", "di"],
    ["ann", "ée</w>"],
    ["qu", "es"],
    ["g", "é</w>"],
    ["c", "elle</w>"],
    ["a", "di"],
    ["i", "es</w>"],
    ["nom", "bre</w>"],
    ["eu", "re</w>"],
    ["m", "ou"],
    ["l", "ar"],
    ["minis", "tr"],
    ["di", "rec"],
    ["qu", "at"],
    ["bu", "t</w>"],
    ["c", "eux</w>"],
    ["a", "f"],
    ["lor", "s"],
    ["com", "pl"],
    ["dé", "cl"],
    ["ad", "ministr"],
    ["s", "ouv"],
    ["m", "es"],
    ["tu", "r"],
    ["organ", "is"],
    ["ro", "y"],
    ["cham", "pi"],
    ["conse", "il</w>"],
    ["ch", "é</w>"],
    ["ti", "f</w>"],
    ["eu", "ses</w>"],
    ["es", "t"],
    ["ti", "tre</w>"],
    ["mu", "si"],
    ["man", "i"],
    ["f", "a"],
    ["g", "ag"],
    ["qu'", "on</w>"],
    ["int", "ér"],
    ["ay", "ant</w>"],
    ["h", "y"],
    ["a", "de</w>"],
    ["uni", "vers"],
    ["cha", "que</w>"],
    ["v", "ue</w>"],
    ["ten", "ant</w>"],
    ["com", "pagn"],
    ["eff", "et</w>"],
    ["vel", "op"],
    ["mé", "d"],
    ["re", "présent"],
    ["mar", "i"],
    ["vi", "c"],
    ["si", "m"],
    ["aut", "eur</w>"],
    ["ce", "la</w>"],
    ["t", "or"],
    ["nation", "al</w>"],
    ["p", "al"],
    ["i", "-"],
    ["v", "a</w>"],
    ["con", "si"],
    ["c", "it"],
    ["s", "ci"],
    ["t", "o</w>"],
    ["m", "'"],
    ["v", "ill"],
    ["prin", "cip"],
    ["u", "r"],
    ["z", "e</w>"],
    ["ni", "er</w>"],
    ["s", "au"],
    ["s", "pé"],
    ["b", "ri"],
    ["for", "t</w>"],
    ["cu", "r"],
    ["ol", "o"],
    ["op", "ér"],
    ["le", "-"],
    ["i", "d"],
    ["pro", "gr"],
    ["b", "el"],
    ["c", "les</w>"],
    ["é", "cu"],
    ["dé", "r"],
    ["o", "ffici"],
    ["c", "ess"],
    ["ent", "es</w>"],
    ["parti", "cu"],
    ["d", "oit</w>"],
    ["m", "ois</w>"],
    ["ri", "en</w>"],
    ["pr", "ise</w>"],
    ["s", "h"],
    ["es", "ti"],
    ["re", "cher"],
    ["fau", "t</w>"],
    ["ê", "t</w>"],
    ["ord", "re</w>"],
    ["u", "re</w>"],
    ["è", "ce</w>"],
    ["in", "f"],
    ["der", "ni"],
    ["ri", "er</w>"],
    ["ré", "sul"],
    ["m", "et</w>"],
    ["sy", "st"],
    ["con", "st"],
    ["é", "tr"],
    ["dé", "e</w>"],
    ["pro", "t"],
    ["b", "as"],
    ["su", "s</w>"],
    ["poli", "tique</w>"],
    ["quat", "re</w>"],
    ["su", "b"],
    ["cons", "titu"],
    ["celu", "i</w>"],
    ["d", "el"],
    ["and", "s</w>"],
    ["l", "t</w>"],
    ["a", "ch"],
    ["l'", "ac"],
    ["publi", "que</w>"],
    ["pr", "endre</w>"],
    ["liv", "re</w>"],
    ["car", "act"],
    ["dem", "and"],
    ["t", "él"],
    ["aut", "or"],
    ["prési", "dent</w>"],
    ["ci", "r"],
    ["li", "m"],
    ["at", "ta"],
    ["si", "ons</w>"],
    ["app", "li"],
    ["fam", "ille</w>"],
    ["dé", "velop"],
    ["oc", "cu"],
    ["spé", "ci"],
    ["en", "vir"],
    ["po", "pul"],
    ["eu", "r"],
    ["j", "an"],
    ["ch", "ap"],
    ["dé", "par"],
    ["con", "cer"],
    ["b", "ru"],
    ["t", "ab"],
    ["ber", "t</w>"],
    ["d", "o</w>"],
    ["particu", "li"],
    ["ré", "pon"],
    ["o", "s"],
    ["f", "ac"],
    ["hom", "mes</w>"],
    ["a", "z"],
    ["dé", "f"],
    ["mo", "i</w>"],
    ["app", "el"],
    ["sel", "on</w>"],
    ["pou", "v"],
    ["d", "am"],
    ["l", "l"],
    ["ol", "</w>"],
    ["cap", "it"],
    ["lu", "</w>"],
    ["c", "ès</w>"],
    ["jam", "ais</w>"],
    ["x", "e</w>"],
    ["m", "aison</w>"],
    ["qu", "o"],
    ["rel", "i"],
    ["m", "ad"],
    ["h", "é"],
    ["d’", "un</w>"],
    ["fem", "me</w>"],
    ["e", "il</w>"],
    ["ô", "le</w>"],
    ["è", "te</w>"],
    ["in", "g"],
    ["pr", "om"],
    ["m", "er"],
    ["con", "ti"],
    ["fai", "s"],
    ["heu", "res</w>"],
    ["d", "a</w>"],
    ["ass", "oci"],
    ["in", "st"],
    ["nom", "br"],
    ["p", "ère</w>"],
    ["t", "an"],
    ["hist", "ori"],
    ["ag", "ne</w>"],
    ["pr", "it</w>"],
    ["c", "ad"],
    ["franç", "aise</w>"],
    ["m", "i</w>"],
    ["mu", "l"],
    ["f", "ace</w>"],
    ["o", "de</w>"],
    ["p", "ens"],
    ["cri", "p"],
    ["f", "ils</w>"],
    ["x", "-"],
    ["em", "plo"],
    ["gr", "an"],
    ["t", "ent</w>"],
    ["dro", "its</w>"],
    ["trav", "ail</w>"],
    ["ati", "que</w>"],
    ["nouv", "eau</w>"],
    ["lo", "c"],
    ["r", "ait</w>"],
    ["dev", "ant</w>"],
    ["pi", "erre</w>"],
    ["c", "ité</w>"],
    ["déc", "ès</w>"],
    ["trouv", "e</w>"],
    ["jou", "r"],
    ["n", "or"],
    ["v", "er</w>"],
    ["met", "tre</w>"],
    ["ch", "em"],
    ["ai", "r</w>"],
    ["l", "it"],
    ["é", "p"],
    ["c", "y"],
    ["as", "si"],
    ["dom", "aine</w>"],
    ["m", "ét"],
    ["m", "ain"],
    ["d'", "ar"],
    ["d’", "une</w>"],
    ["ol", "og"],
    ["h", "er"],
    ["d", "eu"],
    ["dévelop", "p"],
    ["comp", "te</w>"],
    ["is", "sion</w>"],
    ["i", "er</w>"],
    ["nation", "ale</w>"],
    ["vo", "tre</w>"],
    ["m", "om"],
    ["pos", "si"],
    ["ri", "ère</w>"],
    ["av", "ons</w>"],
    ["lis", "e</w>"],
    ["n", "ord</w>"],
    ["g", "é"],
    ["par", "l"],
    ["lis", "te</w>"],
    ["gi", "que</w>"],
    ["qu’", "il</w>"],
    ["vi", "er</w>"],
    ["t", "eurs</w>"],
    ["ten", "ir</w>"],
    ["b", "on</w>"],
    ["é", "qu"],
    ["servi", "ce</w>"],
    ["h", "e"],
    ["t", "el</w>"],
    ["qu", "er</w>"],
    ["nouv", "elle</w>"],
    ["s", "a"],
    ["co", "le</w>"],
    ["pro", "pri"],
    ["ill", "et</w>"],
    ["quel", "que</w>"],
    ["d", "an"],
    ["po", "se</w>"],
    ["é", "qui"],
    ["bi", "bli"],
    ["ré", "s</w>"],
    ["i", "ques</w>"],
    ["r", "nier</w>"],
    ["bl", "an"],
    ["s", "oi"],
    ["dé", "j"],
    ["ch", "â"],
    ["cor", "ps</w>"],
    ["h", "ar"],
    ["gouvern", "ement</w>"],
    ["at", "t"],
    ["i", "re</w>"],
    ["tou", "rn"],
    ["not", "amment</w>"],
    ["ven", "ir</w>"],
    ["t", "ér"],
    ["d", "it"],
    ["so", "lu"],
    ["pren", "d</w>"],
    ["di", "e</w>"],
    ["v", "ari"],
    ["er", "a</w>"],
    ["siè", "cle</w>"],
    ["com", "pos"],
    ["v", "ement</w>"],
    ["di", "c"],
    ["ati", "s"],
    ["ti", "n</w>"],
    ["qu'", "ils</w>"],
    ["j", "ac"],
    ["t", "ex"],
    ["ter", "min"],
    ["déj", "à</w>"],
    ["n'", "a</w>"],
    ["li", "gne</w>"],
    ["je", "an</w>"],
    ["v", "r"],
    ["i", "c"],
    ["de", "rnier</w>"],
    ["ce", "pendant</w>"],
    ["es", "t-"],
    ["m", "au"],
    ["pu", "is"],
    ["c", "’"],
    ["te", "ch"],
    ["pro", "jet</w>"],
    ["ét", "ant</w>"],
    ["tr", "ou"],
    ["pa", "gne</w>"],
    ["con", "di"],
    ["r", "è"],
    ["g", "al"],
    ["b", "or"],
    ["ang", "l"],
    ["eu", "t</w>"],
    ["form", "ation</w>"],
    ["fi", "t</w>"],
    ["séri", "e</w>"],
    ["c", "é</w>"],
    ["tro", "p</w>"],
    ["en", "r"],
    ["ç", "on</w>"],
    ["e", "g"],
    ["av", "aient</w>"],
    ["me", "ill"],
    ["no", "v"],
    ["s", "p"],
    ["un", "is</w>"],
    ["ti", "s"],
    ["re", "ç"],
    ["hu", "i</w>"],
    ["in", "v"],
    ["li", "b"],
    ["ati", "ve</w>"],
    ["la", "quelle</w>"],
    ["du", "r"],
    ["th", "è"],
    ["at", "eurs</w>"],
    ["fi", "gu"],
    ["oi", "res</w>"],
    ["h", "ô"],
    ["m", "ain</w>"],
    ["ec", "tion</w>"],
    ["b", "on"],
    ["l", "aiss"],
    ["en", "nes</w>"],
    ["o", "ff"],
    ["arti", "cles</w>"],
    ["li", "e</w>"],
    ["o", "is"],
    ["décl", "ar"],
    ["con", "om"],
    ["l'", "on</w>"],
    ["c", "entr"],
    ["c", "ent</w>"],
    ["an", "im"],
    ["si", "te</w>"],
    ["è", "rement</w>"],
    ["f", "ou"],
    ["jeu", "ne</w>"],
    ["n", "atu"],
    ["te", "-"],
    ["rap", "port</w>"],
    ["ti", "ve</w>"],
    ["mon", "tr"],
    ["res", "s"],
    ["souv", "ent</w>"],
    ["heu", "r"],
    ["mil", "it"],
    ["liv", "res</w>"],
    ["ar", "ch"],
    ["résul", "t"],
    ["c", "er</w>"],
    ["v", "u</w>"],
    ["au", "jour"],
    ["a", "c</w>"],
    ["m", "ise</w>"],
    ["g", "ent</w>"],
    ["go", "og"],
    ["a", "k"],
    ["beau", "coup</w>"],
    ["ail", "leurs</w>"],
    ["qu", "ement</w>"],
    ["ten", "u</w>"],
    ["ég", "lise</w>"],
    ["ter", "re</w>"],
    ["minis", "tre</w>"],
    ["f", "our"],
    ["a", "y</w>"],
    ["n", "eu"],
    ["mar", "s</w>"],
    ["goog", "le</w>"],
    ["m", "ai</w>"],
    ["l", "es"],
    ["ri", "r</w>"],
    ["di", "s</w>"],
    ["m", "emb"],
    ["qu", "é</w>"],
    ["de", "-"],
    ["h", "on"],
    ["por", "ts</w>"],
    ["d", "ès</w>"],
    ["ex", "es</w>"],
    ["is", "me</w>"],
    ["mil", "li"],
    ["con", "fi"],
    ["prin", "ci"],
    ["c", "as"],
    ["g", "au"],
    ["ac", "tiv"],
    ["g", "h"],
    ["ac", "cor"],
    ["ma", "î"],
    ["peu", "vent</w>"],
    ["enn", "ent</w>"],
    ["y", "m"],
    ["con", "du"],
    ["xi", "ème</w>"],
    ["s", "aison</w>"],
    ["olog", "ie</w>"],
    ["ac", "tu"],
    ["z", "-"],
    ["em", "</w>"],
    ["uni", "on</w>"],
    ["je", "an"],
    ["jusqu'", "à</w>"],
    ["c", "tions</w>"],
    ["d'", "autres</w>"],
    ["ni", "que</w>"],
    ["hab", "it"],
    ["re", "t"],
    ["ju", "in</w>"],
    ["fi", "cation</w>"],
    ["parti", "r</w>"],
    ["cin", "q</w>"],
    ["en", "fin</w>"],
    ["gu", "es</w>"],
    ["él", "è"],
    ["peti", "t</w>"],
    ["c", "o</w>"],
    ["ê", "tes</w>"],
    ["l", "in"],
    ["s", "ch"],
    ["r", "on"],
    ["cl", "ass"],
    ["to", "t"],
    ["em", "ent"],
    ["ju", "illet</w>"],
    ["dem", "ande</w>"],
    ["r", "aison</w>"],
    ["di", "eu</w>"],
    ["v", "res</w>"],
    ["o", "t</w>"],
    ["ri", "e</w>"],
    ["p", "ai"],
    ["pa", "tri"],
    ["seu", "lement</w>"],
    ["arr", "ê"],
    ["av", "r"],
    ["a", "fin</w>"],
    ["ser", "ait</w>"],
    ["a", "me</w>"],
    ["ang", "er</w>"],
    ["è", "le</w>"],
    ["vi", "ol"],
    ["e", "d"],
    ["améric", "ain</w>"],
    ["po", "in"],
    ["g", "er"],
    ["f", "av"],
    ["ex", "emp"],
    ["aur", "ait</w>"],
    ["mom", "ent</w>"],
    ["lou", "is</w>"],
    ["c", "ations</w>"],
    ["s", "in"],
    ["trav", "aux</w>"],
    ["mil", "i"],
    ["l'", "autre</w>"],
    ["res", "te</w>"],
    ["gr", "é</w>"],
    ["s", "ab"],
    ["pres", "sion</w>"],
    ["b", "â"],
    ["t", "ait</w>"],
    ["qu'", "un</w>"],
    ["o", "bli"],
    ["cou", "r</w>"],
    ["prés", "ente</w>"],
    ["comm", "and"],
    ["v", "ér"],
    ["ens", "emble</w>"],
    ["aî", "t</w>"],
    ["oc", "t"],
    ["eff", "ec"],
    ["terr", "it"],
    ["seu", "l</w>"],
    ["ar", "d"],
    ["conti", "nu"],
    ["s", "t</w>"],
    ["syst", "ème</w>"],
    ["ti", "fs</w>"],
    ["da", "te</w>"],
    ["s", "k"],
    ["a", "o"],
    ["a", "te</w>"],
    ["su", "d</w>"],
    ["j'", "ai</w>"],
    ["m", "uni"],
    ["s", "our"],
    ["do", "cu"],
    ["t", "ête</w>"],
    ["ph", "y"],
    ["ass", "ez</w>"],
    ["et", "c</w>"],
    ["c", "es"],
    ["é", "li"],
    ["jou", "eur</w>"],
    ["i", "ci</w>"],
    ["pu", "</w>"],
    ["quo", "i</w>"],
    ["c", "en"],
    ["g", "t</w>"],
    ["lon", "g"],
    ["anci", "en</w>"],
    ["s'", "est</w>"],
    ["né", "cess"],
    ["ob", "jet</w>"],
    ["ob", "serv"],
    ["am", "me</w>"],
    ["t", "ation</w>"],
    ["c", "a</w>"],
    ["il", "es</w>"],
    ["cham", "bre</w>"],
    ["déc", "embre</w>"],
    ["h", "onn"],
    ["enf", "ants</w>"],
    ["ou", "r</w>"],
    ["l'", "am"],
    ["parti", "</w>"],
    ["régi", "on</w>"],
    ["e", "v"],
    ["i", "on</w>"],
    ["ins", "titu"],
    ["p", "an"],
    ["avr", "il</w>"],
    ["posi", "tions</w>"],
    ["recher", "che</w>"],
    ["è", "tres</w>"],
    ["en", "suite</w>"],
    ["memb", "res</w>"],
    ["jan", "vier</w>"],
    ["ét", "at"],
    ["te", "au</w>"],
    ["m", "ouv"],
    ["r", "an"],
    ["ins", "tru"],
    ["s", "ti"],
    ["comm", "ission</w>"],
    ["pe", "in"],
    ["l'", "es"],
    ["è", "ces</w>"],
    ["gr", "av"],
    ["auc", "un</w>"],
    ["al", "ie</w>"],
    ["c", "entre</w>"],
    ["si", "e</w>"],
    ["éri", "eur</w>"],
    ["m", "ér"],
    ["aut", "om"],
    ["ti", "ent</w>"],
    ["it", "ali"],
    ["jus", "ti"],
    ["il", "li"],
    ["pris", "es</w>"],
    ["a", "re</w>"],
    ["j", "ets</w>"],
    ["b", "es"],
    ["che", "f</w>"],
    ["comm", "en"],
    ["ac", "tions</w>"],
    ["qu", "it"],
    ["c", "li"],
    ["è", "de</w>"],
    ["visi", "on</w>"],
    ["crip", "tion</w>"],
    ["eu", "ve</w>"],
    ["dé", "fin"],
    ["ac", "cu"],
    ["b", "onne</w>"],
    ["is", "ation</w>"],
    ["cô", "té</w>"],
    ["u", "es</w>"],
    ["ques", "tion</w>"],
    ["é", "conom"],
    ["ven", "u</w>"],
    ["f", "ille</w>"],
    ["pu", "iss"],
    ["qu", "ant</w>"],
    ["sep", "t"],
    ["c’", "est</w>"],
    ["tri", "ce</w>"],
    ["re", "g"],
    ["t-", "il</w>"],
    ["i", "a</w>"],
    ["oi", "x</w>"],
    ["oct", "ob"],
    ["as", "sur"],
    ["ou", "est</w>"],
    ["d", "ess"],
    ["œu", "r</w>"],
    ["w", "e"],
    ["il", "o"],
    ["si", "eur</w>"],
    ["euro", "pé"],
    ["â", "tre</w>"],
    ["l'", "em"],
    ["arri", "v"],
    ["sor", "ti"],
    ["c", "k</w>"],
    ["ré", "s"],
    ["reli", "gi"],
    ["lors", "que</w>"],
    ["it", "er</w>"],
    ["d'", "hui</w>"],
    ["m", "m</w>"],
    ["aî", "tre</w>"],
    ["h", "ér"],
    ["fran", "cs</w>"],
    ["v", "eau</w>"],
    ["oi", "gn"],
    ["f", "ré"],
    ["ab", "ri"],
    ["auc", "une</w>"],
    ["personn", "es</w>"],
    ["é", "lev"],
    ["octob", "re</w>"],
    ["pers", "onne</w>"],
    ["euro", "pe</w>"],
    ["deu", "xième</w>"],
    ["pro", "vin"],
    ["ma", "j"],
    ["an", "e</w>"],
    ["bour", "g</w>"],
    ["lon", "g</w>"],
    ["com", "b"],
    ["li", "t</w>"],
    ["p", "re</w>"],
    ["par", "mi</w>"],
    ["b", "r</w>"],
    ["ill", "er</w>"],
    ["at", "ten"],
    ["pr", "ét"],
    ["s", "av"],
    ["isi", "on</w>"],
    ["aujour", "d'hui</w>"],
    ["possi", "ble</w>"],
    ["pro", "cé"],
    ["aut", "ant</w>"],
    ["donn", "er</w>"],
    ["l'", "ab"],
    ["n", "er</w>"],
    ["i", "fi"],
    ["ré", "g"],
    ["ord", "in"],
    ["f", "ont</w>"],
    ["sept", "embre</w>"],
    ["re", "ction</w>"],
    ["s-", "unis</w>"],
    ["in", "du"],
    ["ao", "ût</w>"],
    ["b", "as</w>"],
    ["au", "-"],
    ["univers", "ité</w>"],
    ["th", "</w>"],
    ["œu", "vre</w>"],
    ["orig", "in"],
    ["b", "ois</w>"],
    ["pou", "voir</w>"],
    ["t", "te</w>"],
    ["su", "péri"],
    ["moy", "en</w>"],
    ["t", "ée</w>"],
    ["emplo", "y"],
    ["champi", "onn"],
    ["cul", "ture</w>"],
    ["in", "form"],
    ["m", "ère</w>"],
    ["al", "bu"],
    ["produ", "ction</w>"],
    ["ann", "on"],
    ["m", "an</w>"],
    ["ann", "u"],
    ["ass", "embl"],
    ["s", "em"],
    ["f", "er</w>"],
    ["d", "oc"],
    ["f", "e</w>"],
    ["is", "l"],
    ["pr", "iv"],
    ["ti", "en</w>"],
    ["min", "u"],
    ["sy", "n"],
    ["d'", "ab"],
    ["ss", "es</w>"],
    ["arti", "s"],
    ["mo", "d"],
    ["r", "am"],
    ["s", "on"],
    ["clu", "b</w>"],
    ["b", "res</w>"],
    ["po", "que</w>"],
    ["ais", "ons</w>"],
    ["ar", "m"],
    ["j", "eu</w>"],
    ["ag", "ri"],
    ["tribu", "tion</w>"],
    ["jean", "-"],
    ["b", "y</w>"],
    ["d'", "ex"],
    ["condi", "tions</w>"],
    ["b", "én"],
    ["fem", "mes</w>"],
    ["utilis", "ation</w>"],
    ["a", "jou"],
    ["l'", "im"],
    ["tu", "res</w>"],
    ["n", "a"],
    ["dé", "t"],
    ["at", "h"],
    ["con", "nu"],
    ["si", "x</w>"],
    ["l", "i</w>"],
    ["et", "tes</w>"],
    ["voi", "x</w>"],
    ["col", "on"],
    ["à", "-"],
    ["s", "pec"],
    ["rel", "ati"],
    ["f", "év"],
    ["pi", "r"],
    ["cau", "se</w>"],
    ["b", "ass"],
    ["hu", "m"],
    ["vill", "age</w>"],
    ["g", "ement</w>"],
    ["re", "conn"],
    ["pa", "ge</w>"],
    ["t", "ar"],
    ["t", "ard</w>"],
    ["gr", "â"],
    ["d", "en"],
    ["donn", "é</w>"],
    ["é", "ment</w>"],
    ["étab", "lis"],
    ["g", "es"],
    ["s", "ac"],
    ["dépar", "tement</w>"],
    ["j", "et"],
    ["gr", "ands</w>"],
    ["ré", "publique</w>"],
    ["mes", "ure</w>"],
    ["sou", "s-"],
    ["servi", "ces</w>"],
    ["res", "pec"],
    ["de", "vient</w>"],
    ["peti", "te</w>"],
    ["mani", "ère</w>"],
    ["administr", "ation</w>"],
    ["parti", "cip"],
    ["al", "li"],
    ["au", "g"],
    ["p", "er</w>"],
    ["s", "ée</w>"],
    ["dis", "tin"],
    ["mis", "sion</w>"],
    ["d", "onne</w>"],
    ["ty", "pe</w>"],
    ["y", "eux</w>"],
    ["is", "ée</w>"],
    ["b", "il"],
    ["n", "ature</w>"],
    ["ch", "au"],
    ["cert", "ains</w>"],
    ["pl", "e"],
    ["j", "ec"],
    ["nov", "embre</w>"],
    ["orig", "ine</w>"],
    ["ap", "pro"],
    ["pos", "er</w>"],
    ["m", "al</w>"],
    ["tr", "e"],
    ["du", "s</w>"],
    ["n", "ée</w>"],
    ["m", "s</w>"],
    ["an", "c"],
    ["port", "er</w>"],
    ["comm", "uni"],
    ["-", "-</w>"],
    ["com", "te</w>"],
    ["m", "me</w>"],
    ["m", "embre</w>"],
    ["h", "or"],
    ["envir", "on</w>"],
    ["a", "-"],
    ["for", "ce</w>"],
    ["l'", "en"],
    ["exemp", "le</w>"],
    ["an", "al"],
    ["par", "ce</w>"],
    ["dé", "but</w>"],
    ["con", "serv"],
    ["ti", "ers</w>"],
    ["état", "s-unis</w>"],
    ["n'", "y</w>"],
    ["s", "ens</w>"],
    ["av", "ant"],
    ["nom", "mé</w>"],
    ["quel", "s</w>"],
    ["musi", "que</w>"],
    ["sain", "t</w>"],
    ["h", "enr"],
    ["rou", "te</w>"],
    ["d", "on</w>"],
    ["volu", "tion</w>"],
    ["re", "qu"],
    ["du", "e</w>"],
    ["â", "ge</w>"],
    ["pr", "ouv"],
    ["angl", "ais</w>"],
    ["a", "ffi"],
    ["g", "ie</w>"],
    ["f", "e"],
    ["ouver", "t</w>"],
    ["al", "ités</w>"],
    ["bal", "l</w>"],
    ["sur", "tout</w>"],
    ["d'", "al"],
    ["commer", "ci"],
    ["b", "ro"],
    ["d", "oi"],
    ["tra", "du"],
    ["jo", "h"],
    ["esp", "èce</w>"],
    ["fi", "que</w>"],
    ["l", "in</w>"],
    ["tro", "isi"],
    ["tou", "r"],
    ["fév", "rier</w>"],
    ["fon", "d"],
    ["r", "ôle</w>"],
    ["dé", "pu"],
    ["pré", "cé"],
    ["par", "o"],
    ["natu", "r"],
    ["s", "en"],
    ["è", "s-"],
    ["ba", "se</w>"],
    ["popul", "ation</w>"],
    ["ch", "ang"],
    ["siè", "ge</w>"],
    ["c", "t</w>"],
    ["t", "aire</w>"],
    ["su", "is</w>"],
    ["é", "ti"],
    ["l'", "un</w>"],
    ["s", "tu"],
    ["di", "ri"],
    ["c", "k"],
    ["fai", "te</w>"],
    ["mi", "eux</w>"],
    ["ab", "or"],
    ["grâ", "ce</w>"],
    ["en", "voy"],
    ["rem", "ar"],
    ["ai", "sse</w>"],
    ["s", "enti"],
    ["tr", "on"],
    ["cho", "se</w>"],
    ["ni", "veau</w>"],
    ["pi", "re</w>"],
    ["alis", "te</w>"],
    ["ri", "ch"],
    ["génér", "ale</w>"],
    ["u", "t</w>"],
    ["dé", "m"],
    ["commer", "ce</w>"],
    ["péri", "ode</w>"],
    ["s", "tri"],
    ["c", "lo"],
    ["mili", "eu</w>"],
    ["étu", "di"],
    ["mar", "ch"],
    ["l", "le</w>"],
    ["ch", "ac"],
    ["fr", "on"],
    ["r", "endre</w>"],
    ["bi", "ographie</w>"],
    ["is", "tr"],
    ["z", "i"],
    ["suiv", "ant</w>"],
    ["troisi", "ème</w>"],
    ["sign", "ifi"],
    ["t", "é"],
    ["d", "ant</w>"],
    ["si", "r</w>"],
    ["aff", "aires</w>"],
    ["du", "c</w>"],
    ["commun", "es</w>"],
    ["d", "ence</w>"],
    ["char", "les</w>"],
    ["di", "rection</w>"],
    ["situ", "ation</w>"],
    ["cons", "équ"],
    ["produ", "it</w>"],
    ["l'", "état</w>"],
    ["d", "in"],
    ["ag", "it</w>"],
    ["c", "ab"],
    ["a", "d</w>"],
    ["pau", "l</w>"],
    ["heu", "re</w>"],
    ["b", "es</w>"],
    ["secon", "de</w>"],
    ["vou", "l"],
    ["f", "eu"],
    ["t", "t"],
    ["honn", "eur</w>"],
    ["at", "te"],
    ["mo", "di"],
    ["nouv", "elles</w>"],
    ["s", "er</w>"],
    ["bâ", "ti"],
    ["e", "y</w>"],
    ["phy", "si"],
    ["n", "ég"],
    ["seu", "le</w>"],
    ["derni", "ère</w>"],
    ["vic", "t"],
    ["m", "y"],
    ["v", "ain"],
    ["tex", "te</w>"],
    ["n", "ant</w>"],
    ["iv", "</w>"],
    ["in", "dre</w>"],
    ["d'", "être</w>"],
    ["fin", "anci"],
    ["ven", "tion</w>"],
    ["d", "or"],
    ["ec", "ture</w>"],
    ["s'", "il</w>"],
    ["bes", "o"],
    ["mon", "sieur</w>"],
    ["rè", "g"],
    ["mê", "mes</w>"],
    ["j", "eux</w>"],
    ["conn", "exes</w>"],
    ["l'", "av"],
    ["cor", "respon"],
    ["ab", "lement</w>"],
    ["g", "re"],
    ["c", "ru"],
    ["thé", "âtre</w>"],
    ["p", "én"],
    ["fon", "d</w>"],
    ["en", "gag"],
    ["comp", "tes</w>"],
    ["pl", "an"],
    ["j", "ap"],
    ["h", "ors</w>"],
    ["is", "tes</w>"],
    ["ré", "du"],
    ["développ", "ement</w>"],
    ["pré", "f"],
    ["val", "eur</w>"],
    ["ê", "ts</w>"],
    ["s", "oir</w>"],
    ["ex", "tr"],
    ["n", "o</w>"],
    ["des", "sus</w>"],
    ["tab", "le"],
    ["albu", "m</w>"],
    ["oi", "e</w>"],
    ["mar", "qu"],
    ["il", "lu"],
    ["fi", "chi"],
    ["mon", "di"],
    ["hau", "t</w>"],
    ["v", "oit</w>"],
    ["l'", "article</w>"],
    ["ouvr", "ages</w>"],
    ["méd", "ec"],
    ["per", "met"],
    ["c", "elles</w>"],
    ["h", "am"],
    ["ci", "le</w>"],
    ["af", "ri"],
    ["o", "-"],
    ["n", "avi"],
    ["ex", "pli"],
    ["le", "quel</w>"],
    ["progr", "amme</w>"],
    ["v", "it"],
    ["étu", "des</w>"],
    ["bu", "r"],
    ["chem", "in</w>"],
    ["ouvr", "age</w>"],
    ["nombr", "eux</w>"],
    ["l", "au"],
    ["qu", "e"],
    ["a", "h</w>"],
    ["prin", "ce</w>"],
    ["tri", "b"],
    ["ç", "a</w>"],
    ["let", "tre</w>"],
    ["consi", "dér"],
    ["ét", "és</w>"],
    ["pres", "que</w>"],
    ["li", "ber"],
    ["premi", "ers</w>"],
    ["trouv", "er</w>"],
    ["fo", "ot"],
    ["vi", "v"],
    ["h", "ou"],
    ["gen", "re</w>"],
    ["l", "er</w>"],
    ["fi", "er</w>"],
    ["roy", "au"],
    ["ser", "ont</w>"],
    ["pré", "c"],
    ["o", "y"],
    ["fu", "rent</w>"],
    ["vi", "e"],
    ["s", "embl"],
    ["s", "é</w>"],
    ["it", "an"],
    ["gar", "de</w>"],
    ["pos", "é</w>"],
    ["è", "ge</w>"],
    ["poin", "ts</w>"],
    ["oc", "ca"],
    ["tél", "é"],
    ["cri", "t</w>"],
    ["pl", "an</w>"],
    ["peu", "t-"],
    ["voi", "e</w>"],
    ["ti", "er</w>"],
    ["è", "ve</w>"],
    ["av", "e</w>"],
    ["dé", "s"],
    ["per", "met</w>"],
    ["fa", "çon</w>"],
    ["p", "ér"],
    ["tru", "c"],
    ["dur", "ant</w>"],
    ["a", "ci"],
    ["respon", "sab"],
    ["c", "ant"],
    ["résult", "ats</w>"],
    ["it", "re</w>"],
    ["fi", "ci"],
    ["k", "o"],
    ["d'", "in"],
    ["is", "se</w>"],
    ["princi", "pa"],
    ["n'", "en</w>"],
    ["l", "and"],
    ["li", "er</w>"],
    ["prés", "ent</w>"],
    ["journ", "al</w>"],
    ["châ", "teau</w>"],
    ["enf", "ant</w>"],
    ["ép", "is"],
    ["effec", "tu"],
    ["é", "pou"],
    ["d", "res</w>"],
    ["étu", "de</w>"],
    ["oi", "te</w>"],
    ["so", "ph"],
    ["it", "ation</w>"],
    ["i", "g"],
    ["con", "dam"],
    ["nu", "it</w>"],
    ["ré", "gu"],
    ["sim", "ple</w>"],
    ["bu", "re"],
    ["o", "ï"],
    ["car", "rière</w>"],
    ["eu", "sement</w>"],
    ["caract", "ér"],
    ["déf", "en"],
    ["é", "cl"],
    ["mi", "ch"],
    ["re", "v"],
    ["itu", "re</w>"],
    ["è", "mes</w>"],
    ["en", "ir</w>"],
    ["dé", "pend"],
    ["lu", "i-"],
    ["cré", "ation</w>"],
    ["étr", "ang"],
    ["ex", "er"],
    ["on", "es</w>"],
    ["no", "te</w>"],
    ["histori", "que</w>"],
    ["tom", "b"],
    ["pe", "ine</w>"],
    ["l", "am"],
    ["t", "able</w>"],
    ["qu'", "une</w>"],
    ["pré", "ci"],
    ["m", "as"],
    ["cep", "tion</w>"],
    ["dé", "mo"],
    ["celu", "i-"],
    ["ré", "es</w>"],
    ["allem", "agne</w>"],
    ["st", "e"],
    ["produ", "its</w>"],
    ["suc", "cès</w>"],
    ["compagn", "ie</w>"],
    ["parti", "es</w>"],
    ["constru", "ction</w>"],
    ["som", "mes</w>"],
    ["ati", "f</w>"],
    ["i", "ii</w>"],
    ["l'", "église</w>"],
    ["f", "es"],
    ["po", "ss"],
    ["cro", "y"],
    ["p", "oi"],
    ["direc", "teur</w>"],
    ["mi", "r"],
    ["nu", "mér"],
    ["d", "-"],
    ["er", "n"],
    ["milit", "aire</w>"],
    ["z-", "vous</w>"],
    ["aug", "ment"],
    ["br", "itan"],
    ["mouv", "ement</w>"],
    ["hu", "it</w>"],
    ["let", "tres</w>"],
    ["vol", "on"],
    ["mon", "u"],
    ["onn", "ement</w>"],
    ["lit", "tér"],
    ["x", "im"],
    ["mo", "t</w>"],
    ["re", "fu"],
    ["ati", "ques</w>"],
    ["cou", "pe</w>"],
    ["entr", "aî"],
    ["ord", "onn"],
    ["territ", "oire</w>"],
    ["c", "al</w>"],
    ["h", "ol"],
    ["lui-", "même</w>"],
    ["di", "x</w>"],
    ["fi", "x"],
    ["at", "oire</w>"],
    ["cl", "asse</w>"],
    ["ca", "pa"],
    ["qu'", "à</w>"],
    ["se", "au</w>"],
    ["situ", "ée</w>"],
    ["a", "w"],
    ["l'", "université</w>"],
    ["it", "alie</w>"],
    ["por", "té</w>"],
    ["pass", "é</w>"],
    ["l", "s</w>"],
    ["muni", "cip"],
    ["am", "p</w>"],
    ["m", "ains</w>"],
    ["intér", "êt</w>"],
    ["tél", "év"],
    ["di", "tion</w>"],
    ["coll", "ec"],
    ["s", "ar"],
    ["fon", "c"],
    ["obli", "g"],
    ["t", "ôt</w>"],
    ["min", "ist"],
    ["é", "cr"],
    ["dé", "ci"],
    ["ail", "les</w>"],
    ["ai", "e</w>"],
    ["c", "ent"],
    ["du", "rée</w>"],
    ["ph", "ili"],
    ["ad", "op"],
    ["mé", "m"],
    ["di", "ver"],
    ["conn", "u</w>"],
    ["au", "té</w>"],
    ["s", "am"],
    ["l'", "ordre</w>"],
    ["peut-", "être</w>"],
    ["mad", "ame</w>"],
    ["è", "nes</w>"],
    ["ph", "</w>"],
    ["re", "tour</w>"],
    ["mal", "gré</w>"],
    ["responsab", "ilité</w>"],
    ["g", "ens</w>"],
    ["st", "atu"],
    ["w", "i"],
    ["f", "re"],
    ["sc", "ène</w>"],
    ["po", "s</w>"],
    ["aur", "a</w>"],
    ["dé", "p"],
    ["ai", "rement</w>"],
    ["k", "e</w>"],
    ["se", "in</w>"],
    ["t", "elle</w>"],
    ["pr", "on"],
    ["dou", "te</w>"],
    ["con", "clu"],
    ["sy", "m"],
    ["é", "b"],
    ["lib", "ér"],
    ["vo", "s</w>"],
    ["let", "erre</w>"],
    ["mat", "éri"],
    ["all", "er</w>"],
    ["cad", "re</w>"],
    ["li", "eu"],
    ["vol", "</w>"],
    ["l", "é</w>"],
    ["co", "de</w>"],
    ["franç", "ois</w>"],
    ["su", "jet</w>"],
    ["et", "-"],
    ["donn", "ées</w>"],
    ["heur", "eux</w>"],
    ["li", "gn"],
    ["l'", "année</w>"],
    ["ex", "écu"],
    ["a", "h"],
    ["écri", "t</w>"],
    ["cour", "t</w>"],
    ["figu", "re</w>"],
    ["bu", "l"],
    ["s", "én"],
    ["anal", "y"],
    ["bibli", "o"],
    ["v", "il"],
    ["er", "r"],
    ["us", "age</w>"],
    ["provin", "ce</w>"],
    ["a", "ï"],
    ["celui-", "ci</w>"],
    ["milli", "ons</w>"],
    ["mati", "n</w>"],
    ["maî", "tre</w>"],
    ["prof", "ess"],
    ["ang", "leterre</w>"],
    ["secon", "d</w>"],
    ["is", "es</w>"],
    ["i", "ers</w>"],
    ["su", "res</w>"],
    ["v", "i</w>"],
    ["consi", "dé"],
    ["s", "qu"],
    ["championn", "at</w>"],
    ["pa", "sse</w>"],
    ["mar", "ie</w>"],
    ["é", "co"],
    ["ri", "v"],
    ["di", "ffi"],
    ["inter", "national</w>"],
    ["sep", "t</w>"],
    ["om", "</w>"],
    ["dé", "s</w>"],
    ["organis", "ation</w>"],
    ["ai", "de</w>"],
    ["pro", "ch"],
    ["id", "enti"],
    ["gr", "and"],
    ["fr", "ère</w>"],
    ["gran", "des</w>"],
    ["au", "tour</w>"],
    ["s", "il"],
    ["prof", "essi"],
    ["ar", "ds</w>"],
    ["p", "it"],
    ["jeu", "nes</w>"],
    ["par", "t"],
    ["au", "gu"],
    ["gu", "eur</w>"],
    ["an", "o</w>"],
    ["ar", "ts</w>"],
    ["b", "ilité</w>"],
    ["pré", "par"],
    ["tan", "dis</w>"],
    ["d'ab", "ord</w>"],
    ["h", "al"],
    ["d'", "am"],
    ["m", "éri"],
    ["m", "and"],
    ["oi", "ent</w>"],
    ["si", "s</w>"],
    ["qu", "anti"],
    ["an", "ge</w>"],
    ["ch", "ris"],
    ["m", "ille</w>"],
    ["f", "abri"],
    ["end", "r"],
    ["des", "tin"],
    ["li", "r</w>"],
    ["occu", "p"],
    ["tou", "te"],
    ["i", "de</w>"],
    ["m", "eu"],
    ["prés", "ence</w>"],
    ["ne", "w</w>"],
    ["en", "g"],
    ["lo", "in</w>"],
    ["c", "él"],
    ["su", "per"],
    ["comm", "ent</w>"],
    ["trav", "aill"],
    ["su", "</w>"],
    ["ra", "di"],
    ["pos", "te</w>"],
    ["res", "t"],
    ["int", "é"],
    ["peu", "ple</w>"],
    ["y", "le</w>"],
    ["on", "-"],
    ["fai", "ts</w>"],
    ["olo", "gi"],
    ["ouver", "te</w>"],
    ["c", "av"],
    ["ol", "ym"],
    ["bibli", "ographie</w>"],
    ["assembl", "ée</w>"],
    ["justi", "ce</w>"],
    ["entre", "prise</w>"],
    ["toute", "fois</w>"],
    ["ch", "ant</w>"],
    ["k", "a</w>"],
    ["dé", "es</w>"],
    ["en", "seign"],
    ["so", "li"],
    ["f", "lu"],
    ["pour", "r"],
    ["mo", "ine</w>"],
    ["onn", "es</w>"],
    ["in", "a</w>"],
    ["ou", "i</w>"],
    ["f", "fr"],
    ["trib", "un"],
    ["î", "le</w>"],
    ["re", "ce"],
    ["fé", "dér"],
    ["appli", "cation</w>"],
    ["gau", "che</w>"],
    ["d'", "après</w>"],
    ["y", "n"],
    ["dé", "sign"],
    ["ou", "rs</w>"],
    ["ad", "a</w>"],
    ["c", "essi"],
    ["au", "x"],
    ["indi", "vi"],
    ["hi", "er</w>"],
    ["lan", "gue</w>"],
    ["situ", "é</w>"],
    ["r", "cs</w>"],
    ["c", "œur</w>"],
    ["jac", "ques</w>"],
    ["c'", "était</w>"],
    ["sor", "t</w>"],
    ["a", "des</w>"],
    ["di", "vision</w>"],
    ["tr", "ait</w>"],
    ["p", "les</w>"],
    ["re", "-"],
    ["y", "er</w>"],
    ["g", "ri"],
    ["bén", "é"],
    ["ap", "parti"],
    ["ch", "ine</w>"],
    ["titu", "de</w>"],
    ["g", "o</w>"],
    ["b", "en"],
    ["pl", "ai"],
    ["s", "avoir</w>"],
    ["associ", "ation</w>"],
    ["ve", "ill"],
    ["g", "ér"],
    ["su", "ff"],
    ["m", "aire</w>"],
    ["s", "ai"],
    ["ai", "ses</w>"],
    ["r", "ay"],
    ["mar", "ché</w>"],
    ["at", "es</w>"],
    ["ci", "en</w>"],
    ["m", "ètres</w>"],
    ["i", "m</w>"],
    ["char", "ge</w>"],
    ["tot", "al</w>"],
    ["olym", "pi"],
    ["pr", "ê"],
    ["p", "ro"],
    ["po", "st"],
    ["l'", "utilisation</w>"],
    ["su", "s"],
    ["n", "a</w>"],
    ["dé", "si"],
    ["ti", "ère</w>"],
    ["b", "elle</w>"],
    ["ac", "compagn"],
    ["pouv", "ait</w>"],
    ["mét", "ho"],
    ["l'ar", "mée</w>"],
    ["ent", "en"],
    ["li", "en</w>"],
    ["qu'", "en</w>"],
    ["pa", "ti"],
    ["dom", "in"],
    ["pro", "pre</w>"],
    ["cert", "aines</w>"],
    ["solu", "tion</w>"],
    ["ali", "er</w>"],
    ["am", "i</w>"],
    ["én", "er"],
    ["x", "x"],
    ["l'", "histoire</w>"],
    ["et", "é</w>"],
    ["f", "eu</w>"],
    ["cho", "ses</w>"],
    ["or", "ie</w>"],
    ["it", "ée</w>"],
    ["emi", "-"],
    ["l'é", "qui"],
    ["vi", "t</w>"],
    ["gr", "o"],
    ["professi", "onn"],
    ["ter", "me</w>"],
    ["t", "el"],
    ["sec", "tion</w>"],
    ["fon", "ds</w>"],
    ["docu", "ments</w>"],
    ["s", "ait</w>"],
    ["t", "ent"],
    ["ac", "qu"],
    ["s", "emble</w>"],
    ["avant", "age</w>"],
    ["habit", "ants</w>"],
    ["henr", "i</w>"],
    ["fonc", "tionn"],
    ["san", "té</w>"],
    ["sci", "enti"],
    ["mal", "adi"],
    ["es", "-"],
    ["t", "end"],
    ["pron", "on"],
    ["ser", "ve</w>"],
    ["l", "o</w>"],
    ["doi", "vent</w>"],
    ["re", "gar"],
    ["rem", "plac"],
    ["ex", "e</w>"],
    ["f", "lo"],
    ["éri", "eure</w>"],
    ["l'", "homme</w>"],
    ["i", "ons</w>"],
    ["k", "il"],
    ["phili", "p"],
    ["ri", "vi"],
    ["chap", "itre</w>"],
    ["c", "ée</w>"],
    ["él", "ém"],
    ["g", "ée</w>"],
    ["s'", "agit</w>"],
    ["vo", "il"],
    ["cl", "au"],
    ["sor", "ti</w>"],
    ["li", "que</w>"],
    ["el", "le-"],
    ["meill", "eur</w>"],
    ["o", "graph"],
    ["v", "ar"],
    ["particuli", "er</w>"],
    ["qu", "a"],
    ["qu", "arti"],
    ["com", "ité</w>"],
    ["dé", "pen"],
    ["pai", "x</w>"],
    ["olo", "gique</w>"],
    ["table", "au</w>"],
    ["ci", "d"],
    ["eu", "res</w>"],
    ["l'", "inter"],
    ["rom", "e</w>"],
    ["ter", "ie</w>"],
    ["port", "ant</w>"],
    ["ver", "sion</w>"],
    ["l'", "est</w>"],
    ["f", "f</w>"],
    ["qu", "alité</w>"],
    ["enn", "em"],
    ["di", "vers</w>"],
    ["or", "k</w>"],
    ["sec", "ré"],
    ["édi", "tion</w>"],
    ["su", "i"],
    ["ou", "bli"],
    ["occa", "sion</w>"],
    ["dépar", "t"],
    ["mo", "der"],
    ["fav", "or"],
    ["l'", "a"],
    ["cl", "am"],
    ["allem", "and</w>"],
    ["indu", "stri"],
    ["princip", "al</w>"],
    ["n", "et</w>"],
    ["dé", "b"],
    ["l", "ab"],
    ["anci", "enne</w>"],
    ["ati", "ves</w>"],
    ["conn", "aître</w>"],
    ["différ", "entes</w>"],
    ["s", "s</w>"],
    ["main", "tenant</w>"],
    ["ouver", "ture</w>"],
    ["p", "om"],
    ["com", "par"],
    ["es", "sion</w>"],
    ["f", "t</w>"],
    ["dr", "oite</w>"],
    ["con", "sul"],
    ["ê", "que</w>"],
    ["blan", "c</w>"],
    ["liber", "té</w>"],
    ["em", "pl"],
    ["ac", "cep"],
    ["i", "le</w>"],
    ["pass", "er</w>"],
    ["com", "</w>"],
    ["è", "tre</w>"],
    ["rap", "ports</w>"],
    ["concer", "nant</w>"],
    ["ad", "ress"],
    ["per", "eur</w>"],
    ["ven", "te</w>"],
    ["t", "al"],
    ["app", "el</w>"],
    ["a", "se</w>"],
    ["lon", "dres</w>"],
    ["chac", "un</w>"],
    ["dis", "par"],
    ["is", "é</w>"],
    ["ac", "te</w>"],
    ["re", "ss"],
    ["nombr", "euses</w>"],
    ["y", "p"],
    ["ph", "ilo"],
    ["ni", "ques</w>"],
    ["dém", "ie</w>"],
    ["fon", "ction</w>"],
    ["mu", "sée</w>"],
    ["n", "ation</w>"],
    ["i", "dée</w>"],
    ["sor", "te</w>"],
    ["for", "mes</w>"],
    ["biblio", "thè"],
    ["d'", "auteur</w>"],
    ["int", "érieur</w>"],
    ["au", "près</w>"],
    ["lég", "isl"],
    ["l", "ati"],
    ["pro", "bl"],
    ["v", "ais</w>"],
    ["ph", "e</w>"],
    ["ou", "tre</w>"],
    ["ch", "ant"],
    ["e", "ût</w>"],
    ["c", "on</w>"],
    ["pi", "èces</w>"],
    ["en", "-"],
    ["b", "eau</w>"],
    ["s'", "en</w>"],
    ["vo", "is"],
    ["différ", "ents</w>"],
    ["l", "av"],
    ["con", "f"],
    ["ex", "péri"],
    ["ex", "plo"],
    ["sé", "par"],
    ["seign", "eur</w>"],
    ["cin", "ém"],
    ["ti", "fi"],
    ["som", "me</w>"],
    ["pou", "ss"],
    ["dis", "positions</w>"],
    ["bat", "aille</w>"],
    ["es", "te</w>"],
    ["br", "an"],
    ["un", "i</w>"],
    ["sol", "d"],
    ["pro", "b"],
    ["onn", "é</w>"],
    ["th", "e"],
    ["ouv", "ri"],
    ["cert", "ain</w>"],
    ["is", "er</w>"],
    ["œu", "vres</w>"],
    ["britan", "nique</w>"],
    ["jo", "int</w>"],
    ["v", "eut</w>"],
    ["in", "iti"],
    ["ro", "bert</w>"],
    ["e", "y"],
    ["u", "r</w>"],
    ["at", "tribu"],
    ["moy", "enne</w>"],
    ["t", "aux</w>"],
    ["el", "li"],
    ["ju", "di"],
    ["p", "a</w>"],
    ["û", "</w>"],
    ["au", "tri"],
    ["em", "por"],
    ["dev", "ait</w>"],
    ["cl", "assi"],
    ["fré", "qu"],
    ["activ", "ité</w>"],
    ["ges", "tion</w>"],
    ["rom", "an</w>"],
    ["dé", "cr"],
    ["ga", "re</w>"],
    ["pour", "rait</w>"],
    ["trav", "ers</w>"],
    ["jo", "se"],
    ["fais", "ant</w>"],
    ["é", "poque</w>"],
    ["z", "one</w>"],
    ["alis", "ation</w>"],
    ["philo", "soph"],
    ["sal", "le</w>"],
    ["dit", "-"],
    ["sur", "-"],
    ["t", "ac"],
    ["patri", "moine</w>"],
    ["e", "sp"],
    ["res", "se</w>"],
    ["an", "a</w>"],
    ["au", "d</w>"],
    ["vi", "ennent</w>"],
    ["or", "ité</w>"],
    ["nouv", "eaux</w>"],
    ["t", "on"],
    ["m", "oi"],
    ["pr", "euve</w>"],
    ["r", "ac"],
    ["minist", "ère</w>"],
    ["re", "cu"],
    ["is", "-"],
    ["sup", "prim"],
    ["y", "me</w>"],
    ["suff", "is"],
    ["ré", "si"],
    ["poli", "ce</w>"],
    ["tro", "du"],
    ["écri", "v"],
    ["mul", "ti"],
    ["su", "it</w>"],
    ["l", "ois</w>"],
    ["o", "re</w>"],
    ["p", "y"],
    ["pour", "quoi</w>"],
    ["ce", "-"],
    ["m", "ac"],
    ["a", "e</w>"],
    ["oi", "rs</w>"],
    ["t", "els</w>"],
    ["av", "is</w>"],
    ["j", "ard"],
    ["es", "prit</w>"],
    ["l'", "at"],
    ["cat", "ho"],
    ["suiv", "re</w>"],
    ["po", "lo"],
    ["joh", "n</w>"],
    ["aff", "ec"],
    ["long", "temps</w>"],
    ["mich", "el</w>"],
    ["m", "ont</w>"],
    ["ex", "iste</w>"],
    ["ori", "ent"],
    ["l", "and</w>"],
    ["élec", "tion</w>"],
    ["ci", "el</w>"],
    ["à-", "dire</w>"],
    ["s", "truc"],
    ["b", "ay"],
    ["profess", "eur</w>"],
    ["st", "yle</w>"],
    ["ô", "me</w>"],
    ["mati", "ère</w>"],
    ["entr", "ée</w>"],
    ["trai", "té</w>"],
    ["ist", "ance</w>"],
    ["eu", "x-"],
    ["beso", "in</w>"],
    ["h", "an"],
    ["l", "ec"],
    ["vr", "ai</w>"],
    ["e", "in"],
    ["dé", "termin"],
    ["bou", "t</w>"],
    ["ber", "n"],
    ["tr", "é"],
    ["élec", "tions</w>"],
    ["ti", "tres</w>"],
    ["du", "re</w>"],
    ["r", "y</w>"],
    ["ex", "am"],
    ["arr", "on"],
    ["man", "che</w>"],
    ["n’", "est</w>"],
    ["bure", "au</w>"],
    ["f", "i</w>"],
    ["ent", "u"],
    ["rou", "ge</w>"],
    ["utilis", "é</w>"],
    ["g", "ou"],
    ["av", "ez</w>"],
    ["l'équi", "pe</w>"],
    ["dis", "tribution</w>"],
    ["l'", "o"],
    ["et", "at</w>"],
    ["qu", "ali"],
    ["l'", "al"],
    ["pr", "u"],
    ["ch", "in"],
    ["b", "é</w>"],
    ["ent", "aire</w>"],
    ["intér", "ess"],
    ["d'", "or</w>"],
    ["im", "ent</w>"],
    ["c", "ale</w>"],
    ["d", "g"],
    ["j", "’"],
    ["peti", "ts</w>"],
    ["qu", "in"],
    ["e", "ti"],
    ["app", "elle</w>"],
    ["m", "ai"],
    ["li", "bre</w>"],
    ["b", "a</w>"],
    ["uti", "le</w>"],
    ["dé", "part</w>"],
    ["aff", "aire</w>"],
    ["établis", "sement</w>"],
    ["p", "el"],
    ["i", "tion</w>"],
    ["r", "i</w>"],
    ["ven", "ue</w>"],
    ["ti", "é</w>"],
    ["tu", "s</w>"],
    ["v", "an</w>"],
    ["ouv", "re</w>"],
    ["cur", "ité</w>"],
    ["caract", "ère</w>"],
    ["am", "is</w>"],
    ["v", "in</w>"],
    ["k", "s</w>"],
    ["reç", "u</w>"],
    ["f", "or</w>"],
    ["ét", "en"],
    ["as", "su"],
    ["s", "te</w>"],
    ["v", "all"],
    ["mar", "che</w>"],
    ["sour", "ce</w>"],
    ["pa", "ce</w>"],
    ["ob", "jec"],
    ["y", "ork</w>"],
    ["m", "ol"],
    ["ad", "ap"],
    ["to", "r</w>"],
    ["r", "end"],
    ["all", "ait</w>"],
    ["ce", "in"],
    ["gu", "er"],
    ["li", "s</w>"],
    ["an", "i"],
    ["mondi", "ale</w>"],
    ["d'", "ac"],
    ["moy", "ens</w>"],
    ["v", "é"],
    ["dis", "cu"],
    ["pro", "pr"],
    ["trou", "pes</w>"],
    ["fin", "ale</w>"],
    ["apparti", "ent</w>"],
    ["tiv", "es</w>"],
    ["pi", "èce</w>"],
    ["est-", "à-dire</w>"],
    ["régi", "on"],
    ["v", "au"],
    ["ven", "ant</w>"],
    ["tech", "nique</w>"],
    ["par", "fois</w>"],
    ["foot", "ball</w>"],
    ["v", "as"],
    ["su", "isse</w>"],
    ["l'", "or"],
    ["al", "u"],
    ["pi", "ed</w>"],
    ["d", "emi-"],
    ["e", "org"],
    ["propri", "été</w>"],
    ["ab", "and"],
    ["m", "eur"],
    ["édi", "tions</w>"],
    ["da", "me</w>"],
    ["commun", "auté</w>"],
    ["d", "ol"],
    ["caractér", "is"],
    ["mo", "b"],
    ["cour", "ant</w>"],
    ["év", "én"],
    ["premi", "ères</w>"],
    ["w", "al"],
    ["lé", "on</w>"],
    ["al", "ex"],
    ["g", "eorg"],
    ["l’", "in"],
    ["iss", "ent</w>"],
    ["b", "re"],
    ["plu", "part</w>"],
    ["déclar", "ation</w>"],
    ["for", "ces</w>"],
    ["and", "re</w>"],
    ["ap", "pu"],
    ["n'", "était</w>"],
    ["m", "ation</w>"],
    ["cu", "le</w>"],
    ["vér", "it"],
    ["qu", "éb"],
    ["le", "y</w>"],
    ["ali", "gn"],
    ["v", "illes</w>"],
    ["l", "ent</w>"],
    ["ren", "contre</w>"],
    ["di", "d"],
    ["soci", "al</w>"],
    ["équi", "pe</w>"],
    ["on", "i"],
    ["sau", "v"],
    ["tr", "a</w>"],
    ["déc", "ision</w>"],
    ["n", "ord"],
    ["dé", "l"],
    ["fais", "ait</w>"],
    ["réalis", "ation</w>"],
    ["ré", "seau</w>"],
    ["enti", "er</w>"],
    ["ci", "v"],
    ["it", "aire</w>"],
    ["c", "ass"],
    ["trai", "te</w>"],
    ["su", "d-"],
    ["l'é", "cole</w>"],
    ["inté", "gr"],
    ["plu", "tôt</w>"],
    ["dépu", "té</w>"],
    ["anci", "ens</w>"],
    ["f", "ri"],
    ["vi", "s</w>"],
    ["inf", "lu"],
    ["op", "in"],
    ["w", "il"],
    ["voil", "à</w>"],
    ["ag", "er</w>"],
    ["emplo", "i</w>"],
    ["g", "ence</w>"],
    ["pa", "tion</w>"],
    ["fai", "tes</w>"],
    ["fr", "oi"],
    ["publi", "é</w>"],
    ["uni", "que</w>"],
    ["diver", "ses</w>"],
    ["mi", "di</w>"],
    ["cat", "ég"],
    ["suiv", "ante</w>"],
    ["inst", "all"],
    ["es", "pagne</w>"],
    ["parl", "er</w>"],
    ["élém", "ents</w>"],
    ["er", "ait</w>"],
    ["dis", "sement</w>"],
    ["e", "x</w>"],
    ["trav", "er"],
    ["s", "sion</w>"],
    ["s", "ements</w>"],
    ["hab", "itu"],
    ["o", "d"],
    ["propri", "ét"],
    ["g", "lo"],
    ["vi", "eux</w>"],
    ["sci", "ences</w>"],
    ["nécess", "aire</w>"],
    ["ai", "gn"],
    ["pr", "esse</w>"],
    ["mo", "s"],
    ["cu", "ri"],
    ["itali", "en</w>"],
    ["r", "et</w>"],
    ["br", "as</w>"],
    ["e", "p"],
    ["dou", "ble</w>"],
    ["pi", "e"],
    ["emp", "ê"],
    ["fr", "u"],
    ["ch", "es"],
    ["con", "tribu"],
    ["esp", "èces</w>"],
    ["con", "fér"],
    ["bu", "s</w>"],
    ["d'", "or"],
    ["f", "ar"],
    ["améric", "aine</w>"],
    ["temp", "ér"],
    ["arrê", "té</w>"],
    ["tiv", "ement</w>"],
    ["voi", "ci</w>"],
    ["ven", "us</w>"],
    ["iss", "ant</w>"],
    ["pl", "at"],
    ["p", "ont</w>"],
    ["ress", "our"],
    ["contr", "aire</w>"],
    ["pl", "a"],
    ["in", "é"],
    ["cam", "pagne</w>"],
    ["f", "a</w>"],
    ["d", "ité</w>"],
    ["pass", "age</w>"],
    ["élec", "tri"],
    ["tr", "ès-"],
    ["w", "it"],
    ["b", "ret"],
    ["volu", "me</w>"],
    ["re", "vue</w>"],
    ["com", "té</w>"],
    ["t", "ées</w>"],
    ["'", "s</w>"],
    ["di", "te</w>"],
    ["qu", "ête</w>"],
    ["sorti", "e</w>"],
    ["ly", "on</w>"],
    ["s", "û"],
    ["em", "ment</w>"],
    ["al", "o"],
    ["cons", "ac"],
    ["opér", "ation</w>"],
    ["k", "i"],
    ["mon", "tre</w>"],
    ["di", "pl"],
    ["rivi", "ère</w>"],
    ["mari", "age</w>"],
    ["ce", "ss"],
    ["g", "és</w>"],
    ["y", "-"],
    ["ess", "enti"],
    ["m", "it"],
    ["è", "se</w>"],
    ["d'", "é"],
    ["sol", "</w>"],
    ["me", "sures</w>"],
    ["capit", "aine</w>"],
    ["tribun", "al</w>"],
    ["d'", "eau</w>"],
    ["principa", "le</w>"],
    ["contr", "ôle</w>"],
    ["afri", "que</w>"],
    ["i", "c</w>"],
    ["appar", "tenant</w>"],
    ["annu", "els</w>"],
    ["mat", "ch</w>"],
    ["poli", "tiques</w>"],
    ["recher", "ches</w>"],
    ["c", "re"],
    ["champi", "on</w>"],
    ["d'", "ailleurs</w>"],
    ["a", "démie</w>"],
    ["ag", "r"],
    ["accor", "d</w>"],
    ["ch", "im"],
    ["jus", "qu’"],
    ["man", "u"],
    ["qu", "et</w>"],
    ["conn", "aissance</w>"],
    ["n", "av"],
    ["hô", "tel</w>"],
    ["ag", "e"],
    ["pal", "ais</w>"],
    ["m", "én"],
    ["du", "cation</w>"],
    ["fichi", "ers</w>"],
    ["terr", "ain</w>"],
    ["des", "cription</w>"],
    ["résult", "at</w>"],
    ["g", "ol"],
    ["signifi", "e</w>"],
    ["jose", "ph</w>"],
    ["ti", "ss"],
    ["b", "ord</w>"],
    ["s", "an</w>"],
    ["n'", "avait</w>"],
    ["ru", "ssi"],
    ["fi", "ce</w>"],
    ["mo", "ts</w>"],
    ["esp", "ér"],
    ["réalis", "é</w>"],
    ["con", "cours</w>"],
    ["ho", "to"],
    ["k", "ar"],
    ["n", "oir</w>"],
    ["lu", "mi"],
    ["ca", "les</w>"],
    ["conn", "aiss"],
    ["is", "su"],
    ["l", "è"],
    ["l", "ande</w>"],
    ["vict", "oire</w>"],
    ["comm", "ence</w>"],
    ["un", "s</w>"],
    ["com", "édi"],
    ["appel", "é</w>"],
    ["tr", "ac"],
    ["p", "hoto"],
    ["s", "por"],
    ["ç", "ant</w>"],
    ["el", "l</w>"],
    ["î", "</w>"],
    ["voy", "age</w>"],
    ["th", "om"],
    ["ten", "ue</w>"],
    ["ex", "ist"],
    ["l'", "une</w>"],
    ["ar", "g"],
    ["k", "i</w>"],
    ["neu", "f</w>"],
    ["for", "te</w>"],
    ["li", "qui"],
    ["ci", "-"],
    ["défen", "se</w>"],
    ["derni", "ers</w>"],
    ["em", "pr"],
    ["â", "</w>"],
    ["ch", "ré"],
    ["ti", "r"],
    ["décr", "et</w>"],
    ["san", "g</w>"],
    ["l'", "eau</w>"],
    ["h", "eur</w>"],
    ["v", "end"],
    ["utilis", "er</w>"],
    ["aur", "aient</w>"],
    ["nord", "-"],
    ["o", "li"],
    ["l", "un"],
    ["lo", "t</w>"],
    ["ci", "ce</w>"],
    ["s", "cul"],
    ["l'", "a</w>"],
    ["n'", "ont</w>"],
    ["philip", "pe</w>"],
    ["â", "me</w>"],
    ["ju", "gement</w>"],
    ["ciném", "a</w>"],
    ["autom", "atis"],
    ["ch", "al"],
    ["com", "pris</w>"],
    ["po", "ly"],
    ["activ", "ités</w>"],
    ["qu", "ée</w>"],
    ["lu", "s</w>"],
    ["secré", "taire</w>"],
    ["cré", "dit</w>"],
    ["affi", "r"],
    ["li", "eux</w>"],
    ["pein", "tre</w>"],
    ["l", "d</w>"],
    ["jus", "te</w>"],
    ["el", "i"],
    ["d", "ar"],
    ["p", "in"],
    ["connu", "e</w>"],
    ["v", "a"],
    ["mu", "r"],
    ["pi", "er"],
    ["ar", "mée</w>"],
    ["régu", "li"],
    ["nom", "in"],
    ["d", "at"],
    ["si", "onn"],
    ["l’", "é"],
    ["sé", "curité</w>"],
    ["thè", "se</w>"],
    ["ven", "ait</w>"],
    ["fi", "é</w>"],
    ["fl", "or"],
    ["cir", "cul"],
    ["ch", "ron"],
    ["chan", "son</w>"],
    ["prot", "ég"],
    ["dis", "t"],
    ["mo", "de</w>"],
    ["pa", "tr"],
    ["gr", "os</w>"],
    ["ordin", "aire</w>"],
    ["s", "év"],
    ["re", "ine</w>"],
    ["autor", "ité</w>"],
    ["russi", "e</w>"],
    ["cul", "tur"],
    ["oc", "k"],
    ["est-", "ce</w>"],
    ["r", "y"],
    ["mod", "èle</w>"],
    ["v", "én"],
    ["o", "le</w>"],
    ["b", "é"],
    ["des", "c"],
    ["supéri", "eur</w>"],
    ["ré", "c"],
    ["georg", "es</w>"],
    ["om", "e</w>"],
    ["an", "ne</w>"],
    ["ci", "vi"],
    ["ap", "er"],
    ["in", "trodu"],
    ["s", "atis"],
    ["t", "un"],
    ["vin", "g"],
    ["quarti", "er</w>"],
    ["mar", "tin</w>"],
    ["ac", "teur</w>"],
    ["ru", "r"],
    ["princi", "pe</w>"],
    ["pro", "che</w>"],
    ["qu’", "on</w>"],
    ["tr", "e-"],
    ["ai", "r"],
    ["cons", "om"],
    ["gu", "ill"],
    ["ti", "me</w>"],
    ["d'", "avoir</w>"],
    ["can", "ada</w>"],
    ["europé", "enne</w>"],
    ["can", "did"],
    ["ch", "aî"],
    ["ar", "mes</w>"],
    ["â", "t</w>"],
    ["d", "avi"],
    ["doc", "teur</w>"],
    ["on", "d"],
    ["ré", "gl"],
    ["hau", "te</w>"],
    ["i", "i"],
    ["par", "c</w>"],
    ["class", "ement</w>"],
    ["ch", "oix</w>"],
    ["dé", "rou"],
    ["ju", "ge</w>"],
    ["bi", "ens</w>"],
    ["per", "mettre</w>"],
    ["z", "a</w>"],
    ["re", "z</w>"],
    ["er", "t</w>"],
    ["ef", "t</w>"],
    ["import", "ant</w>"],
    ["mar", "ine</w>"],
    ["l'", "</w>"],
    ["th", "er"],
    ["fin", "alement</w>"],
    ["o", "d</w>"],
    ["hon", "or"],
    ["soi", "ent</w>"],
    ["l", "our"],
    ["k", "e"],
    ["c", "ement</w>"],
    ["g", "a</w>"],
    ["ac", "tes</w>"],
    ["cit", "oy"],
    ["ter", "mes</w>"],
    ["lon", "gue</w>"],
    ["ë", "l</w>"],
    ["t", "ém"],
    ["trouv", "é</w>"],
    ["comm", "iss"],
    ["ces", "sion</w>"],
    ["mar", "se"],
    ["lim", "itée</w>"],
    ["m", "ass"],
    ["import", "ance</w>"],
    ["fr", "ais</w>"],
    ["ét", "ats</w>"],
    ["ré", "volution</w>"],
    ["pr", "atique</w>"],
    ["mém", "oire</w>"],
    ["ph", "on"],
    ["gar", "anti"],
    ["on", "ze</w>"],
    ["s", "hi"],
    ["n", "ie</w>"],
    ["ten", "ce</w>"],
    ["gh", "t</w>"],
    ["épis", "ode</w>"],
    ["dé", "bu"],
    ["ci", "e</w>"],
    ["fil", "i"],
    ["cont", "ac"],
    ["aut", "eurs</w>"],
    ["l'ar", "t</w>"],
    ["av", "an"],
    ["chi", "ff"],
    ["tr", "om"],
    ["ru", "sse</w>"],
    ["h", "ai"],
    ["and", "ré</w>"],
    ["bu", "dg"],
    ["dé", "cor"],
    ["puiss", "ance</w>"],
    ["c", "esse</w>"],
    ["lo", "s</w>"],
    ["intér", "êts</w>"],
    ["or", "ge</w>"],
    ["par", "lement</w>"],
    ["au", "str"],
    ["offici", "el</w>"],
    ["m", "un"],
    ["r", "on</w>"],
    ["fon", "ctions</w>"],
    ["iss", "ement</w>"],
    ["bi", "le</w>"],
    ["sup", "pl"],
    ["sc", "én"],
    ["l", "y</w>"],
    ["ci", "dent</w>"],
    ["suiv", "i</w>"],
    ["w", "or"],
    ["éri", "e</w>"],
    ["for", "ts</w>"],
    ["pren", "ant</w>"],
    ["cant", "on</w>"],
    ["in", "-</w>"],
    ["économ", "ique</w>"],
    ["ressour", "ces</w>"],
    ["prot", "ection</w>"],
    ["ouv", "rir</w>"],
    ["lign", "es</w>"],
    ["ré", "p"],
    ["lar", "ge</w>"],
    ["rap", "id"],
    ["arr", "êt</w>"],
    ["e", "ill"],
    ["n", "er"],
    ["ti", "e</w>"],
    ["cr", "oix</w>"],
    ["vi", "enne</w>"],
    ["diffi", "cul"],
    ["d", "en</w>"],
    ["mi", "que</w>"],
    ["bel", "gique</w>"],
    ["fav", "eur</w>"],
    ["de", "aux</w>"],
    ["r", "ver</w>"],
    ["ê", "me</w>"],
    ["st", "ation</w>"],
    ["ré", "v"],
    ["ri", "s</w>"],
    ["régi", "me</w>"],
    ["it", "ant</w>"],
    ["g", "as"],
    ["p", "â"],
    ["l", "aire</w>"],
    ["im", "médi"],
    ["r", "ar"],
    ["d", "its</w>"],
    ["hy", "po"],
    ["con", "ç"],
    ["t", "s"],
    ["arch", "it"],
    ["g", "on"],
    ["pro", "pos</w>"],
    ["char", "gé</w>"],
    ["bi", "ent"],
    ["ber", "g</w>"],
    ["re", "cor"],
    ["pl", "ement</w>"],
    ["al", "im"],
    ["scienti", "fique</w>"],
    ["d", "û</w>"],
    ["mar", "que</w>"],
    ["fl", "am"],
    ["é", "tique</w>"],
    ["k", "h"],
    ["trai", "tement</w>"],
    ["end", "ra</w>"],
    ["s'", "y</w>"],
    ["o", "ise</w>"],
    ["mé", "can"],
    ["ï", "</w>"],
    ["d", "avantage</w>"],
    ["mar", "i</w>"],
    ["mob", "ili"],
    ["qu", "ar"],
    ["cour", "se</w>"],
    ["sour", "ces</w>"],
    ["dé", "tru"],
    ["t", "t</w>"],
    ["r", "h"],
    ["in", "er</w>"],
    ["f", "c</w>"],
    ["an", "des</w>"],
    ["d", "ents</w>"],
    ["gr", "en"],
    ["t", "ons</w>"],
    ["emb", "our"],
    ["sou", "ff"],
    ["pa", "g"],
    ["qu", "ent</w>"],
    ["th", "i"],
    ["str", "ie</w>"],
    ["ri", "di"],
    ["illu", "str"],
    ["cham", "p</w>"],
    ["ci", "er</w>"],
    ["ob", "tenir</w>"],
    ["entre", "prises</w>"],
    ["bient", "ôt</w>"],
    ["f", "ins</w>"],
    ["personn", "alité</w>"],
    ["sen", "si"],
    ["l", "ac"],
    ["f", "al"],
    ["ex", "i"],
    ["gén", "i"],
    ["bibliothè", "que</w>"],
    ["personn", "el</w>"],
    ["vi", "dé"],
    ["im", "p"],
    ["c", "teur</w>"],
    ["ch", "a</w>"],
    ["cel", "le-"],
    ["la", "c</w>"],
    ["ban", "que</w>"],
    ["contr", "at</w>"],
    ["è", "les</w>"],
    ["publi", "cation</w>"],
    ["déc", "ouvert</w>"],
    ["jusqu'", "au</w>"],
    ["b", "lo"],
    ["év", "alu"],
    ["fai", "ble</w>"],
    ["b", "au"],
    ["entraî", "n"],
    ["ré", "union</w>"],
    ["jeu", "n"],
    ["minu", "tes</w>"],
    ["l", "er"],
    ["s", "ent</w>"],
    ["c'", "est-à-dire</w>"],
    ["s", "tes</w>"],
    ["jou", "e</w>"],
    ["tradu", "ction</w>"],
    ["qu'", "elles</w>"],
    ["éli", "or"],
    ["b", "ac"],
    ["f", "en"],
    ["act", "eurs</w>"],
    ["m", "él"],
    ["pour", "tant</w>"],
    ["o", "v"],
    ["l'", "ensemble</w>"],
    ["un", "ité</w>"],
    ["s'", "était</w>"],
    ["royau", "me</w>"],
    ["it", "eur</w>"],
    ["méd", "aille</w>"],
    ["ré", "ci"],
    ["b", "er</w>"],
    ["is", "tence</w>"],
    ["arron", "dissement</w>"],
    ["fac", "il"],
    ["ren", "du</w>"],
    ["m", "it</w>"],
    ["qu’", "elle</w>"],
    ["cré", "é</w>"],
    ["soci", "étés</w>"],
    ["r", "av"],
    ["in", "i</w>"],
    ["é", "cou"],
    ["l", "ang"],
    ["ser", "t</w>"],
    ["am", "en"],
    ["it", "y</w>"],
    ["puis", "que</w>"],
    ["tou", "rs</w>"],
    ["fr", "ères</w>"],
    ["l'", "ad"],
    ["numér", "o</w>"],
    ["soci", "ale</w>"],
    ["is", "on</w>"],
    ["f", "is"],
    ["o", "des</w>"],
    ["particuli", "èrement</w>"],
    ["n", "au"],
    ["ch", "u"],
    ["qu", "eur</w>"],
    ["vér", "ité</w>"],
    ["év", "êque</w>"],
    ["analy", "se</w>"],
    ["nég", "oci"],
    ["é", "vi"],
    ["end", "ant</w>"],
    ["c", "élè"],
    ["é", "volu"],
    ["élè", "ve</w>"],
    ["qu", "</w>"],
    ["in", "et</w>"],
    ["ent", "aires</w>"],
    ["li", "gue</w>"],
    ["sur", "face</w>"],
    ["reconn", "aissance</w>"],
    ["fi", "ée</w>"],
    ["jap", "on"],
    ["fer", "me</w>"],
    ["m", "e-"],
    ["né", "cess"],
    ["port", "ée</w>"],
    ["le", "z</w>"],
    ["m", "age</w>"],
    ["ré", "serv"],
    ["s", "able</w>"],
    ["con", "tin"],
    ["l’", "ex"],
    ["fes", "tiv"],
    ["alis", "tes</w>"],
    ["an", "g</w>"],
    ["ag", "u"],
    ["b", "s</w>"],
    ["m", "el"],
    ["dis", "pens"],
    ["rel", "ations</w>"],
    ["annon", "ce</w>"],
    ["cou", "</w>"],
    ["l'em", "pereur</w>"],
    ["roy", "al</w>"],
    ["z", "o"],
    ["e", "ille</w>"],
    ["align", "</w>"],
    ["ag", "ré"],
    ["n", "t</w>"],
    ["val", "eurs</w>"],
    ["tionn", "aire</w>"],
    ["inv", "esti"],
    ["fr", "app"],
    ["pr", "e"],
    ["génér", "alement</w>"],
    ["da", "e</w>"],
    ["w", "illi"],
    ["sol", "eil</w>"],
    ["coll", "abor"],
    ["co", "û"],
    ["b", "ap"],
    ["po", "</w>"],
    ["uni", "quement</w>"],
    ["moi", "tié</w>"],
    ["pa", "ssi"],
    ["c", "lim"],
    ["nécess", "aires</w>"],
    ["per", "mis</w>"],
    ["occu", "pation</w>"],
    ["ten", "us</w>"],
    ["j", "é"],
    ["opér", "ations</w>"],
    ["m", "enti"],
    ["référ", "ence</w>"],
    ["l'é", "poque</w>"],
    ["au", "di"],
    ["é", "lu</w>"],
    ["comp", "éti"],
    ["pa", "th"],
    ["g", "ène</w>"],
    ["ag", "ue</w>"],
    ["civi", "le</w>"],
    ["inform", "ations</w>"],
    ["ti", "ens</w>"],
    ["man", "n</w>"],
    ["d'", "o"],
    ["n", "our"],
    ["b", "onn"],
    ["marse", "ille</w>"],
    ["fo", "i</w>"],
    ["tech", "niques</w>"],
    ["cl", "é"],
    ["por", "tu"],
    ["assur", "er</w>"],
    ["ob", "jets</w>"],
    ["pon", "i"],
    ["t", "ari"],
    ["davi", "d</w>"],
    ["im", "ag"],
    ["comb", "at</w>"],
    ["peti", "tes</w>"],
    ["rest", "aur"],
    ["contr", "ain"],
    ["fran", "ch"],
    ["trans", "port</w>"],
    ["communi", "cation</w>"],
    ["ques", "tions</w>"],
    ["publi", "cs</w>"],
    ["démo", "cr"],
    ["lé", "gu"],
    ["s", "o</w>"],
    ["éner", "gie</w>"],
    ["in", "é</w>"],
    ["pos", "ée</w>"],
    ["ap", "</w>"],
    ["h", "iv"],
    ["f", "ant"],
    ["cir", "const"],
    ["cri", "tique</w>"],
    ["e", "a</w>"],
    ["nom", "s</w>"],
    ["dis", "tri"],
    ["off", "re</w>"],
    ["dé", "li"],
    ["physi", "que</w>"],
    ["lo", "gi"],
    ["dis", "cours</w>"],
    ["es", "pagn"],
    ["av", "oit</w>"],
    ["princip", "alement</w>"],
    ["chev", "al</w>"],
    ["s", "ais</w>"],
    ["journ", "ée</w>"],
    ["as", "h"],
    ["institu", "t</w>"],
    ["et", "er</w>"],
    ["ré", "parti"],
    ["k", "er</w>"],
    ["diff", "u"],
    ["cho", "is"],
    ["v", "eux</w>"],
    ["port", "ent</w>"],
    ["par", "le</w>"],
    ["di", "manche</w>"],
    ["pa", "ges</w>"],
    ["ju", "i"],
    ["è", "tes</w>"],
    ["mau", "ri"],
    ["d", "enti"],
    ["import", "antes</w>"],
    ["jeun", "esse</w>"],
    ["b", "ons</w>"],
    ["ren", "seign"],
    ["c", "ali"],
    ["v", "an"],
    ["m", "és</w>"],
    ["ni", "col"],
    ["r", "cher</w>"],
    ["mé", "tr"],
    ["grou", "pes</w>"],
    ["ex", "clu"],
    ["import", "ante</w>"],
    ["j", "a</w>"],
    ["f", "un"],
    ["h", "en"],
    ["k", "o</w>"],
    ["capit", "al</w>"],
    ["dis", "position</w>"],
    ["ab", "solu"],
    ["chris", "ti"],
    ["cou", "leur</w>"],
    ["princip", "aux</w>"],
    ["ou", "ti"],
    ["der", "rière</w>"],
    ["sk", "i</w>"],
    ["av", "ais</w>"],
    ["t", "ez</w>"],
    ["l", "at"],
    ["dis", "poni"],
    ["ch", "ass"],
    ["celle-", "ci</w>"],
    ["cé", "der</w>"],
    ["équi", "pes</w>"],
    ["av", "en"],
    ["iss", "ance</w>"],
    ["ru", "</w>"],
    ["poi", "ds</w>"],
    ["t", "'"],
    ["b", "al</w>"],
    ["p", "sy"],
    ["départ", "ement"],
    ["d", "el</w>"],
    ["cr", "ain"],
    ["sé", "ance</w>"],
    ["vin", "gt</w>"],
    ["bl", "ess"],
    ["pie", "ds</w>"],
    ["pass", "ant</w>"],
    ["e", "rcher</w>"],
    ["car", "te</w>"],
    ["pa", "pi"],
    ["ten", "tion</w>"],
    ["l'", "union</w>"],
    ["propr", "es</w>"],
    ["ch", "ercher</w>"],
    ["const", "at"],
    ["pro", "por"],
    ["confi", "r"],
    ["ren", "contr"],
    ["sub", "s"],
    ["al", "g"],
    ["ch", "ée</w>"],
    ["meill", "eure</w>"],
    ["comm", "un</w>"],
    ["lumi", "ère</w>"],
    ["e", "f</w>"],
    ["t", "am"],
    ["maladi", "e</w>"],
    ["w", "h"],
    ["h", "auteur</w>"],
    ["qu", "és</w>"],
    ["ç", "ons</w>"],
    ["ré", "fl"],
    ["l'", "air</w>"],
    ["inter", "nationale</w>"],
    ["im", "prim"],
    ["de", "voir</w>"],
    ["ex", "t"],
    ["ass", "ist"],
    ["l'", "ouest</w>"],
    ["employ", "és</w>"],
    ["ex", "prim"],
    ["épou", "se</w>"],
    ["syn", "dic"],
    ["eff", "ets</w>"],
    ["î", "t</w>"],
    ["répon", "se</w>"],
    ["res", "ter</w>"],
    ["euro", "s</w>"],
    ["j", "au"],
    ["ab", "ilité</w>"],
    ["as", "tér"],
    ["ag", "ement</w>"],
    ["lon", "gueur</w>"],
    ["four", "ni"],
    ["améri", "que</w>"],
    ["ris", "que</w>"],
    ["rapid", "ement</w>"],
    ["b", "ill"],
    ["chev", "alier</w>"],
    ["oi", "le</w>"],
    ["sci", "ence</w>"],
    ["in", "ée</w>"],
    ["ce", "au</w>"],
    ["atte", "int</w>"],
    ["offici", "ers</w>"],
    ["l'", "auteur</w>"],
    ["l'", "île</w>"],
    ["sold", "ats</w>"],
    ["pens", "ée</w>"],
    ["ter", "res</w>"],
    ["ph", "én"],
    ["compos", "é</w>"],
    ["scul", "p"],
    ["judi", "ci"],
    ["n’", "a</w>"],
    ["pau", "vre</w>"],
    ["ple", "in</w>"],
    ["les", "quels</w>"],
    ["sim", "plement</w>"],
    ["publi", "c"],
    ["fac", "ul"],
    ["squ", "elles</w>"],
    ["trai", "ts</w>"],
    ["k", "r"],
    ["ér", "o"],
    ["tra", "di"],
    ["e", "h</w>"],
    ["p", "ê"],
    ["représent", "ant</w>"],
    ["au-", "dessus</w>"],
    ["ru", "p"],
    ["t", "ch"],
    ["spec", "tac"],
    ["cé", "ré"],
    ["an", "to"],
    ["pe", "r"],
    ["four", "n"],
    ["qu", "oi"],
    ["anim", "aux</w>"],
    ["si", "gne</w>"],
    ["r", "ê"],
    ["québ", "ec</w>"],
    ["hô", "pit"],
    ["ren", "d</w>"],
    ["olympi", "ques</w>"],
    ["cid", "ent"],
    ["te", "r"],
    ["conse", "iller</w>"],
    ["w", "o"],
    ["ur", "b"],
    ["paro", "le</w>"],
    ["n", "ations</w>"],
    ["mon", "tant</w>"],
    ["e", "ffi"],
    ["pro", "vo"],
    ["i", "dées</w>"],
    ["parti", "ci"],
    ["comp", "ét"],
    ["m", "aisons</w>"],
    ["fr", "ont</w>"],
    ["to", "i</w>"],
    ["cl", "er"],
    ["s", "ouver"],
    ["constru", "it</w>"],
    ["tom", "be</w>"],
    ["vou", "lu</w>"],
    ["ter", "a</w>"],
    ["les", "-"],
    ["fi", "ques</w>"],
    ["t", "aille</w>"],
    ["pr", "ati"],
    ["co", "p"],
    ["can", "adi"],
    ["gr", "ès</w>"],
    ["astér", "oï"],
    ["remar", "qu"],
    ["se", "ine</w>"],
    ["er", "ies</w>"],
    ["hiv", "er</w>"],
    ["lo", "g"],
    ["cel", "lu"],
    ["form", "er</w>"],
    ["en", "cour"],
    ["bâti", "ment</w>"],
    ["form", "é</w>"],
    ["vérit", "able</w>"],
    ["qu’", "ils</w>"],
    ["clau", "de</w>"],
    ["s", "it"],
    ["j", "on"],
    ["milit", "aires</w>"],
    ["è", "</w>"],
    ["e", "z-vous</w>"],
    ["del", "à</w>"],
    ["chap", "elle</w>"],
    ["i", "d</w>"],
    ["com", "bat"],
    ["cô", "te</w>"],
    ["jap", "on</w>"],
    ["gé", "ographie</w>"],
    ["ving", "t-"],
    ["fédér", "ation</w>"],
    ["ch", "és</w>"],
    ["dist", "ance</w>"],
    ["d'ar", "gent</w>"],
    ["sem", "aine</w>"],
    ["di", "ffici"],
    ["offici", "er</w>"],
    ["origin", "al</w>"],
    ["ré", "serve</w>"],
    ["an", "th"],
    ["diffici", "le</w>"],
    ["kil", "om"],
    ["l", "end"],
    ["d", "ait</w>"],
    ["arri", "ve</w>"],
    ["ob", "tient</w>"],
    ["pro", "jets</w>"],
    ["enr", "eg"],
    ["rem", "on"],
    ["ati", "fs</w>"],
    ["is", "ant</w>"],
    ["l’", "on</w>"],
    ["ord", "res</w>"],
    ["chem", "ins</w>"],
    ["c", "y</w>"],
    ["artis", "te</w>"],
    ["centr", "ale</w>"],
    ["portu", "g"],
    ["a", "si"],
    ["métho", "de</w>"],
    ["qua", "tri"],
    ["par", "ois"],
    ["ar", "ab"],
    ["ri", "re</w>"],
    ["fran", "c"],
    ["f", "ol"],
    ["cel", "l"],
    ["v", "on</w>"],
    ["z", "ones</w>"],
    ["dit-", "il</w>"],
    ["du", "l"],
    ["com", "prend</w>"],
    ["n", "s</w>"],
    ["maj", "orité</w>"],
    ["dé", "sor"],
    ["n", "et"],
    ["k", "u"],
    ["ren", "ouv"],
    ["di", "minu"],
    ["ag", "</w>"],
    ["in", "clu"],
    ["supéri", "eure</w>"],
    ["vi", "te</w>"],
    ["t", "ations</w>"],
    ["hum", "aine</w>"],
    ["for", "d</w>"],
    ["ologi", "ques</w>"],
    ["in", "dépend"],
    ["con", "ven"],
    ["se", "i"],
    ["re", "prises</w>"],
    ["onn", "er</w>"],
    ["ég", "ard</w>"],
    ["s", "ons</w>"],
    ["p", "é</w>"],
    ["œu", "rs</w>"],
    ["demand", "er</w>"],
    ["capit", "ale</w>"],
    ["an", "moins</w>"],
    ["religi", "on</w>"],
    ["dis", "pu"],
    ["poss", "ède</w>"],
    ["em", "ain</w>"],
    ["com", "position</w>"],
    ["reç", "oit</w>"],
    ["car", "tes</w>"],
    ["li", "mi"],
    ["d", "ente</w>"],
    ["cons", "ci"],
    ["derni", "ères</w>"],
    ["s’", "est</w>"],
    ["festiv", "al</w>"],
    ["ce", "ssi"],
    ["ac", "cessi"],
    ["cein", "ture</w>"],
    ["c", "ents</w>"],
    ["d", "y</w>"],
    ["monu", "ments</w>"],
    ["l'", "administration</w>"],
    ["con", "que</w>"],
    ["constitu", "tion</w>"],
    ["instru", "ction</w>"],
    ["cy", "cl"],
    ["dom", "i"],
    ["d'", "autre</w>"],
    ["i", "b"],
    ["histori", "ques</w>"],
    ["mon", "d</w>"],
    ["popul", "aire</w>"],
    ["n", "és</w>"],
    ["atten", "tion</w>"],
    ["paro", "les</w>"],
    ["vidé", "o</w>"],
    ["fil", "ms</w>"],
    ["tin", "g</w>"],
    ["ex", "te</w>"],
    ["ob", "s"],
    ["bret", "agne</w>"],
    ["n", "ou"],
    ["né", "anmoins</w>"],
    ["pa", "pe</w>"],
    ["cr", "oire</w>"],
    ["pro", "</w>"],
    ["bor", "deaux</w>"],
    ["l'", "assemblée</w>"],
    ["d", "yn"],
    ["fi", "d"],
    ["caract", "ères</w>"],
    ["tempér", "ature</w>"],
    ["ag", "ent</w>"],
    ["thom", "as</w>"],
    ["rem", "porte</w>"],
    ["con", "vention</w>"],
    ["partici", "pe</w>"],
    ["l'es", "prit</w>"],
    ["fil", "les</w>"],
    ["quatri", "ème</w>"],
    ["b", "ande</w>"],
    ["pro", "fon"],
    ["v", "ég"],
    ["sain", "te-"],
    ["av", "</w>"],
    ["l'em", "pire</w>"],
    ["par", "ents</w>"],
    ["er", "ont</w>"],
    ["e", "i"],
    ["puis", "se</w>"],
    ["l'", "intérieur</w>"],
    ["gu", "i"],
    ["’", "</w>"],
    ["actu", "ellement</w>"],
    ["tionn", "elle</w>"],
    ["commerci", "al</w>"],
    ["opin", "ion</w>"],
    ["land", "ais</w>"],
    ["volon", "té</w>"],
    ["ti", "m"],
    ["str", "at"],
    ["d'", "</w>"],
    ["ber", "lin</w>"],
    ["eu", "ves</w>"],
    ["vit", "esse</w>"],
    ["g", "am"],
    ["na", "po"],
    ["l", "em"],
    ["re", "traite</w>"],
    ["t", "ements</w>"],
    ["personn", "age</w>"],
    ["ent", "endre</w>"],
    ["k", "er"],
    ["r", "ol"],
    ["iss", "ait</w>"],
    ["tr", "ain</w>"],
    ["par", "ten"],
    ["diffu", "sion</w>"],
    ["es", "té</w>"],
    ["t", "une</w>"],
    ["o", "ph"],
    ["laiss", "er</w>"],
    ["caractéris", "tiques</w>"],
    ["am", "our</w>"],
    ["t", "atis"],
    ["p", "i</w>"],
    ["ga", "z</w>"],
    ["lu", "tte</w>"],
    ["cu", "s</w>"],
    ["médec", "in</w>"],
    ["ai", "m"],
    ["dépen", "ses</w>"],
    ["ten", "ait</w>"],
    ["w", "n</w>"],
    ["servi", "r</w>"],
    ["h", "a</w>"],
    ["ér", "ation</w>"],
    ["fichi", "er</w>"],
    ["re", "té</w>"],
    ["lend", "emain</w>"],
    ["l'", "objet</w>"],
    ["fé", "min"],
    ["pos", "és</w>"],
    ["mar", "iti"],
    ["fi", "e</w>"],
    ["coll", "ection</w>"],
    ["at", "a</w>"],
    ["s", "tatis"],
    ["bi", "en"],
    ["n", "on"],
    ["s", "co"],
    ["grand", "-"],
    ["vi", "vre</w>"],
    ["cert", "aine</w>"],
    ["d", "ang"],
    ["d'", "état</w>"],
    ["de", "venu</w>"],
    ["catho", "lique</w>"],
    ["jard", "in</w>"],
    ["fi", "r"],
    ["indivi", "du"],
    ["concer", "ne</w>"],
    ["do", "s</w>"],
    ["budg", "et</w>"],
    ["dr", "am"],
    ["l", "ée</w>"],
    ["s", "ent"],
    ["ci", "ens</w>"],
    ["s", "ter"],
    ["s", "ence</w>"],
    ["command", "ant</w>"],
    ["tionn", "el</w>"],
    ["distri", "ct</w>"],
    ["tech", "n"],
    ["co", "eur</w>"],
    ["quanti", "té</w>"],
    ["l'", "âge</w>"],
    ["trouv", "ent</w>"],
    ["souv", "enir</w>"],
    ["r", "o</w>"],
    ["au", "me</w>"],
    ["con", "tenu</w>"],
    ["car", "din"],
    ["il", "l</w>"],
    ["ang", "es</w>"],
    ["pir", "ation</w>"],
    ["b", "y"],
    ["de", "hors</w>"],
    ["dess", "ous</w>"],
    ["m", "ex"],
    ["condu", "ite</w>"],
    ["désor", "mais</w>"],
    ["l'ac", "adémie</w>"],
    ["sou", "mis</w>"],
    ["littér", "ature</w>"],
    ["bou", "lev"],
    ["ou", "x</w>"],
    ["mar", "éch"],
    ["f", "ût</w>"],
    ["sec", "ours</w>"],
    ["l'", "ét"],
    ["ai", "t-il</w>"],
    ["nor", "m"],
    ["chan", "ge</w>"],
    ["quel", "qu"],
    ["d", "ec"],
    ["t", "y</w>"],
    ["allem", "ande</w>"],
    ["s", "ant</w>"],
    ["min", "er</w>"],
    ["gr", "am"],
    ["ag", "n"],
    ["ré", "uni"],
    ["par", "aît</w>"],
    ["par", "isi"],
    ["él", "oign"],
    ["stu", "di"],
    ["bel", "ge</w>"],
    ["de", "venir</w>"],
    ["chev", "aux</w>"],
    ["ati", "onn"],
    ["f", "est"],
    ["jusqu'", "en</w>"],
    ["conséqu", "ent</w>"],
    ["ex", "cep"],
    ["o", "h</w>"],
    ["atta", "que</w>"],
    ["ré", "us"],
    ["télév", "ision</w>"],
    ["cab", "inet</w>"],
    ["ver", "tu</w>"],
    ["médi", "aire</w>"],
    ["per", "du</w>"],
    ["règ", "lement</w>"],
    ["a", "trice</w>"],
    ["bru", "x"],
    ["t", "elles</w>"],
    ["ap", "préci"],
    ["d'", "origine</w>"],
    ["h", "el"],
    ["po", "l"],
    ["direc", "tement</w>"],
    ["quelqu", "e"],
    ["y", "a</w>"],
    ["au", "lt</w>"],
    ["monu", "ment</w>"],
    ["béné", "fici"],
    ["cam", "p</w>"],
    ["pro", "position</w>"],
    ["ten", "te</w>"],
    ["itu", "res</w>"],
    ["ét", "oit</w>"],
    ["chang", "ement</w>"],
    ["s", "ites</w>"],
    ["con", "for"],
    ["d'", "en</w>"],
    ["c", "ence</w>"],
    ["co", "-"],
    ["e", "e</w>"],
    ["du", "es</w>"],
    ["tém", "oign"],
    ["b", "ord"],
    ["l'", "ancien</w>"],
    ["v", "int</w>"],
    ["am", "élior"],
    ["gouvern", "eur</w>"],
    ["pour", "ra</w>"],
    ["p", "t</w>"],
    ["c", "l</w>"],
    ["sol", "s</w>"],
    ["mauri", "ce</w>"],
    ["ent", "-"],
    ["natu", "rel"],
    ["s", "ession</w>"],
    ["ré", "public"],
    ["n", "on-"],
    ["f", "leurs</w>"],
    ["bern", "ard</w>"],
    ["s", "age</w>"],
    ["préf", "et</w>"],
    ["di", "am"],
    ["prét", "en"],
    ["t", "ori"],
    ["ari", "o</w>"],
    ["reg", "ard</w>"],
    ["om", "ie</w>"],
    ["ti", "s</w>"],
    ["artis", "tes</w>"],
    ["agri", "culture</w>"],
    ["cl", "in"],
    ["par", "tout</w>"],
    ["im", "péri"],
    ["int", "elli"],
    ["t", "ol"],
    ["oc", "é"],
    ["it", "a</w>"],
    ["in", "dispens"],
    ["z", "u"],
    ["v", "ac"],
    ["qu", "elles</w>"],
    ["is", "son</w>"],
    ["elle-", "même</w>"],
    ["d", "ri"],
    ["sou", "hai"],
    ["propriét", "aire</w>"],
    ["ouvri", "ers</w>"],
    ["al", "lu"],
    ["b", "om"],
    ["at", "ti"],
    ["continu", "e</w>"],
    ["i", "en</w>"],
    ["ren", "tr"],
    ["ti", "r</w>"],
    ["x", "y"],
    ["m", "y</w>"],
    ["ré", "per"],
    ["is", "ent</w>"],
    ["élè", "ves</w>"],
    ["t-", "elle</w>"],
    ["ail", "s</w>"],
    ["roy", "ale</w>"],
    ["relati", "vement</w>"],
    ["as", "pec"],
    ["pl", "or"],
    ["tou", "lou"],
    ["ai", "me</w>"],
    ["di", "v"],
    ["plai", "sir</w>"],
    ["princip", "es</w>"],
    ["empr", "un"],
    ["g", "our"],
    ["ti", "mes</w>"],
    ["l", "oire</w>"],
    ["pris", "onn"],
    ["travaill", "er</w>"],
    ["auss", "it"],
    ["b", "arr"],
    ["th", "ém"],
    ["vo", "i</w>"],
    ["é", "cole</w>"],
    ["cur", "r"],
    ["dé", "ri"],
    ["distin", "gu"],
    ["im", "pli"],
    ["condi", "tion</w>"],
    ["fon", "dée</w>"],
    ["so", "r</w>"],
    ["r", "emp"],
    ["o", "p</w>"],
    ["br", "un"],
    ["b", "rés"],
    ["in", "o</w>"],
    ["av", "oc"],
    ["b", "ol"],
    ["s", "port</w>"],
    ["autri", "che</w>"],
    ["iv", "es</w>"],
    ["is", "és</w>"],
    ["ém", "ission</w>"],
    ["différ", "ence</w>"],
    ["v", "ont</w>"],
    ["vall", "ée</w>"],
    ["vain", "queur</w>"],
    ["condu", "it</w>"],
    ["an", "terie</w>"],
    ["visi", "ons</w>"],
    ["ri", "es</w>"],
    ["b", "all"],
    ["e", "squelles</w>"],
    ["pré", "fér"],
    ["enseign", "ement</w>"],
    ["aussit", "ôt</w>"],
    ["fon", "t"],
    ["sec", "teur</w>"],
    ["alis", "me</w>"],
    ["l", "esquelles</w>"],
    ["ch", "s</w>"],
    ["natur", "el</w>"],
    ["pr", "ennent</w>"],
    ["av", "ou"],
    ["cl", "ar"],
    ["n", "ées</w>"],
    ["ré", "comp"],
    ["c", "ec"],
    ["bl", "esse</w>"],
    ["requ", "êtes</w>"],
    ["ar", "s</w>"],
    ["polo", "gne</w>"],
    ["e", "re</w>"],
    ["d'", "a"],
    ["li", "br"],
    ["jo", "r</w>"],
    ["re", "présente</w>"],
    ["f", "ête</w>"],
    ["cap", "</w>"],
    ["c", "f</w>"],
    ["fin", "ances</w>"],
    ["au", "quel</w>"],
    ["rece", "voir</w>"],
    ["clim", "at</w>"],
    ["confi", "ance</w>"],
    ["cor", "por"],
    ["d'", "au"],
    ["col", "om"],
    ["blan", "che</w>"],
    ["con", "grès</w>"],
    ["d", "al"],
    ["centr", "al</w>"],
    ["mani", "fest"],
    ["cont", "empor"],
    ["h", "a"],
    ["moder", "ne</w>"],
    ["p", "eur</w>"],
    ["ph", "ar"],
    ["ann", "exes</w>"],
    ["grou", "p"],
    ["vi", "a</w>"],
    ["b", "et"],
    ["cu", "les</w>"],
    ["ta", "x"],
    ["par", "aiss"],
    ["télév", "isée</w>"],
    ["étab", "lir</w>"],
    ["voy", "ag"],
    ["di", "en</w>"],
    ["t", "â"],
    ["ju", "ridi"],
    ["ré", "pu"],
    ["rich", "ard</w>"],
    ["ne", "y</w>"],
    ["fam", "illes</w>"],
    ["graph", "ique</w>"],
    ["sim", "pli"],
    ["déc", "ouverte</w>"],
    ["gén", "ie</w>"],
    ["ti", "l"],
    ["tiv", "ité</w>"],
    ["dé", "du"],
    ["a-", "t-il</w>"],
    ["fon", "dé</w>"],
    ["m", "lle</w>"],
    ["diff", "us"],
    ["c", "enti"],
    ["ph", "o"],
    ["ess", "ay"],
    ["génér", "aux</w>"],
    ["ennem", "i</w>"],
    ["al", "-"],
    ["o", "k</w>"],
    ["d", "ance</w>"],
    ["v", "eu"],
    ["ci", "s</w>"],
    ["x", "vi"],
    ["ch", "ement</w>"],
    ["pris", "on</w>"],
    ["cher", "ch"],
    ["enti", "èrement</w>"],
    ["r", "appel"],
    ["st", "ade</w>"],
    ["cô", "tés</w>"],
    ["rég", "iment</w>"],
    ["l", "et</w>"],
    ["guill", "aume</w>"],
    ["g", "ation</w>"],
    ["plac", "ement</w>"],
    ["tro", "ph"],
    ["v", "aiss"],
    ["s", "ing"],
    ["boulev", "ard</w>"],
    ["ris", "ques</w>"],
    ["fer", "a</w>"],
    ["évén", "ements</w>"],
    ["vi", "ce-"],
    ["g", "rec"],
    ["demand", "ons</w>"],
    ["mor", "ale</w>"],
    ["augment", "ation</w>"],
    ["x", "c</w>"],
    ["ré", "d"],
    ["permet", "tant</w>"],
    ["aven", "ue</w>"],
    ["d’", "autres</w>"],
    ["enreg", "istr"],
    ["fu", "r</w>"],
    ["écriv", "ain</w>"],
    ["f", "as"],
    ["di", "er</w>"],
    ["établis", "sements</w>"],
    ["ma", "jor</w>"],
    ["ô", "ne</w>"],
    ["cri", "min"],
    ["relati", "ves</w>"],
    ["p", "r</w>"],
    ["catég", "orie</w>"],
    ["struc", "ture</w>"],
    ["pu", "s</w>"],
    ["m", "’"],
    ["at", "ement</w>"],
    ["tr", "ine</w>"],
    ["conséqu", "ence</w>"],
    ["élev", "é</w>"],
    ["t", "ère</w>"],
    ["ré", "clam"],
    ["b", "lement</w>"],
    ["d", "an</w>"],
    ["nicol", "as</w>"],
    ["adress", "er</w>"],
    ["l", "ant</w>"],
    ["pro", "pose</w>"],
    ["envir", "onnement</w>"],
    ["nation", "ales</w>"],
    ["championn", "ats</w>"],
    ["fam", "ili"],
    ["phén", "om"],
    ["l'", "au"],
    ["ne", "w"],
    ["ru", "s</w>"],
    ["-", "de-"],
    ["g", "h</w>"],
    ["dem", "ment</w>"],
    ["g", "s</w>"],
    ["bru", "it</w>"],
    ["o", "di"],
    ["p", "ilo"],
    ["ci", "te</w>"],
    ["dou", "ze</w>"],
    ["g", "re</w>"],
    ["mon", "ie</w>"],
    ["h", "av"],
    ["ve", "iller</w>"],
    ["ma", "r</w>"],
    ["personn", "ages</w>"],
    ["a", "x"],
    ["ass", "ass"],
    ["pr", "ess"],
    ["ser", "aient</w>"],
    ["ten", "ti"],
    ["célè", "bre</w>"],
    ["colon", "el</w>"],
    ["ég", "yp"],
    ["ê", "tres</w>"],
    ["ge", "ant</w>"],
    ["confér", "ence</w>"],
    ["h", "as"],
    ["comp", "li"],
    ["régi", "ons</w>"],
    ["rel", "ev"],
    ["vo", "iture</w>"],
    ["s", "pon"],
    ["év", "entu"],
    ["navi", "re</w>"],
    ["co", "les</w>"],
    ["pourr", "aient</w>"],
    ["l'", "occasion</w>"],
    ["comédi", "e</w>"],
    ["ph", "il"],
    ["bay", "e</w>"],
    ["quel", "conque</w>"],
    ["di", "vis"],
    ["municip", "alité</w>"],
    ["ti", "es</w>"],
    ["ô", "</w>"],
    ["ob", "</w>"],
    ["étrang", "ers</w>"],
    ["for", "tune</w>"],
    ["at", "tr"],
    ["ill", "on</w>"],
    ["l", "aisse</w>"],
    ["end", "s</w>"],
    ["dép", "ôt</w>"],
    ["m", "c"],
    ["re", "tourn"],
    ["bap", "tis"],
    ["d", "au"],
    ["oc", "cident"],
    ["enten", "du</w>"],
    ["mé", "ment</w>"],
    ["v", "ê"],
    ["dépu", "tés</w>"],
    ["n", "g</w>"],
    ["visi", "te</w>"],
    ["aper", "ç"],
    ["l", "ait</w>"],
    ["progr", "am"],
    ["franç", "aises</w>"],
    ["dan", "i"],
    ["l'", "origine</w>"],
    ["m", "am"],
    ["es", "s</w>"],
    ["y", "ou"],
    ["as", "tique</w>"],
    ["for", "mu"],
    ["cal", "cul"],
    ["actu", "elle</w>"],
    ["principa", "les</w>"],
    ["br", "ill"],
    ["l", "on</w>"],
    ["s", "pir"],
    ["t", "oire</w>"],
    ["natur", "elle</w>"],
    ["b", "elles</w>"],
    ["pal", "mar"],
    ["bon", "heur</w>"],
    ["suiv", "antes</w>"],
    ["a", "éri"],
    ["et", "tre</w>"],
    ["feu", "illes</w>"],
    ["di", "gi"],
    ["ins", "pi"],
    ["mau", "vais</w>"],
    ["f", "on</w>"],
    ["su", "ffi"],
    ["ob", "tenu</w>"],
    ["v", "al</w>"],
    ["poss", "é"],
    ["éco", "les</w>"],
    ["i", "x</w>"],
    ["can", "al</w>"],
    ["i", "ère</w>"],
    ["r", "ais"],
    ["d", "ation</w>"],
    ["fé", "li"],
    ["cr", "ois</w>"],
    ["sorti", "r</w>"],
    ["im", "possible</w>"],
    ["religi", "eux</w>"],
    ["bar", "on</w>"],
    ["ec", "te</w>"],
    ["palmar", "ès</w>"],
    ["éch", "app"],
    ["ma", "xim"],
    ["s", "tre</w>"],
    ["ét", "ap"],
    ["répon", "dit</w>"],
    ["ch", "r"],
    ["min", "im"],
    ["vo", "te</w>"],
    ["lu", "t</w>"],
    ["el", "d</w>"],
    ["l'", "usage</w>"],
    ["règ", "les</w>"],
    ["entr", "er</w>"],
    ["brux", "elles</w>"],
    ["or", "y</w>"],
    ["ô", "ts</w>"],
    ["bâti", "ments</w>"],
    ["ins", "pec"],
    ["c", "ac"],
    ["m'", "a</w>"],
    ["willi", "am</w>"],
    ["gal", "erie</w>"],
    ["cou", "ps</w>"],
    ["in", "géni"],
    ["l'am", "our</w>"],
    ["hy", "dro"],
    ["kilom", "ètres</w>"],
    ["de", "s"],
    ["si", "mul"],
    ["cré", "ée</w>"],
    ["civ", "il</w>"],
    ["on", "yme</w>"],
    ["em", "pire</w>"],
    ["ab", "</w>"],
    ["cu", "</w>"],
    ["m", "â"],
    ["matéri", "el</w>"],
    ["médec", "ine</w>"],
    ["e", "orge</w>"],
    ["cir", "cons"],
    ["maî", "tr"],
    ["i", "ez</w>"],
    ["publi", "ques</w>"],
    ["g", "eorge</w>"],
    ["an", "i</w>"],
    ["in", "titu"],
    ["docu", "ment"],
    ["mal", "ade</w>"],
    ["ph", "ase</w>"],
    ["po", "le</w>"],
    ["v", "ues</w>"],
    ["b", "ie</w>"],
    ["réparti", "tion</w>"],
    ["pen", "se</w>"],
    ["compl", "ète</w>"],
    ["iss", "ons</w>"],
    ["î", "les</w>"],
    ["at", "el"],
    ["e", "illi"],
    ["pro", "ces"],
    ["ss", "ent</w>"],
    ["observ", "ations</w>"],
    ["li", "re</w>"],
    ["produ", "ire</w>"],
    ["g", "r</w>"],
    ["comp", "ter</w>"],
    ["po", "lon"],
    ["suiv", "ants</w>"],
    ["so", "ins</w>"],
    ["s", "en</w>"],
    ["europé", "en</w>"],
    ["lan", "gues</w>"],
    ["itu", "de</w>"],
    ["municip", "al</w>"],
    ["r", "ont</w>"],
    ["donn", "ée</w>"],
    ["mor", "ts</w>"],
    ["b", "le"],
    ["r", "aisons</w>"],
    ["pos", "ant</w>"],
    ["d'", "honneur</w>"],
    ["bl", "é</w>"],
    ["z", "z"],
    ["fi", "ces</w>"],
    ["b", "asse</w>"],
    ["char", "ges</w>"],
    ["g", "in"],
    ["vis", "age</w>"],
    ["rece", "v"],
    ["pl", "ain"],
    ["sign", "é</w>"],
    ["so", "in</w>"],
    ["br", "û"],
    ["maréch", "al</w>"],
    ["ve", "ille</w>"],
    ["sév", "ère</w>"],
    ["trouv", "ait</w>"],
    ["ins", "crit</w>"],
    ["al", "l</w>"],
    ["issu", "e</w>"],
    ["lé", "ans</w>"],
    ["particip", "ation</w>"],
    ["thé", "orie</w>"],
    ["man", "que</w>"],
    ["procé", "dure</w>"],
    ["compéti", "tion</w>"],
    ["vé", "hi"],
    ["re", "trouve</w>"],
    ["m", "o</w>"],
    ["k", "m</w>"],
    ["rés", "istance</w>"],
    ["particuli", "ers</w>"],
    ["sal", "ari"],
    ["d'", "av"],
    ["ag", "ents</w>"],
    ["me-", "uni</w>"],
    ["ex", "tra"],
    ["ar", "y</w>"],
    ["bour", "ge"],
    ["ci", "a</w>"],
    ["go", "ût</w>"],
    ["royau", "me-uni</w>"],
    ["è", "vre</w>"],
    ["économ", "ie</w>"],
    ["d'", "im"],
    ["w", "in"],
    ["hu", "man"],
    ["aux", "quels</w>"],
    ["allem", "ands</w>"],
    ["l'", "i"],
    ["ré", "alité</w>"],
    ["ati", "e</w>"],
    ["anto", "ine</w>"],
    ["automatis", "ées</w>"],
    ["f", "es</w>"],
    ["dé", "légu"],
    ["hôpit", "al</w>"],
    ["pos", "ées</w>"],
    ["d'", "europe</w>"],
    ["cou", "tu"],
    ["quin", "ze</w>"],
    ["n", "g"],
    ["jusqu’", "à</w>"],
    ["ro", "se</w>"],
    ["capa", "cité</w>"],
    ["jam", "es</w>"],
    ["secon", "d"],
    ["pr", "euves</w>"],
    ["be", "aux</w>"],
    ["cou", "leurs</w>"],
    ["s", "ag"],
    ["m", "ant</w>"],
    ["var", "ie</w>"],
    ["investi", "ss"],
    ["dem", "</w>"],
    ["indispens", "able</w>"],
    ["si", "ve</w>"],
    ["o", "c</w>"],
    ["ac", "cès</w>"],
    ["x", "a</w>"],
    ["influ", "ence</w>"],
    ["s", "pa"],
    ["vi", "er"],
    ["sau", "f</w>"],
    ["is", "ol"],
    ["it", "aires</w>"],
    ["mat", "chs</w>"],
    ["dem", "ain</w>"],
    ["temp", "le</w>"],
    ["préf", "ecture</w>"],
    ["év", "iter</w>"],
    ["m", "asse</w>"],
    ["av", "es</w>"],
    ["é", "dit"],
    ["pri", "me</w>"],
    ["i", "ens</w>"],
    ["con", "centr"],
    ["dis", "tribu"],
    ["v", "ul"],
    ["contr", "ô"],
    ["in", "ten"],
    ["h", "e</w>"],
    ["lég", "ale</w>"],
    ["l'", "action</w>"],
    ["ang", "le</w>"],
    ["mont", "agne</w>"],
    ["commiss", "aire</w>"],
    ["chaî", "ne</w>"],
    ["par", "all"],
    ["l'", "u"],
    ["ing", "ton</w>"],
    ["sain", "te</w>"],
    ["marqu", "is</w>"],
    ["al", "bert</w>"],
    ["papi", "er</w>"],
    ["arriv", "ée</w>"],
    ["mis", "es</w>"],
    ["liv", "rer</w>"],
    ["grav", "e</w>"],
    ["ograph", "ique</w>"],
    ["è", "tement</w>"],
    ["am", "a</w>"],
    ["tr", "ouver"],
    ["d", "r</w>"],
    ["br", "onze</w>"],
    ["no", "t</w>"],
    ["y", "s</w>"],
    ["s", "col"],
    ["sam", "e"],
    ["sur", "veill"],
    ["exter", "ne</w>"],
    ["di", "a</w>"],
    ["r", "ab"],
    ["l'", "honneur</w>"],
    ["ç", "ait</w>"],
    ["so", "vi"],
    ["fu", "sion</w>"],
    ["ti", "ll"],
    ["r", "eti"],
    ["immédi", "atement</w>"],
    ["dr", "a</w>"],
    ["prob", "ablement</w>"],
    ["mi", "cro"],
    ["con", "cep"],
    ["tis", "me</w>"],
    ["mau", "v"],
    ["x", "xe</w>"],
    ["opér", "a</w>"],
    ["voul", "ait</w>"],
    ["é", "prouv"],
    ["b", "is</w>"],
    ["an", "ie</w>"],
    ["ad", "resse</w>"],
    ["ex", "ac"],
    ["per", "te</w>"],
    ["arriv", "é</w>"],
    ["ré", "par"],
    ["ai", "ment</w>"],
    ["tou", "ris"],
    ["modi", "fi"],
    ["équi", "p"],
    ["h", "tt"],
    ["strat", "ég"],
    ["crip", "tions</w>"],
    ["ju", "st"],
    ["cr", "ise</w>"],
    ["montr", "er</w>"],
    ["jou", "er</w>"],
    ["plac", "é</w>"],
    ["associ", "é</w>"],
    ["op", "position</w>"],
    ["po", "ète</w>"],
    ["su", "jets</w>"],
    ["au", "t</w>"],
    ["n", "oire</w>"],
    ["suc", "cessi"],
    ["ign", "or"],
    ["ét", "ais</w>"],
    ["toulou", "se</w>"],
    ["am", "bi"],
    ["é", "car"],
    ["ag", "o</w>"],
    ["ty", "pes</w>"],
    ["seu", "ls</w>"],
    ["ré", "su"],
    ["for", "êt</w>"],
    ["circonst", "ances</w>"],
    ["m", "onn"],
    ["l'", "europe</w>"],
    ["pl", "ant"],
    ["ain", "ement</w>"],
    ["mes", "sieurs</w>"],
    ["sub", "st"],
    ["probl", "ème</w>"],
    ["et", "h</w>"],
    ["syst", "èmes</w>"],
    ["p", "p</w>"],
    ["c", "el</w>"],
    ["sal", "on</w>"],
    ["rè", "gne</w>"],
    ["fu", "r"],
    ["d", "un"],
    ["n", "t"],
    ["sign", "al"],
    ["ap", "pr"],
    ["sy", "l"],
    ["requ", "ête</w>"],
    ["ffi", "ce</w>"],
    ["c", "tu"],
    ["ann", "ul"],
    ["is", "ab"],
    ["présent", "é</w>"],
    ["voi", "es</w>"],
    ["qu", "a</w>"],
    ["c", "eux-"],
    ["mag", "as"],
    ["lev", "er</w>"],
    ["eu", "il</w>"],
    ["e", "ils</w>"],
    ["pein", "ture</w>"],
    ["a", "chev"],
    ["pro", "vis"],
    ["g", "il"],
    ["accessi", "bles</w>"],
    ["cep", "ti"],
    ["pe", "au</w>"],
    ["reg", "istr"],
    ["su", "re</w>"],
    ["procé", "der</w>"],
    ["w", "at"],
    ["re", "joint</w>"],
    ["constitu", "e</w>"],
    ["eu", "e</w>"],
    ["j", "i</w>"],
    ["ro", "y</w>"],
    ["l", "as"],
    ["w", "ar"],
    ["b", "i</w>"],
    ["déci", "de</w>"],
    ["lors", "qu'il</w>"],
    ["mouv", "ements</w>"],
    ["on", "g</w>"],
    ["ter", "ri"],
    ["mu", "r</w>"],
    ["l", "ecture</w>"],
    ["respon", "sable</w>"],
    ["atu", "res</w>"],
    ["di", "x-"],
    ["è", "n"],
    ["l'", "aide</w>"],
    ["cri", "me</w>"],
    ["cu", "is"],
    ["ches", "tre</w>"],
    ["d'", "an"],
    ["d'", "où</w>"],
    ["conti", "ent</w>"],
    ["fi", "g</w>"],
    ["commun", "aut"],
    ["rel", "ation</w>"],
    ["app", "ell"],
    ["en", "a</w>"],
    ["z", "e"],
    ["la", "-"],
    ["mi", "gr"],
    ["ex", "pé"],
    ["pa", "re</w>"],
    ["r", "ass"],
    ["ci", "dé</w>"],
    ["di", "men"],
    ["étab", "li</w>"],
    ["ar", "gent</w>"],
    ["nouv", "el</w>"],
    ["représent", "ation</w>"],
    ["ri", "che</w>"],
    ["d’", "hui</w>"],
    ["f", "é</w>"],
    ["plac", "es</w>"],
    ["ter", "miner</w>"],
    ["entre", "tien</w>"],
    ["rap", "ide</w>"],
    ["si", "t</w>"],
    ["j", "oie</w>"],
    ["esp", "oir</w>"],
    ["épis", "odes</w>"],
    ["fr", "ag"],
    ["domi", "cile</w>"],
    ["cr", "its</w>"],
    ["pro", "fit</w>"],
    ["sou", "s"],
    ["aci", "de</w>"],
    ["d", "ge</w>"],
    ["g", "enti"],
    ["ti", "on"],
    ["pouv", "ant</w>"],
    ["o", "eu"],
    ["termin", "e</w>"],
    ["t", "tes</w>"],
    ["r", "as"],
    ["b", "el</w>"],
    ["onn", "ée</w>"],
    ["quelque", "fois</w>"],
    ["sec", "ret</w>"],
    ["compos", "ée</w>"],
    ["gi", "r"],
    ["h", "éri"],
    ["journ", "aux</w>"],
    ["napo", "léon</w>"],
    ["s", "pi"],
    ["per", "man"],
    ["lieu", "tenant</w>"],
    ["ver", "t</w>"],
    ["priv", "il"],
    ["voy", "ez</w>"],
    ["fou", "le</w>"],
    ["cré", "er</w>"],
    ["eu", "s</w>"],
    ["fond", "ation</w>"],
    ["espagn", "ol</w>"],
    ["al", "ter"],
    ["minis", "tres</w>"],
    ["progr", "ès</w>"],
    ["ori", "es</w>"],
    ["d'", "en"],
    ["appar", "aît</w>"],
    ["ou", "t</w>"],
    ["rév", "él"],
    ["av", "er"],
    ["cour", "onne</w>"],
    ["chr", "ist"],
    ["in", "qui"],
    ["senti", "ment</w>"],
    ["ori", "ent</w>"],
    ["sign", "es</w>"],
    ["j", "i"],
    ["w", "w"],
    ["afri", "c"],
    ["ce", "aux</w>"],
    ["jo", "indre</w>"],
    ["ju", "les</w>"],
    ["peu", "ples</w>"],
    ["diffi", "c"],
    ["ac", "trice</w>"],
    ["th", "ér"],
    ["ti", "z"],
    ["proces", "sus</w>"],
    ["is", "ées</w>"],
    ["nouv", "elle-"],
    ["d", "ites</w>"],
    ["en", "de</w>"],
    ["ef", "forts</w>"],
    ["n", "is</w>"],
    ["loc", "alité</w>"],
    ["ru", "g"],
    ["lib", "res</w>"],
    ["re", "ts</w>"],
    ["enti", "ère</w>"],
    ["t", "em"],
    ["dél", "ai</w>"],
    ["étrang", "ères</w>"],
    ["o", "ffr"],
    ["min", "e</w>"],
    ["re", "trouver</w>"],
    ["di", "gn"],
    ["coll", "ège</w>"],
    ["dis", "ait</w>"],
    ["avi", "ons</w>"],
    ["ad", "mir"],
    ["l'", "album</w>"],
    ["re", "ti"],
    ["l'", "ag"],
    ["m", "ang"],
    ["henr", "y</w>"],
    ["r", "ang"],
    ["respec", "t</w>"],
    ["lu", "x"],
    ["mé", "tro"],
    ["tri", "om"],
    ["considé", "ré</w>"],
    ["chi", "en</w>"],
    ["bass", "in</w>"],
    ["radi", "o</w>"],
    ["es", "pace</w>"],
    ["mar", "chan"],
    ["è", "che</w>"],
    ["agri", "cole</w>"],
    ["o", "i</w>"],
    ["facul", "té</w>"],
    ["o", "do"],
    ["ér", "ité</w>"],
    ["connu", "s</w>"],
    ["conse", "ils</w>"],
    ["por", "tes</w>"],
    ["po", "é"],
    ["en", "registr"],
    ["i", "o</w>"],
    ["meu", "bles</w>"],
    ["ten", "sion</w>"],
    ["cardin", "al</w>"],
    ["s", "œur</w>"],
    ["ennem", "is</w>"],
    ["manu", "el</w>"],
    ["ch", "asse</w>"],
    ["sil", "ence</w>"],
    ["concer", "t</w>"],
    ["col", "o"],
    ["décl", "are</w>"],
    ["bal", "leur</w>"],
    ["discu", "ssion</w>"],
    ["origin", "ale</w>"],
    ["dam", "es</w>"],
    ["éri", "eures</w>"],
    ["ran", "g</w>"],
    ["ro", "ger</w>"],
    ["li", "es</w>"],
    ["fa", "cile</w>"],
    ["c", "aisse</w>"],
    ["pay", "er</w>"],
    ["nécess", "ité</w>"],
    ["ari", "at</w>"],
    ["tr", "ente</w>"],
    ["s", "ées</w>"],
    ["ex", "u"],
    ["ver", "se</w>"],
    ["cé", "dé</w>"],
    ["cec", "i</w>"],
    ["l", "l</w>"],
    ["-", "je</w>"],
    ["inter", "prét"],
    ["chau", "ff"],
    ["quoi", "que</w>"],
    ["s", "c</w>"],
    ["répon", "dre</w>"],
    ["c", "m</w>"],
    ["com", "prendre</w>"],
    ["s'", "en"],
    ["c", "le"],
    ["l'", "heure</w>"],
    ["donn", "a</w>"],
    ["meur", "t</w>"],
    ["nation", "aux</w>"],
    ["d", "ois</w>"],
    ["déclar", "é</w>"],
    ["appro", "che</w>"],
    ["b", "ell"],
    ["ra", "con"],
    ["che", "fs</w>"],
    ["fau", "te</w>"],
    ["cultur", "el</w>"],
    ["japon", "ais</w>"],
    ["objec", "tif</w>"],
    ["autor", "ités</w>"],
    ["endr", "oit</w>"],
    ["no", "ble</w>"],
    ["pro", "cès</w>"],
    ["r", "ai"],
    ["my", "st"],
    ["conse", "ill"],
    ["r", "ec"],
    ["bi", "t</w>"],
    ["confor", "mément</w>"],
    ["aujour", "d’hui</w>"],
    ["inform", "er</w>"],
    ["k", "ing</w>"],
    ["d", "t</w>"],
    ["exer", "cice</w>"],
    ["dr", "ap"],
    ["pos", "ent</w>"],
    ["v", "ap"],
    ["at", "oires</w>"],
    ["philosoph", "ie</w>"],
    ["té", "moins</w>"],
    ["op", "tique</w>"],
    ["ra", "ch"],
    ["v", "ins</w>"],
    ["condam", "nation</w>"],
    ["cou", "rir</w>"],
    ["same", "di</w>"],
    ["v", "ois</w>"],
    ["h", "ec"],
    ["end", "ait</w>"],
    ["respec", "ter</w>"],
    ["qu’", "un</w>"],
    ["port", "eur</w>"],
    ["l'", "association</w>"],
    ["t", "op"],
    ["ru", "es</w>"],
    ["t", "r</w>"],
    ["ro", "ch"],
    ["b", "onnes</w>"],
    ["se", "rver</w>"],
    ["difficul", "tés</w>"],
    ["in", "fr"],
    ["mi", "cha"],
    ["quit", "ter</w>"],
    ["navi", "res</w>"],
    ["c", "ouv"],
    ["alex", "andre</w>"],
    ["s", "pe"],
    ["p", "es"],
    ["ple", "ine</w>"],
    ["patri", "o"],
    ["é", "cidé</w>"],
    ["c", "ède</w>"],
    ["qu", "er"],
    ["sac", "ri"],
    ["l", "ille</w>"],
    ["qu", "ées</w>"],
    ["un", "d</w>"],
    ["s", "in</w>"],
    ["ch", "it"],
    ["d", "écidé</w>"],
    ["nomin", "ation</w>"],
    ["j", "on</w>"],
    ["pl", "antes</w>"],
    ["s", "w"],
    ["dr", "ait</w>"],
    ["par", "u</w>"],
    ["foot", "balleur</w>"],
    ["agri", "coles</w>"],
    ["l'", "idée</w>"],
    ["is", "tre</w>"],
    ["quanti", "tés</w>"],
    ["x", "v</w>"],
    ["actu", "el</w>"],
    ["limi", "te</w>"],
    ["ren", "é</w>"],
    ["s", "lo"],
    ["r", "atta"],
    ["br", "ou"],
    ["gl", "ace</w>"],
    ["it", "h"],
    ["n", "y</w>"],
    ["l’", "article</w>"],
    ["par", "cours</w>"],
    ["appli", "c"],
    ["dis", "poser</w>"],
    ["li", "on</w>"],
    ["bul", "le"],
    ["l’", "état</w>"],
    ["écu", "tion</w>"],
    ["présent", "er</w>"],
    ["alis", "é</w>"],
    ["al", "ise</w>"],
    ["wit", "h</w>"],
    ["'", "'</w>"],
    ["é", "pi"],
    ["ro", "b"],
    ["dé", "faut</w>"],
    ["déc", "isi"],
    ["min", "es</w>"],
    ["pén", "étr"],
    ["classi", "que</w>"],
    ["logi", "ci"],
    ["vic", "tor</w>"],
    ["cél", "este</w>"],
    ["vi", "ve</w>"],
    ["m", "in</w>"],
    ["fu", "tu"],
    ["bl", "eu</w>"],
    ["vég", "ét"],
    ["a", "k</w>"],
    ["nu", "l</w>"],
    ["ein", "te</w>"],
    ["é", "al</w>"],
    ["f", "allait</w>"],
    ["ci", "me"],
    ["dé", "ta"],
    ["ap", "prouv"],
    ["m", "assi"],
    ["modi", "fication</w>"],
    ["com", "bien</w>"],
    ["loc", "ale</w>"],
    ["occu", "pe</w>"],
    ["quo", "ti"],
    ["nom", "mée</w>"],
    ["d'", "art</w>"],
    ["r", "ois</w>"],
    ["l'ex", "pression</w>"],
    ["t", "empor"],
    ["isi", "tion</w>"],
    ["w", "ay</w>"],
    ["méri", "te</w>"],
    ["to", "s</w>"],
    ["marchan", "dis"],
    ["st", "-"],
    ["w", "a</w>"],
    ["n'", "ai</w>"],
    ["re", "venu</w>"],
    ["chac", "une</w>"],
    ["l'", "ouvrage</w>"],
    ["jo", "in"],
    ["atte", "indre</w>"],
    ["citoy", "ens</w>"],
    ["h", "an</w>"],
    ["b", "lu"],
    ["gl", "oire</w>"],
    ["cer", "tifi"],
    ["n", "at"],
    ["t", "esse</w>"],
    ["a", "pr"],
    ["ch", "i</w>"],
    ["tre", "fois</w>"],
    ["trans", "ports</w>"],
    ["j", "o</w>"],
    ["photo", "graphie</w>"],
    ["bour", "se</w>"],
    ["is", "ra"],
    ["possi", "bilité</w>"],
    ["no", "i</w>"],
    ["spectac", "le</w>"],
    ["conç", "u</w>"],
    ["personn", "elles</w>"],
    ["s", "ho"],
    ["inter", "pr"],
    ["k", "y"],
    ["jou", "eurs</w>"],
    ["a", "thém"],
    ["mari", "e-"],
    ["s", "élection</w>"],
    ["envoy", "é</w>"],
    ["mo", "indre</w>"],
    ["se", "aux</w>"],
    ["arti", "ll"],
    ["cin", "qui"],
    ["écri", "re</w>"],
    ["er", "i"],
    ["montr", "é</w>"],
    ["libér", "ation</w>"],
    ["vo", "ï"],
    ["beso", "ins</w>"],
    ["é", "vo"],
    ["â", "mes</w>"],
    ["h", "i</w>"],
    ["lati", "n</w>"],
    ["h", "él"],
    ["d", "anger</w>"],
    ["qu'", "au</w>"],
    ["contr", "e"],
    ["pour", "suivre</w>"],
    ["den", "is</w>"],
    ["dé", "crit</w>"],
    ["sén", "at</w>"],
    ["ré", "solution</w>"],
    ["p", "il"],
    ["mar", "c</w>"],
    ["l'in", "du"],
    ["b", "o</w>"],
    ["mati", "ères</w>"],
    ["ma", "y"],
    ["b", "en</w>"],
    ["compl", "ètement</w>"],
    ["capa", "ble</w>"],
    ["m", "athém"],
    ["mi", "r</w>"],
    ["class", "es</w>"],
    ["prin", "cesse</w>"],
    ["pré", "cip"],
    ["f", "-"],
    ["judici", "aire</w>"],
    ["v", "ain</w>"],
    ["rec", "ens"],
    ["att", "endre</w>"],
    ["c", "re</w>"],
    ["froi", "d</w>"],
    ["élec", "tor"],
    ["r", "ace</w>"],
    ["v", "éri"],
    ["l", "oi"],
    ["col", "</w>"],
    ["e", "ine</w>"],
    ["publi", "e</w>"],
    ["gu", "it"],
    ["ti", "enne</w>"],
    ["v", "euve</w>"],
    ["re", "vient</w>"],
    ["viol", "ation</w>"],
    ["an", "n</w>"],
    ["en", "i"],
    ["s", "me</w>"],
    ["t", "en</w>"],
    ["éri", "eurs</w>"],
    ["l", "as</w>"],
    ["c", "an</w>"],
    ["chiff", "re</w>"],
    ["l'", "institut</w>"],
    ["ég", "al</w>"],
    ["loc", "al</w>"],
    ["ann", "es</w>"],
    ["n", "ar"],
    ["dem", "eure</w>"],
    ["sus", "pen"],
    ["ent", "our"],
    ["supprim", "er</w>"],
    ["port", "ait</w>"],
    ["quit", "te</w>"],
    ["fu", "s"],
    ["hé", "sit"],
    ["tex", "tes</w>"],
    ["mo", "bil"],
    ["commen", "cé</w>"],
    ["cat", "alo"],
    ["oblig", "ations</w>"],
    ["scén", "ario</w>"],
    ["atten", "du</w>"],
    ["anci", "ennes</w>"],
    ["vie", "ille</w>"],
    ["ock", "ey</w>"],
    ["inst", "ant</w>"],
    ["chris", "t</w>"],
    ["on", "s-"],
    ["arri", "ver</w>"],
    ["tri", "que</w>"],
    ["m", "ement</w>"],
    ["t", "onn"],
    ["de", "z</w>"],
    ["dang", "er"],
    ["dét", "ails</w>"],
    ["demand", "é</w>"],
    ["compl", "et</w>"],
    ["en", "vers</w>"],
    ["i", "ra</w>"],
    ["ri", "t</w>"],
    ["régl", "ement"],
    ["mo", "teur</w>"],
    ["bu", "ts</w>"],
    ["n", "d</w>"],
    ["inf", "anterie</w>"],
    ["t", "an</w>"],
    ["con", "ception</w>"],
    ["bou", "che</w>"],
    ["g", "or"],
    ["maladi", "es</w>"],
    ["instru", "ments</w>"],
    ["arm", "ées</w>"],
    ["logici", "els</w>"],
    ["tionn", "aires</w>"],
    ["cham", "ps</w>"],
    ["l", "ai"],
    ["j’", "ai</w>"],
    ["l'", "an"],
    ["consci", "ence</w>"],
    ["tom", "e</w>"],
    ["soci", "ales</w>"],
    ["prot", "est"],
    ["anc", "ement</w>"],
    ["probl", "èmes</w>"],
    ["hu", "ile</w>"],
    ["î", "tre</w>"],
    ["i", "p"],
    ["ssi", "er</w>"],
    ["ol", "s</w>"],
    ["m", "en</w>"],
    ["er", "ic"],
    ["is", "sions</w>"],
    ["ac", "tifs</w>"],
    ["ist", "er</w>"],
    ["cin", "qu"],
    ["laiss", "é</w>"],
    ["col", "or"],
    ["proch", "ain</w>"],
    ["x", "i</w>"],
    ["sou", "tien</w>"],
    ["mani", "fes"],
    ["cer", "cle</w>"],
    ["gu", "ère</w>"],
    ["meill", "eurs</w>"],
    ["t", "aient</w>"],
    ["professionn", "el</w>"],
    ["c", "és</w>"],
    ["cont", "exte</w>"],
    ["étudi", "ant</w>"],
    ["per", "f"],
    ["it", "er"],
    ["cit", "er</w>"],
    ["ma", "ch"],
    ["aut", "o"],
    ["renseign", "ements</w>"],
    ["e", "k</w>"],
    ["ay", "e</w>"],
    ["aur", "ont</w>"],
    ["ac", "tif</w>"],
    ["prom", "o"],
    ["ru", "t</w>"],
    ["con", "c"],
    ["un", "g</w>"],
    ["e", "p</w>"],
    ["c", "at</w>"],
    ["ori", "z"],
    ["d", "am</w>"],
    ["str", "as"],
    ["pu", "r"],
    ["ren", "on"],
    ["sin", "gu"],
    ["artill", "erie</w>"],
    ["l'", "enfant</w>"],
    ["sem", "aines</w>"],
    ["vi", "i</w>"],
    ["viv", "ant</w>"],
    ["li", "a</w>"],
    ["for", "êts</w>"],
    ["l’", "ab"],
    ["con", "curr"],
    ["ag", "é</w>"],
    ["march", "ands</w>"],
    ["dou", "x</w>"],
    ["d'", "été</w>"],
    ["tour", "ne</w>"],
    ["lau", "rent</w>"],
    ["l'", "organisation</w>"],
    ["fi", "che</w>"],
    ["err", "eur</w>"],
    ["p", "ée</w>"],
    ["re", "command"],
    ["e", "i</w>"],
    ["ci", "pl"],
    ["produ", "c"],
    ["dis", "posi"],
    ["rel", "ative</w>"],
    ["tot", "ale</w>"],
    ["g", "le</w>"],
    ["dem", "n"],
    ["pa", "ci"],
    ["fré", "déri"],
    ["w", "w</w>"],
    ["con", "ver"],
    ["autor", "isée</w>"],
    ["h", "am</w>"],
    ["re", "prise</w>"],
    ["ré", "tab"],
    ["t", "es"],
    ["j'", "avais</w>"],
    ["vie", "ill"],
    ["cu", "re</w>"],
    ["e", "k"],
    ["qu", "ie</w>"],
    ["l'ab", "bé</w>"],
    ["import", "ants</w>"],
    ["er", "ai</w>"],
    ["th", "er</w>"],
    ["de", "gré</w>"],
    ["vi", "gn"],
    ["ré", "volu"],
    ["d’", "ab"],
    ["récomp", "en"],
    ["ag", "o"],
    ["jean", "ne</w>"],
    ["t", "v</w>"],
    ["heur", "eusement</w>"],
    ["b", "ab"],
    ["autom", "o"],
    ["musi", "cal</w>"],
    ["comm", "is</w>"],
    ["s'", "ag"],
    ["ing", "s</w>"],
    ["g", "rég"],
    ["consom", "mation</w>"],
    ["rom", "ain</w>"],
    ["c", "ités</w>"],
    ["por", "trait</w>"],
    ["d", "ens"],
    ["mi", "x"],
    ["avoc", "at</w>"],
    ["g", "en</w>"],
    ["vi", "ens</w>"],
    ["cinqui", "ème</w>"],
    ["dé", "cri"],
    ["am", "or"],
    ["ne", "i"],
    ["suppl", "ém"],
    ["tour", "noi</w>"],
    ["lo", "y"],
    ["pro", "cur"],
    ["fre", "d</w>"],
    ["atu", "r"],
    ["cul", "tiv"],
    ["en", "ci"],
    ["arch", "ives</w>"],
    ["ol", "i</w>"],
    ["s", "ant"],
    ["ex", "per"],
    ["loc", "aux</w>"],
    ["commerci", "ales</w>"],
    ["de", "au</w>"],
    ["vr", "aiment</w>"],
    ["som", "met</w>"],
    ["ex", "ion</w>"],
    ["dis", "cipl"],
    ["d", "re"],
    ["ch", "auss"],
    ["ch", "et</w>"],
    ["pou", "voi"],
    ["d'", "es"],
    ["digi", "tiz"],
    ["man", "us"],
    ["s", "at"],
    ["g", "ées</w>"],
    ["f", "il</w>"],
    ["n'", "oubli"],
    ["p", "in</w>"],
    ["conn", "aît</w>"],
    ["re", "ven"],
    ["al", "s</w>"],
    ["er", "-"],
    ["pay", "s-"],
    ["it", "-"],
    ["ra", "re</w>"],
    ["pa", "st"],
    ["s", "h</w>"],
    ["bass", "ad"],
    ["t", "eux</w>"],
    ["voï", "vo"],
    ["ga", "z"],
    ["ois", "elle</w>"],
    ["formu", "le</w>"],
    ["esti", "me</w>"],
    ["sc", "ru"],
    ["permet", "tent</w>"],
    ["fron", "tière</w>"],
    ["ag", "nes</w>"],
    ["pres", "s</w>"],
    ["l'", "appar"],
    ["f", "ati"],
    ["voy", "ant</w>"],
    ["ri", "d</w>"],
    ["micha", "el</w>"],
    ["docu", "ment</w>"],
    ["te", "aux</w>"],
    ["dipl", "om"],
    ["d", "in</w>"],
    ["b", "is"],
    ["ss", "i</w>"],
    ["ré", "fu"],
    ["coll", "è"],
    ["s", "z"],
    ["ent", "ement</w>"],
    ["pens", "er</w>"],
    ["ré", "un"],
    ["l", "om"],
    ["itali", "enne</w>"],
    ["éri", "r</w>"],
    ["g", "-"],
    ["sus", "cepti"],
    ["rug", "by</w>"],
    ["emp", "s</w>"],
    ["m", "ans</w>"],
    ["chu", "te</w>"],
    ["dépend", "ance</w>"],
    ["b", "at</w>"],
    ["l", "ap"],
    ["dem", "eur"],
    ["é", "br"],
    ["p", "is"],
    ["cir", "cu"],
    ["pro", "xim"],
    ["ph", "one</w>"],
    ["nu", "méri"],
    ["cime", "tière</w>"],
    ["pr", "int"],
    ["senti", "men"],
    ["spéci", "al</w>"],
    ["cam", "ar"],
    ["re", "jet"],
    ["cour", "age</w>"],
    ["cl", "ô"],
    ["fin", "i</w>"],
    ["dou", "leur</w>"],
    ["lég", "iti"],
    ["aut", "on"],
    ["im", "porte</w>"],
    ["b", "an</w>"],
    ["di", "que</w>"],
    ["n", "antes</w>"],
    ["pré", "venir</w>"],
    ["o", "se</w>"],
    ["pl", "</w>"],
    ["an", "es</w>"],
    ["procé", "dé</w>"],
    ["chin", "ois</w>"],
    ["heur", "euse</w>"],
    ["l'inter", "médiaire</w>"],
    ["artis", "tique</w>"],
    ["correspon", "dant</w>"],
    ["digitiz", "ed</w>"],
    ["ré", "forme</w>"],
    ["un", "es</w>"],
    ["po", "tenti"],
    ["recor", "ds</w>"],
    ["s", "élec"],
    ["dani", "el</w>"],
    ["og", "ie</w>"],
    ["gen", "er"],
    ["ceux-", "ci</w>"],
    ["di", "r</w>"],
    ["t", "ap"],
    ["cent", "er</w>"],
    ["for", "tement</w>"],
    ["lun", "di</w>"],
    ["donn", "ant</w>"],
    ["feu", "ille</w>"],
    ["h", "ockey</w>"],
    ["men", "ac"],
    ["an", "te-"],
    ["c", "n"],
    ["précé", "dent</w>"],
    ["bri", "ga"],
    ["améric", "ains</w>"],
    ["mand", "at</w>"],
    ["professionn", "elle</w>"],
    ["angl", "aise</w>"],
    ["d'", "utiliser</w>"],
    ["const", "anti"],
    ["mo", "dé"],
    ["a", "ch</w>"],
    ["trav", "aille</w>"],
    ["ouver", "tes</w>"],
    ["employ", "é</w>"],
    ["au", "tr"],
    ["considér", "able</w>"],
    ["ess", "ai</w>"],
    ["si", "mil"],
    ["parti", "s</w>"],
    ["au", "trefois</w>"],
    ["v", "endre</w>"],
    ["dé", "sir</w>"],
    ["t", "ables</w>"],
    ["donn", "ent</w>"],
    ["si", "mon</w>"],
    ["observ", "ation</w>"],
    ["ri", "ve</w>"],
    ["voul", "oir</w>"],
    ["all", "ons</w>"],
    ["z", "ar"],
    ["di", "ens</w>"],
    ["vi", "gueur</w>"],
    ["pr", "être</w>"],
    ["territ", "ori"],
    ["ad", "er</w>"],
    ["e-", "et-"],
    ["o", "v</w>"],
    ["am", "ique</w>"],
    ["l'at", "tribution</w>"],
    ["comb", "in"],
    ["statu", "t</w>"],
    ["appel", "ée</w>"],
    ["l", "abor"],
    ["hau", "te-"],
    ["comm", "ande</w>"],
    ["ex", "po"],
    ["super", "fici"],
    ["beau", "té</w>"],
    ["croy", "ez</w>"],
    ["dev", "rait</w>"],
    ["parois", "se</w>"],
    ["pu", "t</w>"],
    ["rich", "esse</w>"],
    ["f", "action</w>"],
    ["al", "d</w>"],
    ["expéri", "ence</w>"],
    ["publi", "cations</w>"],
    ["représent", "ants</w>"],
    ["mo", "tifs</w>"],
    ["ve", "r"],
    ["l’", "autre</w>"],
    ["lang", "age</w>"],
    ["propri", "étés</w>"],
    ["w", "ard</w>"],
    ["pr", "é</w>"],
    ["gr", "atu"],
    ["command", "ement</w>"],
    ["f", "ab"],
    ["ren", "for"],
    ["ti", "ennent</w>"],
    ["étr", "anger</w>"],
    ["réalis", "ateur</w>"],
    ["pi", "ano</w>"],
    ["règ", "le</w>"],
    ["clu", "bs</w>"],
    ["d’", "être</w>"],
    ["ç", "</w>"],
    ["l'", "étude</w>"],
    ["par", "fai"],
    ["mod", "èles</w>"],
    ["dev", "int</w>"],
    ["ti", "rer</w>"],
    ["in", "-"],
    ["mag", "ni"],
    ["h", "oriz"],
    ["ri", "ch</w>"],
    ["électri", "que</w>"],
    ["li", "ère</w>"],
    ["onn", "és</w>"],
    ["et", "h"],
    ["ai", "gu"],
    ["montr", "éal</w>"],
    ["con", "qu"],
    ["ef", "fr"],
    ["gu", "ér"],
    ["lor", "r"],
    ["l'indu", "strie</w>"],
    ["voïvo", "die</w>"],
    ["inf", "érieure</w>"],
    ["re", "au</w>"],
    ["ur", "ban"],
    ["mag", "istr"],
    ["dé", "liv"],
    ["olympi", "que</w>"],
    ["l’", "im"],
    ["maî", "tres</w>"],
    ["bo", "s"],
    ["m", "ess"],
    ["hér", "os</w>"],
    ["n’", "y</w>"],
    ["aspec", "t</w>"],
    ["hé", "dr"],
    ["li", "ques</w>"],
    ["w", "ww</w>"],
    ["con", "vain"],
    ["s'", "ét"],
    ["tu", "e</w>"],
    ["di", "oc"],
    ["st", "é"],
    ["d", "y"],
    ["dis", "ant</w>"],
    ["trans", "fer"],
    ["pai", "ement</w>"],
    ["littér", "aire</w>"],
    ["l'", "allemagne</w>"],
    ["ent", "é</w>"],
    ["empê", "cher</w>"],
    ["c", "ér"],
    ["fonctionn", "ement</w>"],
    ["n", "an"],
    ["sé", "jour</w>"],
    ["rou", "ss"],
    ["c", "te</w>"],
    ["mariti", "me</w>"],
    ["adop", "té</w>"],
    ["imag", "in"],
    ["ge", "a</w>"],
    ["fr", "om</w>"],
    ["su", "ites</w>"],
    ["pa", "ssion</w>"],
    ["stras", "bourg</w>"],
    ["financi", "ers</w>"],
    ["al", "i</w>"],
    ["si", "er</w>"],
    ["cu", "l</w>"],
    ["cat", "hédr"],
    ["parl", "ement"],
    ["l'", "avait</w>"],
    ["ti", "ne</w>"],
    ["ent", "ation</w>"],
    ["cl", "air</w>"],
    ["er", "cice</w>"],
    ["pr", "atiques</w>"],
    ["ang", "e"],
    ["économ", "iques</w>"],
    ["astéroï", "de</w>"],
    ["re", "pos</w>"],
    ["automo", "bile</w>"],
    ["tin", "s</w>"],
    ["siè", "cles</w>"],
    ["dis", "pose</w>"],
    ["ordin", "aires</w>"],
    ["lo", "cation</w>"],
    ["pu", "r</w>"],
    ["iv", "al"],
    ["vas", "te</w>"],
    ["b", "ai"],
    ["consi", "d"],
    ["agr", "aph"],
    ["figu", "r"],
    ["é", "d</w>"],
    ["n", "ap"],
    ["se", "e</w>"],
    ["compos", "iteur</w>"],
    ["h", "il"],
    ["parfai", "tement</w>"],
    ["bi", "o"],
    ["arrê", "ter</w>"],
    ["ff", "e</w>"],
    ["fin", "al</w>"],
    ["t", "ants</w>"],
    ["am", "én"],
    ["constru", "ire</w>"],
    ["multi", "pli"],
    ["enti", "n</w>"],
    ["é", "par"],
    ["p", "ill"],
    ["cru", "</w>"],
    ["u", "res</w>"],
    ["bulle", "tin</w>"],
    ["el", "o"],
    ["présent", "ation</w>"],
    ["anti", "ll"],
    ["no", "ti"],
    ["mar", "cel</w>"],
    ["t", "ant"],
    ["tr", "o</w>"],
    ["s", "és</w>"],
    ["s", "k</w>"],
    ["pouvoi", "rs</w>"],
    ["l", "ité</w>"],
    ["mu", "rs</w>"],
    ["pays-", "bas</w>"],
    ["v", "écu"],
    ["per", "dre</w>"],
    ["jeu", "di</w>"],
    ["proxim", "ité</w>"],
    ["augu", "ste</w>"],
    ["ob", "é"],
    ["au", "par"],
    ["journ", "aliste</w>"],
    ["é", "c"],
    ["alli", "ance</w>"],
    ["ph", "ère</w>"],
    ["ajou", "te</w>"],
    ["expli", "que</w>"],
    ["l", "ation</w>"],
    ["e", "sses</w>"],
    ["ouver", "ts</w>"],
    ["j'", "en</w>"],
    ["d", "d"],
    ["d’", "in"],
    ["gr", "èce</w>"],
    ["i", "ie</w>"],
    ["entraîn", "eur</w>"],
    ["statis", "tiques</w>"],
    ["ten", "ues</w>"],
    ["du", "-"],
    ["quali", "fi"],
    ["g", "end"],
    ["ent", "er"],
    ["personn", "alités</w>"],
    ["dé", "mique</w>"],
    ["austr", "alie</w>"],
    ["e", "ar"],
    ["el", "la</w>"],
    ["mém", "oires</w>"],
    ["réci", "t</w>"],
    ["contac", "t</w>"],
    ["g", "eur</w>"],
    ["st", "on</w>"],
    ["cal", "me</w>"],
    ["t-", "on</w>"],
    ["reconn", "u</w>"],
    ["graph", "e</w>"],
    ["b", "ét"],
    ["l", "és</w>"],
    ["colon", "i"],
    ["p", "ain</w>"],
    ["jou", "é</w>"],
    ["l", "en"],
    ["par", "agraph"],
    ["bat", "aill"],
    ["surveill", "ance</w>"],
    ["tu", "é</w>"],
    ["tri", "ces</w>"],
    ["l", "ord</w>"],
    ["correspon", "dance</w>"],
    ["is", "tique</w>"],
    ["élec", "tron"],
    ["adi", "s</w>"],
    ["o", "k"],
    ["ë", "</w>"],
    ["an", "y</w>"],
    ["ti", "ères</w>"],
    ["pau", "vres</w>"],
    ["j", "ér"],
    ["cr", "oit</w>"],
    ["vo", "itures</w>"],
    ["arri", "ère</w>"],
    ["z", "aine</w>"],
    ["facil", "ement</w>"],
    ["cul", "ation</w>"],
    ["aupar", "avant</w>"],
    ["fabri", "cation</w>"],
    ["prési", "dence</w>"],
    ["jui", "fs</w>"],
    ["st", "ac"],
    ["d", "î"],
    ["demand", "a</w>"],
    ["ec", "tu"],
    ["tran", "qu"],
    ["fi", "xe</w>"],
    ["mag", "az"],
    ["indivi", "dus</w>"],
    ["ch", "ent</w>"],
    ["ess", "ais</w>"],
    ["l", "ine</w>"],
    ["st", "er</w>"],
    ["vend", "re"],
    ["hu", "main</w>"],
    ["d", "ress"],
    ["c", "-"],
    ["c", "aire</w>"],
    ["t", "aires</w>"],
    ["ap", "pl"],
    ["im", "mobili"],
    ["o", "y</w>"],
    ["trouv", "a</w>"],
    ["b", "ec"],
    ["expéri", "ment"],
    ["il", "ement</w>"],
    ["ci", "de</w>"],
    ["pa", "tron"],
    ["ar", "bres</w>"],
    ["fru", "its</w>"],
    ["utilis", "ée</w>"],
    ["parl", "é</w>"],
    ["gre", "c</w>"],
    ["ordonn", "ance</w>"],
    ["an", "tique</w>"],
    ["g", "ê"],
    ["mu", "tu"],
    ["cou", "ru</w>"],
    ["c", "ées</w>"],
    ["sym", "bo"],
    ["présent", "es</w>"],
    ["mis", "sions</w>"],
    ["table", "aux</w>"],
    ["territ", "oires</w>"],
    ["e", "connaître</w>"],
    ["essenti", "ellement</w>"],
    ["r", "econnaître</w>"],
    ["arriv", "és</w>"],
    ["ex", "cell"],
    ["priv", "ée</w>"],
    ["extr", "ê"],
    ["an", "che</w>"],
    ["soi", "x"],
    ["li", "ées</w>"],
    ["tom", "</w>"],
    ["en", "quête</w>"],
    ["rom", "aine</w>"],
    ["j", "al"],
    ["s'", "écri"],
    ["cat", "her"],
    ["ex", "position</w>"],
    ["l'", "autorité</w>"],
    ["patr", "ie</w>"],
    ["no", "y"],
    ["al", "iné"],
    ["on", "ie</w>"],
    ["pl", "ans</w>"],
    ["l'", "as"],
    ["prom", "en"],
    ["sû", "r</w>"],
    ["ci", "pa"],
    ["olo", "gue</w>"],
    ["t", "z</w>"],
    ["bure", "aux</w>"],
    ["gr", "a"],
    ["œ", "il</w>"],
    ["ach", "at</w>"],
    ["ori", "a</w>"],
    ["fl", "euve</w>"],
    ["cri", "tiques</w>"],
    ["l'in", "st"],
    ["j", "an</w>"],
    ["lég", "ion</w>"],
    ["cél", "ébr"],
    ["pos", "tes</w>"],
    ["vic", "times</w>"],
    ["it", "eurs</w>"],
    ["os", "ité</w>"],
    ["ar", "iste</w>"],
    ["disponi", "ble</w>"],
    ["con", "tenant</w>"],
    ["l'", "ancienne</w>"],
    ["constru", "ite</w>"],
    ["mou", "rir</w>"],
    ["at", "aire</w>"],
    ["plo", "itation</w>"],
    ["riv", "ée</w>"],
    ["marchandis", "es</w>"],
    ["cul", "te</w>"],
    ["jau", "ne</w>"],
    ["spir", "itu"],
    ["gr", "ade</w>"],
    ["mont", "agnes</w>"],
    ["éten", "due</w>"],
    ["condam", "né</w>"],
    ["réalis", "er</w>"],
    ["administr", "ative</w>"],
    ["réguli", "èrement</w>"],
    ["cr", "ist"],
    ["chan", "sons</w>"],
    ["enf", "ance</w>"],
    ["st", "and"],
    ["a", "po"],
    ["res", "sort</w>"],
    ["tra", "dition</w>"],
    ["indi", "que</w>"],
    ["qu", "art</w>"],
    ["est-", "il</w>"],
    ["serv", "i</w>"],
    ["it", "ations</w>"],
    ["mét", "é"],
    ["si", "as"],
    ["n", "u</w>"],
    ["s’", "il</w>"],
    ["l'", "hôtel</w>"],
    ["cr", "it"],
    ["cali", "for"],
    ["ré", "di"],
    ["déf", "endre</w>"],
    ["de", "venue</w>"],
    ["port", "és</w>"],
    ["m", "p"],
    ["l'", "etat</w>"],
    ["voyag", "eurs</w>"],
    ["s", "tres</w>"],
    ["sing", "le</w>"],
    ["s", "auraient</w>"],
    ["sy", "no"],
    ["ad", "o</w>"],
    ["iti", "é</w>"],
    ["pro", "v"],
    ["évalu", "ation</w>"],
    ["i", "bi"],
    ["ab", "us</w>"],
    ["co", "stu"],
    ["g", "abri"],
    ["spéci", "ale</w>"],
    ["écri", "te</w>"],
    ["d", "ement</w>"],
    ["f", "aux</w>"],
    ["d'", "ad"],
    ["fa", "ç"],
    ["cau", "ses</w>"],
    ["m", "ées</w>"],
    ["colon", "ies</w>"],
    ["cons", "iste</w>"],
    ["effi", "cac"],
    ["pi", "t</w>"],
    ["d'", "e"],
    ["un", "ités</w>"],
    ["anim", "al</w>"],
    ["mad", "rid</w>"],
    ["indu", "strie</w>"],
    ["r", "embour"],
    ["un", "t</w>"],
    ["sain", "t"],
    ["réper", "tori"],
    ["is", "t</w>"],
    ["étudi", "ants</w>"],
    ["v", "ali"],
    ["psy", "ch"],
    ["ent", "ure</w>"],
    ["chi", "rur"],
    ["conséqu", "ences</w>"],
    ["circons", "cription</w>"],
    ["r", "eg"],
    ["terr", "ains</w>"],
    ["lis", "sement</w>"],
    ["autr", "ement</w>"],
    ["for", "ment</w>"],
    ["priv", "é</w>"],
    ["par", "ts</w>"],
    ["alis", "ée</w>"],
    ["ve", "aux</w>"],
    ["lim", "ites</w>"],
    ["dét", "aill"],
    ["encour", "age"],
    ["p", "et"],
    ["dét", "ail</w>"],
    ["phar", "ma"],
    ["vier", "ge</w>"],
    ["hom", "mage</w>"],
    ["on", "de</w>"],
    ["wor", "ld</w>"],
    ["cro", "issance</w>"],
    ["ru", "sses</w>"],
    ["zi", "ème</w>"],
    ["mi", "er</w>"],
    ["gér", "ant</w>"],
    ["flu", "ence</w>"],
    ["brés", "il</w>"],
    ["dé", "di"],
    ["dr", "ag"],
    ["adap", "tation</w>"],
    ["ég", "alité</w>"],
    ["is", "té</w>"],
    ["dem", "eu"],
    ["d'", "importantes</w>"],
    ["né", "er"],
    ["mal", "heureux</w>"],
    ["no", "tre-"],
    ["p", "t"],
    ["mauv", "aise</w>"],
    ["r", "ons</w>"],
    ["p", "ét"],
    ["oblig", "ation</w>"],
    ["absolu", "ment</w>"],
    ["évén", "ement</w>"],
    ["f", "l</w>"],
    ["inter", "ne</w>"],
    ["po", "t"],
    ["a", "o</w>"],
    ["re", "cours</w>"],
    ["us", "ine</w>"],
    ["tr", "ag"],
    ["pa", "ct</w>"],
    ["dram", "atique</w>"],
    ["vic", "time</w>"],
    ["graph", "iques</w>"],
    ["soci", "aliste</w>"],
    ["appu", "i</w>"],
    ["maj", "or"],
    ["vap", "eur</w>"],
    ["vers", "aire</w>"],
    ["qu’", "une</w>"],
    ["l'es", "pace</w>"],
    ["print", "emps</w>"],
    ["r", "hô"],
    ["pré", "vu</w>"],
    ["pl", "ais"],
    ["con", "soli"],
    ["exclu", "si"],
    ["l", "ag"],
    ["dou", "ard</w>"],
    ["ann", "exe</w>"],
    ["r", "ati"],
    ["ég", "ale</w>"],
    ["al", "la</w>"],
    ["l'", "entrée</w>"],
    ["lég", "alité</w>"],
    ["it", "ent</w>"],
    ["ro", "ck</w>"],
    ["résul", "te</w>"],
    ["main", "tenir</w>"],
    ["enregistr", "ement</w>"],
    ["sal", "u"],
    ["cathédr", "ale</w>"],
    ["lar", "gement</w>"],
    ["e", "z-"],
    ["men", "tion</w>"],
    ["nécess", "itant</w>"],
    ["d'", "affi"],
    ["d", "ing</w>"],
    ["mor", "te</w>"],
    ["aliné", "a</w>"],
    ["én", "or"],
    ["mex", "ique</w>"],
    ["ac", "tive</w>"],
    ["pag", "no"],
    ["pos", "session</w>"],
    ["in", "age</w>"],
    ["a", "que</w>"],
    ["mon", "as"],
    ["l", "ing</w>"],
    ["fi", "ction</w>"],
    ["assu", "re</w>"],
    ["ly", "cée</w>"],
    ["bas", "k"],
    ["qu’", "à</w>"],
    ["om", "bre</w>"],
    ["n'oubli", "ez</w>"],
    ["poin", "te</w>"],
    ["séri", "es</w>"],
    ["bl", "ac"],
    ["dom", "aines</w>"],
    ["pro", "to"],
    ["arch", "ie</w>"],
    ["ra", "dic"],
    ["è", "que</w>"],
    ["départ", "ements</w>"],
    ["dé", "vou"],
    ["re", "venir</w>"],
    ["d'", "y</w>"],
    ["r", "ai</w>"],
    ["ot", "te</w>"],
    ["i", "des</w>"],
    ["qu", "ai</w>"],
    ["dem", "i</w>"],
    ["inter", "net</w>"],
    ["w", "s</w>"],
    ["pren", "ait</w>"],
    ["arch", "é"],
    ["nouv", "e"],
    ["ques", "-"],
    ["l'", "œuvre</w>"],
    ["l'", "an</w>"],
    ["d", "il"],
    ["b", "ag"],
    ["sovi", "étique</w>"],
    ["d'ac", "céder</w>"],
    ["défin", "iti"],
    ["re", "dou"],
    ["n'", "hésit"],
    ["r", "ad"],
    ["lux", "embour"],
    ["sud-", "est</w>"],
    ["par", "am"],
    ["frédéri", "c</w>"],
    ["progr", "essi"],
    ["mari", "a</w>"],
    ["sembl", "ait</w>"],
    ["o", "o</w>"],
    ["c", "r</w>"],
    ["gen", "ève</w>"],
    ["écl", "ai"],
    ["g", "rés</w>"],
    ["bil", "an</w>"],
    ["qu", "ait</w>"],
    ["on", "t"],
    ["eux-", "mêmes</w>"],
    ["c", "d</w>"],
    ["a", "xe</w>"],
    ["s", "ar</w>"],
    ["circul", "ation</w>"],
    ["sud-", "ouest</w>"],
    ["sentimen", "ts</w>"],
    ["chev", "eux</w>"],
    ["ch", "en"],
    ["portug", "al</w>"],
    ["particuli", "ère</w>"],
    ["i", "f</w>"],
    ["w", "ol"],
    ["vendre", "di</w>"],
    ["j", "ette</w>"],
    ["hy", "dr"],
    ["accu", "eil</w>"],
    ["l'ex", "tr"],
    ["k", "an"],
    ["v", "o</w>"],
    ["gran", "de-"],
    ["ann", "a</w>"],
    ["tourn", "ée</w>"],
    ["débu", "ts</w>"],
    ["maj", "esté</w>"],
    ["sol", "li"],
    ["l'", "affaire</w>"],
    ["and", "re"],
    ["tr", "anger</w>"],
    ["ins", "cri"],
    ["ali", "ers</w>"],
    ["form", "at</w>"],
    ["chal", "eur</w>"],
    ["poé", "sie</w>"],
    ["n", "az"],
    ["dé", "tr"],
    ["l'é", "ch"],
    ["l’", "un</w>"],
    ["vi", "endra</w>"],
    ["nor", "man"],
    ["clô", "ture</w>"],
    ["p", "eter</w>"],
    ["rédu", "ction</w>"],
    ["rar", "es</w>"],
    ["l'", "angleterre</w>"],
    ["assur", "ance</w>"],
    ["f", "t"],
    ["acqu", "is</w>"],
    ["financi", "er</w>"],
    ["s", "n"],
    ["am", "our"],
    ["uni", "vers</w>"],
    ["exécu", "tion</w>"],
    ["y", "e</w>"],
    ["e", "s-"],
    ["intelli", "gence</w>"],
    ["ma", "chine</w>"],
    ["im", "ages</w>"],
    ["ca", "fé</w>"],
    ["cro", "is"],
    ["pilo", "te</w>"],
    ["iv", "re</w>"],
    ["él", "ément</w>"],
    ["muni", "cipa"],
    ["dem", "andes</w>"],
    ["er", "s"],
    ["cou", "p"],
    ["maxim", "um</w>"],
    ["fou", "r</w>"],
    ["pru", "dence</w>"],
    ["n", "ent</w>"],
    ["titu", "laire</w>"],
    ["cor", "rec"],
    ["r", "ô"],
    ["métho", "des</w>"],
    ["g", "an</w>"],
    ["ch", "ère</w>"],
    ["i", "dé"],
    ["on", "ym"],
    ["inter", "nau"],
    ["ell", "i</w>"],
    ["l'ex", "istence</w>"],
    ["sold", "at</w>"],
    ["l'en", "seign"],
    ["py", "ré"],
    ["r", "appelle</w>"],
    ["part", "age</w>"],
    ["pouv", "aient</w>"],
    ["am", "ent</w>"],
    ["ag", "ir</w>"],
    ["ar", "n"],
    ["ci", "vil"],
    ["on", "al</w>"],
    ["exam", "en</w>"],
    ["religi", "euse</w>"],
    ["histori", "en</w>"],
    ["ré", "vol"],
    ["contrain", "tes</w>"],
    ["vi", "de</w>"],
    ["provin", "ces</w>"],
    ["ho", "sp"],
    ["collabor", "ation</w>"],
    ["mondi", "al</w>"],
    ["fourni", "r</w>"],
    ["m", "r</w>"],
    ["ra", "y</w>"],
    ["bi", "r"],
    ["f", "êtes</w>"],
    ["méd", "iter"],
    ["p", "è"],
    ["subs", "titu"],
    ["ser", "iez</w>"],
    ["gag", "ner</w>"],
    ["défin", "i"],
    ["tradu", "it</w>"],
    ["soci", "aux</w>"],
    ["co", "r</w>"],
    ["nu", "clé"],
    ["su", "g"],
    ["lon", "gues</w>"],
    ["ri", "ers</w>"],
    ["a", "qu"],
    ["re", "venus</w>"],
    ["internau", "tes</w>"],
    ["ar", "ité</w>"],
    ["po", "lit"],
    ["ex", "empl"],
    ["h", "â"],
    ["end", "ent</w>"],
    ["préc", "is"],
    ["v", "es"],
    ["s", "onn"],
    ["diam", "ètre</w>"],
    ["restaur", "ation</w>"],
    ["ai", "der</w>"],
    ["institu", "tions</w>"],
    ["ins", "cription</w>"],
    ["v", "ant</w>"],
    ["studi", "o</w>"],
    ["be", "r"],
    ["soi", "rée</w>"],
    ["l'", "entreprise</w>"],
    ["financi", "ère</w>"],
    ["ri", "que</w>"],
    ["l'", "intérêt</w>"],
    ["d", "ette</w>"],
    ["emb", "ar"],
    ["form", "ée</w>"],
    ["envir", "onn"],
    ["r", "aient</w>"],
    ["ac", "cident</w>"],
    ["lo", "ge</w>"],
    ["d", "eur</w>"],
    ["su", "ède</w>"],
    ["nég", "li"],
    ["pé", "ti"],
    ["ni", "ce</w>"],
    ["re", "i"],
    ["méditer", "ran"],
    ["x", "iv</w>"],
    ["pres", "sions</w>"],
    ["al", "le</w>"],
    ["inter", "rom"],
    ["co", "s"],
    ["avi", "on</w>"],
    ["rou", "en</w>"],
    ["ar", "th"],
    ["h", "o</w>"],
    ["tomb", "er</w>"],
    ["march", "és</w>"],
    ["démo", "graphie</w>"],
    ["cit", "y</w>"],
    ["vill", "ages</w>"],
    ["vi", "ii</w>"],
    ["lis", "es</w>"],
    ["de", "d</w>"],
    ["propor", "tion</w>"],
    ["dé", "lég"],
    ["l’", "année</w>"],
    ["st", "ock"],
    ["vict", "oires</w>"],
    ["produ", "cteur</w>"],
    ["ch", "ées</w>"],
    ["mes", "u"],
    ["bran", "che</w>"],
    ["ir", "lande</w>"],
    ["rédu", "it</w>"],
    ["ach", "et"],
    ["autor", "isation</w>"],
    ["w", "e</w>"],
    ["remplac", "é</w>"],
    ["com", "port"],
    ["met", "tant</w>"],
    ["correspon", "d</w>"],
    ["supprim", "ez</w>"],
    ["it", "ement</w>"],
    ["men", "se</w>"],
    ["class", "é</w>"],
    ["cher", "che</w>"],
    ["cid", "ents</w>"],
    ["vau", "t</w>"],
    ["ajou", "ter</w>"],
    ["fi", "c</w>"],
    ["contac", "ter</w>"],
    ["ef", "fort</w>"],
    ["mar", "guer"],
    ["ou", "l</w>"],
    ["ô", "mes</w>"],
    ["i", "f"],
    ["is", "ez</w>"],
    ["dioc", "èse</w>"],
    ["constitu", "é</w>"],
    ["font", "aine</w>"],
    ["prin", "ces</w>"],
    ["cather", "ine</w>"],
    ["recu", "eil</w>"],
    ["ro", "s"],
    ["développ", "er</w>"],
    ["hu", "mi"],
    ["dé", "faite</w>"],
    ["ac", "u"],
    ["es", "que</w>"],
    ["contr", "e-"],
    ["gn", "y</w>"],
    ["rec", "ru"],
    ["--", "je</w>"],
    ["éri", "que</w>"],
    ["mar", "di</w>"],
    ["comp", "tait</w>"],
    ["fin", "it</w>"],
    ["not", "aire</w>"],
    ["pr", "êt</w>"],
    ["pi", "c"],
    ["visi", "ble</w>"],
    ["du", "quel</w>"],
    ["réalis", "ée</w>"],
    ["inter", "ro"],
    ["sou", "tenir</w>"],
    ["ar", "a</w>"],
    ["précé", "dente</w>"],
    ["ac", "cro"],
    ["mon", "o"],
    ["l", "ad"],
    ["che", "-"],
    ["ste", "in</w>"],
    ["or", "es</w>"],
    ["voy", "ait</w>"],
    ["cou", "pa"],
    ["ver", "re</w>"],
    ["gu", "y</w>"],
    ["com", "tesse</w>"],
    ["pier", "res</w>"],
    ["ét", "ér"],
    ["mar", "ne</w>"],
    ["entr", "et"],
    ["bi", "te</w>"],
    ["avant", "ages</w>"],
    ["cen", "die</w>"],
    ["re", "pouss"],
    ["l", "une</w>"],
    ["s", "and"],
    ["ar", "i</w>"],
    ["annu", "elle</w>"],
    ["mos", "cou</w>"],
    ["en", "d</w>"],
    ["e", "prend</w>"],
    ["hi", "p"],
    ["r", "eprend</w>"],
    ["dev", "aient</w>"],
    ["associ", "ations</w>"],
    ["xi", "ii</w>"],
    ["ét", "o"],
    ["cré", "e</w>"],
    ["ent", "er</w>"],
    ["le", "e</w>"],
    ["ver", "ti"],
    ["or", "th"],
    ["g", "all"],
    ["étap", "e</w>"],
    ["t", "est"],
    ["d'", "autant</w>"],
    ["tran", "si"],
    ["qu", "alités</w>"],
    ["ju", "g"],
    ["f", "an"],
    ["on", "cle</w>"],
    ["signifi", "c"],
    ["soi", "gn"],
    ["am", "eric"],
    ["gar", "çon</w>"],
    ["lar", "s</w>"],
    ["ch", "il"],
    ["ois", "eaux</w>"],
    ["m", "ages</w>"],
    ["cy", "cle</w>"],
    ["plac", "er</w>"],
    ["él", "abor"],
    ["cham", "bres</w>"],
    ["ci", "d</w>"],
    ["ju", "li"],
    ["sélec", "tionn"],
    ["t", "oile</w>"],
    ["anim", "ation</w>"],
    ["cav", "al"],
    ["tr", "am"],
    ["m", "em"],
    ["ti", "c</w>"],
    ["alex", "and"],
    ["ad", "ol"],
    ["er", "ons</w>"],
    ["al", "y"],
    ["a", "la</w>"],
    ["c", "ts</w>"],
    ["m", "as</w>"],
    ["tant", "ôt</w>"],
    ["an", "t-"],
    ["cert", "ainement</w>"],
    ["recor", "d</w>"],
    ["tin", "t</w>"],
    ["b", "in"],
    ["propriét", "aires</w>"],
    ["chi", "ens</w>"],
    ["con", "vo"],
    ["mon", "t-"],
    ["comp", "tez</w>"],
    ["per", "form"],
    ["è", "dent</w>"],
    ["occup", "é</w>"],
    ["nord-", "est</w>"],
    ["utilis", "és</w>"],
    ["s", "aurait</w>"],
    ["ir", "al</w>"],
    ["mo", "bile</w>"],
    ["di", "gne</w>"],
    ["vers", "ailles</w>"],
    ["cinqu", "ante</w>"],
    ["d", "ons</w>"],
    ["te", "d</w>"],
    ["ma", "jeu"],
    ["port", "a</w>"],
    ["génér", "ation</w>"],
    ["dess", "in</w>"],
    ["k", "in</w>"],
    ["paragraph", "e</w>"],
    ["envir", "ons</w>"],
    ["dan", "se</w>"],
    ["sou", "p"],
    ["rem", "pl"],
    ["ag", "ers</w>"],
    ["viol", "ence</w>"],
    ["défin", "ition</w>"],
    ["publi", "ée</w>"],
    ["beau", "x-"],
    ["fo", "ss"],
    ["f", "at"],
    ["f", "u</w>"],
    ["cal", "cul</w>"],
    ["con", "su"],
    ["d'", "espagne</w>"],
    ["fi", "eld</w>"],
    ["em", "pereur</w>"],
    ["envoy", "ez</w>"],
    ["n", "am"],
    ["l'ex", "ercice</w>"],
    ["wo", "od</w>"],
    ["des", "cen"],
    ["cul", "aire</w>"],
    ["renouv", "el"],
    ["fond", "ateur</w>"],
    ["appr", "enti"],
    ["or", "i</w>"],
    ["em", "ens</w>"],
    ["sim", "ples</w>"],
    ["bour", "go"],
    ["mas", "cul"],
    ["ter", "ait</w>"],
    ["épou", "x</w>"],
    ["cou", "n"],
    ["situ", "e</w>"],
    ["l'ab", "baye</w>"],
    ["mar", "ti"],
    ["magaz", "ine</w>"],
    ["s", "pati"],
    ["t", "au"],
    ["éch", "ange</w>"],
    ["candid", "at</w>"],
    ["développ", "é</w>"],
    ["l", "ance</w>"],
    ["conf", "lit</w>"],
    ["équ", "ival"],
    ["bless", "é</w>"],
    ["parten", "ariat</w>"],
    ["s'", "ils</w>"],
    ["ter", "s</w>"],
    ["prov", "ence</w>"],
    ["o", "te</w>"],
    ["po", "wi"],
    ["nord-", "ouest</w>"],
    ["mo", "tion</w>"],
    ["région", "al</w>"],
    ["re", "d</w>"],
    ["prépar", "ation</w>"],
    ["mai", "rie</w>"],
    ["ré", "solu"],
    ["z", "o</w>"],
    ["tré", "sor</w>"],
    ["dam", "ent"],
    ["ru", "is"],
    ["do", "ssier</w>"],
    ["man", "ie</w>"],
    ["ma", "tri"],
    ["end", "rait</w>"],
    ["sou", "f"],
    ["ch", "en</w>"],
    ["for", "tes</w>"],
    ["prés", "ents</w>"],
    ["v", "é</w>"],
    ["hou", "se</w>"],
    ["mar", "oc</w>"],
    ["-", "c</w>"],
    ["fi", "rent</w>"],
    ["au-", "delà</w>"],
    ["tr", "ent"],
    ["l'enseign", "ement</w>"],
    ["ta", "xe</w>"],
    ["l'ar", "rivée</w>"],
    ["on", "i</w>"],
    ["rom", "ains</w>"],
    ["fer", "n"],
    ["ren", "om"],
    ["le", "ft</w>"],
    ["da", "y</w>"],
    ["int", "ell"],
    ["ré", "col"],
    ["ap", "pe</w>"],
    ["k", "in"],
    ["dé", "terminer</w>"],
    ["se", "z</w>"],
    ["candid", "ats</w>"],
    ["diri", "ge"],
    ["obli", "gé</w>"],
    ["nour", "r"],
    ["s'", "im"],
    ["ar", "me</w>"],
    ["st", "an"],
    ["s", "aisons</w>"],
    ["popul", "ations</w>"],
    ["recens", "ement</w>"],
    ["exemp", "les</w>"],
    ["dé", "pendant</w>"],
    ["éli", "min"],
    ["chant", "eur</w>"],
    ["médec", "ins</w>"],
    ["d'", "infanterie</w>"],
    ["powi", "at</w>"],
    ["gar", "der</w>"],
    ["com", "porte</w>"],
    ["nom", "me</w>"],
    ["inf", "érieur</w>"],
    ["l'av", "enir</w>"],
    ["ci", "eux</w>"],
    ["t", "le</w>"],
    ["d'affi", "cher</w>"],
    ["ch", "on</w>"],
    ["anti", "qu"],
    ["s", "el</w>"],
    ["difficul", "té</w>"],
    ["ass", "istance</w>"],
    ["l'ar", "chit"],
    ["tr", "ône</w>"],
    ["in", "augu"],
    ["automatis", "ée</w>"],
    ["al", "pes</w>"],
    ["matéri", "aux</w>"],
    ["écr", "its</w>"],
    ["lec", "teurs</w>"],
    ["rem", "ise</w>"],
    ["occu", "per</w>"],
    ["organis", "é</w>"],
    ["év", "ê"],
    ["ém", "ité</w>"],
    ["e", "illes</w>"],
    ["cu", "ré</w>"],
    ["remar", "quer</w>"],
    ["b", "ér"],
    ["as", "t</w>"],
    ["di", "eux</w>"],
    ["représent", "ations</w>"],
    ["cour", "ses</w>"],
    ["b", "it"],
    ["pers", "pec"],
    ["é", "volution</w>"],
    ["rn", "er</w>"],
    ["gu", "e"],
    ["polo", "gie</w>"],
    ["mer", "cre"],
    ["or", "g</w>"],
    ["or", "ph"],
    ["cellu", "les</w>"],
    ["pro", "long"],
    ["ét", "er</w>"],
    ["génér", "ales</w>"],
    ["r", "-"],
    ["onym", "ie</w>"],
    ["grav", "es</w>"],
    ["canadi", "en</w>"],
    ["lorr", "aine</w>"],
    ["favor", "able</w>"],
    ["trai", "tés</w>"],
    ["ad", "mis</w>"],
    ["ab", "ond"],
    ["g", "an"],
    ["we", "b</w>"],
    ["s", "l"],
    ["j", "oign"],
    ["pr", "its</w>"],
    ["mar", "ins</w>"],
    ["con", "vient</w>"],
    ["p", "ie</w>"],
    ["n'hésit", "ez</w>"],
    ["pu", "re</w>"],
    ["aiss", "ent</w>"],
    ["ég", "lises</w>"],
    ["m", "our"],
    ["organis", "me</w>"],
    ["htt", "p</w>"],
    ["répertori", "er</w>"],
    ["promo", "tion</w>"],
    ["cou", "ple</w>"],
    ["offici", "elle</w>"],
    ["cel", "te</w>"],
    ["rem", "er"],
    ["lo", "cales</w>"],
    ["ab", "il"],
    ["l'", "importance</w>"],
    ["k", "y</w>"],
    ["dép", "ê"],
    ["ma", "x</w>"],
    ["j", "uni"],
    ["suffi", "t</w>"],
    ["présent", "ent</w>"],
    ["rec", "ettes</w>"],
    ["conclu", "sions</w>"],
    ["b", "aisse</w>"],
    ["rési", "dence</w>"],
    ["encourage", "ons</w>"],
    ["compl", "ém"],
    ["meu", "ble</w>"],
    ["naturel", "s</w>"],
    ["pouv", "ons</w>"],
    ["relati", "f</w>"],
    ["mad", "em"],
    ["t", "oit</w>"],
    ["communi", "cations</w>"],
    ["pl", "om"],
    ["u", "m"],
    ["l'", "effet</w>"],
    ["mal", "ades</w>"],
    ["tend", "ance</w>"],
    ["effectu", "ez</w>"],
    ["li", "és</w>"],
    ["it", "z</w>"],
    ["intitu", "lé</w>"],
    ["anc", "y</w>"],
    ["no", "blesse</w>"],
    ["n'", "envoyez</w>"],
    ["dédu", "isez</w>"],
    ["ba", "ch</w>"],
    ["e", "prendre</w>"],
    ["el", "-"],
    ["é", "ducation</w>"],
    ["expo", "seriez</w>"],
    ["ati", "</w>"],
    ["ori", "que</w>"],
    ["pro", "ches</w>"],
    ["dé", "non"],
    ["per", "d</w>"],
    ["figu", "res</w>"],
    ["simpli", "fiée</w>"],
    ["r", "eprendre</w>"],
    ["mar", "in</w>"],
    ["lég", "èrement</w>"],
    ["dispar", "u</w>"],
    ["prisonn", "iers</w>"],
    ["conse", "rver</w>"],
    ["per", "tes</w>"],
    ["fix", "é</w>"],
    ["beaux-", "arts</w>"],
    ["ouv", "rier</w>"],
    ["fu", "s</w>"],
    ["ob", "stac"],
    ["étab", "lie</w>"],
    ["explo", "itation</w>"],
    ["polon", "ais</w>"],
    ["instru", "ment</w>"],
    ["statu", "e</w>"],
    ["objec", "tifs</w>"],
    ["bibliothè", "ques</w>"],
    ["chois", "i</w>"],
    ["dr", "ame</w>"],
    ["ex", "ig"],
    ["protég", "é</w>"],
    ["guer", "res</w>"],
    ["l'ar", "gent</w>"],
    ["m", "ill"],
    ["e", "te</w>"],
    ["écl", "at"],
    ["ec", "tes</w>"],
    ["g", "â"],
    ["or", "n"],
    ["e", "joindre</w>"],
    ["com", "pose</w>"],
    ["r", "ejoindre</w>"],
    ["fon", "dament"],
    ["europé", "ens</w>"],
    ["ré", "seaux</w>"],
    ["pl", "on"],
    ["ign", "</w>"],
    ["blan", "cs</w>"],
    ["commen", "cement</w>"],
    ["futu", "r</w>"],
    ["hon", "g"],
    ["désign", "er</w>"],
    ["om", "ni"],
    ["si", "ble</w>"],
    ["li", "ers</w>"],
    ["austr", "ali"],
    ["é", "lus</w>"],
    ["th", "at</w>"],
    ["b", "rev"],
    ["v", "us</w>"],
    ["pourr", "ont</w>"],
    ["destin", "ée</w>"],
    ["j'", "étais</w>"],
    ["mati", "que</w>"],
    ["re", "pris</w>"],
    ["z", "él"],
    ["ver", "n"],
    ["on", "a</w>"],
    ["é", "mi"],
    ["tiss", "ement</w>"],
    ["l'", "établissement</w>"],
    ["uti", "les</w>"],
    ["précis", "ément</w>"],
    ["dé", "ment</w>"],
    ["flo", "tte</w>"],
    ["d'", "entre</w>"],
    ["du", "res</w>"],
    ["ju", "ges</w>"],
    ["lu", "t"],
    ["ot", "o</w>"],
    ["syndic", "at</w>"],
    ["dé", "ch"],
    ["do", "r</w>"],
    ["fin", "ancement</w>"],
    ["k", "at"],
    ["absolu", "e</w>"],
    ["bat", "eau</w>"],
    ["cou", "che</w>"],
    ["ic", "k</w>"],
    ["bur", "g</w>"],
    ["du", "ch"],
    ["c", "aux</w>"],
    ["af", "fron"],
    ["ex", "plor"],
    ["c", "ouverture</w>"],
    ["i", "z"],
    ["cour", "te</w>"],
    ["w", "ash"],
    ["g", "la"],
    ["ci-", "dessus</w>"],
    ["scienti", "fiques</w>"],
    ["sym", "path"],
    ["l", "n"],
    ["madem", "oiselle</w>"],
    ["gu", "y"],
    ["audi", "ence</w>"],
    ["l’", "ordre</w>"],
    ["l'", "italie</w>"],
    ["dé", "riv"],
    ["dou", "ce</w>"],
    ["c", "oi"],
    ["marguer", "ite</w>"],
    ["élev", "ée</w>"],
    ["ch", "t</w>"],
    ["mach", "ines</w>"],
    ["mil", "an</w>"],
    ["volu", "mes</w>"],
    ["s", "exu"],
    ["feu", "ill"],
    ["human", "ité</w>"],
    ["mon", "i"],
    ["diffic", "ilement</w>"],
    ["mar", "k</w>"],
    ["car", "ol"],
    ["re", "prit</w>"],
    ["sc", "and"],
    ["gran", "e</w>"],
    ["ret", "te</w>"],
    ["c", "c</w>"],
    ["pi", "que</w>"],
    ["o", "ss"],
    ["moder", "nes</w>"],
    ["am", "bassad"],
    ["u", "p"],
    ["lev", "é</w>"],
    ["rem", "is</w>"],
    ["off", "en"],
    ["occident", "ale</w>"],
    ["christi", "an</w>"],
    ["h", "aut"],
    ["fémin", "in</w>"],
    ["co", "ût</w>"],
    ["gar", "diens</w>"],
    ["s", "ens"],
    ["tourn", "é</w>"],
    ["sin", "c"],
    ["utilis", "e</w>"],
    ["u", "el</w>"],
    ["garanti", "e</w>"],
    ["gu", "ide</w>"],
    ["r", "in"],
    ["él", "ég"],
    ["dé", "cou"],
    ["pro", "fond"],
    ["so", "i</w>"],
    ["quit", "té</w>"],
    ["ér", "é</w>"],
    ["transfer", "t</w>"],
    ["déc", "ouvrir</w>"],
    ["â", "gé</w>"],
    ["superfici", "e</w>"],
    ["réc", "emment</w>"],
    ["suc", "cession</w>"],
    ["li", "é</w>"],
    ["califor", "nie</w>"],
    ["pl", "as"],
    ["conc", "ili"],
    ["chev", "êque</w>"],
    ["lar", "mes</w>"],
    ["isi", "r</w>"],
    ["all", "ant</w>"],
    ["con", "vers"],
    ["v", "entes</w>"],
    ["appar", "eils</w>"],
    ["tor", "t</w>"],
    ["ar", "chi"],
    ["ré", "alise</w>"],
    ["g", "ènes</w>"],
    ["i", "enne</w>"],
    ["fe", "r"],
    ["suc", "cess"],
    ["program", "mes</w>"],
    ["joh", "n"],
    ["pa", "t"],
    ["état", "-"],
    ["ad", "el"],
    ["tal", "ent</w>"],
    ["rh", "in</w>"],
    ["d'", "eux</w>"],
    ["aur", "ais</w>"],
    ["s", "ables</w>"],
    ["rou", "tes</w>"],
    ["bar", "bar"],
    ["profon", "de</w>"],
    ["-", "même</w>"],
    ["cor", "de</w>"],
    ["pê", "che</w>"],
    ["milli", "ers</w>"],
    ["professionn", "els</w>"],
    ["m", "ètre</w>"],
    ["d'", "environ</w>"],
    ["i", "o"],
    ["b", "ad"],
    ["mon", "te</w>"],
    ["éten", "d</w>"],
    ["l’", "ensemble</w>"],
    ["remarqu", "able</w>"],
    ["su", "ffr"],
    ["condu", "ire</w>"],
    ["méd", "aill"],
    ["è", "vement</w>"],
    ["fer", "r"],
    ["ci", "t</w>"],
    ["conseill", "ers</w>"],
    ["fili", "grane</w>"],
    ["di", "g"],
    ["ba", "r</w>"],
    ["l'", "ai"],
    ["pos", "ait</w>"],
    ["m'", "en</w>"],
    ["l'é", "ducation</w>"],
    ["considér", "ant</w>"],
    ["v", "en</w>"],
    ["o", "f"],
    ["dol", "lars</w>"],
    ["l'ex", "écution</w>"],
    ["so", "lu</w>"],
    ["o", "ffice</w>"],
    ["im", "age</w>"],
    ["form", "ations</w>"],
    ["syno", "p"],
    ["étudi", "er</w>"],
    ["ar", "k</w>"],
    ["di", "vi"],
    ["archit", "ecture</w>"],
    ["vers", "ité</w>"],
    ["v", "f</w>"],
    ["j", "er"],
    ["di", "es</w>"],
    ["d'", "appel</w>"],
    ["l", "-"],
    ["consid", "ère</w>"],
    ["mal", "heur</w>"],
    ["port", "ées</w>"],
    ["ram", "en"],
    ["a", "dé"],
    ["a", "f</w>"],
    ["oli", "vier</w>"],
    ["intell", "ectu"],
    ["su", "é"],
    ["ce", "voir</w>"],
    ["compagn", "ies</w>"],
    ["répon", "d</w>"],
    ["pro", "posé</w>"],
    ["connu", "es</w>"],
    ["qu", "in</w>"],
    ["ch", "ait</w>"],
    ["annon", "cé</w>"],
    ["rom", "ans</w>"],
    ["rap", "proch"],
    ["pro", "venant</w>"],
    ["vou", "dr"],
    ["caval", "erie</w>"],
    ["eu", "gène</w>"],
    ["terri", "ble</w>"],
    ["c", "is"],
    ["m", "iss"],
    ["ay", "s</w>"],
    ["march", "and</w>"],
    ["souver", "ain</w>"],
    ["g", "om"],
    ["ron", "de</w>"],
    ["mo", "tif</w>"],
    ["accompagn", "és</w>"],
    ["gar", "n"],
    ["perform", "ance</w>"],
    ["aff", "lu"],
    ["res", "tent</w>"],
    ["k", "on"],
    ["v", "oire</w>"],
    ["m", "ait</w>"],
    ["mercre", "di</w>"],
    ["identi", "té</w>"],
    ["en", "vis"],
    ["ar", "gu"],
    ["fer", "ro"],
    ["re", "spon"],
    ["chang", "ements</w>"],
    ["n", "as"],
    ["ré", "action</w>"],
    ["ré", "gn"],
    ["lan", "tique</w>"],
    ["conserv", "ation</w>"],
    ["spéci", "fique</w>"],
    ["é", "rée</w>"],
    ["fran", "c</w>"],
    ["l'", "élection</w>"],
    ["laiss", "ant</w>"],
    ["par", "te</w>"],
    ["salari", "és</w>"],
    ["suiv", "ent</w>"],
    ["fais", "aient</w>"],
    ["sui", "vie</w>"],
    ["s'", "</w>"],
    ["av", "ance</w>"],
    ["égyp", "te</w>"],
    ["o", "xy"],
    ["dic", "tionnaire</w>"],
    ["r", "al"],
    ["in", "formation</w>"],
    ["l'é", "volution</w>"],
    ["v", "ag"],
    ["m", "ente</w>"],
    ["ti", "ème</w>"],
    ["u", "i</w>"],
    ["l'in", "fluence</w>"],
    ["d'", "angleterre</w>"],
    ["ré", "ception</w>"],
    ["ti", "ge</w>"],
    ["ress", "embl"],
    ["luxembour", "g</w>"],
    ["s", "ports</w>"],
    ["rev", "anche</w>"],
    ["pro", "ven"],
    ["il", "la</w>"],
    ["l'é", "tranger</w>"],
    ["s", "mit"],
    ["voi", "ent</w>"],
    ["b", "in</w>"],
    ["vari", "ables</w>"],
    ["fu", "ite</w>"],
    ["ès-", "midi</w>"],
    ["phénom", "ène</w>"],
    ["l'é", "qu"],
    ["wash", "ington</w>"],
    ["o", "ine</w>"],
    ["d'", "elle</w>"],
    ["d’ab", "ord</w>"],
    ["résu", "mé</w>"],
    ["e", "v</w>"],
    ["trav", "ailleurs</w>"],
    ["and", "a</w>"],
    ["s", "ang"],
    ["tran", "ge</w>"],
    ["ju", "lien</w>"],
    ["tr", "y</w>"],
    ["a", "a</w>"],
    ["vin", "cent</w>"],
    ["v", "or"],
    ["ail", "li"],
    ["es", "prits</w>"],
    ["l", "â"],
    ["ven", "ise</w>"],
    ["n", "oirs</w>"],
    ["pl", "ante</w>"],
    ["as", "truc"],
    ["ch", "anger</w>"],
    ["en", "démique</w>"],
    ["expéri", "ences</w>"],
    ["tr", "iste</w>"],
    ["lég", "ende</w>"],
    ["ri", "ches</w>"],
    ["l'", "agriculture</w>"],
    ["origin", "aire</w>"],
    ["destin", "é</w>"],
    ["cuis", "ine</w>"],
    ["rédu", "ire</w>"],
    ["d'", "italie</w>"],
    ["mad", "el"],
    ["céré", "monie</w>"],
    ["prot", "ec"],
    ["pé", "tro"],
    ["pagno", "le</w>"],
    ["appu", "y"],
    ["ibi", "d</w>"],
    ["min", "i"],
    ["prof", "ession</w>"],
    ["ré", "el</w>"],
    ["l'", "âme</w>"],
    ["s", "cho"],
    ["a", "dul"],
    ["ad", "joint</w>"],
    ["sup", "pli"],
    ["liqui", "de</w>"],
    ["dens", "ité</w>"],
    ["t", "w"],
    ["ren", "nes</w>"],
    ["ri", "ght</w>"],
    ["bi", "er</w>"],
    ["rés", "ist"],
    ["circu", "it</w>"],
    ["st", "a</w>"],
    ["cont", "est"],
    ["di", "ag"],
    ["ol", "d</w>"],
    ["astéroï", "des</w>"],
    ["cam", "er"],
    ["vil", "la</w>"],
    ["alli", "és</w>"],
    ["for", "mul"],
    ["t", "ante</w>"],
    ["t", "ellement</w>"],
    ["xi", "xe</w>"],
    ["baptis", "te</w>"],
    ["gram", "mes</w>"],
    ["sembl", "able</w>"],
    ["li", "ée</w>"],
    ["connaiss", "ances</w>"],
    ["l'ac", "tivité</w>"],
    ["réfu", "gi"],
    ["ar", "es</w>"],
    ["err", "y</w>"],
    ["étab", "lit</w>"],
    ["compl", "exe</w>"],
    ["avi", "er</w>"],
    ["comp", "ens"],
    ["bourge", "ois</w>"],
    ["lég", "er</w>"],
    ["procur", "eur</w>"],
    ["synop", "sis</w>"],
    ["confi", "denti"],
    ["lo", "ts</w>"],
    ["franc", "is"],
    ["pen", "sion</w>"],
    ["imp", "ôts</w>"],
    ["is", "ie</w>"],
    ["em", "par"],
    ["notre-", "dame</w>"],
    ["fac", "es</w>"],
    ["eilli", "r</w>"],
    ["lou", "ise</w>"],
    ["ti", "t</w>"],
    ["am", "s</w>"],
    ["chiff", "res</w>"],
    ["offici", "ellement</w>"],
    ["on", "ale</w>"],
    ["per", "for"],
    ["fid", "èle</w>"],
    ["ren", "voy"],
    ["tionn", "elles</w>"],
    ["can", "on</w>"],
    ["l'", "ennemi</w>"],
    ["g", "i</w>"],
    ["e", "h"],
    ["électron", "ique</w>"],
    ["conserv", "é</w>"],
    ["cl", "aire</w>"],
    ["lég", "ère</w>"],
    ["gu", "é</w>"],
    ["j", "a"],
    ["c", "ouvert</w>"],
    ["c", "eur</w>"],
    ["ob", "server</w>"],
    ["re", "group"],
    ["sc", "ènes</w>"],
    ["naturel", "lement</w>"],
    ["d'", "intérêt</w>"],
    ["per", "ç"],
    ["su", "prê"],
    ["mon", "ter</w>"],
    ["bo", "ok</w>"],
    ["at", "o</w>"],
    ["prom", "is</w>"],
    ["ju", "ry</w>"],
    ["hypo", "thèse</w>"],
    ["minim", "um</w>"],
    ["ré", "pan"],
    ["citoy", "en</w>"],
    ["gu", "st"],
    ["w", "ell</w>"],
    ["p", "iste</w>"],
    ["cam", "pagn"],
    ["tru", "ction</w>"],
    ["w", "ag"],
    ["véhi", "cules</w>"],
    ["institu", "tion</w>"],
    ["st", "ar</w>"],
    ["c", "aiss"],
    ["norm", "ale</w>"],
    ["l", "eu"],
    ["es", "e</w>"],
    ["ray", "mond</w>"],
    ["sav", "oie</w>"],
    ["second", "aire</w>"],
    ["dau", "ph"],
    ["ologi", "es</w>"],
    ["doc", "trine</w>"],
    ["mu", "sul"],
    ["i", "fication</w>"],
    ["rou", "x</w>"],
    ["al", "ain</w>"],
    ["tionn", "els</w>"],
    ["par", "is-"],
    ["d", "c</w>"],
    ["si", "enne</w>"],
    ["jé", "sus</w>"],
    ["vou", "lut</w>"],
    ["el", "ec"],
    ["région", "ale</w>"],
    ["concurr", "ence</w>"],
    ["hau", "tes</w>"],
    ["pro", "clam"],
    ["ce", "e</w>"],
    ["clo", "s</w>"],
    ["has", "ard</w>"],
    ["crain", "te</w>"],
    ["administr", "ateur</w>"],
    ["l'ab", "sence</w>"],
    ["métr", "age</w>"],
    ["remplac", "ement</w>"],
    ["décisi", "ons</w>"],
    ["britan", "niques</w>"],
    ["cré", "dits</w>"],
    ["ré", "mun"],
    ["particip", "er</w>"],
    ["no", "ël</w>"],
    ["he", "im</w>"],
    ["ser", "ions</w>"],
    ["co", "in</w>"],
    ["m", "ens</w>"],
    ["m", "ène</w>"],
    ["chré", "tiens</w>"],
    ["continu", "er</w>"],
    ["considé", "rée</w>"],
    ["enti", "ne</w>"],
    ["fran", "co</w>"],
    ["bo", "î"],
    ["lan", "cé</w>"],
    ["pro", "positions</w>"],
    ["lu", "y</w>"],
    ["ér", "able</w>"],
    ["ili", "bre</w>"],
    ["puiss", "ant</w>"],
    ["alis", "er</w>"],
    ["col", "onne</w>"],
    ["comm", "an"],
    ["th", "or"],
    ["lo", "gement</w>"],
    ["vari", "er</w>"],
    ["remar", "que</w>"],
    ["duch", "esse</w>"],
    ["trou", "pe</w>"],
    ["extr", "ait</w>"],
    ["direc", "t</w>"],
    ["expli", "quer</w>"],
    ["én", "u"],
    ["d'", "édition</w>"],
    ["donn", "ait</w>"],
    ["plac", "és</w>"],
    ["par", "aître</w>"],
    ["ri", "o</w>"],
    ["conom", "ie</w>"],
    ["con", "fon"],
    ["cop", "ie</w>"],
    ["département", "al</w>"],
    ["é", "cédé</w>"],
    ["agré", "able</w>"],
    ["d", "écédé</w>"],
    ["annu", "el</w>"],
    ["ti", "ré</w>"],
    ["distin", "ction</w>"],
    ["k", "am"],
    ["pass", "a</w>"],
    ["catalo", "gue</w>"],
    ["ju", "ger</w>"],
    ["ai", "s-"],
    ["car", "d</w>"],
    ["g", "ab"],
    ["y", "u"],
    ["tur", "quie</w>"],
    ["k", "ir"],
    ["état-", "major</w>"],
    ["numéri", "que</w>"],
    ["pa", "vill"],
    ["g", "el"],
    ["l'", "hôpital</w>"],
    ["gag", "ne</w>"],
    ["glo", "b"],
    ["f", "ou</w>"],
    ["d", "as</w>"],
    ["ch", "at"],
    ["s", "ques</w>"],
    ["û", "te</w>"],
    ["th", "ème</w>"],
    ["r", "cer</w>"],
    ["es", "pagnole</w>"],
    ["n", "s"],
    ["administr", "atif</w>"],
    ["produ", "ctions</w>"],
    ["p", "seu"],
    ["pro", "s"],
    ["cycl", "iste</w>"],
    ["applic", "able</w>"],
    ["hé", "li"],
    ["h", "er</w>"],
    ["augment", "er</w>"],
    ["mag", "n"],
    ["d'", "ai"],
    ["rou", "ges</w>"],
    ["norman", "die</w>"],
    ["it", "ed</w>"],
    ["respec", "tivement</w>"],
    ["long", "s</w>"],
    ["s", "sures</w>"],
    ["spor", "tif</w>"],
    ["p", "un"],
    ["vois", "ins</w>"],
    ["pa", "sc"],
    ["grand", "eur</w>"],
    ["ac", "t</w>"],
    ["str", "e"],
    ["gl", "om"],
    ["disposi", "tif</w>"],
    ["marqu", "ée</w>"],
    ["qu", "ette</w>"],
    ["mou", "rut</w>"],
    ["conclu", "sion</w>"],
    ["n", "el</w>"],
    ["de", "x</w>"],
    ["con", "vi"],
    ["ati", "vement</w>"],
    ["religi", "euses</w>"],
    ["d'", "affaires</w>"],
    ["l", "an</w>"],
    ["ci", "o</w>"],
    ["si", "en</w>"],
    ["dési", "gne</w>"],
    ["thé", "â"],
    ["dis", "que</w>"],
    ["gér", "ard</w>"],
    ["colon", "ie</w>"],
    ["ex", "istence</w>"],
    ["l'ex", "position</w>"],
    ["in", "demn"],
    ["ill", "é</w>"],
    ["sign", "ature</w>"],
    ["direc", "te</w>"],
    ["pl", "aine</w>"],
    ["ro", "be</w>"],
    ["s", "avait</w>"],
    ["trou", "bles</w>"],
    ["ul", "t"],
    ["accompagn", "é</w>"],
    ["or", "léans</w>"],
    ["sal", "ut</w>"],
    ["n", "ez</w>"],
    ["extra", "ordinaire</w>"],
    ["ferro", "vi"],
    ["rhô", "ne</w>"],
    ["mar", "ty"],
    ["k", "en"],
    ["essenti", "el</w>"],
    ["lar", "geur</w>"],
    ["si", "f</w>"],
    ["modifi", "cations</w>"],
    ["hu", "r"],
    ["o", "la</w>"],
    ["to", "p</w>"],
    ["tr", "aî"],
    ["br", "un</w>"],
    ["dess", "ins</w>"],
    ["gi", "es</w>"],
    ["ven", "tions</w>"],
    ["bran", "ches</w>"],
    ["ré", "u"],
    ["fru", "it</w>"],
    ["mo", "in</w>"],
    ["l’", "ac"],
    ["anc", "ée</w>"],
    ["ca", "ce</w>"],
    ["pour", "suit</w>"],
    ["com", "prenant</w>"],
    ["n’", "ont</w>"],
    ["met", "tent</w>"],
    ["u", "kr"],
    ["catho", "liques</w>"],
    ["m", "il</w>"],
    ["ons-", "nous</w>"],
    ["i", "'"],
    ["pro", "lon"],
    ["nov", "ation</w>"],
    ["ch", "anti"],
    ["cr", "i</w>"],
    ["z", "er"],
    ["ch", "lor"],
    ["cl", "av"],
    ["off", "rir</w>"],
    ["reti", "rer</w>"],
    ["gén", "é"],
    ["patri", "ck</w>"],
    ["seign", "eurs</w>"],
    ["d'", "administration</w>"],
    ["lev", "ée</w>"],
    ["réguli", "ère</w>"],
    ["trans", "formation</w>"],
    ["sec", "ou"],
    ["vaiss", "eau</w>"],
    ["mou", "lin</w>"],
    ["spec", "t"],
    ["î", "mes</w>"],
    ["co", "opération</w>"],
    ["spa", "ces</w>"],
    ["f", "ais</w>"],
    ["anal", "o"],
    ["ju", "gé</w>"],
    ["at", "om"],
    ["pré", "al"],
    ["par", "couru</w>"],
    ["document", "aire</w>"],
    ["t", "onnes</w>"],
    ["ét", "ern"],
    ["pr", "ai"],
    ["col", "ère</w>"],
    ["qu’", "en</w>"],
    ["ge", "ait</w>"],
    ["assur", "é</w>"],
    ["n'", "ayant</w>"],
    ["v", "ah"],
    ["dépen", "d</w>"],
    ["prim", "aire</w>"],
    ["mé", "tier</w>"],
    ["i", "z</w>"],
    ["monn", "aie</w>"],
    ["bo", "t</w>"],
    ["b", "ation</w>"],
    ["che", "f-"],
    ["ap", "prendre</w>"],
    ["chron", "ique</w>"],
    ["observ", "atoire</w>"],
    ["éto", "iles</w>"],
    ["physi", "ques</w>"],
    ["séri", "eux</w>"],
    ["f", "leur</w>"],
    ["jard", "ins</w>"],
    ["-", "sur-"],
    ["europé", "ennes</w>"],
    ["ô", "tre</w>"],
    ["océ", "an</w>"],
    ["envoy", "er</w>"],
    ["ist", "an</w>"],
    ["char", "gée</w>"],
    ["commerci", "ale</w>"],
    ["lo", "-"],
    ["provis", "oire</w>"],
    ["mél", "ange</w>"],
    ["n", "ancy</w>"],
    ["in", "suffis"],
    ["péri", "ence</w>"],
    ["pro", "c"],
    ["pier", "re-"],
    ["tou", "che</w>"],
    ["consac", "ré</w>"],
    ["inst", "aur"],
    ["préc", "ise</w>"],
    ["éch", "antill"],
    ["fl", "an"],
    ["n’", "en</w>"],
    ["or", "a</w>"],
    ["univers", "itaire</w>"],
    ["montr", "ent</w>"],
    ["dé", "bar"],
    ["mili", "eux</w>"],
    ["pé", "d"],
    ["avan", "t-"],
    ["hal", "l</w>"],
    ["f", "ans</w>"],
    ["cy", "clo"],
    ["l", "aur"],
    ["satis", "faction</w>"],
    ["l'", "application</w>"],
    ["vi", "vement</w>"],
    ["ell", "o</w>"],
    ["suprê", "me</w>"],
    ["cu", "ivre</w>"],
    ["ne", "v"],
    ["eng", "age</w>"],
    ["and", "er"],
    ["ent-", "ils</w>"],
    ["di", "able</w>"],
    ["m", "anger</w>"],
    ["arab", "e</w>"],
    ["siè", "ges</w>"],
    ["tr", "ains</w>"],
    ["engag", "ements</w>"],
    ["bless", "és</w>"],
    ["grec", "s</w>"],
    ["rap", "porteur</w>"],
    ["béné", "fice</w>"],
    ["pronon", "cé</w>"],
    ["s", "tiques</w>"],
    ["m", "aine</w>"],
    ["v", "ar</w>"],
    ["rup", "tion</w>"],
    ["y", "o"],
    ["réd", "action</w>"],
    ["inter", "vention</w>"],
    ["ci", "ation</w>"],
    ["vécu", "</w>"],
    ["s", "ou</w>"],
    ["communaut", "és</w>"],
    ["ét", "aire</w>"],
    ["ab", "ord"],
    ["ou", "l"],
    ["ren", "dus</w>"],
    ["bill", "ets</w>"],
    ["bourgo", "gne</w>"],
    ["hav", "re</w>"],
    ["chi", "c"],
    ["ger", "main</w>"],
    ["catég", "ories</w>"],
    ["cri", "s</w>"],
    ["o", "per"],
    ["alter", "nati"],
    ["sembl", "ent</w>"],
    ["hong", "rie</w>"],
    ["e", "rcer</w>"],
    ["oc", "de</w>"],
    ["hau", "sse</w>"],
    ["gr", "ad"],
    ["comb", "ats</w>"],
    ["s", "ap"],
    ["plat", "eau</w>"],
    ["e", "o</w>"],
    ["in", "fin"],
    ["plu", "ie</w>"],
    ["ss", "on</w>"],
    ["habitu", "de</w>"],
    ["sur", "prise</w>"],
    ["organis", "er</w>"],
    ["eni", "rs</w>"],
    ["gi", "le</w>"],
    ["er", "y</w>"],
    ["alg", "érie</w>"],
    ["b", "ains</w>"],
    ["oc", "k</w>"],
    ["constitu", "ent</w>"],
    ["y", "ou</w>"],
    ["lat", "ér"],
    ["me", "il</w>"],
    ["briga", "de</w>"],
    ["nu", "s</w>"],
    ["cy", "lin"],
    ["in", "no"],
    ["l'", "arrondissement</w>"],
    ["souv", "enirs</w>"],
    ["desc", "end"],
    ["plan", "ète</w>"],
    ["é", "preuves</w>"],
    ["nap", "les</w>"],
    ["bom", "bar"],
    ["d'", "histoire</w>"],
    ["prob", "able</w>"],
    ["l'", "emploi</w>"],
    ["gé", "ographique</w>"],
    ["ét", "age</w>"],
    ["ch", "el"],
    ["bas", "-"],
    ["j", "un"],
    ["tourn", "er</w>"],
    ["utilis", "ant</w>"],
    ["thér", "ap"],
    ["dev", "ra</w>"],
    ["tro", "y"],
    ["gar", "es</w>"],
    ["mat", "ern"],
    ["appl", "au"],
    ["rem", "ettre</w>"],
    ["urb", "aine</w>"],
    ["alg", "éri"],
    ["en", "di"],
    ["plac", "ée</w>"],
    ["p", "étu"],
    ["ci", "ère</w>"],
    ["ruis", "seau</w>"],
    ["destin", "ation</w>"],
    ["bu", "</w>"],
    ["christ", "o"],
    ["s", "ité</w>"],
    ["sau", "ver</w>"],
    ["on", "ique</w>"],
    ["ex", "posé</w>"],
    ["fr", "aî"],
    ["r", "ant</w>"],
    ["commen", "cer</w>"],
    ["r", "eur</w>"],
    ["eur", "-"],
    ["s", "ages</w>"],
    ["b", "aie</w>"],
    ["nei", "ge</w>"],
    ["puiss", "ances</w>"],
    ["vari", "ations</w>"],
    ["fer", "met"],
    ["touris", "me</w>"],
    ["industri", "elle</w>"],
    ["jo", "sé</w>"],
    ["t", "al</w>"],
    ["as", "tron"],
    ["mo", "re</w>"],
    ["d’", "après</w>"],
    ["lin", "gu"],
    ["voi", "le</w>"],
    ["enten", "d</w>"],
    ["ois", "eau</w>"],
    ["représent", "é</w>"],
    ["eu", "rement</w>"],
    ["qui", "er</w>"],
    ["par", "ut</w>"],
    ["cé", "sar</w>"],
    ["cat", "eur</w>"],
    ["ren", "aissance</w>"],
    ["si", "xième</w>"],
    ["musi", "cale</w>"],
    ["éti", "enne</w>"],
    ["fr", "om"],
    ["a", "éro"],
    ["concep", "t</w>"],
    ["o", "x"],
    ["engag", "ement</w>"],
    ["d", "ates</w>"],
    ["délég", "ation</w>"],
    ["w", "er</w>"],
    ["hu", "iti"],
    ["diri", "gé</w>"],
    ["évolu", "e</w>"],
    ["tâ", "che</w>"],
    ["uti", "lité</w>"],
    ["fer", "mé</w>"],
    ["ac", "re</w>"],
    ["ré", "cu"],
    ["ot", "tom"],
    ["appar", "tenir</w>"],
    ["cô", "tes</w>"],
    ["bas", "es</w>"],
    ["personn", "elle</w>"],
    ["organis", "ations</w>"],
    ["albu", "ms</w>"],
    ["exac", "tement</w>"],
    ["magas", "in</w>"],
    ["w", "es"],
    ["gri", "s</w>"],
    ["l'", "arrêt</w>"],
    ["attr", "action</w>"],
    ["re", "fl"],
    ["min", "a</w>"],
    ["ac", "comp"],
    ["s’", "agit</w>"],
    ["ho", "sti"],
    ["re", "y</w>"],
    ["char", "gés</w>"],
    ["contr", "airement</w>"],
    ["sal", "les</w>"],
    ["arr", "ang"],
    ["affir", "me</w>"],
    ["e", "ae</w>"],
    ["milli", "on</w>"],
    ["go", "th"],
    ["smit", "h</w>"],
    ["trai", "ter</w>"],
    ["veu", "lent</w>"],
    ["diminu", "tion</w>"],
    ["or", "chestre</w>"],
    ["g", "is"],
    ["l’", "église</w>"],
    ["no", "bles</w>"],
    ["en", "velop"],
    ["étr", "ie</w>"],
    ["ap", "porter</w>"],
    ["natur", "elles</w>"],
    ["secon", "des</w>"],
    ["pr", "ie</w>"],
    ["déb", "at</w>"],
    ["sa", "x"],
    ["è", "gre</w>"],
    ["l’", "am"],
    ["bou", "l"],
    ["tr", "i</w>"],
    ["ques-", "uns</w>"],
    ["shi", "p</w>"],
    ["industri", "el</w>"],
    ["protég", "er</w>"],
    ["s", "as</w>"],
    ["ti", "fication</w>"],
    ["cli", "ents</w>"],
    ["col", "le"],
    ["pel", "lier</w>"],
    ["chic", "ago</w>"],
    ["mar", "qué</w>"],
    ["autom", "ne</w>"],
    ["juridi", "que</w>"],
    ["ap", "prend</w>"],
    ["déf", "ens"],
    ["im", "mense</w>"],
    ["électri", "cité</w>"],
    ["l’", "eau</w>"],
    ["distin", "ctions</w>"],
    ["d", "et</w>"],
    ["per", "su"],
    ["impéri", "ale</w>"],
    ["ré", "at</w>"],
    ["d'", "hiver</w>"],
    ["l'", "ouverture</w>"],
    ["désign", "é</w>"],
    ["écl", "air"],
    ["bataill", "on</w>"],
    ["tre", "i"],
    ["lu", "min"],
    ["anth", "ro"],
    ["ex", "pression</w>"],
    ["ro", "che</w>"],
    ["av", "enir</w>"],
    ["gren", "ob"],
    ["rem", "porté</w>"],
    ["sor", "tant</w>"],
    ["ri", "ères</w>"],
    ["ab", "sor"],
    ["s", "è"],
    ["po", "sa</w>"],
    ["cer", "tes</w>"],
    ["c", "end"],
    ["y", "e"],
    ["ec", "clé"],
    ["sa", "c</w>"],
    ["l'", "e"],
    ["mis", "sionn"],
    ["ni", "veaux</w>"],
    ["pro", "pag"],
    ["assi", "s</w>"],
    ["con", "serve</w>"],
    ["m", "ons</w>"],
    ["ch", "y</w>"],
    ["maîtr", "esse</w>"],
    ["quar", "ante</w>"],
    ["an", "isme</w>"],
    ["itali", "ens</w>"],
    ["pul", "sion</w>"],
    ["l'", "opinion</w>"],
    ["ap", "pris</w>"],
    ["x", "x</w>"],
    ["cr", "aign"],
    ["vois", "in</w>"],
    ["por", "te-"],
    ["ren", "te</w>"],
    ["d'", "utilisation</w>"],
    ["w", "all"],
    ["is", "s</w>"],
    ["té", "moin</w>"],
    ["ingéni", "eur</w>"],
    ["j", "ection</w>"],
    ["sé", "qu"],
    ["in", "clin"],
    ["ten", "nis</w>"],
    ["tu", "er</w>"],
    ["lu", "c</w>"],
    ["métro", "pole</w>"],
    ["d", "f</w>"],
    ["for", "tifi"],
    ["r", "it"],
    ["fau", "ne</w>"],
    ["dé", "gag"],
    ["n", "es"],
    ["s", "cl"],
    ["d'", "ag"],
    ["ju", "s</w>"],
    ["tr", "in"],
    ["financi", "ères</w>"],
    ["outi", "ls</w>"],
    ["just", "ement</w>"],
    ["bar", "cel"],
    ["dé", "mar"],
    ["a", "xim"],
    ["bas", "ti"],
    ["l'", "ai</w>"],
    ["è", "lement</w>"],
    ["sor", "tes</w>"],
    ["guit", "are</w>"],
    ["étrang", "ère</w>"],
    ["compar", "aison</w>"],
    ["hon", "gr"],
    ["appel", "er</w>"],
    ["ch", "œur</w>"],
    ["s'", "élev"],
    ["rê", "ve</w>"],
    ["ré", "pli"],
    ["l'", "énergie</w>"],
    ["ad", "di"],
    ["requ", "ises</w>"],
    ["défini", "tivement</w>"],
    ["traver", "se</w>"],
    ["d", "et"],
    ["av", "entu"],
    ["met", "s</w>"],
    ["mécan", "ique</w>"],
    ["détru", "it</w>"],
    ["d", "ettes</w>"],
    ["mont", "pellier</w>"],
    ["ch", "eur</w>"],
    ["m", "l</w>"],
    ["l'", "espèce</w>"],
    ["ven", "du</w>"],
    ["ré", "unis</w>"],
    ["jet", "er</w>"],
    ["sû", "reté</w>"],
    ["et", "at"],
    ["demeur", "ant</w>"],
    ["collec", "tif</w>"],
    ["in", "con"],
    ["hum", "aines</w>"],
    ["l'", "été</w>"],
    ["mex", "ic"],
    ["flor", "ence</w>"],
    ["s’", "en</w>"],
    ["ant", "oni"],
    ["vi", "f</w>"],
    ["g", "ers</w>"],
    ["profond", "eur</w>"],
    ["cen", "tres</w>"],
    ["fen", "être</w>"],
    ["ph", "ra"],
    ["aux", "quelles</w>"],
    ["quarti", "ers</w>"],
    ["qu", "ad"],
    ["expé", "di"],
    ["univers", "ity</w>"],
    ["am", "en</w>"],
    ["quel", "ques-uns</w>"],
    ["classi", "fication</w>"],
    ["mo", "des"],
    ["qu", "e-"],
    ["d", "ain</w>"],
    ["p", "oign"],
    ["gabri", "el</w>"],
    ["am", "ie</w>"],
    ["mis", "s</w>"],
    ["land", "aise</w>"],
    ["l’", "ar"],
    ["remplac", "er</w>"],
    ["min", "ér"],
    ["publi", "és</w>"],
    ["nu", "lle</w>"],
    ["anti", "-"],
    ["ill", "y</w>"],
    ["éventu", "els</w>"],
    ["d'", "i"],
    ["cons", "ist"],
    ["d'", "aller</w>"],
    ["gé", "om"],
    ["ou", "n</w>"],
    ["con", "tribution</w>"],
    ["ç", "onn"],
    ["sensi", "ble</w>"],
    ["men", "er</w>"],
    ["présent", "ée</w>"],
    ["vi", "ce</w>"],
    ["vari", "able</w>"],
    ["emb", "arr"],
    ["gal", "li"],
    ["bord", "s</w>"],
    ["a", "sie</w>"],
    ["exclusi", "vement</w>"],
    ["c", "pt</w>"],
    ["seu", "il</w>"],
    ["mer", "veill"],
    ["ic", "a</w>"],
    ["tr", "é</w>"],
    ["ali", "ce</w>"],
    ["tot", "alité</w>"],
    ["ann", "i</w>"],
    ["an", "ni"],
    ["navi", "gation</w>"],
    ["commun", "ale</w>"],
    ["gen", "res</w>"],
    ["coû", "teux</w>"],
    ["l", "à-"],
    ["commun", "iste</w>"],
    ["j", "az"],
    ["successi", "vement</w>"],
    ["réu", "ssi</w>"],
    ["monas", "tère</w>"],
    ["effec", "tif</w>"],
    ["seu", "les</w>"],
    ["ap", "propri"],
    ["oeu", "vre</w>"],
    ["organ", "es</w>"],
    ["couv", "ent</w>"],
    ["l’", "homme</w>"],
    ["investiss", "ement</w>"],
    ["cein", "te</w>"],
    ["labor", "atoire</w>"],
    ["con", "quête</w>"],
    ["appel", "és</w>"],
    ["r", "c</w>"],
    ["ti", "le</w>"],
    ["s", "tin</w>"],
    ["lou", "is-"],
    ["pass", "ent</w>"],
    ["arti", "fici"],
    ["mar", "tin"],
    ["j", "ou</w>"],
    ["li", "aison</w>"],
    ["la", "ï"],
    ["ili", "en</w>"],
    ["g", "lis"],
    ["chant", "euse</w>"],
    ["comp", "tab"],
    ["s", "ach"],
    ["tent", "ative</w>"],
    ["fonctionn", "aires</w>"],
    ["tor", "at</w>"],
    ["sén", "ateur</w>"],
    ["main", "tien</w>"],
    ["législ", "ation</w>"],
    ["t", "érieur</w>"],
    ["comp", "tant</w>"],
    ["l'", "instruction</w>"],
    ["perf", "ec"],
    ["im", "s</w>"],
    ["pré", "vue</w>"],
    ["si", "ens</w>"],
    ["présent", "ant</w>"],
    ["proch", "aine</w>"],
    ["appar", "eil</w>"],
    ["per", "pétu"],
    ["men", "ace</w>"],
    ["r", "assembl"],
    ["emb", "rass"],
    ["p", "ères</w>"],
    ["assist", "er</w>"],
    ["r", "age</w>"],
    ["quel", "qu'un</w>"],
    ["vaiss", "eaux</w>"],
    ["f", "â"],
    ["gl", "ori"],
    ["chré", "tienne</w>"],
    ["di", "visions</w>"],
    ["ssi", "ons</w>"],
    ["ang", "ers</w>"],
    ["campagn", "es</w>"],
    ["n", "-"],
    ["jac", "k</w>"],
    ["trans", "mission</w>"],
    ["et", "u"],
    ["inspec", "teur</w>"],
    ["atte", "ign"],
    ["disponi", "bles</w>"],
    ["suc", "re</w>"],
    ["me", "d</w>"],
    ["l", "ève</w>"],
    ["ém", "er"],
    ["et", "y</w>"],
    ["res", "té</w>"],
    ["g", "ym"],
    ["chirur", "gi"],
    ["al", "co"],
    ["éri", "eurement</w>"],
    ["g", "ère</w>"],
    ["négoci", "ations</w>"],
    ["k", "a"],
    ["hé", "ré"],
    ["dan", "s"],
    ["sin", "on</w>"],
    ["et", "t</w>"],
    ["form", "ant</w>"],
    ["t", "ai"],
    ["considé", "rer</w>"],
    ["re", "pas</w>"],
    ["con", "s</w>"],
    ["ci", "ers</w>"],
    ["du", "m</w>"],
    ["dyn", "as"],
    ["contin", "ent"],
    ["arth", "ur</w>"],
    ["ch", "ol"],
    ["ag", "ence</w>"],
    ["h", "arr"],
    ["mir", "ac"],
    ["s-", "de-"],
    ["al", "fred</w>"],
    ["is", "si"],
    ["métr", "o</w>"],
    ["l", "les</w>"],
    ["législ", "atives</w>"],
    ["pru", "sse</w>"],
    ["extr", "ême</w>"],
    ["su", "bi"],
    ["endr", "ont</w>"],
    ["inter", "nes</w>"],
    ["mont", "age</w>"],
    ["d'", "afrique</w>"],
    ["dan", "em"],
    ["m", "axim"],
    ["cler", "gé</w>"],
    ["di", "vin"],
    ["flu", "x</w>"],
    ["aw", "ards</w>"],
    ["dis", "sements</w>"],
    ["scru", "tin</w>"],
    ["voy", "ages</w>"],
    ["ch", "ante</w>"],
    ["vê", "tements</w>"],
    ["slo", "va"],
    ["li", "ve</w>"],
    ["rappel", "er</w>"],
    ["fran", "co-"],
    ["refu", "se</w>"],
    ["diri", "ge</w>"],
    ["de", "grés</w>"],
    ["gi", "ques</w>"],
    ["not", "ations</w>"],
    ["lo", "gique</w>"],
    ["trac", "es</w>"],
    ["é", "ant</w>"],
    ["cons", "ol"],
    ["e", "la</w>"],
    ["massi", "f</w>"],
    ["accep", "ter</w>"],
    ["échapp", "er</w>"],
    ["fid", "èles</w>"],
    ["b", "aiss"],
    ["s'", "op"],
    ["th", "is</w>"],
    ["reconn", "aiss"],
    ["ange", "les</w>"],
    ["organis", "ée</w>"],
    ["st", "ations</w>"],
    ["reç", "ut</w>"],
    ["k", "ou"],
    ["ré", "elle</w>"],
    ["imp", "ôt</w>"],
    ["e", "spaces</w>"],
    ["démocr", "atique</w>"],
    ["des", "truction</w>"],
    ["tr", "ace</w>"],
    ["prim", "iti"],
    ["tro", "phe</w>"],
    ["gn", "on</w>"],
    ["cré", "anci"],
    ["répu", "tation</w>"],
    ["châ", "te"],
    ["sei", "gne</w>"],
    ["pour", "suite</w>"],
    ["f", "acteurs</w>"],
    ["lon", "gu"],
    ["is", "it</w>"],
    ["r", "ation</w>"],
    ["lab", "el</w>"],
    ["produ", "ite</w>"],
    ["in", "utile</w>"],
    ["bat", "terie</w>"],
    ["madel", "eine</w>"],
    ["l'", "ont</w>"],
    ["es", "tre</w>"],
    ["compét", "ence</w>"],
    ["r", "as</w>"],
    ["no", "tion</w>"],
    ["associ", "és</w>"],
    ["x", "vi</w>"],
    ["fau", "drait</w>"],
    ["infr", "astruc"],
    ["co", "gn"],
    ["h", "aï"],
    ["cu", "m</w>"],
    ["int", "érieure</w>"],
    ["m", "ie</w>"],
    ["espér", "ance</w>"],
    ["maj", "eur</w>"],
    ["extrê", "mement</w>"],
    ["l’", "histoire</w>"],
    ["t", "endre</w>"],
    ["r", "and"],
    ["appar", "ition</w>"],
    ["œu", "fs</w>"],
    ["faç", "ade</w>"],
    ["ab", "at"],
    ["inter", "nationales</w>"],
    ["e", "in</w>"],
    ["l'ac", "cu"],
    ["voy", "ons</w>"],
    ["l'é", "conomie</w>"],
    ["can", "ons</w>"],
    ["n'", "avaient</w>"],
    ["lu", "e</w>"],
    ["l’", "objet</w>"],
    ["ti", "re</w>"],
    ["annul", "ation</w>"],
    ["publi", "cité</w>"],
    ["contr", "adi"],
    ["r", "at"],
    ["appli", "quer</w>"],
    ["n'", "étaient</w>"],
    ["ém", "atique</w>"],
    ["l'é", "cr"],
    ["ent", "hou"],
    ["l'es", "pagne</w>"],
    ["sé", "min"],
    ["cons", "enti"],
    ["in", "connu</w>"],
    ["orig", "ines</w>"],
    ["cor", "ée</w>"],
    ["par", "faite</w>"],
    ["sk", "y</w>"],
    ["circul", "aire</w>"],
    ["du", "c"],
    ["cel", "lent</w>"],
    ["li", "o</w>"],
    ["liqui", "dation</w>"],
    ["é", "lo"],
    ["sol", "enn"],
    ["y", "ves</w>"],
    ["illustr", "ation</w>"],
    ["mar", "ques</w>"],
    ["triom", "ph"],
    ["di", "alo"],
    ["arr", "ête</w>"],
    ["em", "e</w>"],
    ["r", "t</w>"],
    ["cal", "end"],
    ["alis", "és</w>"],
    ["ouvr", "ant</w>"],
    ["s'", "étaient</w>"],
    ["b", "et</w>"],
    ["m", "esse</w>"],
    ["différ", "ent</w>"],
    ["l'", "unité</w>"],
    ["rel", "e"],
    ["lég", "aux</w>"],
    ["pré", "hen"],
    ["parlement", "aire</w>"],
    ["spe", "ci"],
    ["o", "w"],
    ["triom", "phe</w>"],
    ["prê", "tres</w>"],
    ["gi", "o</w>"],
    ["l’é", "cole</w>"],
    ["enthou", "sias"],
    ["e", "di"],
    ["hum", "ains</w>"],
    ["le", "g"],
    ["tribun", "aux</w>"],
    ["lè", "vres</w>"],
    ["spor", "tive</w>"],
    ["ec", "ole</w>"],
    ["rais", "onn"],
    ["ai", "les</w>"],
    ["ent", "ou"],
    ["particip", "é</w>"],
    ["préci", "eux</w>"],
    ["m", "eurs</w>"],
    ["grenob", "le</w>"],
    ["représent", "ent</w>"],
    ["mar", "y</w>"],
    ["chau", "d</w>"],
    ["dom", "</w>"],
    ["dit-", "elle</w>"],
    ["vr", "aie</w>"],
    ["con", "tres</w>"],
    ["s", "ec</w>"],
    ["ati", "on"],
    ["co", "te</w>"],
    ["ry", "th"],
    ["suffis", "amment</w>"],
    ["e", "vi"],
    ["représent", "er</w>"],
    ["dess", "inée</w>"],
    ["phénom", "ènes</w>"],
    ["d'", "astéroïdes</w>"],
    ["dévelop", "pe</w>"],
    ["m", "aux</w>"],
    ["t", "ères</w>"],
    ["tr", "ou</w>"],
    ["l’", "en"],
    ["archit", "ecte</w>"],
    ["entre", "pren"],
    ["serv", "ant</w>"],
    ["ex", "cu"],
    ["bask", "et-"],
    ["cor", "ri"],
    ["uni", "es</w>"],
    ["ph", "os"],
    ["anci", "enn"],
    ["isra", "ël</w>"],
    ["al", "é"],
    ["k", "en</w>"],
    ["évi", "demment</w>"],
    ["initi", "alement</w>"],
    ["att", "endant</w>"],
    ["end", "ement</w>"],
    ["drap", "eau</w>"],
    ["col", "onnes</w>"],
    ["n", "y"],
    ["w", "hi"],
    ["prépar", "er</w>"],
    ["ju", "ris"],
    ["l'", "op"],
    ["sou", "rire</w>"],
    ["mix", "te</w>"],
    ["d'or", "léans</w>"],
    ["mont", "ée</w>"],
    ["basket-", "ball</w>"],
    ["manifest", "ations</w>"],
    ["li", "ons</w>"],
    ["or", "t</w>"],
    ["n", "ag"],
    ["paraiss", "ent</w>"],
    ["ju", "an</w>"],
    ["in", "car"],
    ["ber", "tr"],
    ["compét", "ences</w>"],
    ["tra", "h"],
    ["ren", "dit</w>"],
    ["par", "fu"],
    ["cr", "eu"],
    ["vis", "ant</w>"],
    ["lo", "tte</w>"],
    ["et", "ab"],
    ["confidenti", "alité</w>"],
    ["dipl", "ôme</w>"],
    ["sépar", "ation</w>"],
    ["réfl", "éch"],
    ["is", "ations</w>"],
    ["dé", "chi"],
    ["distin", "gue</w>"],
    ["rég", "im"],
    ["curi", "eux</w>"],
    ["im", "matri"],
    ["eg", "lise</w>"],
    ["l’", "armée</w>"],
    ["x", "ii</w>"],
    ["scén", "ariste</w>"],
    ["bon", "a"],
    ["f", "ay"],
    ["av", "eu"],
    ["di", "jon</w>"],
    ["u", "se</w>"],
    ["ch", "o</w>"],
    ["nom", "més</w>"],
    ["hér", "oï"],
    ["ol", "o</w>"],
    ["in", "d"],
    ["ouvri", "t</w>"],
    ["com", "ique</w>"],
    ["l", "aires</w>"],
    ["esp", "ère</w>"],
    ["v", "u"],
    ["vir", "gin"],
    ["sou", "dre</w>"],
    ["a", "x</w>"],
    ["inter", "dit</w>"],
    ["e", "fs</w>"],
    ["contr", "ats</w>"],
    ["r", "e-"],
    ["è", "re-"],
    ["de", "bout</w>"],
    ["danem", "ark</w>"],
    ["struc", "tures</w>"],
    ["cass", "ation</w>"],
    ["dé", "mon"],
    ["portug", "ais</w>"],
    ["sain", "ts</w>"],
    ["l'", "issue</w>"],
    ["pro", "fond</w>"],
    ["s", "tique</w>"],
    ["dou", "bl"],
    ["com", "pagne</w>"],
    ["gr", "es</w>"],
    ["l'", "égard</w>"],
    ["met", "z</w>"],
    ["chim", "ie</w>"],
    ["sep", "tième</w>"],
    ["pro", "sp"],
    ["eill", "i</w>"],
    ["gr", "ève</w>"],
    ["l'", "environnement</w>"],
    ["et", "ats</w>"],
    ["is", "a</w>"],
    ["pr", "êts</w>"],
    ["ten", "ance</w>"],
    ["chang", "é</w>"],
    ["f", "ine</w>"],
    ["pon", "ts</w>"],
    ["hab", "il"],
    ["gar", "des</w>"],
    ["quat", "or"],
    ["philosoph", "e</w>"],
    ["aî", "né</w>"],
    ["fo", "yer</w>"],
    ["éch", "elle</w>"],
    ["cr", "oi"],
    ["christo", "phe</w>"],
    ["poi", "trine</w>"],
    ["soi", "e</w>"],
    ["ign", "on</w>"],
    ["mété", "or"],
    ["par", "vient</w>"],
    ["d'", "études</w>"],
    ["gro", "sse</w>"],
    ["vi", "s-"],
    ["vie", "w</w>"],
    ["fai", "bles</w>"],
    ["introdu", "it</w>"],
    ["d", "entes</w>"],
    ["por", "te"],
    ["in", "aire</w>"],
    ["go", "û"],
    ["si", "es</w>"],
    ["off", "er"],
    ["à-", "vis</w>"],
    ["re", "garde</w>"],
    ["pl", "ay"],
    ["h", "and"],
    ["combat", "tre</w>"],
    ["ti", "se</w>"],
    ["chan", "cel"],
    ["vari", "été</w>"],
    ["on", "y"],
    ["confér", "ences</w>"],
    ["acqu", "isition</w>"],
    ["z", "i</w>"],
    ["d'", "as"],
    ["atel", "ier</w>"],
    ["remp", "lir</w>"],
    ["engag", "é</w>"],
    ["onn", "ais</w>"],
    ["d'", "hommes</w>"],
    ["ré", "ellement</w>"],
    ["dr", "ome</w>"],
    ["seign", "eu"],
    ["termin", "é</w>"],
    ["eu", "rent</w>"],
    ["l'", "émission</w>"],
    ["soli", "de</w>"],
    ["mo", "graphie</w>"],
    ["rur", "ale</w>"],
    ["musi", "c</w>"],
    ["majeu", "re</w>"],
    ["pass", "ait</w>"],
    ["h", "aine</w>"],
    ["japon", "aise</w>"],
    ["con", "fron"],
    ["dis", "ent</w>"],
    ["mi", "-"],
    ["o", "ts</w>"],
    ["an", "onyme</w>"],
    ["cat", "as"],
    ["destin", "és</w>"],
    ["cer", "titude</w>"],
    ["cel", "les-"],
    ["go", "t</w>"],
    ["univers", "elle</w>"],
    ["pou", "dre</w>"],
    ["di", "ction</w>"],
    ["se", "curi"],
    ["lieu", "e</w>"],
    ["tu", "be</w>"],
    ["br", "est</w>"],
    ["ordonn", "é</w>"],
    ["éch", "ou"],
    ["atta", "ques</w>"],
    ["hu", "go</w>"],
    ["solu", "tions</w>"],
    ["t", "es-"],
    ["champi", "ons</w>"],
    ["vers", "é</w>"],
    ["atta", "ché</w>"],
    ["pro", "jec"],
    ["ch", "or"],
    ["al", "lez</w>"],
    ["l'", "évêque</w>"],
    ["spéci", "alement</w>"],
    ["--", "et</w>"],
    ["discipl", "ine</w>"],
    ["tré", "s"],
    ["rô", "les</w>"],
    ["bo", "tan"],
    ["délégu", "é</w>"],
    ["re", "trouv"],
    ["é", "rés</w>"],
    ["stratég", "ie</w>"],
    ["cor", "d</w>"],
    ["p", "ent"],
    ["arab", "es</w>"],
    ["b", "one</w>"],
    ["ar", "re</w>"],
    ["onn", "ées</w>"],
    ["ren", "contres</w>"],
    ["er", "aient</w>"],
    ["rev", "ê"],
    ["scol", "aire</w>"],
    ["al", "em</w>"],
    ["bru", "s"],
    ["con", "signes</w>"],
    ["li", "fe</w>"],
    ["antoni", "o</w>"],
    ["p", "ist"],
    ["p", "p"],
    ["refu", "s</w>"],
    ["par", "k</w>"],
    ["pré", "cau"],
    ["bas", "é</w>"],
    ["s", "core</w>"],
    ["coupa", "ble</w>"],
    ["ins", "crits</w>"],
    ["my", "th"],
    ["pro", "ph"],
    ["consu", "l</w>"],
    ["empl", "ois</w>"],
    ["mor", "ceaux</w>"],
    ["ch", "ô"],
    ["d'", "etat</w>"],
    ["mi", "d"],
    ["arri", "va</w>"],
    ["mi", "ers</w>"],
    ["vr", "ais"],
    ["s", "ace</w>"],
    ["fran", "cis</w>"],
    ["l’", "assemblée</w>"],
    ["pho", "tos</w>"],
    ["espagn", "ols</w>"],
    ["atel", "iers</w>"],
    ["mal", "heureusement</w>"],
    ["région", "ales</w>"],
    ["is", "ti"],
    ["isab", "eth</w>"],
    ["char", "bon</w>"],
    ["efficac", "ité</w>"],
    ["ex", "piration</w>"],
    ["de", "viennent</w>"],
    ["lo", "ve</w>"],
    ["domin", "ique</w>"],
    ["étu", "die</w>"],
    ["prom", "p"],
    ["déb", "ats</w>"],
    ["parl", "ant</w>"],
    ["w", "er"],
    ["d'", "ét"],
    ["ban", "des</w>"],
    ["le", "y"],
    ["fon", "de</w>"],
    ["apprenti", "ss"],
    ["transi", "tion</w>"],
    ["provin", "ci"],
    ["hypo", "thè"],
    ["commen", "ça</w>"],
    ["ch", "as"],
    ["pour", "vu</w>"],
    ["jo", "lie</w>"],
    ["diffus", "ée</w>"],
    ["ver", "a</w>"],
    ["dérou", "le</w>"],
    ["réfl", "exion</w>"],
    ["l’", "a</w>"],
    ["co", "pi"],
    ["pré", "voit</w>"],
    ["sup", "er</w>"],
    ["l'im", "age</w>"],
    ["dimen", "sions</w>"],
    ["mor", "t"],
    ["dis", "co"],
    ["gr", "amme</w>"],
    ["mu", "s</w>"],
    ["bi", "tr"],
    ["jet", "é</w>"],
    ["er", "ne</w>"],
    ["intéress", "ant</w>"],
    ["ch", "ou"],
    ["ri", "ons</w>"],
    ["gu", "il"],
    ["vis-", "à-vis</w>"],
    ["rup", "ture</w>"],
    ["im", "meubles</w>"],
    ["r", "ag"],
    ["fé", "con"],
    ["d’", "ailleurs</w>"],
    ["possi", "bles</w>"],
    ["cour", "eur</w>"],
    ["l'", "ap"],
    ["a", "z</w>"],
    ["vice-", "président</w>"],
    ["ter", "ies</w>"],
    ["mathém", "atiques</w>"],
    ["b", "c</w>"],
    ["meill", "eures</w>"],
    ["s", "œurs</w>"],
    ["ma", "y</w>"],
    ["o", "'"],
    ["urban", "isme</w>"],
    ["bat", "tre</w>"],
    ["pyré", "nées</w>"],
    ["privil", "ég"],
    ["vo", "cation</w>"],
    ["rap", "porte</w>"],
    ["mor", "ceau</w>"],
    ["fen", "êtres</w>"],
    ["vo", "y</w>"],
    ["fi", "a</w>"],
    ["ar", "ist"],
    ["bat", "tu</w>"],
    ["fil", "mographie</w>"],
    ["pasc", "al</w>"],
    ["gag", "né</w>"],
    ["pr", "us"],
    ["sup", "pression</w>"],
    ["rar", "ement</w>"],
    ["et", "ti</w>"],
    ["all", "on"],
    ["centr", "e-"],
    ["béné", "fices</w>"],
    ["télé", "film</w>"],
    ["it", "able</w>"],
    ["v", "el</w>"],
    ["al", "ger</w>"],
    ["par", "fait</w>"],
    ["organ", "e</w>"],
    ["cri", "ti"],
    ["organis", "mes</w>"],
    ["pouv", "ez</w>"],
    ["gr", "ille</w>"],
    ["car", "ré</w>"],
    ["républic", "ain</w>"],
    ["ai", "es</w>"],
    ["reg", "ret"],
    ["cad", "av"],
    ["ven", "ues</w>"],
    ["magni", "fique</w>"],
    ["chré", "tien</w>"],
    ["'", "'"],
    ["milli", "ards</w>"],
    ["é", "pau"],
    ["effi", "cace</w>"],
    ["du", "r</w>"],
    ["y", "n</w>"],
    ["hen", "ri"],
    ["numér", "isation</w>"],
    ["l'ex", "périence</w>"],
    ["c", "t"],
    ["ag", "ée</w>"],
    ["fran", "k</w>"],
    ["minist", "éri"],
    ["ay", "a</w>"],
    ["accu", "s"],
    ["li", "cence</w>"],
    ["cou", "sin</w>"],
    ["s'", "inst"],
    ["concentr", "ation</w>"],
    ["end", "ro"],
    ["perfor", "man"],
    ["l'é", "dition</w>"],
    ["fran", "co"],
    ["gar", "dien</w>"],
    ["introdu", "ction</w>"],
    ["ab", "r"],
    ["g", "et</w>"],
    ["ty", "r"],
    ["néer", "landais</w>"],
    ["indi", "rec"],
    ["mar", "ge</w>"],
    ["cit", "ation</w>"],
    ["ar", "ra"],
    ["no", "ple</w>"],
    ["b", "un"],
    ["pati", "ents</w>"],
    ["an", "gu"],
    ["médi", "as</w>"],
    ["déc", "ouvre</w>"],
    ["d’", "eau</w>"],
    ["mor", "al</w>"],
    ["vi", "ande</w>"],
    ["mo", "des</w>"],
    ["enregistr", "é</w>"],
    ["p", "tion</w>"],
    ["peti", "t-"],
    ["racon", "te</w>"],
    ["gr", "os"],
    ["gar", "onne</w>"],
    ["assass", "in"],
    ["ér", "er</w>"],
    ["ra", "les</w>"],
    ["constru", "ctions</w>"],
    ["qu'", "après</w>"],
    ["m", "ais"],
    ["l'", "év"],
    ["co", "qu"],
    ["ch", "ants</w>"],
    ["on", "d</w>"],
    ["én", "on"],
    ["po", "r</w>"],
    ["intégr", "ation</w>"],
    ["de", "z-vous</w>"],
    ["ex", "positions</w>"],
    ["stand", "ard</w>"],
    ["s", "un"],
    ["blac", "k</w>"],
    ["s", "cor"],
    ["vers", "ement</w>"],
    ["fl", "ori"],
    ["grande-", "bretagne</w>"],
    ["et", "on</w>"],
    ["sembl", "ables</w>"],
    ["reg", "istre</w>"],
    ["utilis", "ées</w>"],
    ["constitu", "er</w>"],
    ["ray", "ons</w>"],
    ["mu", "seu"],
    ["concer", "ts</w>"],
    ["des", "tin"],
    ["jus", "que</w>"],
    ["no", "v</w>"],
    ["r", "en</w>"],
    ["orient", "ale</w>"],
    ["mariti", "mes</w>"],
    ["pro", "vi"],
    ["dé", "libér"],
    ["co", "s</w>"],
    ["he", "b"],
    ["ger", "man"],
    ["cour", "rier</w>"],
    ["ch", "é"],
    ["d’", "avoir</w>"],
    ["es", "ter</w>"],
    ["fron", "tières</w>"],
    ["li", "ège</w>"],
    ["dî", "ner</w>"],
    ["diag", "no"],
    ["dé", "marche</w>"],
    ["se", "y</w>"],
    ["qu", "isition</w>"],
    ["vis", "u"],
    ["pro", "spec"],
    ["cal", "ais</w>"],
    ["conn", "exe</w>"],
    ["ra", "ff"],
    ["sé", "bas"],
    ["évê", "ques</w>"],
    ["centi", "mes</w>"],
    ["prouv", "er</w>"],
    ["parall", "èle</w>"],
    ["install", "ations</w>"],
    ["ferrovi", "aire</w>"],
    ["rac", "ine</w>"],
    ["re", "ims</w>"],
    ["indi", "qué</w>"],
    ["th", "u"],
    ["illu", "stre</w>"],
    ["fer", "din"],
    ["aff", "ection</w>"],
    ["cul", "tures</w>"],
    ["lis", "tes</w>"],
    ["m", "ann"],
    ["ê", "</w>"],
    ["pu", "its</w>"],
    ["vi", "es</w>"],
    ["fant", "ai"],
    ["tu", "m</w>"],
    ["f", "el"],
    ["en", "vah"],
    ["radi", "o"],
    ["se", "g"],
    ["paci", "fique</w>"],
    ["subst", "ance</w>"],
    ["m", "eur</w>"],
    ["k", "ol"],
    ["i", "ent</w>"],
    ["bu", "s"],
    ["récompen", "ses</w>"],
    ["pl", "age</w>"],
    ["réus", "sit</w>"],
    ["is", "ait</w>"],
    ["att", "einte</w>"],
    ["net", "tement</w>"],
    ["tou", "</w>"],
    ["accor", "der</w>"],
    ["c’", "était</w>"],
    ["iné", "puis"],
    ["iss", "ante</w>"],
    ["qu", "eurs</w>"],
    ["ob", "tenus</w>"],
    ["pi", "c</w>"],
    ["n", "aiss"],
    ["vrais", "embl"],
    ["s'", "étend</w>"],
    ["dé", "pou"],
    ["ges", "te</w>"],
    ["nourr", "iture</w>"],
    ["mét", "alli"],
    ["comport", "ement</w>"],
    ["nor", "v"],
    ["shi", "re</w>"],
    ["lu", "xe</w>"],
    ["chauss", "ée</w>"],
    ["ver", "ser</w>"],
    ["ac", "cou"],
    ["ar", "bre</w>"],
    ["cho", "isir</w>"],
    ["lieu", "ten"],
    ["log", "ements</w>"],
    ["lu", "m"],
    ["fi", "èvre</w>"],
    ["ser", "ais</w>"],
    ["manifes", "te</w>"],
    ["lo", "r</w>"],
    ["is", "mes</w>"],
    ["d'", "action</w>"],
    ["ch", "ance</w>"],
    ["c", "alier</w>"],
    ["peu", "pl"],
    ["al", "tér"],
    ["tra", "fic</w>"],
    ["huiti", "ème</w>"],
    ["d'am", "our</w>"],
    ["ai", "mé</w>"],
    ["ad", "hér"],
    ["phra", "se</w>"],
    ["supplém", "entaires</w>"],
    ["interprét", "ation</w>"],
    ["pro", "cu"],
    ["effectu", "e</w>"],
    ["d'", "inter"],
    ["méditerran", "ée</w>"],
    ["l’", "union</w>"],
    ["constat", "er</w>"],
    ["l’", "exercice</w>"],
    ["la", "dite</w>"],
    ["ch", "ers</w>"],
    ["norv", "ège</w>"],
    ["ari", "a</w>"],
    ["com", "pr"],
    ["en", "qu"],
    ["fédér", "al</w>"],
    ["profon", "dément</w>"],
    ["ak", "e</w>"],
    ["ém", "issions</w>"],
    ["fémin", "ine</w>"],
    ["sauv", "age</w>"],
    ["pavill", "on</w>"],
    ["ch", "ard</w>"],
    ["e", "z"],
    ["l'ac", "te</w>"],
    ["er", "o</w>"],
    ["véhi", "cule</w>"],
    ["v", "ec"],
    ["pay", "sage</w>"],
    ["bu", "ff"],
    ["sé", "du"],
    ["minu", "te</w>"],
    ["différ", "ences</w>"],
    ["is", "su</w>"],
    ["regar", "der</w>"],
    ["do", "c</w>"],
    ["appli", "cations</w>"],
    ["écr", "iture</w>"],
    ["pré", "vues</w>"],
    ["k", "g</w>"],
    ["mag", "né"],
    ["prési", "denti"],
    ["som", "bre</w>"],
    ["an", "notations</w>"],
    ["bi", "a</w>"],
    ["commun", "al</w>"],
    ["in", "com"],
    ["barcel", "one</w>"],
    ["hér", "it"],
    ["rend", "ent</w>"],
    ["as", "es</w>"],
    ["ü", "</w>"],
    ["effectu", "é</w>"],
    ["précé", "demment</w>"],
    ["multi", "ples</w>"],
    ["é", "trange</w>"],
    ["ch", "ure</w>"],
    ["dis", "solution</w>"],
    ["par", "eil</w>"],
    ["déclar", "ations</w>"],
    ["a", "che</w>"],
    ["i", "u"],
    ["fourni", "t</w>"],
    ["effectu", "er</w>"],
    ["médi", "cam"],
    ["différ", "ente</w>"],
    ["t", "én"],
    ["l'", "un"],
    ["aff", "ai"],
    ["em", "y</w>"],
    ["mar", "bre</w>"],
    ["xx", "ie</w>"],
    ["pri", "ère</w>"],
    ["oubli", "er</w>"],
    ["mod", "alités</w>"],
    ["dis", "si"],
    ["ex", "ions</w>"],
    ["con", "te</w>"],
    ["l'", "opération</w>"],
    ["cam", "p"],
    ["o", "les</w>"],
    ["sav", "ez</w>"],
    ["sou", "tient</w>"],
    ["second", "aires</w>"],
    ["at", "lantique</w>"],
    ["ment", "ation</w>"],
    ["parisi", "enne</w>"],
    ["l", "at</w>"],
    ["in", "fir"],
    ["ren", "fer"],
    ["e", "gr"],
    ["gr", "aci"],
    ["d’", "euros</w>"],
    ["res", "tait</w>"],
    ["bri", "dge</w>"],
    ["mi", "ques</w>"],
    ["pati", "ence</w>"],
    ["ven", "aient</w>"],
    ["ann", "eau</w>"],
    ["as", "s</w>"],
    ["p", "ôt</w>"],
    ["di", "um</w>"],
    ["al", "ph"],
    ["employ", "er</w>"],
    ["danger", "eux</w>"],
    ["l'", "occupation</w>"],
    ["er", "i</w>"],
    ["ro", "ber"],
    ["esti", "mé</w>"],
    ["w", "est</w>"],
    ["ur", "gence</w>"],
    ["no", "ter</w>"],
    ["dess", "in"],
    ["oc", "r"],
    ["tu", "eux</w>"],
    ["at", "ed</w>"],
    ["d", "ru"],
    ["ail", "leur</w>"],
    ["h", "un"],
    ["mis", "si"],
    ["o", "po"],
    ["f", "li"],
    ["au", "x-"],
    ["magas", "ins</w>"],
    ["mari", "é</w>"],
    ["ac", "tionnaires</w>"],
    ["circonst", "ance</w>"],
    ["k", "al"],
    ["cl", "airement</w>"],
    ["hy", "gi"],
    ["re", "d"],
    ["situ", "és</w>"],
    ["migr", "ation</w>"],
    ["b", "ail</w>"],
    ["pe", "int</w>"],
    ["éch", "anges</w>"],
    ["do", "y"],
    ["débu", "te</w>"],
    ["l'", "attention</w>"],
    ["qu", "eue</w>"],
    ["ex", "ag"],
    ["l", "ées</w>"],
    ["tar", "es</w>"],
    ["am", "us"],
    ["ser", "p"],
    ["museu", "m</w>"],
    ["vari", "étés</w>"],
    ["instaur", "ant</w>"],
    ["cham", "p"],
    ["m", "œurs</w>"],
    ["do", "t</w>"],
    ["fl", "eur"],
    ["re", "groupe</w>"],
    ["t", "est</w>"],
    ["dign", "ité</w>"],
    ["m", "p</w>"],
    ["constitu", "ée</w>"],
    ["f", "o</w>"],
    ["so", "y"],
    ["o", "ff</w>"],
    ["m", "c</w>"],
    ["t", "êtes</w>"],
    ["ret", "ard</w>"],
    ["hol", "lande</w>"],
    ["loc", "alisation</w>"],
    ["fabri", "que</w>"],
    ["cat", "eurs</w>"],
    ["u", "p</w>"],
    ["fr", "au"],
    ["ray", "on</w>"],
    ["convers", "ation</w>"],
    ["ab", "ou"],
    ["myst", "éri"],
    ["bri", "s</w>"],
    ["lo", "cu"],
    ["at", "aires</w>"],
    ["car", "to"],
    ["hél", "as</w>"],
    ["m", "aires</w>"],
    ["mon", "té</w>"],
    ["em", "manuel</w>"],
    ["dur", "able</w>"],
    ["apprentiss", "age</w>"],
    ["cri", "mes</w>"],
    ["camar", "ades</w>"],
    ["dem", "ie</w>"],
    ["mobili", "er</w>"],
    ["ach", "eter</w>"],
    ["am", "i"],
    ["é", "-"],
    ["atu", "s</w>"],
    ["char", "ité</w>"],
    ["ng", "c</w>"],
    ["manus", "crit</w>"],
    ["securi", "ties</w>"],
    ["æ", "</w>"],
    ["lev", "a</w>"],
    ["viv", "ants</w>"],
    ["l'", "observatoire</w>"],
    ["adop", "tion</w>"],
    ["ag", "i"],
    ["mer", "ci</w>"],
    ["a", "ér"],
    ["dimen", "sion</w>"],
    ["s'", "adresser</w>"],
    ["b", "d</w>"],
    ["han", "di"],
    ["m", "ens"],
    ["li", "v</w>"],
    ["dom", "mages</w>"],
    ["colle", "ge</w>"],
    ["é", "min"],
    ["fer", "ait</w>"],
    ["au", "th"],
    ["l'in", "formation</w>"],
    ["appli", "que</w>"],
    ["d", "v"],
    ["trans", "fér"],
    ["d", "al</w>"],
    ["lè", "vement</w>"],
    ["dépen", "se</w>"],
    ["prot", "é"],
    ["méri", "di"],
    ["le", "s-"],
    ["manu", "fac"],
    ["édit", "eur</w>"],
    ["n", "at</w>"],
    ["ar", "ch</w>"],
    ["man", "ches</w>"],
    ["qu’", "elles</w>"],
    ["péri", "odes</w>"],
    ["h", "aw"],
    ["indi", "quer</w>"],
    ["é", "preuve</w>"],
    ["sym", "phon"],
    ["inspi", "ré</w>"],
    ["regar", "ds</w>"],
    ["témoign", "age</w>"],
    ["cré", "ances</w>"],
    ["err", "eurs</w>"],
    ["département", "ale</w>"],
    ["carol", "ine</w>"],
    ["or", "um</w>"],
    ["dom", "es"],
    ["rentr", "er</w>"],
    ["lu", "cien</w>"],
    ["trent", "e-"],
    ["re", "pose</w>"],
    ["cons", "écu"],
    ["su", "s-"],
    ["aut", "el</w>"],
    ["inst", "ance</w>"],
    ["sign", "al</w>"],
    ["reli", "ef</w>"],
    ["l'é", "preuve</w>"],
    ["dispu", "te</w>"],
    ["bertr", "and</w>"],
    ["capa", "bles</w>"],
    ["ber", "ger</w>"],
    ["photo", "graph"],
    ["for", "tun"],
    ["d'ar", "mes</w>"],
    ["dé", "posé</w>"],
    ["ru", "ines</w>"],
    ["ty", "pologie</w>"],
    ["trou", "ble</w>"],
    ["ext", "érieur</w>"],
    ["us", "alem</w>"],
    ["ac", "cidents</w>"],
    ["aci", "er</w>"],
    ["k", "or"],
    ["ci-", "après</w>"],
    ["patr", "on</w>"],
    ["mo", "tiv"],
    ["opér", "ationn"],
    ["par", "eille</w>"],
    ["sec", "tions</w>"],
    ["en", "voie</w>"],
    ["inform", "atique</w>"],
    ["organ", "ise</w>"],
    ["g", "érie</w>"],
    ["jean-", "pierre</w>"],
    ["in", "c</w>"],
    ["s'écri", "a</w>"],
    ["port", "ation</w>"],
    ["nev", "eu</w>"],
    ["industri", "els</w>"],
    ["fin", "lande</w>"],
    ["k", "om"],
    ["ju", "</w>"],
    ["lé", "on"],
    ["s", "ati"],
    ["z", "y</w>"],
    ["ex", "-"],
    ["noti", "ce</w>"],
    ["prét", "exte</w>"],
    ["s", "p</w>"],
    ["i", "an</w>"],
    ["au", "l"],
    ["en", "e</w>"],
    ["in", "dépendant</w>"],
    ["phos", "ph"],
    ["collè", "gues</w>"],
    ["antiqu", "ité</w>"],
    ["conserv", "ateur</w>"],
    ["ad", "am</w>"],
    ["du", "t</w>"],
    ["bou", "te"],
    ["jean-", "baptiste</w>"],
    ["h", "r"],
    ["l'", "opéra</w>"],
    ["sant", "a</w>"],
    ["délégu", "és</w>"],
    ["popul", "aires</w>"],
    ["n", "aît</w>"],
    ["pens", "ées</w>"],
    ["ci", "ble</w>"],
    ["préci", "s</w>"],
    ["féli", "x</w>"],
    ["pay", "é</w>"],
    ["fix", "er</w>"],
    ["pl", "at</w>"],
    ["réserv", "es</w>"],
    ["l", "aine</w>"],
    ["s", "emi-"],
    ["accessi", "ble</w>"],
    ["grec", "que</w>"],
    ["identi", "fi"],
    ["gu", "</w>"],
    ["d", "ent"],
    ["cli", "p"],
    ["col", "l</w>"],
    ["-", "--</w>"],
    ["environn", "ement"],
    ["l'ex", "ploitation</w>"],
    ["c", "ens"],
    ["ai", "gne</w>"],
    ["po", "t</w>"],
    ["p", "c</w>"],
    ["mén", "age</w>"],
    ["élec", "teurs</w>"],
    ["test", "ament</w>"],
    ["eu", "l</w>"],
    ["dét", "ec"],
    ["dési", "r"],
    ["détermin", "é</w>"],
    ["ori", "al</w>"],
    ["ass", "er</w>"],
    ["po", "issons</w>"],
    ["frapp", "é</w>"],
    ["sou", "tenu</w>"],
    ["propr", "ement</w>"],
    ["dev", "ons</w>"],
    ["re", "aux</w>"],
    ["é", "colo"],
    ["ad", "mi"],
    ["élev", "és</w>"],
    ["pou", "sse</w>"],
    ["univers", "el</w>"],
    ["constanti", "nople</w>"],
    ["s", "is"],
    ["tou", "cher</w>"],
    ["ni", "es</w>"],
    ["exempl", "aires</w>"],
    ["rel", "ève</w>"],
    ["eg", "yp"],
    ["spéci", "fiques</w>"],
    ["k", "u</w>"],
    ["s'", "élève</w>"],
    ["re", "tourne</w>"],
    ["écriv", "ains</w>"],
    ["oi", "gne</w>"],
    ["ad", "or"],
    ["destin", "ées</w>"],
    ["cor", "n"],
    ["v", "ent"],
    ["ès-", "ver"],
    ["crit", "ères</w>"],
    ["énor", "me</w>"],
    ["re", "p"],
    ["gr", "ains</w>"],
    ["parti", "sans</w>"],
    ["travaill", "é</w>"],
    ["val", "oir</w>"],
    ["habit", "ation</w>"],
    ["h", "n</w>"],
    ["celles-", "ci</w>"],
    ["capit", "aux</w>"],
    ["tri", "ques</w>"],
    ["puis", "qu'il</w>"],
    ["indivi", "du</w>"],
    ["dynas", "tie</w>"],
    ["o", "a</w>"],
    ["tend", "ant</w>"],
    ["accor", "ds</w>"],
    ["l", "ète</w>"],
    ["pi", "tié</w>"],
    ["é", "tro"],
    ["mo", "teurs</w>"],
    ["gr", "ati"],
    ["répon", "du</w>"],
    ["retourn", "er</w>"],
    ["eti", "enne</w>"],
    ["l'", "univers</w>"],
    ["plu", "me</w>"],
    ["in", "de</w>"],
    ["no", "r</w>"],
    ["ro", "che"],
    ["collec", "tions</w>"],
    ["har", "mon"],
    ["jam", "bes</w>"],
    ["amélior", "er</w>"],
    ["s", "ér"],
    ["contin", "ent</w>"],
    ["qu'", "aux</w>"],
    ["cour", "ants</w>"],
    ["législ", "ature</w>"],
    ["senti", "r</w>"],
    ["infrastruc", "tures</w>"],
    ["d'", "u"],
    ["hél", "ène</w>"],
    ["préc", "ision</w>"],
    ["civ", "ils</w>"],
    ["olog", "y</w>"],
    ["trouv", "aient</w>"],
    ["an", "é"],
    ["révolu", "tionnaire</w>"],
    ["d'", "allemagne</w>"],
    ["pein", "tures</w>"],
    ["op", "ti"],
    ["aug", "mente</w>"],
    ["trom", "p"],
    ["assi", "mil"],
    ["lec", "teur</w>"],
    ["patron", "yme</w>"],
[...]
