{
  "vocab_size": 32000,
  "min_freq": 2,
  "merges": [
    ["e", "</w>"],
    ["s", "</w>"],
    ["t", "</w>"],
    ["e", "n"],
    ["e", "s</w>"],
    ["o", "n"],
    ["d", "e</w>"],
    ["a", "n"],
    ["a", "</w>"],
    ["r", "</w>"],
    ["t", "i"],
    ["l", "e</w>"],
    ["i", "n"],
    ["o", "u"],
    ["q", "u"],
    ["a", "r"],
    ["e", "r"],
    ["l", "a</w>"],
    ["on", "</w>"],
    ["r", "e</w>"],
    ["i", "s"],
    ["u", "</w>"],
    ["a", "l"],
    ["u", "n"],
    ["e", "t</w>"],
    ["o", "r"],
    ["i", "l"],
    ["e", "s"],
    ["en", "</w>"],
    ["e", "u"],
    ["c", "h"],
    ["e", "m"],
    ["p", "r"],
    ["é", "</w>"],
    ["e", "l"],
    ["t", "r"],
    ["o", "m"],
    ["à", "</w>"],
    ["a", "i"],
    ["en", "t</w>"],
    ["l", "es</w>"],
    ["i", "t"],
    ["a", "u"],
    ["i", "</w>"],
    ["l", "'"],
    ["d", "es</w>"],
    ["e", "r</w>"],
    ["p", "a"],
    ["t", "e</w>"],
    ["d", "u</w>"],
    ["qu", "e</w>"],
    ["l", "i"],
    ["ti", "on</w>"],
    ["c", "e</w>"],
    ["é", "r"],
    ["es", "t</w>"],
    ["s", "u"],
    ["d", "'"],
    ["s", "i"],
    ["c", "on"],
    ["a", "t"],
    ["d", "i"],
    ["a", "m"],
    ["r", "é"],
    ["o", "i"],
    ["d", "</w>"],
    ["x", "</w>"],
    ["a", "v"],
    ["e", "c"],
    ["d", "é"],
    ["d", "an"],
    ["un", "e</w>"],
    ["un", "</w>"],
    ["c", "om"],
    ["il", "</w>"],
    ["o", "l"],
    ["a", "u</w>"],
    ["c", "i"],
    ["p", "ar"],
    ["s", "e</w>"],
    ["m", "e</w>"],
    ["i", "e</w>"],
    ["a", "g"],
    ["a", "c"],
    ["é", "t"],
    ["p", "l"],
    ["dan", "s</w>"],
    ["n", "e</w>"],
    ["em", "ent</w>"],
    ["é", "e</w>"],
    ["g", "r"],
    ["en", "t"],
    ["an", "t</w>"],
    ["a", "in"],
    ["a", "s"],
    ["r", "i"],
    ["o", "</w>"],
    ["eu", "r</w>"],
    ["a", "p"],
    ["ou", "r</w>"],
    ["r", "e"],
    ["pa", "r</w>"],
    ["p", "o"],
    ["a", "tion</w>"],
    ["y", "</w>"],
    ["e", "x"],
    ["v", "i"],
    ["ou", "r"],
    ["a", "ti"],
    ["e", "t"],
    ["a", "b"],
    ["al", "</w>"],
    ["p", "our</w>"],
    ["o", "t"],
    ["on", "s</w>"],
    ["f", "r"],
    ["on", "t</w>"],
    ["t", "er"],
    ["-", "</w>"],
    ["pr", "o"],
    ["el", "le</w>"],
    ["p", "u"],
    ["i", "s</w>"],
    ["t", "u"],
    ["r", "es</w>"],
    ["r", "o"],
    ["ou", "v"],
    ["t", "re</w>"],
    ["ai", "t</w>"],
    ["a", "is"],
    ["su", "r</w>"],
    ["s", "t"],
    ["in", "</w>"],
    ["on", "n"],
    ["g", "u"],
    ["an", "</w>"],
    ["i", "c"],
    ["qu", "i</w>"],
    ["au", "x</w>"],
    ["s", "on</w>"],
    ["u", "s</w>"],
    ["t", "h"],
    ["è", "re</w>"],
    ["c", "es</w>"],
    ["é", "s</w>"],
    ["ec", "</w>"],
    ["m", "ar"],
    ["è", "s</w>"],
    ["d", "u"],
    ["ai", "s</w>"],
    ["il", "l"],
    ["c", "u"],
    ["i", "m"],
    ["s", "e"],
    ["el", "</w>"],
    ["c", "l"],
    ["f", "f"],
    ["fr", "an"],
    ["p", "or"],
    ["p", "i"],
    ["eu", "r"],
    ["av", "ec</w>"],
    ["it", "é</w>"],
    ["a", "le</w>"],
    ["ai", "re</w>"],
    ["a", "d"],
    ["t", "s</w>"],
    ["eu", "x</w>"],
    ["qu", "es</w>"],
    ["m", "on"],
    ["p", "h"],
    ["é", "l"],
    ["f", "or"],
    ["com", "m"],
    ["v", "er"],
    ["i", "que</w>"],
    ["m", "</w>"],
    ["d", "e"],
    ["o", "c"],
    ["pr", "é"],
    ["p", "er"],
    ["g", "</w>"],
    ["eur", "s</w>"],
    ["b", "u"],
    ["s", "s"],
    ["is", "t"],
    ["f", "</w>"],
    ["p", "e</w>"],
    ["é", "es</w>"],
    ["an", "n"],
    ["m", "o"],
    ["g", "n"],
    ["c", "o"],
    ["il", "le</w>"],
    ["é", "g"],
    ["al", "l"],
    ["é", "n"],
    ["oi", "s</w>"],
    ["b", "i"],
    ["ag", "e</w>"],
    ["a", "t</w>"],
    ["s", "an"],
    ["par", "ti"],
    ["u", "s"],
    ["c", "</w>"],
    ["ou", "</w>"],
    ["in", "e</w>"],
    ["it", "e</w>"],
    ["b", "r"],
    ["s", "es</w>"],
    ["pl", "us</w>"],
    ["k", "</w>"],
    ["g", "e</w>"],
    ["an", "d"],
    ["ét", "é</w>"],
    ["l", "’"],
    ["s", "er"],
    ["s", "a</w>"],
    ["l", "u"],
    ["n", "om"],
    ["t", "es</w>"],
    ["en", "s</w>"],
    ["s", "ont</w>"],
    ["l", "e"],
    ["m", "in"],
    ["qu", "'"],
    ["o", "p"],
    ["em", "i"],
    ["c", "ar"],
    ["o", "b"],
    ["f", "i"],
    ["em", "b"],
    ["n", "</w>"],
    ["s", "o"],
    ["is", "e</w>"],
    ["dé", "c"],
    ["g", "i"],
    ["t", "ou"],
    ["s", "ou"],
    ["t", "é</w>"],
    ["f", "ér"],
    ["d", "is"],
    ["et", "te</w>"],
    ["en", "ces</w>"],
    ["ent", "s</w>"],
    ["an", "d</w>"],
    ["pr", "emi"],
    ["tr", "i"],
    ["ér", "i"],
    ["n", "i"],
    ["v", "e</w>"],
    ["n", "es</w>"],
    ["is", "te</w>"],
    ["n", "ot"],
    ["ap", "h"],
    ["e", "-"],
    ["b", "li"],
    ["or", "s</w>"],
    ["l", "</w>"],
    ["oi", "re</w>"],
    ["er", "s</w>"],
    ["u", "r"],
    ["c", "ol"],
    ["oi", "r</w>"],
    ["m", "i"],
    ["or", "i"],
    ["fran", "ç"],
    ["p", "e"],
    ["t", "en"],
    ["f", "il"],
    ["j", "e"],
    ["gr", "aph"],
    ["a", "s</w>"],
    ["ain", "</w>"],
    ["e", "au</w>"],
    ["an", "g"],
    ["o", "g"],
    ["ré", "fér"],
    ["en", "ce</w>"],
    ["un", "i"],
    ["s", "'"],
    ["ch", "e</w>"],
    ["s", "tr"],
    ["b", "er"],
    ["é", "v"],
    ["d", "’"],
    ["tr", "es</w>"],
    ["as", "s"],
    ["ati", "ons</w>"],
    ["si", "on</w>"],
    ["pr", "ès</w>"],
    ["ti", "ons</w>"],
    ["é", "d"],
    ["i", "t</w>"],
    ["m", "a"],
    ["com", "me</w>"],
    ["é", "m"],
    ["t", "-"],
    ["ti", "que</w>"],
    ["p", "</w>"],
    ["ent", "re</w>"],
    ["m", "es</w>"],
    ["p", "en"],
    ["référ", "ences</w>"],
    ["es", "s"],
    ["c", "our"],
    ["d", "eux</w>"],
    ["al", "i"],
    ["u", "e</w>"],
    ["h", "</w>"],
    ["z", "</w>"],
    ["m", "u"],
    ["s", "c"],
    ["c", "ette</w>"],
    ["au", "t"],
    ["pu", "is</w>"],
    ["m", "an"],
    ["in", "ter"],
    ["j", "u"],
    ["h", "ist"],
    ["l", "o"],
    ["n", "ati"],
    ["r", "ec"],
    ["f", "on"],
    ["en", "ne</w>"],
    ["l", "an"],
    ["en", "tr"],
    ["al", "ement</w>"],
    ["ar", "d</w>"],
    ["è", "me</w>"],
    ["o", "graph"],
    ["c", "or"],
    ["v", "en"],
    ["m", "ais</w>"],
    ["nati", "on"],
    ["r", "a"],
    ["ain", "e</w>"],
    ["ar", "ti"],
    ["pu", "bli"],
    ["pa", "s</w>"],
    ["po", "s"],
    ["con", "n"],
    ["c", "ou"],
    ["j", "ou"],
    ["i", "v"],
    ["j", "o"],
    ["r", "es"],
    ["is", "i"],
    ["s", "ain"],
    ["c", "an"],
    ["au", "ss"],
    ["r", "en"],
    ["e", "v"],
    ["a", "près</w>"],
    ["é", "di"],
    ["f", "in"],
    ["an", "s</w>"],
    ["f", "u"],
    ["so", "ci"],
    ["it", "u"],
    ["oi", "t</w>"],
    ["h", "u"],
    ["ch", "am"],
    ["ai", "res</w>"],
    ["s", "i</w>"],
    ["san", "ce</w>"],
    ["por", "t"],
    ["er", "re</w>"],
    ["not", "es</w>"],
    ["pré", "s"],
    ["s", "y"],
    ["en", "ti"],
    ["auss", "i</w>"],
    ["el", "l"],
    ["t", "em"],
    ["th", "e</w>"],
    ["c", "e"],
    ["al", "is"],
    ["m", "ent</w>"],
    ["m", "or"],
    ["f", "ait</w>"],
    ["n", "ouv"],
    ["a", "ce</w>"],
    ["n", "o"],
    ["a", "y"],
    ["v", "o"],
    ["d'", "un</w>"],
    ["t", "e"],
    ["l'", "é"],
    ["d", "er"],
    ["ex", "ter"],
    ["ais", "on</w>"],
    ["el", "les</w>"],
    ["g", "én"],
    ["c", "r"],
    ["an", "ts</w>"],
    ["ouv", "er"],
    ["d", "r"],
    ["g", "ne</w>"],
    ["fran", "ce</w>"],
    ["n", "or"],
    ["ti", "n"],
    ["ais", "sance</w>"],
    ["tu", "re</w>"],
    ["cu", "l"],
    ["d'", "une</w>"],
    ["li", "ens</w>"],
    ["qu", "i"],
    ["a", "r</w>"],
    ["b", "</w>"],
    ["in", "s</w>"],
    ["m", "il"],
    ["c", "er"],
    ["al", "es</w>"],
    ["ch", "</w>"],
    ["s", "-"],
    ["t", "eur</w>"],
    ["j", "our"],
    ["pr", "in"],
    ["c", "ri"],
    ["dan", "t</w>"],
    ["per", "s"],
    ["d", "es"],
    ["ê", "me</w>"],
    ["exter", "nes</w>"],
    ["ograph", "ie</w>"],
    ["b", "o"],
    ["s", "ti"],
    ["p", "é"],
    ["ci", "p"],
    ["p", "s</w>"],
    ["gr", "ou"],
    ["t", "a"],
    ["m", "at"],
    ["su", "r"],
    ["e", "u</w>"],
    ["l", "eur</w>"],
    ["ê", "tre</w>"],
    ["ch", "ar"],
    ["p", "eu"],
    ["c", "tion</w>"],
    ["r", "em"],
    ["s", "or"],
    ["d", "re</w>"],
    ["l", "is"],
    ["n", "aissance</w>"],
    ["g", "ar"],
    ["m", "e"],
    ["si", "d"],
    ["am", "ér"],
    ["s", "h"],
    ["franç", "ais</w>"],
    ["ver", "s"],
    ["emb", "re</w>"],
    ["tr", "av"],
    ["l'", "in"],
    ["o", "r</w>"],
    ["comm", "une</w>"],
    ["fil", "m</w>"],
    ["m", "ême</w>"],
    ["w", "</w>"],
    ["v", "ille</w>"],
    ["sou", "s</w>"],
    ["str", "u"],
    ["r", "el"],
    ["pl", "u"],
    ["for", "m"],
    ["n", "'"],
    ["n", "e"],
    ["c", "ré"],
    ["b", "ar"],
    ["comm", "un"],
    ["pro", "du"],
    ["è", "res</w>"],
    ["t", "ér"],
    ["gén", "ér"],
    ["a", "f"],
    ["b", "l"],
    ["ai", "ent</w>"],
    ["sain", "t-"],
    ["i", "r"],
    ["ol", "og"],
    ["nom", "</w>"],
    ["an", "de</w>"],
    ["r", "om"],
    ["an", "ce</w>"],
    ["d", "ont</w>"],
    ["pr", "i"],
    ["r", "ou"],
    ["f", "l"],
    ["il", "s</w>"],
    ["ét", "ait</w>"],
    ["tr", "o"],
    ["po", "li"],
    ["j", "us"],
    ["ap", "p"],
    ["u", "ti"],
    ["al", "ité</w>"],
    ["cham", "pi"],
    ["ais", "e</w>"],
    ["pr", "en"],
    ["v", "ol"],
    ["an", "t"],
    ["an", "ci"],
    ["h", "om"],
    ["pers", "onn"],
    ["ù", "</w>"],
    ["gu", "e</w>"],
    ["ti", "v"],
    ["o", "ù</w>"],
    ["an", "s"],
    ["par", "is</w>"],
    ["ver", "s</w>"],
    ["d", "o"],
    ["di", "ff"],
    ["s", "itu"],
    ["s", "ol"],
    ["l", "on"],
    ["amér", "ic"],
    ["él", "ec"],
    ["ég", "alement</w>"],
    ["l", "ors</w>"],
    ["b", "re</w>"],
    ["t", "our"],
    ["premi", "er</w>"],
    ["au", "tres</w>"],
    ["c", "in"],
    ["n", "é</w>"],
    ["ain", "si</w>"],
    ["premi", "ère</w>"],
    ["r", "u"],
    ["t", "er</w>"],
    ["c", "le</w>"],
    ["lu", "i</w>"],
    ["on", "ne</w>"],
    ["or", "g"],
    ["a", "î"],
    ["ag", "es</w>"],
    ["f", "ois</w>"],
    ["al", "ors</w>"],
    ["o", "ff"],
    ["ch", "e"],
    ["ar", "i"],
    ["b", "e"],
    ["at", "s</w>"],
    ["de", "puis</w>"],
    ["p", "éri"],
    ["ser", "v"],
    ["l", "a"],
    ["hist", "oire</w>"],
    ["si", "è"],
    ["pa", "y"],
    ["it", "és</w>"],
    ["av", "i"],
    ["cl", "u"],
    ["in", "g"],
    ["ré", "gi"],
    ["con", "tre</w>"],
    ["d", "s</w>"],
    ["am", "</w>"],
    ["s", "é"],
    ["œ", "u"],
    ["l'", "ar"],
    ["o", "f</w>"],
    ["pen", "dant</w>"],
    ["p", "on"],
    ["an", "te</w>"],
    ["v", "</w>"],
    ["t", "ant</w>"],
    ["g", "e"],
    ["es", "se</w>"],
    ["eu", "ro"],
    ["in", "g</w>"],
    ["b", "le</w>"],
    ["o", "s</w>"],
    ["su", "ite</w>"],
    ["ain", "s</w>"],
    ["d", "a"],
    ["u", "re</w>"],
    ["parti", "e</w>"],
    ["grou", "pe</w>"],
    ["c", "at"],
    ["tr", "ouv"],
    ["f", "am"],
    ["e", "ff"],
    ["t", "on</w>"],
    ["en", "te</w>"],
    ["mu", "si"],
    ["ori", "g"],
    ["is", "s"],
    ["con", "tr"],
    ["b", "at"],
    ["c", "a"],
    ["il", "i"],
    ["t", "ement</w>"],
    ["b", "a"],
    ["prés", "ent"],
    ["é", "p"],
    ["ab", "le</w>"],
    ["em", "ents</w>"],
    ["v", "oir</w>"],
    ["h", "o"],
    ["f", "o"],
    ["f", "er"],
    ["b", "as"],
    ["déc", "ès</w>"],
    ["col", "l"],
    ["ét", "u"],
    ["qu'", "il</w>"],
    ["el", "s</w>"],
    ["pu", "l"],
    ["ter", "r"],
    ["uni", "vers"],
    ["ér", "ie</w>"],
    ["po", "si"],
    ["sti", "tu"],
    ["it", "s</w>"],
    ["in", "t</w>"],
    ["ann", "ées</w>"],
    ["c", "am"],
    ["at", "eur</w>"],
    ["c", "el"],
    ["d", "om"],
    ["nation", "al</w>"],
    ["b", "all"],
    ["a", "ff"],
    ["tr", "ois</w>"],
    ["ti", "onn"],
    ["x", "i"],
    ["tou", "t</w>"],
    ["por", "t</w>"],
    ["com", "p"],
    ["tr", "ans"],
    ["all", "em"],
    ["v", "ill"],
    ["a", "z"],
    ["con", "stru"],
    ["gu", "erre</w>"],
    ["f", "in</w>"],
    ["ré", "alis"],
    ["g", "en"],
    ["t", "our</w>"],
    ["i", "ci"],
    ["fu", "t</w>"],
    ["av", "ant</w>"],
    ["c", "'"],
    ["vi", "ent</w>"],
    ["n", "u"],
    ["di", "rec"],
    ["b", "ou"],
    ["min", "is"],
    ["cour", "s</w>"],
    ["on", "e</w>"],
    ["s", "eu"],
    ["en", "s"],
    ["uti", "lis"],
    ["a", "di"],
    ["d", "ou"],
    ["i", "gn"],
    ["y", "m"],
    ["ai", "</w>"],
    ["i", "r</w>"],
    ["l", "ou"],
    ["vi", "c"],
    ["è", "ne</w>"],
    ["an", "is"],
    ["ti", "</w>"],
    ["si", "eurs</w>"],
    ["p", "es</w>"],
    ["mon", "de</w>"],
    ["m", "et"],
    ["v", "re</w>"],
    ["b", "our"],
    ["der", "ni"],
    ["vi", "r"],
    ["th", "é"],
    ["au", "r"],
    ["a", "ill"],
    ["su", "iv"],
    ["t", "él"],
    ["plu", "sieurs</w>"],
    ["d", "onn"],
    ["gr", "and</w>"],
    ["dé", "par"],
    ["peu", "t</w>"],
    ["l", "iste</w>"],
    ["si", "gn"],
    ["a", "k"],
    ["f", "ic"],
    ["c", "ap"],
    ["ch", "i"],
    ["es", "p"],
    ["isi", "on</w>"],
    ["ch", "an"],
    ["m", "al"],
    ["ex", "es</w>"],
    ["s", "el"],
    ["g", "l"],
    ["tu", "r"],
    ["j", "et</w>"],
    ["ti", "ques</w>"],
    ["mar", "i"],
    ["s", "aison</w>"],
    ["s", "érie</w>"],
    ["ro", "y"],
    ["d'", "ar"],
    ["pr", "es"],
    ["jou", "eur</w>"],
    ["o", "de</w>"],
    ["p", "le</w>"],
    ["d", "on"],
    ["pa", "gn"],
    ["s", "ec"],
    ["é", "qui"],
    ["u", "l"],
    ["f", "es"],
    ["c", "les</w>"],
    ["tem", "ps</w>"],
    ["mor", "t</w>"],
    ["se", "con"],
    ["av", "oir</w>"],
    ["m", "é"],
    ["b", "el"],
    ["cer", "t"],
    ["v", "ie</w>"],
    ["s", "ci"],
    ["v", "el"],
    ["pe", "ti"],
    ["dé", "m"],
    ["r", "ap"],
    ["l", "oc"],
    ["v", "in"],
    ["m", "é</w>"],
    ["n", "é"],
    ["m", "ée</w>"],
    ["san", "s</w>"],
    ["t", "y"],
    ["pa", "ss"],
    ["s", "al"],
    ["f", "s</w>"],
    ["i", "d"],
    ["s", "ite</w>"],
    ["bu", "t</w>"],
    ["jus", "qu'"],
    ["il", "les</w>"],
    ["ti", "tre</w>"],
    ["c'", "est</w>"],
    ["t", "o"],
    ["n", "at"],
    ["ap", "par"],
    ["g", "h"],
    ["tr", "ès</w>"],
    ["po", "pul"],
    ["pay", "s</w>"],
    ["mon", "t"],
    ["ch", "er"],
    ["v", "al"],
    ["ri", "ère</w>"],
    ["fam", "ille</w>"],
    ["ac", "</w>"],
    ["h", "ab"],
    ["v", "is"],
    ["p", "al"],
    ["pré", "sid"],
    ["h", "ar"],
    ["eu", "se</w>"],
    ["pl", "ace</w>"],
    ["poli", "tique</w>"],
    ["p", "tion</w>"],
    ["e", "d"],
    ["a", "de</w>"],
    ["am", "ment</w>"],
    ["l", "ég"],
    ["eu", "re</w>"],
    ["s", "ch"],
    ["m", "en"],
    ["m", "éd"],
    ["l", "ise</w>"],
    ["v", "oi"],
    ["f", "em"],
    ["d", "-"],
    ["se", "p"],
    ["ét", "at</w>"],
    ["h", "i"],
    ["por", "te</w>"],
    ["su", "l"],
    ["en", "n"],
    ["è", "r"],
    ["b", "or"],
    ["sel", "on</w>"],
    ["ser", "vi"],
    ["ain", "es</w>"],
    ["l", "ement</w>"],
    ["u", "m</w>"],
    ["s", "p"],
    ["ann", "ée</w>"],
    ["franç", "aise</w>"],
    ["pri", "x</w>"],
    ["nor", "d</w>"],
    ["d", "em"],
    ["olog", "ie</w>"],
    ["arti", "cles</w>"],
    ["s", "k"],
    ["champi", "onn"],
    ["tri", "bu"],
    ["améric", "ain</w>"],
    ["prin", "cip"],
    ["v", "es</w>"],
    ["al", "bu"],
    ["m", "ag"],
    ["con", "se"],
    ["a", "ch"],
    ["ang", "l"],
    ["a", "ille</w>"],
    ["l", "or"],
    ["r", "é</w>"],
    ["et", "s</w>"],
    ["l", "eurs</w>"],
    ["ber", "t</w>"],
    ["an", "ti"],
    ["g", "es</w>"],
    ["li", "m"],
    ["h", "er"],
    ["ch", "a"],
    ["c", "al"],
    ["h", "e"],
    ["bi", "bli"],
    ["ét", "at"],
    ["ag", "ne</w>"],
    ["in", "t"],
    ["p", "ol"],
    ["un", "is</w>"],
    ["nation", "ale</w>"],
    ["bi", "en</w>"],
    ["su", "d</w>"],
    ["mo", "ins</w>"],
    ["o", "s"],
    ["ch", "es</w>"],
    ["pl", "ac"],
    ["génér", "al</w>"],
    ["g", "é"],
    ["qu", "at"],
    ["r", "on"],
    ["du", "r"],
    ["in", "di"],
    ["c", "ô"],
    ["vel", "op"],
    ["in", "es</w>"],
    ["org", "anis"],
    ["j", "ac"],
    ["de", "v"],
    ["b", "ri"],
    ["m", "et</w>"],
    ["av", "ait</w>"],
    ["ê", "te</w>"],
    ["ati", "que</w>"],
    ["off", "ici"],
    ["é", "li"],
    ["g", "ouver"],
    ["qu", "el"],
    ["siè", "cle</w>"],
    ["me", "ill"],
    ["clu", "b</w>"],
    ["ar", "ch"],
    ["t", "or"],
    ["è", "ce</w>"],
    ["x", "e</w>"],
    ["posi", "tion</w>"],
    ["not", "amment</w>"],
    ["nom", "br"],
    ["univers", "ité</w>"],
    ["diff", "ér"],
    ["im", "port"],
    ["pren", "d</w>"],
    ["gouver", "n"],
    ["pr", "ot"],
    ["c", "c"],
    ["je", "an"],
    ["ball", "</w>"],
    ["v", "ent</w>"],
    ["i", "i</w>"],
    ["c", "ro"],
    ["en", "f"],
    ["ell", "ement</w>"],
    ["t", "om"],
    ["fon", "d"],
    ["l'", "ex"],
    ["jour", "s</w>"],
    ["l'", "ac"],
    ["dé", "velop"],
    ["r", "is"],
    ["c", "y"],
    ["li", "gne</w>"],
    ["c", "entr"],
    ["ti", "f</w>"],
    ["ég", "lise</w>"],
    ["m", "is"],
    ["régi", "on</w>"],
    ["pi", "erre</w>"],
    ["bi", "ographie</w>"],
    ["n", "on</w>"],
    ["t", "a</w>"],
    ["ol", "</w>"],
    ["p", "au"],
    ["m", "as"],
    ["ô", "le</w>"],
    ["i", "ques</w>"],
    ["a", "y</w>"],
    ["for", "me</w>"],
    ["dé", "f"],
    ["o", "is"],
    ["en", "vir"],
    ["cl", "as"],
    ["p", "our"],
    ["e", "aux</w>"],
    ["le", "-"],
    ["er", "ie</w>"],
    ["conn", "exes</w>"],
    ["pl", "o"],
    ["s-", "unis</w>"],
    ["d", "eu"],
    ["co", "re</w>"],
    ["h", "au"],
    ["z", "e</w>"],
    ["cl", "ass"],
    ["ch", "â"],
    ["état", "s-unis</w>"],
    ["f", "ace</w>"],
    ["l", "ar"],
    ["m", "us"],
    ["e", "d</w>"],
    ["tr", "ai"],
    ["b", "e</w>"],
    ["li", "eu</w>"],
    ["albu", "m</w>"],
    ["au", "tre</w>"],
    ["ou", "est</w>"],
    ["par", "t</w>"],
    ["di", "e</w>"],
    ["é", "cri"],
    ["mo", "y"],
    ["d", "er</w>"],
    ["ab", "or"],
    ["j", "</w>"],
    ["t", "és</w>"],
    ["ré", "e</w>"],
    ["jour", "n"],
    ["e", "y</w>"],
    ["jo", "h"],
    ["t", "o</w>"],
    ["es", "ti"],
    ["tou", "s</w>"],
    ["se", "ign"],
    ["an", "tes</w>"],
    ["d", "i</w>"],
    ["je", "an</w>"],
    ["d", "ro"],
    ["q", "</w>"],
    ["è", "te</w>"],
    ["it", "es</w>"],
    ["it", "aire</w>"],
    ["fo", "ot"],
    ["vill", "age</w>"],
    ["te", "ch"],
    ["m", "an</w>"],
    ["pr", "is"],
    ["ist", "es</w>"],
    ["c", "as"],
    ["entr", "e"],
    ["co", "le</w>"],
    ["re", "présent"],
    ["dévelop", "p"],
    ["pe", "u</w>"],
    ["l", "y"],
    ["quat", "re</w>"],
    ["c", "i</w>"],
    ["b", "an"],
    ["g", "er</w>"],
    ["as", "soci"],
    ["parti", "r</w>"],
    ["g", "o"],
    ["g", "al"],
    ["si", "e</w>"],
    ["s", "oit</w>"],
    ["h", "y"],
    ["jean", "-"],
    ["com", "pos"],
    ["c", "ation</w>"],
    ["t", "ex"],
    ["m", "édi"],
    ["soci", "été</w>"],
    ["cu", "r"],
    ["terr", "it"],
    ["trouv", "e</w>"],
    ["gr", "ande</w>"],
    ["es", "-"],
    ["hom", "me</w>"],
    ["s", "pé"],
    ["f", "aire</w>"],
    ["tr", "a"],
    ["emb", "le</w>"],
    ["u", "m"],
    ["il", "li"],
    ["h", "en"],
    ["tri", "ce</w>"],
    ["p", "li"],
    ["d'", "in"],
    ["xi", "ème</w>"],
    ["tr", "ic"],
    ["ou", "l"],
    ["ér", "ation</w>"],
    ["hist", "or"],
    ["con", "stitu"],
    ["sy", "st"],
    ["fil", "s</w>"],
    ["de", "vient</w>"],
    ["pr", "ise</w>"],
    ["nouv", "eau</w>"],
    ["s", "se</w>"],
    ["je", "u</w>"],
    ["spé", "ci"],
    ["an", "e</w>"],
    ["c", "ad"],
    ["de", "-"],
    ["en", "nes</w>"],
    ["l", "it"],
    ["si", "ons</w>"],
    ["oc", "cu"],
    ["su", "cc"],
    ["it", "ali"],
    ["ép", "is"],
    ["j", "am"],
    ["c", "entre</w>"],
    ["pe", "in"],
    ["r", "y</w>"],
    ["d", "a</w>"],
    ["ic", "</w>"],
    ["p", "ér"],
    ["si", "onn"],
    ["mon", "di"],
    ["tél", "év"],
    ["is", "me</w>"],
    ["l", "é"],
    ["rel", "i"],
    ["i", "ti"],
    ["u", "tion</w>"],
    ["s", "om"],
    ["é", "ch"],
    ["be", "au"],
    ["m", "ent"],
    ["no", "v"],
    ["présid", "ent</w>"],
    ["ti", "ent</w>"],
    ["qu", "’"],
    ["m", "uni"],
    ["a", "w"],
    ["dé", "but</w>"],
    ["vo", "y"],
    ["m", "er</w>"],
    ["po", "se</w>"],
    ["vic", "t"],
    ["g", "er"],
    ["ab", "les</w>"],
    ["eu", "ses</w>"],
    ["w", "e"],
    ["ti", "tu"],
    ["ai", "r"],
    ["en", "core</w>"],
    ["br", "it"],
    ["t", "ent</w>"],
    ["minis", "tr"],
    ["j", "eux</w>"],
    ["car", "ac"],
    ["x", "-"],
    ["f", "a"],
    ["l", "in"],
    ["cel", "u"],
    ["di", "t</w>"],
    ["at", "ta"],
    ["orig", "in"],
    ["di", "v"],
    ["pa", "gne</w>"],
    ["ad", "ministr"],
    ["d", "el"],
    ["sc", "ri"],
    ["publi", "que</w>"],
    ["b", "re"],
    ["ay", "ant</w>"],
    ["v", "res</w>"],
    ["ol", "o"],
    ["nouv", "elle</w>"],
    ["at", "ure</w>"],
    ["championn", "at</w>"],
    ["ar", "e</w>"],
    ["t", "an"],
    ["i", "es</w>"],
    ["hab", "it"],
    ["j", "ap"],
    ["car", "rière</w>"],
    ["l'", "université</w>"],
    ["ci", "r"],
    ["at", "h"],
    ["ri", "er</w>"],
    ["al", "ie</w>"],
    ["p", "ouv"],
    ["ch", "ev"],
    ["c", "en"],
    ["pro", "vin"],
    ["s", "au"],
    ["pro", "gr"],
    ["ti", "s"],
    ["musi", "que</w>"],
    ["o", "-"],
    ["l'", "or"],
    ["nom", "bre</w>"],
    ["ar", "r"],
    ["c", "it"],
    ["ro", "i</w>"],
    ["al", "iste</w>"],
    ["d", "in"],
    ["p", "ère</w>"],
    ["brit", "ann"],
    ["com", "pagn"],
    ["con", "om"],
    ["dé", "e</w>"],
    ["n", "ée</w>"],
    ["j", "an"],
    ["situ", "ée</w>"],
    ["com", "pl"],
    ["t", "eurs</w>"],
    ["dépar", "tement</w>"],
    ["gr", "and"],
    ["s", "our"],
    ["bibli", "ographie</w>"],
    ["ci", "pa"],
    ["m", "embre</w>"],
    ["produ", "ction</w>"],
    ["in", "st"],
    ["histor", "ique</w>"],
    ["m", "es"],
    ["c", "él"],
    ["si", "m"],
    ["m", "ét"],
    ["c", "o</w>"],
    ["ent", "es</w>"],
    ["deu", "xième</w>"],
    ["ci", "d"],
    ["r", "us"],
    ["l", "and"],
    ["parti", "cu"],
    ["d", "am"],
    ["orig", "ine</w>"],
    ["app", "el"],
    ["d", "ér"],
    ["oi", "res</w>"],
    ["g", "é</w>"],
    ["commun", "es</w>"],
    ["ac", "tion</w>"],
    ["ym", "pi"],
    ["s", "a"],
    ["b", "â"],
    ["w", "i"],
    ["quel", "ques</w>"],
    ["sy", "n"],
    ["su", "p"],
    ["ne", "w</w>"],
    ["euro", "pe</w>"],
    ["coll", "ec"],
    ["popul", "ation</w>"],
    ["form", "ation</w>"],
    ["parti", "</w>"],
    ["li", "er</w>"],
    ["anci", "en</w>"],
    ["châ", "t"],
    ["ét", "ab"],
    ["cou", "pe</w>"],
    ["ou", "s</w>"],
    ["déc", "ouver"],
    ["b", "lan"],
    ["re", "g"],
    ["th", "</w>"],
    ["vi", "er</w>"],
    ["i", "a</w>"],
    ["servi", "ce</w>"],
    ["m", "ot"],
    ["ch", "er</w>"],
    ["st", "e"],
    ["o", "t</w>"],
    ["p", "ou"],
    ["b", "il"],
    ["ch", "é</w>"],
    ["dur", "ant</w>"],
    ["ni", "v"],
    ["ol", "ympi"],
    ["c", "é</w>"],
    ["k", "o"],
    ["ar", "t</w>"],
    ["h", "am"],
    ["che", "z</w>"],
    ["pa", "tr"],
    ["ma", "j"],
    ["t", "ard</w>"],
    ["nat", "ur"],
    ["é", "b"],
    ["è", "de</w>"],
    ["c", "au"],
    ["m", "er"],
    ["an", "im"],
    ["m", "ise</w>"],
    ["emb", "l"],
    ["f", "ac"],
    ["m", "i</w>"],
    ["i", "er</w>"],
    ["ti", "e</w>"],
    ["f", "ai"],
    ["s", "ac"],
    ["m", "is</w>"],
    ["pr", "im"],
    ["mu", "l"],
    ["euro", "pé"],
    ["tr", "u"],
    ["s", "’"],
    ["c", "s</w>"],
    ["tech", "n"],
    ["r", "ue</w>"],
    ["bu", "r"],
    ["en", "suite</w>"],
    ["en", "g"],
    ["m", "s</w>"],
    ["h", "on"],
    ["don", "c</w>"],
    ["gu", "es</w>"],
    ["c", "es"],
    ["k", "e</w>"],
    ["h", "ô"],
    ["s", "ement</w>"],
    ["on", "es</w>"],
    ["d'", "autres</w>"],
    ["ex", "em"],
    ["cap", "it"],
    ["a", "il</w>"],
    ["â", "tre</w>"],
    ["cul", "ture</w>"],
    ["es", "t"],
    ["de", "ven"],
    ["li", "b"],
    ["lou", "is</w>"],
    ["i", "-"],
    ["di", "c"],
    ["sul", "t"],
    ["af", "ri"],
    ["con", "sid"],
    ["conse", "il</w>"],
    ["û", "t</w>"],
    ["prés", "ente</w>"],
    ["con", "tin"],
    ["ri", "v"],
    ["l'é", "qui"],
    ["d'", "al"],
    ["is", "ée</w>"],
    ["sor", "ti</w>"],
    ["lor", "s"],
    ["pro", "f"],
    ["esp", "èce</w>"],
    ["pré", "c"],
    ["derni", "er</w>"],
    ["nom", "mé</w>"],
    ["res", "pon"],
    ["se", "au</w>"],
    ["ce", "p"],
    ["gouvern", "ement</w>"],
    ["ph", "y"],
    ["at", "eurs</w>"],
    ["ph", "ot"],
    ["n", "er</w>"],
    ["oc", "t"],
    ["po", "que</w>"],
    ["c", "elle</w>"],
    ["n'", "est</w>"],
    ["inter", "national</w>"],
    ["p", "an"],
    ["r", "ôle</w>"],
    ["h", "ér"],
    ["c", "et</w>"],
    ["su", "s</w>"],
    ["o", "ï"],
    ["jusqu'", "à</w>"],
    ["év", "ol"],
    ["l", "et"],
    ["situ", "é</w>"],
    ["a", "te</w>"],
    ["hist", "ori"],
    ["m", "aison</w>"],
    ["c", "a</w>"],
    ["t", "ot"],
    ["g", "au"],
    ["s", "pi"],
    ["s", "tu"],
    ["i", "re</w>"],
    ["è", "ve</w>"],
    ["eu", "res</w>"],
    ["bour", "g</w>"],
    ["op", "</w>"],
    ["b", "les</w>"],
    ["ré", "s"],
    ["n", "eu"],
    ["ac", "tu"],
    ["comp", "te</w>"],
    ["man", "i"],
    ["d", "o</w>"],
    ["dr", "oit</w>"],
    ["po", "in"],
    ["c", "ar</w>"],
    ["é", "conom"],
    ["s", "ouv"],
    ["ti", "ve</w>"],
    ["br", "u"],
    ["ac", "tiv"],
    ["é", "tr"],
    ["m", "ér"],
    ["ill", "et</w>"],
    ["ch", "ap"],
    ["c", "tions</w>"],
    ["ét", "ant</w>"],
    ["dé", "cl"],
    ["péri", "ode</w>"],
    ["v", "ari"],
    ["œu", "vre</w>"],
    ["c", "as</w>"],
    ["t", "ab"],
    ["j", "our</w>"],
    ["an", "o</w>"],
    ["k", "a</w>"],
    ["ad", "a</w>"],
    ["ot", "h"],
    ["f", "ique</w>"],
    ["ati", "ve</w>"],
    ["édi", "tion</w>"],
    ["c", "k</w>"],
    ["is", "l"],
    ["mar", "s</w>"],
    ["ê", "t</w>"],
    ["chât", "eau</w>"],
    ["ens", "emble</w>"],
    ["sp", "ec"],
    ["in", "v"],
    ["ais", "s"],
    ["o", "ine</w>"],
    ["n", "ic"],
    ["ti", "n</w>"],
    ["ét", "aient</w>"],
    ["d", "ès</w>"],
    ["pr", "om"],
    ["aut", "eur</w>"],
    ["muni", "cip"],
    ["re", "ç"],
    ["envir", "on</w>"],
    ["con", "cer"],
    ["mi", "ch"],
    ["v", "ue</w>"],
    ["ce", "pendant</w>"],
    ["on", "i"],
    ["tro", "isi"],
    ["cin", "q</w>"],
    ["comm", "er"],
    ["ouv", "r"],
    ["fr", "on"],
    ["re", "cher"],
    ["gr", "an"],
    ["b", "al"],
    ["l'équi", "pe</w>"],
    ["dé", "pu"],
    ["territ", "oire</w>"],
    ["is", "se</w>"],
    ["tu", "res</w>"],
    ["britann", "ique</w>"],
    ["ac", "cu"],
    ["m", "au"],
    ["s", "t</w>"],
    ["thé", "âtre</w>"],
    ["v", "e"],
    ["ar", "m"],
    ["èr", "ement</w>"],
    ["cin", "ém"],
    ["st", "y"],
    ["troisi", "ème</w>"],
    ["v", "a</w>"],
    ["uni", "on</w>"],
    ["ré", "g"],
    ["r", "s</w>"],
    ["a", "ï"],
    ["con", "serv"],
    ["foot", "ball</w>"],
    ["secon", "de</w>"],
    ["cha", "que</w>"],
    ["l'", "em"],
    ["l", "er</w>"],
    ["af", "in</w>"],
    ["roy", "au"],
    ["carac", "tér"],
    ["provin", "ce</w>"],
    ["pau", "l</w>"],
    ["ab", "b"],
    ["m", "ois</w>"],
    ["fem", "me</w>"],
    ["is", "sion</w>"],
    ["mar", "qu"],
    ["joh", "n</w>"],
    ["che", "f</w>"],
    ["f", "éd"],
    ["conn", "u</w>"],
    ["v", "ement</w>"],
    ["è", "le</w>"],
    ["qu", "ement</w>"],
    ["niv", "eau</w>"],
    ["mus", "ée</w>"],
    ["étu", "des</w>"],
    ["m", "ai</w>"],
    ["t", "éri"],
    ["angl", "ais</w>"],
    ["char", "les</w>"],
    ["f", "lu"],
    ["syst", "ème</w>"],
    ["l'", "église</w>"],
    ["è", "ces</w>"],
    ["r", "i</w>"],
    ["r", "a</w>"],
    ["édi", "tions</w>"],
    ["d", "en"],
    ["di", "ri"],
    ["po", "int</w>"],
    ["aî", "t</w>"],
    ["sou", "s-"],
    ["ju", "in</w>"],
    ["m", "a</w>"],
    ["nombr", "eux</w>"],
    ["pl", "an"],
    ["mondi", "ale</w>"],
    ["mon", "tr"],
    ["étu", "di"],
    ["a", "d</w>"],
    ["ré", "publique</w>"],
    ["qu'", "elle</w>"],
    ["ai", "r</w>"],
    ["f", "re"],
    ["aut", "or"],
    ["it", "ec"],
    ["pr", "is</w>"],
    ["sep", "t"],
    ["minis", "tre</w>"],
    ["et", "-"],
    ["ten", "ant</w>"],
    ["je", "un"],
    ["qu", "éb"],
    ["a", "h"],
    ["il", "o"],
    ["â", "ge</w>"],
    ["mil", "li"],
    ["c", "k"],
    ["sc", "ène</w>"],
    ["op", "ér"],
    ["ou", "se</w>"],
    ["b", "y</w>"],
    ["per", "met</w>"],
    ["y", "or"],
    ["di", "o</w>"],
    ["è", "tres</w>"],
    ["ob", "re</w>"],
    ["dis", "tribu"],
    ["su", "b"],
    ["im", "</w>"],
    ["èr", "ent</w>"],
    ["bâ", "ti"],
    ["c", "li"],
    ["fin", "ale</w>"],
    ["com", "b"],
    ["z", "i"],
    ["graph", "ie</w>"],
    ["m", "ents</w>"],
    ["e", "il</w>"],
    ["a", "o"],
    ["gen", "re</w>"],
    ["av", "r"],
    ["dé", "pen"],
    ["d'", "h"],
    ["m", "emb"],
    ["cert", "ains</w>"],
    ["ré", "sult"],
    ["em", "</w>"],
    ["d", "or"],
    ["è", "mes</w>"],
    ["ju", "illet</w>"],
    ["da", "te</w>"],
    ["an", "c"],
    ["b", "ro"],
    ["r", "am"],
    ["sept", "embre</w>"],
    ["è", "se</w>"],
    ["il", "es</w>"],
    ["m", "ouv"],
    ["ob", "jet</w>"],
    ["memb", "res</w>"],
    ["d", "ess"],
    ["po", "ss"],
    ["o", "li"],
    ["v", "it"],
    ["d", "res</w>"],
    ["oct", "obre</w>"],
    ["oi", "x</w>"],
    ["qu", "it"],
    ["m", "ad"],
    ["siè", "ge</w>"],
    ["in", "a</w>"],
    ["c", "ent"],
    ["ter", "min"],
    ["ess", "eur</w>"],
    ["consid", "ér"],
    ["entr", "aî"],
    ["rom", "an</w>"],
    ["mil", "itaire</w>"],
    ["d", "on</w>"],
    ["al", "ités</w>"],
    ["hu", "i</w>"],
    ["fic", "ation</w>"],
    ["ph", "ili"],
    ["meill", "eur</w>"],
    ["ver", "sion</w>"],
    ["m", "ou"],
    ["c", "ité</w>"],
    ["s", "te</w>"],
    ["ti", "en</w>"],
    ["eff", "ec"],
    ["ba", "se</w>"],
    ["ali", "gn"],
    ["p", "ec"],
    ["allem", "and</w>"],
    ["per", "met"],
    ["pro", "jet</w>"],
    ["t", "ar"],
    ["celu", "i</w>"],
    ["jan", "vier</w>"],
    ["œu", "r</w>"],
    ["ann", "on"],
    ["cou", "p</w>"],
    ["champi", "on</w>"],
    ["améric", "aine</w>"],
    ["équi", "pe</w>"],
    ["souv", "ent</w>"],
    ["st", "at"],
    ["sci", "enti"],
    ["ob", "serv"],
    ["s", "élec"],
    ["au", "té</w>"],
    ["div", "ision</w>"],
    ["an", "a</w>"],
    ["l", "and</w>"],
    ["oc", "k"],
    ["constru", "ction</w>"],
    ["m", "y"],
    ["u", "es</w>"],
    ["ab", "ri"],
    ["pro", "fes"],
    ["ci", "pe</w>"],
    ["su", "péri"],
    ["f", "ré"],
    ["au", "jour"],
    ["f", "ille</w>"],
    ["com", "té</w>"],
    ["pu", "is"],
    ["s", "ar"],
    ["î", "le</w>"],
    ["avr", "il</w>"],
    ["o", "ph"],
    ["s", "por"],
    ["ô", "t</w>"],
    ["mat", "ch</w>"],
    ["ag", "ri"],
    ["rou", "te</w>"],
    ["g", "o</w>"],
    ["t", "el</w>"],
    ["si", "que</w>"],
    ["direc", "tion</w>"],
    ["g", "ent</w>"],
    ["er", "a</w>"],
    ["cipa", "le</w>"],
    ["h", "ol"],
    ["reli", "gi"],
    ["res", "t"],
    ["res", "te</w>"],
    ["s'", "est</w>"],
    ["l'", "année</w>"],
    ["par", "mi</w>"],
    ["su", "d-"],
    ["lit", "tér"],
    ["d", "oit</w>"],
    ["l", "og"],
    ["je", "une</w>"],
    ["trav", "ail</w>"],
    ["v", "ain"],
    ["at", "te"],
    ["franç", "ois</w>"],
    ["è", "ge</w>"],
    ["tou", "tes</w>"],
    ["enf", "ants</w>"],
    ["an", "g</w>"],
    ["lon", "g</w>"],
    ["épis", "ode</w>"],
    ["pro", "pri"],
    ["ty", "pe</w>"],
    ["pé", "ti"],
    ["n", "avi"],
    ["ciném", "a</w>"],
    ["w", "or"],
    ["ao", "ût</w>"],
    ["qu", "el</w>"],
    ["tou", "jours</w>"],
    ["ais", "ons</w>"],
    ["é", "co"],
    ["l'", "es"],
    ["ri", "ch"],
    ["eff", "et</w>"],
    ["déc", "embre</w>"],
    ["mil", "i"],
    ["y", "me</w>"],
    ["ur", "b"],
    ["ann", "</w>"],
    ["en", "d"],
    ["ch", "em"],
    ["y", "n"],
    ["cor", "ps</w>"],
    ["allem", "agne</w>"],
    ["peu", "vent</w>"],
    ["l", "l"],
    ["yor", "k</w>"],
    ["sty", "le</w>"],
    ["si", "x</w>"],
    ["ser", "a</w>"],
    ["j", "ec"],
    ["mo", "d"],
    ["chan", "son</w>"],
    ["nov", "embre</w>"],
    ["ar", "ts</w>"],
    ["u", "res</w>"],
    ["mé", "tr"],
    ["for", "t</w>"],
    ["ri", "vi"],
    ["sc", "én"],
    ["au", "c"],
    ["reg", "is"],
    ["s", "on"],
    ["hu", "m"],
    ["b", "ass"],
    ["f", "é"],
    ["tr", "ou"],
    ["jac", "ques</w>"],
    ["personn", "es</w>"],
    ["si", "s</w>"],
    ["k", "ar"],
    ["tra", "du"],
    ["pris", "es</w>"],
    ["su", "per"],
    ["parti", "cip"],
    ["al", "li"],
    ["l'", "un</w>"],
    ["l'", "état</w>"],
    ["poin", "ts</w>"],
    ["associ", "ation</w>"],
    ["développ", "ement</w>"],
    ["réalis", "é</w>"],
    ["premi", "ers</w>"],
    ["it", "alie</w>"],
    ["b", "en"],
    ["re", "-"],
    ["align", "</w>"],
    ["ré", "vol"],
    ["dé", "fin"],
    ["ro", "bert</w>"],
    ["pr", "iv"],
    ["f", "év"],
    ["tou", "te</w>"],
    ["c", "ent</w>"],
    ["k", "h"],
    ["é", "cr"],
    ["cré", "ation</w>"],
    ["progr", "am"],
    ["hom", "mes</w>"],
    ["l", "es"],
    ["pos", "si"],
    ["qu", "ali"],
    ["gr", "â"],
    ["ter", "re</w>"],
    ["fes", "tiv"],
    ["arti", "cle</w>"],
    ["au", "str"],
    ["gr", "é</w>"],
    ["vi", "ol"],
    ["pi", "re</w>"],
    ["dis", "tin"],
    ["aill", "eurs</w>"],
    ["se", "in</w>"],
    ["déf", "en"],
    ["fév", "rier</w>"],
    ["ten", "u</w>"],
    ["ati", "ques</w>"],
    ["o", "le</w>"],
    ["t", "ac"],
    ["m", "ain"],
    ["all", "</w>"],
    ["li", "vre</w>"],
    ["fem", "mes</w>"],
    ["habit", "ants</w>"],
    ["da", "e</w>"],
    ["exem", "ple</w>"],
    ["tex", "te</w>"],
    ["d", "at"],
    ["o", "v"],
    ["nor", "d-"],
    ["c", "er</w>"],
    ["grâ", "ce</w>"],
    ["ti", "ère</w>"],
    ["tr", "on"],
    ["anci", "enne</w>"],
    ["eu", "ve</w>"],
    ["pos", "te</w>"],
    ["ce", "in"],
    ["nu", "mér"],
    ["b", "on"],
    ["ti", "fs</w>"],
    ["li", "en</w>"],
    ["vi", "dé"],
    ["ph", "</w>"],
    ["qu", "ant</w>"],
    ["x", "im"],
    ["publi", "c</w>"],
    ["é", "cu"],
    ["f", "au"],
    ["r", "aison</w>"],
    ["qu", "elle</w>"],
    ["personn", "alité</w>"],
    ["as", "tér"],
    ["ém", "ent</w>"],
    ["l'", "en"],
    ["ti", "er</w>"],
    ["itali", "en</w>"],
    ["ent", "ale</w>"],
    ["ch", "ris"],
    ["musi", "c"],
    ["rec", "or"],
    ["di", "s</w>"],
    ["r", "ess"],
    ["class", "ement</w>"],
    ["œu", "vres</w>"],
    ["l'", "am"],
    ["ill", "er</w>"],
    ["b", "ois</w>"],
    ["mar", "ie</w>"],
    ["t", "ête</w>"],
    ["s", "an</w>"],
    ["at", "oire</w>"],
    ["dan", "ce</w>"],
    ["phili", "p"],
    ["gr", "av"],
    ["rap", "port</w>"],
    ["am", "e</w>"],
    ["lo", "i</w>"],
    ["z", "one</w>"],
    ["r", "è"],
    ["ma", "î"],
    ["prin", "cipale</w>"],
    ["bat", "aille</w>"],
    ["e", "z</w>"],
    ["re", "jo"],
    ["olog", "ique</w>"],
    ["ac", "teur</w>"],
    ["d'", "hui</w>"],
    ["fi", "gu"],
    ["aujour", "d'hui</w>"],
    ["profes", "sionn"],
    ["au", "-"],
    ["l'or", "dre</w>"],
    ["emi", "-"],
    ["peti", "t</w>"],
    ["do", "cu"],
    ["so", "ph"],
    ["o", "ise</w>"],
    ["h", "or"],
    ["él", "ev"],
    ["f", "ur"],
    ["des", "cri"],
    ["su", "isse</w>"],
    ["pl", "an</w>"],
    ["tél", "é"],
    ["lan", "gue</w>"],
    ["aut", "om"],
    ["f", "ais"],
    ["v", "all"],
    ["caractér", "is"],
    ["ch", "es"],
    ["au", "gu"],
    ["ç", "on</w>"],
    ["u", "el</w>"],
    ["mich", "el</w>"],
    ["w", "illi"],
    ["om", "</w>"],
    ["sain", "t</w>"],
    ["t", "ée</w>"],
    ["qu", "é</w>"],
    ["c", "ess"],
    ["el", "l</w>"],
    ["distribu", "tion</w>"],
    ["tr", "adi"],
    ["élec", "tions</w>"],
    ["pro", "che</w>"],
    ["s", "em"],
    ["commun", "auté</w>"],
    ["ch", "ang"],
    ["g", "a</w>"],
    ["f", "our"],
    ["cl", "au"],
    ["'", "s</w>"],
    ["qu", "arti"],
    ["astér", "oï"],
    ["pein", "tre</w>"],
    ["es", "pagn"],
    ["li", "e</w>"],
    ["le", "y</w>"],
    ["w", "al"],
    ["t", "e-"],
    ["jo", "se"],
    ["d’", "une</w>"],
    ["s", "en"],
    ["l'", "histoire</w>"],
    ["can", "ada</w>"],
    ["pres", "sion</w>"],
    ["dom", "in"],
    ["cy", "cl"],
    ["d’", "un</w>"],
    ["m", "ère</w>"],
    ["m", "ac"],
    ["d", "ent</w>"],
    ["olympi", "ques</w>"],
    ["tour", "n"],
    ["t", "ent"],
    ["gar", "e</w>"],
    ["f", "t</w>"],
    ["it", "eur</w>"],
    ["s", "am"],
    ["l", "in</w>"],
    ["min", "u"],
    ["com", "péti"],
    ["s", "é</w>"],
    ["b", "a</w>"],
    ["fi", "ci"],
    ["nombr", "euses</w>"],
    ["inter", "pr"],
    ["l'ar", "mée</w>"],
    ["dépu", "té</w>"],
    ["d", "avi"],
    ["résult", "ats</w>"],
    ["on", "ais</w>"],
    ["st", "es</w>"],
    ["j", "ets</w>"],
    ["régi", "on"],
    ["an", "i"],
    ["m", "eur"],
    ["u", "t</w>"],
    ["re", "tour</w>"],
    ["écri", "t</w>"],
    ["g", "es"],
    ["entre", "prise</w>"],
    ["sor", "tie</w>"],
    ["k", "i</w>"],
    ["l", "au"],
    ["c", "lim"],
    ["a", "e</w>"],
    ["gh", "t</w>"],
    ["ci", "en</w>"],
    ["al", "y"],
    ["v", "r"],
    ["bu", "ts</w>"],
    ["k", "e"],
    ["ag", "it</w>"],
    ["st", "ation</w>"],
    ["k", "i"],
    ["m", "ati"],
    ["pren", "dre</w>"],
    ["l", "av"],
    ["s", "ing"],
    ["f", "er</w>"],
    ["cô", "té</w>"],
    ["l'é", "cole</w>"],
    ["v", "an</w>"],
    ["olo", "gi"],
    ["direc", "teur</w>"],
    ["techn", "ique</w>"],
    ["d'", "ex"],
    ["or", "ie</w>"],
    ["g", "ol"],
    ["n", "i</w>"],
    ["el", "le-"],
    ["t", "ation</w>"],
    ["sur", "-"],
    ["publi", "é</w>"],
    ["ch", "ine</w>"],
    ["ad", "ap"],
    ["mo", "der"],
    ["écri", "v"],
    ["pouv", "oir</w>"],
    ["is", "ation</w>"],
    ["f", "av"],
    ["inst", "all"],
    ["entraî", "n"],
    ["secon", "d</w>"],
    ["produ", "it</w>"],
    ["succ", "ès</w>"],
    ["ill", "</w>"],
    ["pa", "sse</w>"],
    ["sy", "m"],
    ["as", "h"],
    ["ce", "la</w>"],
    ["in", "du"],
    ["rem", "porte</w>"],
    ["dev", "ant</w>"],
    ["ar", "d"],
    ["la", "quelle</w>"],
    ["festiv", "al</w>"],
    ["t", "on"],
    ["ari", "o</w>"],
    ["con", "st"],
    ["oi", "gn"],
    ["lors", "que</w>"],
    ["découver", "t</w>"],
    ["er", "n"],
    ["d", "oc"],
    ["qu", "er</w>"],
    ["seu", "l</w>"],
    ["ar", "ds</w>"],
    ["li", "gue</w>"],
    ["méd", "aille</w>"],
    ["ber", "n"],
    ["f", "fr"],
    ["con", "du"],
    ["derni", "ère</w>"],
    ["an", "ces</w>"],
    ["o", "re</w>"],
    ["descri", "ption</w>"],
    ["prof", "esseur</w>"],
    ["dém", "ie</w>"],
    ["équi", "pes</w>"],
    ["r", "ac"],
    ["ist", "ance</w>"],
    ["ê", "que</w>"],
    ["trav", "aux</w>"],
    ["sk", "i</w>"],
    ["ass", "embl"],
    ["s", "s</w>"],
    ["rivi", "ère</w>"],
    ["s", "in"],
    ["ré", "seau</w>"],
    ["rem", "plac"],
    ["l'", "im"],
    ["québ", "ec</w>"],
    ["ati", "f</w>"],
    ["ho", "li"],
    ["k", "r"],
    ["ti", "me</w>"],
    ["in", "stitu"],
    ["y", "-"],
    ["a", "h</w>"],
    ["pa", "ge</w>"],
    ["è", "nes</w>"],
    ["ren", "contre</w>"],
    ["o", "des</w>"],
    ["scienti", "fique</w>"],
    ["g", "ie</w>"],
    ["ent", "aire</w>"],
    ["i", "on</w>"],
    ["ay", "e</w>"],
    ["par", "c</w>"],
    ["recher", "che</w>"],
    ["dis", "tric"],
    ["c", "é"],
    ["o", "d"],
    ["sep", "t</w>"],
    ["enn", "ent</w>"],
    ["can", "ton</w>"],
    ["ré", "s</w>"],
    ["el", "i"],
    ["en", "-"],
    ["al", "ex"],
    ["y", "p"],
    ["voi", "x</w>"],
    ["l'", "a"],
    ["f", "c</w>"],
    ["dé", "sign"],
    ["grand", "s</w>"],
    ["cad", "re</w>"],
    ["ch", "in"],
    ["ré", "gu"],
    ["d", "onne</w>"],
    ["in", "scri"],
    ["m", "it"],
    ["b", "ab"],
    ["jou", "e</w>"],
    ["p", "it"],
    ["tr", "an"],
    ["cré", "é</w>"],
    ["b", "as</w>"],
    ["n'", "a</w>"],
    ["compagn", "ie</w>"],
    ["ten", "ir</w>"],
    ["pa", "tion</w>"],
    ["d", "ol"],
    ["voi", "e</w>"],
    ["vidé", "o</w>"],
    ["cat", "holi"],
    ["com", "te</w>"],
    ["afri", "que</w>"],
    ["mouv", "ement</w>"],
    ["c", "ès</w>"],
    ["b", "ac"],
    ["fi", "r"],
    ["s", "av"],
    ["fr", "ère</w>"],
    ["can", "adi"],
    ["administr", "ation</w>"],
    ["parti", "cipe</w>"],
    ["e", "p"],
    ["app", "li"],
    ["es", "te</w>"],
    ["g", "ique</w>"],
    ["organis", "ation</w>"],
    ["b", "én"],
    ["davi", "d</w>"],
    ["mon", "um"],
    ["b", "res</w>"],
    ["vict", "oire</w>"],
    ["c", "ée</w>"],
    ["qu", "and</w>"],
    ["s", "tri"],
    ["cour", "t</w>"],
    ["ent", "al</w>"],
    ["le", "v"],
    ["mis", "sion</w>"],
    ["titu", "l"],
    ["l'", "est</w>"],
    ["m", "and"],
    ["dé", "j"],
    ["él", "u</w>"],
    ["k", "o</w>"],
    ["bu", "l"],
    ["fé", "min"],
    ["moy", "enne</w>"],
    ["th", "om"],
    ["publi", "c"],
    ["un", "i</w>"],
    ["ber", "g</w>"],
    ["j", "e</w>"],
    ["re", "conn"],
    ["comm", "ence</w>"],
    ["g", "or"],
    ["é", "gr"],
    ["donn", "ées</w>"],
    ["s", "én"],
    ["télév", "ision</w>"],
    ["li", "gn"],
    ["dis", "par"],
    ["déj", "à</w>"],
    ["è", "que</w>"],
    ["in", "iti"],
    ["gé", "ographie</w>"],
    ["n", "a</w>"],
    ["arch", "itec"],
    ["p", "et"],
    ["p", "ê"],
    ["é", "tique</w>"],
    ["fil", "ms</w>"],
    ["télév", "isée</w>"],
    ["trav", "aill"],
    ["w", "il"],
    ["m", "ine</w>"],
    ["ais", "es</w>"],
    ["cor", "respon"],
    ["m", "ur"],
    ["ci", "de</w>"],
    ["k", "er</w>"],
    ["clas", "se</w>"],
    ["m", "om"],
    ["itu", "re</w>"],
    ["n", "av"],
    ["lan", "de</w>"],
    ["p", "y"],
    ["tr", "e"],
    ["ch", "o"],
    ["f", "e"],
    ["ati", "ves</w>"],
    ["l", "am"],
    ["ex", "e</w>"],
    ["effec", "tu"],
    ["ec", "tion</w>"],
    ["por", "té</w>"],
    ["o", "d</w>"],
    ["méd", "ec"],
    ["col", "on"],
    ["comm", "en"],
    ["c", "ali"],
    ["cein", "ture</w>"],
    ["w", "o"],
    ["fi", "é</w>"],
    ["qu", "a"],
    ["m", "e-"],
    ["g", "ér"],
    ["hen", "ri</w>"],
    ["onn", "eur</w>"],
    ["li", "eu"],
    ["moy", "en</w>"],
    ["occu", "pation</w>"],
    ["en", "regis"],
    ["vol", "</w>"],
    ["gr", "e"],
    ["patr", "im"],
    ["ge", "org"],
    ["esp", "èces</w>"],
    ["tab", "le"],
    ["mo", "graphie</w>"],
    ["vain", "qu"],
    ["c", "teur</w>"],
    ["ac", "cor"],
    ["ch", "au"],
    ["l", "ati"],
    ["tem", "por"],
    ["lég", "isl"],
    ["on", "-"],
    ["aut", "our</w>"],
    ["rus", "se</w>"],
    ["constru", "it</w>"],
    ["ch", "s</w>"],
    ["c", "av"],
    ["ca", "pa"],
    ["peti", "te</w>"],
    ["si", "gne</w>"],
    ["f", "ri"],
    ["l", "ab"],
    ["por", "ts</w>"],
    ["particu", "li"],
    ["d'", "or</w>"],
    ["en", "seign"],
    ["tan", "dis</w>"],
    ["au", "g"],
    ["hau", "t</w>"],
    ["it", "aires</w>"],
    ["onn", "ement</w>"],
    ["d", "en</w>"],
    ["g", "ée</w>"],
    ["qu", "es"],
    ["sour", "ce</w>"],
    ["cert", "aines</w>"],
    ["sci", "ences</w>"],
    ["re", "ven"],
    ["sour", "ces</w>"],
    ["jose", "ph</w>"],
    ["comm", "and"],
    ["mili", "eu</w>"],
    ["ar", "g"],
    ["k", "s</w>"],
    ["offici", "el</w>"],
    ["s", "il"],
    ["v", "é"],
    ["pl", "at"],
    ["m", "ic"],
    ["dépar", "tem"],
    ["et", "erre</w>"],
    ["différ", "entes</w>"],
    ["d'", "am"],
    ["n", "’"],
    ["d", "emi-"],
    ["préc", "éd"],
    ["in", "dre</w>"],
    ["id", "enti"],
    ["l'", "ouest</w>"],
    ["ouv", "re</w>"],
    ["ter", "me</w>"],
    ["it", "er</w>"],
    ["beau", "coup</w>"],
    ["is", "-"],
    ["distric", "t</w>"],
    ["p", "er</w>"],
    ["b", "es</w>"],
    ["ob", "tient</w>"],
    ["lon", "dres</w>"],
    ["utilis", "é</w>"],
    ["n", "o</w>"],
    ["ron", "dis"],
    ["di", "pl"],
    ["jusqu'", "en</w>"],
    ["l'", "av"],
    ["nouv", "elles</w>"],
    ["angl", "eterre</w>"],
    ["ép", "ouse</w>"],
    ["stru", "c"],
    ["om", "e</w>"],
    ["championn", "ats</w>"],
    ["pal", "mar"],
    ["sign", "i"],
    ["ot", "te</w>"],
    ["par", "fois</w>"],
    ["t", "ère</w>"],
    ["alis", "ation</w>"],
    ["différ", "ents</w>"],
    ["palmar", "ès</w>"],
    ["pa", "ce</w>"],
    ["b", "s</w>"],
    ["m", "aire</w>"],
    ["p", "les</w>"],
    ["ce", "ption</w>"],
    ["hu", "it</w>"],
    ["téri", "eur</w>"],
    ["suiv", "ante</w>"],
    ["a", "se</w>"],
    ["v", "oit</w>"],
    ["du", "c</w>"],
    ["journ", "al</w>"],
    ["t", "aire</w>"],
    ["l'é", "poque</w>"],
    ["t", "el"],
    ["ti", "r"],
    ["philip", "pe</w>"],
    ["quarti", "er</w>"],
    ["é", "cole</w>"],
    ["l'", "h"],
    ["ter", "ie</w>"],
    ["on", "yme</w>"],
    ["f", "abri"],
    ["ai", "de</w>"],
    ["er", "s"],
    ["bel", "gique</w>"],
    ["particu", "lier</w>"],
    ["in", "tér"],
    ["seu", "lement</w>"],
    ["em", "plo"],
    ["lo", "s</w>"],
    ["i", "de</w>"],
    ["ge", "or"],
    ["au", "tri"],
    ["bre", "t"],
    ["né", "cess"],
    ["c", "our</w>"],
    ["fon", "c"],
    ["pen", "s"],
    ["fon", "ction</w>"],
    ["in", "i</w>"],
    ["l'", "île</w>"],
    ["gu", "er"],
    ["oc", "</w>"],
    ["r", "y"],
    ["f", "ie</w>"],
    ["es", "pagne</w>"],
    ["com", "édi"],
    ["oi", "rs</w>"],
    ["et", "tes</w>"],
    ["cour", "se</w>"],
    ["fin", "alement</w>"],
    ["rom", "e</w>"],
    ["donn", "é</w>"],
    ["blan", "c</w>"],
    ["m", "ont</w>"],
    ["tr", "ait</w>"],
    ["jap", "on</w>"],
    ["d", "ar"],
    ["b", "on</w>"],
    ["vi", "v"],
    ["ét", "en"],
    ["eng", "ag"],
    ["g", "a"],
    ["oc", "ca"],
    ["fur", "ent</w>"],
    ["m", "ém"],
    ["monum", "ents</w>"],
    ["for", "d</w>"],
    ["ra", "y"],
    ["l", "ac</w>"],
    ["maj", "or"],
    ["ri", "ve</w>"],
    ["mat", "chs</w>"],
    ["diff", "us"],
    ["cat", "ég"],
    ["aff", "aires</w>"],
    ["ë", "l</w>"],
    ["h", "aut"],
    ["at", "ten"],
    ["m", "el"],
    ["p", "ic"],
    ["n", "ous</w>"],
    ["abor", "d</w>"],
    ["f", "ou"],
    ["on", "ze</w>"],
    ["tri", "b"],
    ["p", "re</w>"],
    ["can", "di"],
    ["s", "cul"],
    ["s'", "agit</w>"],
    ["i", "tion</w>"],
    ["l'", "al"],
    ["c", "eux</w>"],
    ["an", "ne</w>"],
    ["patrim", "oine</w>"],
    ["sh", "i"],
    ["inter", "nationale</w>"],
    ["z", "a</w>"],
    ["gau", "che</w>"],
    ["a", "démie</w>"],
    ["s", "ens</w>"],
    ["histori", "ques</w>"],
    ["li", "t</w>"],
    ["étr", "ang"],
    ["land", "ais</w>"],
    ["d", "y</w>"],
    ["lib", "ér"],
    ["z", "ones</w>"],
    ["es", "si"],
    ["d'", "eau</w>"],
    ["ph", "ilo"],
    ["f", "ont</w>"],
    ["tro", "ph"],
    ["ét", "és</w>"],
    ["premi", "ères</w>"],
    ["des", "tin"],
    ["é", "poque</w>"],
    ["mal", "gré</w>"],
    ["foot", "ball"],
    ["dom", "aine</w>"],
    ["w", "h"],
    ["aur", "ait</w>"],
    ["po", "st"],
    ["d'", "or"],
    ["commer", "ci"],
    ["ne", "y</w>"],
    ["con", "sé"],
    ["cul", "tur"],
    ["l", "aur"],
    ["compéti", "tion</w>"],
    ["ô", "me</w>"],
    ["m", "ain</w>"],
    ["r", "et</w>"],
    ["philo", "soph"],
    ["ann", "exes</w>"],
    ["alex", "and"],
    ["v", "an"],
    ["w", "n</w>"],
    ["b", "ap"],
    ["cro", "is"],
    ["b", "es"],
    ["fré", "qu"],
    ["s", "oi"],
    ["bel", "ge</w>"],
    ["sol", "s</w>"],
    ["ti", "ers</w>"],
    ["f", "us"],
    ["as", "se</w>"],
    ["v", "illes</w>"],
    ["d'", "origine</w>"],
    ["rondis", "sement</w>"],
    ["l", "à</w>"],
    ["rou", "ge</w>"],
    ["dém", "oc"],
    ["arr", "ê"],
    ["x", "xe</w>"],
    ["z", "o"],
    ["an", "th"],
    ["ch", "aî"],
    ["u", "r</w>"],
    ["dé", "ta"],
    ["i", "g"],
    ["pro", "bl"],
    ["s", "tique</w>"],
    ["situ", "ation</w>"],
    ["ill", "us"],
    ["par", "t"],
    ["ch", "ant</w>"],
    ["seu", "le</w>"],
    ["olog", "ne</w>"],
    ["chris", "ti"],
    ["ré", "v"],
    ["v", "ing"],
    ["mat", "éri"],
    ["scul", "p"],
    ["w", "ar"],
    ["vainqu", "eur</w>"],
    ["étab", "lis"],
    ["décl", "ar"],
    ["l", "t</w>"],
    ["s", "ab"],
    ["féd", "ér"],
    ["r", "an"],
    ["u", "ment</w>"],
    ["c", "ér"],
    ["ag", "n"],
    ["willi", "am</w>"],
    ["étu", "de</w>"],
    ["ré", "parti"],
    ["con", "sac"],
    ["europé", "enne</w>"],
    ["l", "s</w>"],
    ["d'", "être</w>"],
    ["ri", "s</w>"],
    ["pl", "e"],
    ["appel", "é</w>"],
    ["ré", "du"],
    ["clau", "de</w>"],
    ["v", "on</w>"],
    ["m", "ol"],
    ["ac", "trice</w>"],
    ["princip", "alement</w>"],
    ["c", "ab"],
    ["jus", "ti"],
    ["dro", "its</w>"],
    ["enregis", "tr"],
    ["g", "am"],
    ["t", "un"],
    ["pi", "er"],
    ["qu", "o"],
    ["ex", "iste</w>"],
    ["su", "it</w>"],
    ["l'", "album</w>"],
    ["ex", "plo"],
    ["v", "er</w>"],
    ["lon", "g"],
    ["titu", "de</w>"],
    ["d", "el</w>"],
    ["roy", "al</w>"],
    ["référ", "ence</w>"],
    ["ri", "r</w>"],
    ["w", "it"],
    ["ch", "ant"],
    ["p", "ont</w>"],
    ["meill", "eure</w>"],
    ["for", "ce</w>"],
    ["mar", "tin</w>"],
    ["cau", "se</w>"],
    ["dem", "ande</w>"],
    ["ag", "ue</w>"],
    ["dess", "in"],
    ["con", "di"],
    ["y", "a</w>"],
    ["én", "er"],
    ["milli", "ons</w>"],
    ["servi", "ces</w>"],
    ["es", "t-"],
    ["di", "re</w>"],
    ["n", "oir</w>"],
    ["st", "ati"],
    ["t", "ch"],
    ["t", "u</w>"],
    ["oc", "cid"],
    ["mul", "ti"],
    ["év", "êque</w>"],
    ["mes", "ure</w>"],
    ["ju", "i"],
    ["th", "i"],
    ["georg", "es</w>"],
    ["ograph", "ique</w>"],
    ["ér", "o"],
    ["municip", "alité</w>"],
    ["a", "qu"],
    ["épis", "odes</w>"],
    ["tou", "te"],
    ["toute", "fois</w>"],
    ["ch", "ron"],
    ["fl", "or"],
    ["coll", "abor"],
    ["écriv", "ain</w>"],
    ["ai", "e</w>"],
    ["bâti", "ment</w>"],
    ["d'", "après</w>"],
    ["du", "e</w>"],
    ["and", "ré</w>"],
    ["m", "ètres</w>"],
    ["ri", "t</w>"],
    ["reç", "oit</w>"],
    ["sé", "par"],
    ["rus", "sie</w>"],
    ["én", "ag"],
    ["le", "quel</w>"],
    ["cham", "bre</w>"],
    ["p", "el"],
    ["it", "ation</w>"],
    ["fonc", "tionn"],
    ["t", "ôt</w>"],
    ["cré", "ée</w>"],
    ["clim", "at</w>"],
    ["football", "eur</w>"],
    ["am", "i</w>"],
    ["tr", "ac"],
    ["for", "ces</w>"],
    ["d'", "europe</w>"],
    ["it", "y</w>"],
    ["qu'", "un</w>"],
    ["at", "tribu"],
    ["v", "ar"],
    ["mar", "que</w>"],
    ["m", "ex"],
    ["pa", "ti"],
    ["comm", "an"],
    ["gu", "ill"],
    ["sur", "tout</w>"],
    ["rejo", "int</w>"],
    ["y", "er</w>"],
    ["jam", "ais</w>"],
    ["princip", "al</w>"],
    ["posi", "tions</w>"],
    ["dis", "pu"],
    ["t", "op"],
    ["ti", "tres</w>"],
    ["dou", "ble</w>"],
    ["tem", "pér"],
    ["p", "om"],
    ["v", "il"],
    ["suiv", "ant</w>"],
    ["entr", "ée</w>"],
    ["t", "els</w>"],
    ["air", "ement</w>"],
    ["on", "t"],
    ["h", "ou"],
    ["fran", "c"],
    ["ab", "and"],
    ["ali", "er</w>"],
    ["ser", "ve</w>"],
    ["v", "ér"],
    ["f", "an"],
    ["au", "d</w>"],
    ["jeun", "es</w>"],
    ["in", "form"],
    ["indu", "stri"],
    ["gu", "eur</w>"],
    ["cr", "oix</w>"],
    ["plu", "part</w>"],
    ["por", "tu"],
    ["n", "ie</w>"],
    ["el", "d</w>"],
    ["caractéris", "tiques</w>"],
    ["qu'", "ils</w>"],
    ["personn", "age</w>"],
    ["k", "il"],
    ["l'", "ensemble</w>"],
    ["al", "o"],
    ["s", "port</w>"],
    ["él", "ém"],
    ["jam", "es</w>"],
    ["m", "y</w>"],
    ["eu", "t</w>"],
    ["li", "eux</w>"],
    ["ex", "ist"],
    ["vi", "e"],
    ["p", "sy"],
    ["un", "ité</w>"],
    ["mat", "h"],
    ["prés", "ence</w>"],
    ["à", "-"],
    ["port", "er</w>"],
    ["br", "an"],
    ["poli", "tiques</w>"],
    ["nouv", "elle-"],
    ["di", "x</w>"],
    ["thom", "as</w>"],
    ["év", "én"],
    ["y", "ou"],
    ["mon", "ument</w>"],
    ["l", "em"],
    ["n", "ob"],
    ["pré", "f"],
    ["a", "illes</w>"],
    ["royau", "me-"],
    ["activ", "ités</w>"],
    ["royaume-", "uni</w>"],
    ["mani", "ère</w>"],
    ["chap", "elle</w>"],
    ["par", "ois"],
    ["b", "rés"],
    ["minu", "tes</w>"],
    ["ouver", "ture</w>"],
    ["mi", "cha"],
    ["indi", "vi"],
    ["cri", "tique</w>"],
    ["ex", "pli"],
    ["an", "aly"],
    ["annon", "ce</w>"],
    ["ven", "tion</w>"],
    ["program", "me</w>"],
    ["occu", "p"],
    ["min", "ist"],
    ["nic", "ol"],
    ["m", "ann</w>"],
    ["possi", "ble</w>"],
    ["s", "it"],
    ["prin", "ce</w>"],
    ["g", "ement</w>"],
    ["al", "-"],
    ["w", "in"],
    ["li", "ber"],
    ["p", "én"],
    ["dan", "i"],
    ["gran", "des</w>"],
    ["b", "ande</w>"],
    ["p", "in"],
    ["table", "au</w>"],
    ["ch", "im"],
    ["v", "u</w>"],
    ["grou", "pes</w>"],
    ["d'", "abord</w>"],
    ["pro", "pre</w>"],
    ["rest", "aur"],
    ["res", "pec"],
    ["ci", "er</w>"],
    ["lu", "t"],
    ["re", "vue</w>"],
    ["'", "</w>"],
    ["b", "onne</w>"],
    ["régu", "li"],
    ["collec", "tion</w>"],
    ["st", "ade</w>"],
    ["dr", "am"],
    ["so", "vi"],
    ["en", "fin</w>"],
    ["tot", "al</w>"],
    ["cam", "pagne</w>"],
    ["is", "é</w>"],
    ["k", "u"],
    ["mar", "ine</w>"],
    ["oi", "e</w>"],
    ["r", "ait</w>"],
    ["il", "ité</w>"],
    ["è", "tes</w>"],
    ["allem", "ande</w>"],
    ["ph", "on"],
    ["vol", "u"],
    ["f", "e</w>"],
    ["av", "e</w>"],
    ["san", "té</w>"],
    ["tr", "e-"],
    ["vo", "ï"],
    ["è", "tre</w>"],
    ["a", "jou"],
    ["ru", "g"],
    ["i", "ii</w>"],
    ["révol", "ution</w>"],
    ["dro", "ite</w>"],
    ["n", "et</w>"],
    ["er", "ic"],
    ["arti", "ste</w>"],
    ["an", "ge</w>"],
    ["t", "am"],
    ["as", "sur"],
    ["l'", "une</w>"],
    ["e", "g"],
    ["pr", "esse</w>"],
    ["av", "aient</w>"],
    ["trav", "ers</w>"],
    ["rap", "id"],
    ["fi", "t</w>"],
    ["chem", "in</w>"],
    ["poss", "ède</w>"],
    ["rich", "ard</w>"],
    ["féd", "ération</w>"],
    ["geor", "ge</w>"],
    ["rem", "ar"],
    ["ra", "dio</w>"],
    ["celu", "i-"],
    ["dr", "a</w>"],
    ["t", "y</w>"],
    ["h", "é"],
    ["im", "ent</w>"],
    ["mar", "ch"],
    ["ch", "r"],
    ["port", "ant</w>"],
    ["b", "ie</w>"],
    ["o", "x"],
    ["génér", "alement</w>"],
    ["r", "ol"],
    ["h", "ock"],
    ["l", "ec"],
    ["sor", "t</w>"],
    ["pol", "y"],
    ["clas", "si"],
    ["concer", "n"],
    ["int", "égr"],
    ["t", "ait</w>"],
    ["génér", "ale</w>"],
    ["celui-", "ci</w>"],
    ["for", "mes</w>"],
    ["origin", "ale</w>"],
    ["occa", "sion</w>"],
    ["du", "rée</w>"],
    ["l'", "union</w>"],
    ["cur", "ité</w>"],
    ["ti", "enne</w>"],
    ["k", "er"],
    ["d'", "état</w>"],
    ["mon", "tre</w>"],
    ["car", "te</w>"],
    ["ri", "en</w>"],
    ["di", "ver"],
    ["ê", "ts</w>"],
    ["import", "ant</w>"],
    ["mau", "ri"],
    ["pos", "é</w>"],
    ["n", "ap"],
    ["équi", "p"],
    ["h", "ors</w>"],
    ["ar", "riv"],
    ["comb", "at</w>"],
    ["catholi", "que</w>"],
    ["mi", "r"],
    ["voï", "vo"],
    ["l'", "i"],
    ["fi", "er</w>"],
    ["th", "e"],
    ["candi", "d"],
    ["iv", "</w>"],
    ["l", "i</w>"],
    ["capit", "ale</w>"],
    ["loc", "alité</w>"],
    ["spi", "r"],
    ["h", "an"],
    ["d", "é</w>"],
    ["and", "s</w>"],
    ["f", "eu"],
    ["con", "tribu"],
    ["p", "ologne</w>"],
    ["sec", "ré"],
    ["popul", "aire</w>"],
    ["bibli", "oth"],
    ["p", "oi"],
    ["n", "ég"],
    ["a", "éri"],
    ["our", "s</w>"],
    ["l", "o</w>"],
    ["let", "tres</w>"],
    ["li", "bre</w>"],
    ["p", "a</w>"],
    ["ét", "ap"],
    ["cir", "con"],
    ["centr", "ale</w>"],
    ["rapid", "ement</w>"],
    ["a", "-"],
    ["g", "on"],
    ["re", "trouv"],
    ["ar", "ab"],
    ["ré", "pon"],
    ["gu", "it"],
    ["aug", "ment"],
    ["publi", "cation</w>"],
    ["mom", "ent</w>"],
    ["sal", "le</w>"],
    ["docu", "ment"],
    ["terr", "ain</w>"],
    ["compos", "é</w>"],
    ["gar", "de</w>"],
    ["mo", "di"],
    ["évol", "ution</w>"],
    ["l", "aiss"],
    ["accu", "e"],
    ["lu", "i-"],
    ["royau", "me</w>"],
    ["at", "es</w>"],
    ["bil", "ité</w>"],
    ["gal", "erie</w>"],
    ["h", "el"],
    ["scén", "ario</w>"],
    ["défen", "se</w>"],
    ["g", "h</w>"],
    ["l'", "ancien</w>"],
    ["lui-", "même</w>"],
    ["bi", "le</w>"],
    ["ad", "op"],
    ["h", "al"],
    ["un", "d</w>"],
    ["et", "c</w>"],
    ["op", "ération</w>"],
    ["bap", "tis"],
    ["l'", "âge</w>"],
    ["m", "c"],
    ["amér", "ique</w>"],
    ["ob", "jec"],
    ["hock", "ey</w>"],
    ["re", "au</w>"],
    ["i", "en</w>"],
    ["car", "tes</w>"],
    ["ess", "enti"],
    ["qu", "ête</w>"],
    ["no", "i</w>"],
    ["pré", "par"],
    ["sé", "curité</w>"],
    ["ém", "ission</w>"],
    ["réalis", "ation</w>"],
    ["micha", "el</w>"],
    ["cél", "è"],
    ["x", "ie</w>"],
    ["é", "qu"],
    ["as", "t</w>"],
    ["or", "dre</w>"],
    ["portu", "g"],
    ["j", "ur"],
    ["oc", "é"],
    ["ag", "o</w>"],
    ["voïvo", "die</w>"],
    ["et", "h</w>"],
    ["sc", "r"],
    ["is", "su"],
    ["pr", "it</w>"],
    ["b", "y"],
    ["qu’", "il</w>"],
    ["pl", "a"],
    ["ter", "mine</w>"],
    ["ch", "u"],
    ["tour", "s</w>"],
    ["assembl", "ée</w>"],
    ["supéri", "eur</w>"],
    ["at", "t"],
    ["tour", "noi</w>"],
    ["réalis", "ateur</w>"],
    ["du", "cation</w>"],
    ["fon", "dée</w>"],
    ["tro", "du"],
    ["sec", "tion</w>"],
    ["r", "h"],
    ["z", "u"],
    ["numér", "o</w>"],
    ["astéroï", "de</w>"],
    ["recor", "ds</w>"],
    ["vi", "a</w>"],
    ["scri", "ption</w>"],
    ["ex", "tr"],
    ["in", "flu"],
    ["meur", "t</w>"],
    ["comm", "ission</w>"],
    ["l", "d</w>"],
    ["exter", "ne</w>"],
    ["ch", "ac"],
    ["trans", "port</w>"],
    ["dan", "</w>"],
    ["sain", "te-"],
    ["met", "tre</w>"],
    ["r", "on</w>"],
    ["aî", "tre</w>"],
    ["fon", "d</w>"],
    ["i", "le</w>"],
    ["a", "des</w>"],
    ["z", "e"],
    ["con", "tempor"],
    ["j", "a"],
    ["cent", "er</w>"],
    ["jap", "onais</w>"],
    ["nu", "it</w>"],
    ["dé", "sor"],
    ["t", "al"],
    ["jeun", "esse</w>"],
    ["mod", "èle</w>"],
    ["vall", "ée</w>"],
    ["com", "ité</w>"],
    ["iss", "ant</w>"],
    ["commun", "ic"],
    ["cél", "este</w>"],
    ["sol", "</w>"],
    ["dé", "tru"],
    ["rug", "by</w>"],
    ["conn", "ue</w>"],
    ["déc", "or"],
    ["t", "s"],
    ["chr", "ist"],
    ["b", "er</w>"],
    ["qu'", "une</w>"],
    ["en", "a</w>"],
    ["k", "y"],
    ["pa", "s"],
    ["at", "a</w>"],
    ["t", "aux</w>"],
    ["ori", "ent"],
    ["b", "ol"],
    ["contr", "ôle</w>"],
    ["enf", "ant</w>"],
    ["trou", "pes</w>"],
    ["ag", "u"],
    ["ang", "el"],
    ["la", "-"],
    ["produ", "its</w>"],
    ["ré", "sid"],
    ["au", "près</w>"],
    ["d", "us</w>"],
    ["i", "eur</w>"],
    ["d", "ge</w>"],
    ["cl", "o"],
    ["ing", "ton</w>"],
    ["v", "isi"],
    ["pal", "ais</w>"],
    ["économ", "ique</w>"],
    ["music", "al</w>"],
    ["c", "’"],
    ["tiv", "ement</w>"],
    ["poli", "ce</w>"],
    ["l", "y</w>"],
    ["on", "g</w>"],
    ["illus", "tr"],
    ["s", "at"],
    ["fond", "é</w>"],
    ["jou", "eurs</w>"],
    ["li", "g"],
    ["j", "a</w>"],
    ["é", "al</w>"],
    ["anci", "ens</w>"],
    ["ag", "</w>"],
    ["qua", "tri"],
    ["p", "ai"],
    ["mar", "c"],
    ["qu", "ée</w>"],
    ["in", "o</w>"],
    ["nom", "in"],
    ["con", "f"],
    ["hon", "gr"],
    ["d'", "été</w>"],
    ["dépar", "t</w>"],
    ["al", "istes</w>"],
    ["c", "elles</w>"],
    ["ff", "</w>"],
    ["fais", "ant</w>"],
    ["entraîn", "eur</w>"],
    ["th", "er"],
    ["littér", "ature</w>"],
    ["l'ac", "adémie</w>"],
    ["découver", "te</w>"],
    ["k", "m</w>"],
    ["inscri", "t</w>"],
    ["mon", "d</w>"],
    ["auc", "un</w>"],
    ["br", "un"],
    ["h", "eures</w>"],
    ["ch", "ois"],
    ["di", "que</w>"],
    ["im", "ent"],
    ["nouv", "eaux</w>"],
    ["iv", "er</w>"],
    ["br", "onze</w>"],
    ["ologi", "ques</w>"],
    ["pro", "xim"],
    ["ex", "écu"],
    ["com", "prend</w>"],
    ["f", "ar"],
    ["l'", "origine</w>"],
    ["bru", "x"],
    ["quatri", "ème</w>"],
    ["par", "lement</w>"],
    ["phy", "sique</w>"],
    ["g", "as"],
    ["ai", "te</w>"],
    ["l'in", "stitu"],
    ["oi", "le</w>"],
    ["maî", "tre</w>"],
    ["olympi", "que</w>"],
    ["con", "s"],
    ["élém", "ents</w>"],
    ["s", "éri"],
    ["d", "yn"],
    ["abb", "aye</w>"],
    ["un", "ique</w>"],
    ["f", "or</w>"],
    ["élec", "tion</w>"],
    ["vit", "esse</w>"],
    ["w", "ay</w>"],
    ["mo", "s"],
    ["él", "ève</w>"],
    ["al", "ise</w>"],
    ["ra", "di"],
    ["rec", "ens"],
    ["tiv", "es</w>"],
    ["sti", "ques</w>"],
    ["r", "ent</w>"],
    ["es", "sion</w>"],
    ["l", "en"],
    ["re", "trouve</w>"],
    ["di", "eu</w>"],
    ["mani", "fes"],
    ["dé", "cide</w>"],
    ["prot", "ég"],
    ["b", "om"],
    ["dér", "oul"],
    ["cl", "é"],
    ["fav", "or"],
    ["activ", "ité</w>"],
    ["v", "as"],
    ["col", "om"],
    ["kil", "om"],
    ["mét", "ho"],
    ["d'", "a"],
    ["t", "v</w>"],
    ["n", "ent</w>"],
    ["bret", "agne</w>"],
    ["tradi", "tionn"],
    ["b", "au"],
    ["m", "él"],
    ["l", "ac"],
    ["ser", "ait</w>"],
    ["in", "stru"],
    ["import", "ante</w>"],
    ["fi", "che</w>"],
    ["contin", "u"],
    ["personn", "ages</w>"],
    ["fond", "ation</w>"],
    ["qu", "ent</w>"],
    ["ais", "se</w>"],
    ["ch", "ré"],
    ["pr", "euve</w>"],
    ["ic", "u"],
    ["as", "se"],
    ["ser", "t</w>"],
    ["hô", "tel</w>"],
    ["f", "ant"],
    ["at", "lan"],
    ["ber", "lin</w>"],
    ["a", "k</w>"],
    ["vi", "ennent</w>"],
    ["og", "ne</w>"],
    ["ac", "cep"],
    ["d", "re"],
    ["vi", "t</w>"],
    ["afri", "c"],
    ["v", "au"],
    ["o", "v</w>"],
    ["pers", "onne</w>"],
    ["princip", "aux</w>"],
    ["e", "x</w>"],
    ["si", "f</w>"],
    ["o", "k"],
    ["vic", "e-"],
    ["m", "ê"],
    ["et", "h"],
    ["rec", "u"],
    ["v", "ous</w>"],
    ["u", "elle</w>"],
    ["sélec", "tion</w>"],
    ["l'", "homme</w>"],
    ["co", "-"],
    ["étudi", "ant</w>"],
    ["ter", "res</w>"],
    ["nicol", "as</w>"],
    ["is", "tique</w>"],
    ["gr", "en"],
    ["espagn", "ol</w>"],
    ["form", "é</w>"],
    ["qu", "in"],
    ["lar", "ge</w>"],
    ["d'ar", "gent</w>"],
    ["cô", "te</w>"],
    ["l", "er"],
    ["démoc", "r"],
    ["atta", "que</w>"],
    ["sim", "ple</w>"],
    ["ac", "tions</w>"],
    ["en", "c"],
    ["tr", "a</w>"],
    ["utilis", "ation</w>"],
    ["sing", "le</w>"],
    ["tin", "g</w>"],
    ["bern", "ard</w>"],
    ["con", "fér"],
    ["atte", "int</w>"],
    ["an", "ie</w>"],
    ["minist", "ère</w>"],
    ["ch", "i</w>"],
    ["em", "ment</w>"],
    ["ouvr", "age</w>"],
    ["am", "a</w>"],
    ["et", "é</w>"],
    ["aff", "ir"],
    ["b", "lu"],
    ["ou", "tre</w>"],
    ["ci", "el</w>"],
    ["iss", "ent</w>"],
    ["di", "vers</w>"],
    ["ti", "l"],
    ["phy", "si"],
    ["on", "ym"],
    ["arti", "stes</w>"],
    ["char", "ge</w>"],
    ["o", "y"],
    ["iv", "es</w>"],
    ["ici", "le</w>"],
    ["ar", "iste</w>"],
    ["parti", "cipa"],
    ["ges", "tion</w>"],
    ["deven", "u</w>"],
    ["montr", "éal</w>"],
    ["mar", "ché</w>"],
    ["z", "z"],
    ["l'", "autre</w>"],
    ["b", "onn"],
    ["com", "</w>"],
    ["conse", "iller</w>"],
    ["mag", "az"],
    ["ci", "a</w>"],
    ["b", "ot"],
    ["c", "éd"],
    ["secré", "taire</w>"],
    ["chev", "alier</w>"],
    ["î", "les</w>"],
    ["lan", "gues</w>"],
    ["in", "dépen"],
    ["compos", "iteur</w>"],
    ["d", "oi"],
    ["v", "i</w>"],
    ["des", "sus</w>"],
    ["bor", "d</w>"],
    ["fl", "am"],
    ["on", "aise</w>"],
    ["s", "ter"],
    ["désor", "mais</w>"],
    ["pa", "tri"],
    ["en", "voy"],
    ["prot", "ection</w>"],
    ["l'", "on</w>"],
    ["ti", "mes</w>"],
    ["nat", "ure</w>"],
    ["e", "k</w>"],
    ["su", "ff"],
    ["org", "an"],
    ["th", "èse</w>"],
    ["grand", "-"],
    ["v", "ég"],
    ["ci", "s</w>"],
    ["chaî", "ne</w>"],
    ["capit", "aine</w>"],
    ["di", "en</w>"],
    ["clu", "bs</w>"],
    ["pass", "é</w>"],
    ["e", "k"],
    ["c", "œur</w>"],
    ["clas", "sique</w>"],
    ["pi", "èce</w>"],
    ["onn", "é</w>"],
    ["tech", "ni"],
    ["trai", "té</w>"],
    ["parti", "es</w>"],
    ["ro", "ck</w>"],
    ["w", "at"],
    ["l'em", "pire</w>"],
    ["t", "able</w>"],
    ["dé", "bu"],
    ["journ", "aliste</w>"],
    ["olo", "gue</w>"],
    ["ly", "on</w>"],
    ["lign", "es</w>"],
    ["éner", "gie</w>"],
    ["lan", "c"],
    ["per", "eur</w>"],
    ["mari", "age</w>"],
    ["tr", "op</w>"],
    ["cl", "in"],
    ["o", "w"],
    ["j", "ard"],
    ["ar", "s</w>"],
    ["pass", "age</w>"],
    ["li", "vres</w>"],
    ["ég", "yp"],
    ["lo", "v"],
    ["ouver", "t</w>"],
    ["sol", "d"],
    ["r", "ar"],
    ["ê", "tes</w>"],
    ["vi", "enne</w>"],
    ["contr", "at</w>"],
    ["ri", "ch</w>"],
    ["ré", "com"],
    ["m", "al</w>"],
    ["is", "es</w>"],
    ["d'", "é"],
    ["ai", "gn"],
    ["comédi", "e</w>"],
    ["tr", "action</w>"],
    ["d", "av"],
    ["particuli", "èrement</w>"],
    ["in", "ten"],
    ["f", "eu</w>"],
    ["sci", "ence</w>"],
    ["cali", "for"],
    ["évol", "u"],
    ["pi", "èces</w>"],
    ["l'", "ab"],
    ["cou", "leur</w>"],
    ["w", "ard</w>"],
    ["o", "k</w>"],
    ["bas", "k"],
    ["trai", "te</w>"],
    ["ti", "ss"],
    ["né", "er"],
    ["ré", "ci"],
    ["p", "u</w>"],
    ["a", "trice</w>"],
    ["fin", "anci"],
    ["e", "y"],
    ["vo", "is"],
    ["ci", "vi"],
    ["personn", "alités</w>"],
    ["sur", "face</w>"],
    ["con", "dam"],
    ["u", "sion</w>"],
    ["g", "all"],
    ["di", "a</w>"],
    ["ma", "xim"],
    ["commer", "ce</w>"],
    ["ti", "r</w>"],
    ["fa", "çon</w>"],
    ["interpr", "ét"],
    ["c", "ell"],
    ["dé", "mographie</w>"],
    ["d", "al"],
    ["cid", "ent</w>"],
    ["origin", "al</w>"],
    ["p", "il"],
    ["in", "titul"],
    ["is", "ra"],
    ["ré", "c"],
    ["ati", "vement</w>"],
    ["économ", "ie</w>"],
    ["rel", "ations</w>"],
    ["élec", "tr"],
    ["dém", "ique</w>"],
    ["r", "ur"],
    ["m", "ation</w>"],
    ["sau", "v"],
    ["pon", "i"],
    ["n", "g"],
    ["nom", "mée</w>"],
    ["f", "a</w>"],
    ["ar", "mée</w>"],
    ["ches", "tre</w>"],
    ["chan", "ge</w>"],
    ["n", "y</w>"],
    ["i", "dé"],
    ["in", "trodu"],
    ["sy", "l"],
    ["cl", "ar"],
    ["seign", "eur</w>"],
    ["wor", "ld</w>"],
    ["n", "ations</w>"],
    ["ét", "ats</w>"],
    ["b", "us</w>"],
    ["pos", "er</w>"],
    ["mal", "adi"],
    ["d'", "ac"],
    ["d'ar", "t</w>"],
    ["pet", "er</w>"],
    ["con", "cours</w>"],
    ["au", "me</w>"],
    ["is", "er</w>"],
    ["t", "t"],
    ["gl", "ob"],
    ["ol", "d</w>"],
    ["centr", "al</w>"],
    ["m", "age</w>"],
    ["fi", "ce</w>"],
    ["dam", "e</w>"],
    ["é", "sie</w>"],
    ["di", "am"],
    ["des", "cen"],
    ["sec", "teur</w>"],
    ["asse", "z</w>"],
    ["mauri", "ce</w>"],
    ["pa", "c"],
    ["com", "par"],
    ["alis", "me</w>"],
    ["e", "f</w>"],
    ["lon", "gueur</w>"],
    ["l", "ang"],
    ["hau", "te</w>"],
    ["biblioth", "èque</w>"],
    ["er", "t</w>"],
    ["bour", "g"],
    ["grou", "p"],
    ["l'institu", "t</w>"],
    ["f", "is"],
    ["ro", "s"],
    ["l", "oire</w>"],
    ["po", "le</w>"],
    ["fi", "ée</w>"],
    ["réparti", "tion</w>"],
    ["al", "g"],
    ["pro", "bab"],
    ["fic", "tion</w>"],
    ["or", "t</w>"],
    ["qu", "e"],
    ["è", "les</w>"],
    ["it", "ée</w>"],
    ["cam", "p</w>"],
    ["port", "ent</w>"],
    ["l", "es-"],
    ["po", "wi"],
    ["ci", "me"],
    ["dis", "poni"],
    ["t", "elle</w>"],
    ["catég", "orie</w>"],
    ["val", "eur</w>"],
    ["propri", "ét"],
    ["su", "re</w>"],
    ["l'", "</w>"],
    ["bâti", "ments</w>"],
    ["in", "fér"],
    ["im", "pli"],
    ["auc", "une</w>"],
    ["ren", "d</w>"],
    ["g", "ène</w>"],
    ["powi", "at</w>"],
    ["sovi", "étique</w>"],
    ["bén", "é"],
    ["vé", "h"],
    ["fran", "ch"],
    ["s", "emble</w>"],
    ["is", "ab"],
    ["m", "on</w>"],
    ["m", "oi"],
    ["gl", "ace</w>"],
    ["and", "re"],
    ["appar", "aît</w>"],
    ["h", "a</w>"],
    ["b", "lo"],
    ["g", "ag"],
    ["les", "qu"],
    ["constru", "ite</w>"],
    ["al", "d</w>"],
    ["ci", "v"],
    ["rég", "iment</w>"],
    ["i", "ce</w>"],
    ["ç", "ant</w>"],
    ["ph", "ase</w>"],
    ["is", "ant</w>"],
    ["permet", "tant</w>"],
    ["l'", "u"],
    ["pres", "s</w>"],
    ["offici", "er</w>"],
    ["ti", "é</w>"],
    ["or", "din"],
    ["brux", "elles</w>"],
    ["ch", "ans"],
    ["moder", "ne</w>"],
    ["k", "ing</w>"],
    ["s", "w"],
    ["bl", "ac"],
    ["e", "a</w>"],
    ["import", "ance</w>"],
    ["n", "is</w>"],
    ["justi", "ce</w>"],
    ["st", "er</w>"],
    ["stu", "dio</w>"],
    ["publi", "e</w>"],
    ["in", "spi"],
    ["c", "ass"],
    ["ta", "ille</w>"],
    ["d", "j"],
    ["ath", "l"],
    ["nation", "ales</w>"],
    ["ob", "</w>"],
    ["voy", "age</w>"],
    ["dani", "el</w>"],
    ["c’", "est</w>"],
    ["quit", "te</w>"],
    ["fai", "ble</w>"],
    ["l", "at"],
    ["jo", "r</w>"],
    ["co", "de</w>"],
    ["fi", "ques</w>"],
    ["fici", "e</w>"],
    ["pr", "on"],
    ["ant", "oine</w>"],
    ["math", "ém"],
    ["représent", "ant</w>"],
    ["deven", "ir</w>"],
    ["trav", "aille</w>"],
    ["onym", "ie</w>"],
    ["con", "cep"],
    ["ac", "compagn"],
    ["g", "le</w>"],
    ["major", "ité</w>"],
    ["aff", "ec"],
    ["hy", "dro"],
    ["b", "le"],
    ["bas", "se</w>"],
    ["ic", "k</w>"],
    ["cel", "le-"],
    ["ass", "ist"],
    ["so", "li"],
    ["l'", "inter"],
    ["mé", "can"],
    ["an", "i</w>"],
    ["austr", "ali"],
    ["man", "uel</w>"],
    ["in", "fr"],
    ["str", "at"],
    ["bar", "r"],
    ["ch", "itec"],
    ["n", "a"],
    ["s", "k</w>"],
    ["co", "p"],
    ["ph", "il"],
    ["y", "s</w>"],
    ["diff", "ic"],
    ["l'", "association</w>"],
    ["per", "for"],
    ["alis", "é</w>"],
    ["se", "i"],
    ["bass", "in</w>"],
    ["anis", "me</w>"],
    ["au", "lt</w>"],
    ["k", "en"],
    ["l'", "eau</w>"],
    ["régi", "me</w>"],
    ["si", "ve</w>"],
    ["dér", "ou"],
    ["ré", "es</w>"],
    ["respon", "s"],
    ["austr", "alie</w>"],
    ["it", "a</w>"],
    ["ma", "jor</w>"],
    ["struc", "ture</w>"],
    ["neu", "f</w>"],
    ["pren", "ant</w>"],
    ["le", "ft</w>"],
    ["ent", "aires</w>"],
    ["navi", "re</w>"],
    ["hen", "ry</w>"],
    ["j", "on"],
    ["fic", "ations</w>"],
    ["pa", "ges</w>"],
    ["qu'", "en</w>"],
    ["ex", "er"],
    ["jusqu'", "au</w>"],
    ["h", "am</w>"],
    ["am", "eric"],
    ["st", "on</w>"],
    ["op", "sis</w>"],
    ["mo", "de</w>"],
    ["t", "ations</w>"],
    ["h", "a"],
    ["plu", "tôt</w>"],
    ["produ", "cteur</w>"],
    ["class", "é</w>"],
    ["l'", "ag"],
    ["bu", "d"],
    ["derni", "ers</w>"],
    ["dé", "s</w>"],
    ["arti", "stique</w>"],
    ["re", "présente</w>"],
    ["d", "ite</w>"],
    ["phot", "ographie</w>"],
    ["celle-", "ci</w>"],
    ["issu", "e</w>"],
    ["c", "re"],
    ["magaz", "ine</w>"],
    ["envir", "onnement</w>"],
    ["fr", "ères</w>"],
    ["déc", "rit</w>"],
    ["c", "ot"],
    ["int", "éri"],
    ["for", "te</w>"],
    ["b", "é"],
    ["pein", "ture</w>"],
    ["concern", "ant</w>"],
    ["ic", "a</w>"],
    ["mot", "eur</w>"],
    ["gr", "ès</w>"],
    ["com", "position</w>"],
    ["lon", "gue</w>"],
    ["m", "enti"],
    ["bi", "o"],
    ["h", "an</w>"],
    ["g", "in"],
    ["guill", "aume</w>"],
    ["peti", "ts</w>"],
    ["véh", "icu"],
    ["entre", "prises</w>"],
    ["pr", "atique</w>"],
    ["hô", "pit"],
    ["i", "ers</w>"],
    ["st", "ar</w>"],
    ["emplo", "y"],
    ["com", "pris</w>"],
    ["fon", "ctions</w>"],
    ["dé", "termin"],
    ["cir", "cu"],
    ["éli", "min"],
    ["r", "ot"],
    ["par", "cours</w>"],
    ["it", "h"],
    ["cime", "tière</w>"],
    ["reç", "u</w>"],
    ["m", "ass"],
    ["ri", "es</w>"],
    ["f", "en"],
    ["app", "el</w>"],
    ["sud-", "est</w>"],
    ["g", "ou"],
    ["tempér", "ature</w>"],
    ["o", "les</w>"],
    ["itali", "enne</w>"],
    ["ti", "s</w>"],
    ["es", "s</w>"],
    ["gi", "r"],
    ["un", "g</w>"],
    ["loc", "ale</w>"],
    ["ab", "r"],
    ["kilom", "ètres</w>"],
    ["ouvr", "ages</w>"],
    ["us", "si"],
    ["éli", "or"],
    ["i", "ch"],
    ["professionn", "el</w>"],
    ["mém", "oire</w>"],
    ["j", "er"],
    ["z", "-"],
    ["roy", "ale</w>"],
    ["pi", "ano</w>"],
    ["t", "ées</w>"],
    ["l'", "at"],
    ["condi", "tions</w>"],
    ["si", "mil"],
    ["du", "l"],
    ["ag", "er</w>"],
    ["ré", "serv"],
    ["se", "e</w>"],
    ["an", "t-"],
    ["ar", "y</w>"],
    ["p", "p"],
    ["mét", "é"],
    ["w", "s</w>"],
    ["l'in", "térieur</w>"],
    ["b", "ill"],
    ["jus", "qu’"],
    ["dé", "buts</w>"],
    ["b", "en</w>"],
    ["r", "ad"],
    ["n", "et"],
    ["for", "êt</w>"],
    ["chans", "ons</w>"],
    ["ch", "ic"],
    ["compos", "ée</w>"],
    ["qu", "alité</w>"],
    ["europé", "en</w>"],
    ["gouvern", "eur</w>"],
    ["ch", "oix</w>"],
    ["considér", "é</w>"],
    ["princip", "ales</w>"],
    ["circon", "scription</w>"],
    ["pro", "vo"],
    ["sud-", "ouest</w>"],
    ["ren", "contr"],
    ["b", "in"],
    ["prés", "ent</w>"],
    ["l", "our"],
    ["sol", "ution</w>"],
    ["é", "d</w>"],
    ["d'", "at"],
    ["r", "av"],
    ["sup", "pl"],
    ["con", "fir"],
    ["gr", "o"],
    ["franç", "aises</w>"],
    ["cô", "tés</w>"],
    ["ilo", "te</w>"],
    ["utilis", "ée</w>"],
    ["ss", "es</w>"],
    ["ta", "x"],
    ["canadi", "en</w>"],
    ["d", "d"],
    ["sit", "ue</w>"],
    ["récom", "pen"],
    ["d'", "</w>"],
    ["moi", "tié</w>"],
    ["con", "ç"],
    ["om", "ie</w>"],
    ["par", "all"],
    ["ris", "que</w>"],
    ["cit", "y</w>"],
    ["fre", "d</w>"],
    ["né", "an"],
    ["régi", "ons</w>"],
    ["néan", "moins</w>"],
    ["v", "in</w>"],
    ["à-", "dire</w>"],
    ["mari", "e-"],
    ["est-", "à-dire</w>"],
    ["soci", "ale</w>"],
    ["nom", "s</w>"],
    ["suiv", "i</w>"],
    ["mil", "itaires</w>"],
    ["li", "v"],
    ["perfor", "man"],
    ["cat", "h"],
    ["pres", "que</w>"],
    ["nor", "m"],
    ["diri", "ge"],
    ["tis", "me</w>"],
    ["astéroï", "des</w>"],
    ["ap", "pr"],
    ["wo", "od</w>"],
    ["améric", "ains</w>"],
    ["cir", "cul"],
    ["k", "in"],
    ["form", "at</w>"],
    ["é", "c"],
    ["bo", "s"],
    ["sou", "tien</w>"],
    ["h", "auteur</w>"],
    ["i", "b"],
    ["participa", "tion</w>"],
    ["or", "b"],
    ["fon", "ds</w>"],
    ["pro", "ven"],
    ["ten", "ue</w>"],
    ["su", "jet</w>"],
    ["str", "ie</w>"],
    ["ac", "qu"],
    ["bi", "r"],
    ["d'h", "onneur</w>"],
    ["coll", "ège</w>"],
    ["parois", "se</w>"],
    ["av", "ent"],
    ["ati", "e</w>"],
    ["l'ar", "t</w>"],
    ["tou", "lou"],
    ["co", "les</w>"],
    ["con", "som"],
    ["en", "démique</w>"],
    ["ass", "ass"],
    ["lu", "mi"],
    ["pl", "or"],
    ["s", "ex"],
    ["civi", "le</w>"],
    ["autom", "o"],
    ["syn", "opsis</w>"],
    ["proxim", "ité</w>"],
    ["re", "prises</w>"],
    ["phot", "ograph"],
    ["d", "un"],
    ["em", "pire</w>"],
    ["fau", "t</w>"],
    ["en", "de</w>"],
    ["as", "tique</w>"],
    ["cér", "é"],
    ["ang", "er</w>"],
    ["étap", "e</w>"],
    ["po", "s</w>"],
    ["mont", "agne</w>"],
    ["o", "do"],
    ["man", "che</w>"],
    ["pass", "er</w>"],
    ["célè", "bre</w>"],
    ["n", "d</w>"],
    ["indivi", "du"],
    ["chan", "teur</w>"],
    ["techni", "ques</w>"],
    ["mo", "t</w>"],
    ["w", "ol"],
    ["eu", "x-"],
    ["mar", "c</w>"],
    ["cert", "ain</w>"],
    ["actu", "elle</w>"],
    ["peu", "ple</w>"],
    ["christ", "oph"],
    ["tionn", "aire</w>"],
    ["public", "ations</w>"],
    ["ati", "fs</w>"],
    ["s", "œur</w>"],
    ["ent", "er"],
    ["p", "is"],
    ["califor", "nie</w>"],
    ["t", "ém"],
    ["d'", "es"],
    ["pro", "pose</w>"],
    ["pl", "ant"],
    ["app", "elle</w>"],
    ["tour", "née</w>"],
    ["al", "bert</w>"],
    ["emb", "our"],
    ["ing", "s</w>"],
    ["doi", "vent</w>"],
    ["ann", "a</w>"],
    ["recor", "d</w>"],
    ["ori", "a</w>"],
    ["char", "gé</w>"],
    ["fi", "eld</w>"],
    ["bri", "g"],
    ["g", "re</w>"],
    ["pu", "s</w>"],
    ["ur", "s</w>"],
    ["gr", "i"],
    ["pay", "s-"],
    ["sélec", "tionn"],
    ["mar", "se"],
    ["no", "s</w>"],
    ["recens", "ement</w>"],
    ["pay", "s"],
    ["d'", "au"],
    ["métr", "age</w>"],
    ["t", "es"],
    ["it", "ant</w>"],
    ["l", "un"],
    ["in", "clu"],
    ["ju", "li"],
    ["ren", "é</w>"],
    ["spec", "tac"],
    ["air", "ie</w>"],
    ["j", "uni"],
    ["mondi", "al</w>"],
    ["s", "aisons</w>"],
    ["contr", "e-"],
    ["re", "ine</w>"],
    ["ou", "x</w>"],
    ["doc", "teur</w>"],
    ["a", "si"],
    ["ch", "ée</w>"],
    ["p", "ilote</w>"],
    ["nord-", "est</w>"],
    ["pi", "ed</w>"],
    ["f", "as"],
    ["autri", "che</w>"],
    ["joh", "n"],
    ["ar", "a</w>"],
    ["can", "al</w>"],
    ["ç", "a</w>"],
    ["thé", "orie</w>"],
    ["supéri", "eure</w>"],
    ["bu", "reau</w>"],
    ["b", "at</w>"],
    ["m", "oul"],
    ["é", "cl"],
    ["al", "ter"],
    ["r", "ie</w>"],
    ["ir", "a</w>"],
    ["v", "oc"],
    ["pro", "ces"],
    ["al", "u"],
    ["an", "tique</w>"],
    ["s", "si"],
    ["haut", "e-"],
    ["c", "u</w>"],
    ["s", "en</w>"],
    ["gr", "am"],
    ["ci", "e</w>"],
    ["di", "oc"],
    ["t", "ol"],
    ["k", "at"],
    ["ci", "ens</w>"],
    ["pren", "nent</w>"],
    ["séri", "es</w>"],
    ["ev", "</w>"],
    ["al", "s</w>"],
    ["nord-", "ouest</w>"],
    ["fan", "terie</w>"],
    ["comman", "dant</w>"],
    ["donn", "er</w>"],
    ["s", "h</w>"],
    ["évén", "ements</w>"],
    ["s", "avoir</w>"],
    ["der", "rière</w>"],
    ["se", "-"],
    ["éd", "r"],
    ["stati", "stiques</w>"],
    ["d", "ot"],
    ["s", "lov"],
    ["adap", "tation</w>"],
    ["tru", "c"],
    ["qu", "ar"],
    ["dram", "atique</w>"],
    ["ty", "pes</w>"],
    ["vict", "oires</w>"],
    ["m", "â"],
    ["ap", "pro"],
    ["pays-", "bas</w>"],
    ["secon", "d"],
    ["is", "on</w>"],
    ["probab", "lement</w>"],
    ["tradu", "ction</w>"],
    ["v", "ision</w>"],
    ["tour", "ne</w>"],
    ["vi", "d"],
    ["lati", "n</w>"],
    ["pr", "ati"],
    ["appel", "ée</w>"],
    ["po", "ète</w>"],
    ["fon", "t"],
    ["l'", "assemblée</w>"],
    ["direc", "tement</w>"],
    ["v", "ot"],
    ["agri", "coles</w>"],
    ["par", "ents</w>"],
    ["in", "é</w>"],
    ["tr", "ain</w>"],
    ["œ", "urs</w>"],
    ["aff", "aire</w>"],
    ["pou", "ss"],
    ["ati", "s"],
    ["contin", "ue</w>"],
    ["form", "er</w>"],
    ["bes", "o"],
    ["avi", "on</w>"],
    ["ques", "tion</w>"],
    ["ar", "n"],
    ["pai", "x</w>"],
    ["diff", "usion</w>"],
    ["f", "un"],
    ["allem", "ands</w>"],
    ["fr", "ont</w>"],
    ["c", "al</w>"],
    ["el", "la</w>"],
    ["e-", "et-"],
    ["trav", "ers"],
    ["mê", "mes</w>"],
    ["pr", "ol"],
    ["l", "é</w>"],
    ["cou", "leurs</w>"],
    ["col", "og"],
    ["figu", "re</w>"],
    ["rem", "on"],
    ["automo", "bile</w>"],
    ["diver", "ses</w>"],
    ["t", "é"],
    ["let", "tre</w>"],
    ["g", "an</w>"],
    ["ro", "ger</w>"],
    ["ch", "al"],
    ["histori", "en</w>"],
    ["ph", "én"],
    ["for", "êts</w>"],
    ["mari", "a</w>"],
    ["m", "eu"],
    ["mi", "gr"],
    ["f", "ol"],
    ["ap", "pu"],
    ["d", "istance</w>"],
    ["con", "grès</w>"],
    ["pa", "pe</w>"],
    ["m", "in</w>"],
    ["pron", "on"],
    ["arch", "é"],
    ["méd", "aill"],
    ["aut", "on"],
    ["è", "ves</w>"],
    ["laur", "ent</w>"],
    ["v", "én"],
    ["li", "c"],
    ["du", "re</w>"],
    ["dé", "plac"],
    ["j", "i</w>"],
    ["l'", "occasion</w>"],
    ["jou", "é</w>"],
    ["actu", "ellement</w>"],
    ["v", "f</w>"],
    ["t", "ères</w>"],
    ["i", "dae</w>"],
    ["ven", "ir</w>"],
    ["bl", "ess"],
    ["j", "or"],
    ["ma", "r</w>"],
    ["ul", "té</w>"],
    ["m", "un"],
    ["us", "age</w>"],
    ["soci", "al</w>"],
    ["communic", "ation</w>"],
    ["n", "g</w>"],
    ["tex", "tes</w>"],
    ["o", "la</w>"],
    ["av", "</w>"],
    ["t", "w"],
    ["mas", "cul"],
    ["ti", "ll"],
    ["cath", "édr"],
    ["dem", "and"],
    ["l'", "op"],
    ["commun", "aut"],
    ["fer", "ro"],
    ["ly", "cée</w>"],
    ["consé", "qu"],
    ["l'", "as"],
    ["ic", "i</w>"],
    ["af", "fron"],
    ["ell", "i</w>"],
    ["ar", "rive</w>"],
    ["analy", "se</w>"],
    ["sou", "h"],
    ["religi", "eux</w>"],
    ["ré", "alise</w>"],
    ["gr", "ec"],
    ["chin", "ois</w>"],
    ["ill", "on</w>"],
    ["ô", "ne</w>"],
    ["stat", "ut</w>"],
    ["g", "en</w>"],
    ["ob", "jets</w>"],
    ["si", "de</w>"],
    ["port", "ée</w>"],
    ["d", "ri"],
    ["l", "ing</w>"],
    ["fr", "oi"],
    ["ma", "y"],
    ["lan", "ce</w>"],
    ["pos", "ée</w>"],
    ["mo", "sc"],
    ["j", "ér"],
    ["voi", "es</w>"],
    ["nation", "aux</w>"],
    ["fa", "ç"],
    ["g", "ation</w>"],
    ["x", "v</w>"],
    ["ad", "ol"],
    ["cin", "qui"],
    ["cour", "ant</w>"],
    ["l'", "au"],
    ["er", "-"],
    ["no", "tre-"],
    ["tr", "é"],
    ["se", "aux</w>"],
    ["élec", "tor"],
    ["d'", "an"],
    ["v", "al</w>"],
    ["on", "ie</w>"],
    ["ci", "le</w>"],
    ["g", "és</w>"],
    ["ou", "t</w>"],
    ["tem", "ple</w>"],
    ["mex", "ique</w>"],
    ["s", "ites</w>"],
    ["k", "am"],
    ["trib", "un"],
    ["in", "gén"],
    ["alexand", "re</w>"],
    ["ra", "ch"],
    ["jou", "er</w>"],
    ["déf", "aite</w>"],
    ["b", "o</w>"],
    ["ot", "t</w>"],
    ["fré", "dér"],
    ["n", "az"],
    ["pris", "onn"],
    ["cam", "er"],
    ["a", "xe</w>"],
    ["aut", "eurs</w>"],
    ["brés", "il</w>"],
    ["qu'", "à</w>"],
    ["l'", "ét"],
    ["per", "mis</w>"],
    ["fron", "tière</w>"],
    ["anim", "ation</w>"],
    ["ent", "ales</w>"],
    ["ren", "dre</w>"],
    ["cri", "tiques</w>"],
    ["x", "vi"],
    ["i", "ère</w>"],
    ["trav", "er"],
    ["aut", "o"],
    ["hôpit", "al</w>"],
    ["ê", "tres</w>"],
    ["ré", "serve</w>"],
    ["d", "éri"],
    ["no", "te</w>"],
    ["or", "ph"],
    ["recher", "ches</w>"],
    ["mu", "le</w>"],
    ["pa", "ci"],
    ["ab", "lement</w>"],
    ["car", "din"],
    ["con", "texte</w>"],
    ["ic", "al</w>"],
    ["cinqui", "ème</w>"],
    ["d'", "en"],
    ["ou", "ti"],
    ["natur", "el</w>"],
    ["s", "enti"],
    ["tu", "s</w>"],
    ["é", "ph"],
    ["er", "i"],
    ["puis", "sance</w>"],
    ["onn", "es</w>"],
    ["e", "p</w>"],
    ["capa", "cité</w>"],
    ["ar", "rondissement</w>"],
    ["ch", "ass"],
    ["colon", "el</w>"],
    ["vi", "s</w>"],
    ["h", "éli"],
    ["pris", "on</w>"],
    ["di", "vis"],
    ["am", "ique</w>"],
    ["oc", "k</w>"],
    ["constitu", "tion</w>"],
    ["fond", "ateur</w>"],
    ["ann", "es</w>"],
    ["r", "o</w>"],
    ["ob", "tenir</w>"],
    ["im", "péri"],
    ["mosc", "ou</w>"],
    ["cl", "av"],
    ["volu", "me</w>"],
    ["e", "ar"],
    ["au", "t</w>"],
    ["l'", "aide</w>"],
    ["médec", "in</w>"],
    ["in", "augu"],
    ["dan", "ts</w>"],
    ["jui", "fs</w>"],
    ["év", "o"],
    ["g", "et</w>"],
    ["d", "ens"],
    ["mi", "x"],
    ["établis", "sement</w>"],
    ["trans", "ports</w>"],
    ["rés", "istance</w>"],
    ["c", "esse</w>"],
    ["sem", "aine</w>"],
    ["e", "ae</w>"],
    ["l", "as</w>"],
    ["lut", "te</w>"],
    ["st", "or"],
    ["ferro", "vi"],
    ["fin", "al</w>"],
    ["christi", "an</w>"],
    ["mi", "eux</w>"],
    ["cham", "p</w>"],
    ["mor", "ts</w>"],
    ["uti", "lise</w>"],
    ["ili", "er</w>"],
    ["a", "ch</w>"],
    ["agri", "culture</w>"],
    ["eu", "m</w>"],
    ["t", "ons</w>"],
    ["t", "op</w>"],
    ["personn", "el</w>"],
    ["préf", "ec"],
    ["s", "er</w>"],
    ["natur", "elle</w>"],
    ["som", "met</w>"],
    ["territ", "oires</w>"],
    ["off", "re</w>"],
    ["fr", "u"],
    ["albu", "ms</w>"],
    ["cl", "er"],
    ["man", "s</w>"],
    ["pos", "ant</w>"],
    ["rom", "ain</w>"],
    ["v", "oul"],
    ["ste", "in</w>"],
    ["v", "esti"],
    ["derni", "ères</w>"],
    ["fémin", "in</w>"],
    ["r", "atta"],
    ["pi", "r"],
    ["cycl", "iste</w>"],
    ["z", "o</w>"],
    ["document", "aire</w>"],
    ["navi", "res</w>"],
    ["l'", "ancienne</w>"],
    ["g", "il"],
    ["cré", "er</w>"],
    ["w", "all"],
    ["en", "d</w>"],
    ["enti", "ne</w>"],
    ["propri", "été</w>"],
    ["g", "s</w>"],
    ["arrê", "té</w>"],
    ["ign", "</w>"],
    ["w", "a</w>"],
    ["xi", "xe</w>"],
    ["l'", "abbaye</w>"],
    ["f", "lo"],
    ["pa", "tric"],
    ["lu", "x"],
    ["s", "col"],
    ["mar", "che</w>"],
    ["c'", "est-à-dire</w>"],
    ["dis", "pose</w>"],
    ["f", "-"],
    ["u", "kr"],
    ["m", "ess"],
    ["sold", "ats</w>"],
    ["évol", "ue</w>"],
    ["municip", "al</w>"],
    ["comp", "tait</w>"],
    ["aw", "ards</w>"],
    ["ap", "parti"],
    ["ad", "o</w>"],
    ["pour", "rait</w>"],
    ["prom", "o"],
    ["am", "s</w>"],
    ["collabor", "ation</w>"],
    ["k", "on"],
    ["t", "en</w>"],
    ["pol", "onais</w>"],
    ["j", "é"],
    ["o", "st"],
    ["opér", "a</w>"],
    ["con", "tac"],
    ["cré", "e</w>"],
    ["car", "ol"],
    ["iss", "ement</w>"],
    ["s", "pati"],
    ["ot", "s</w>"],
    ["étab", "li"],
    ["tu", "r</w>"],
    ["cathédr", "ale</w>"],
    ["dioc", "èse</w>"],
    ["alo", "gue</w>"],
    ["arch", "ives</w>"],
    ["cher", "ch"],
    ["probl", "èmes</w>"],
    ["fu", "sion</w>"],
    ["cel", "lu"],
    ["guit", "are</w>"],
    ["c", "d</w>"],
    ["re", "prend</w>"],
    ["ap", "</w>"],
    ["tr", "o</w>"],
    ["w", "w"],
    ["b", "ay"],
    ["it", "er"],
    ["cr", "u"],
    ["ro", "ch"],
    ["qu", "et</w>"],
    ["am", "is</w>"],
    ["quo", "ti"],
    ["graph", "ique</w>"],
    ["su", "sc"],
    ["développ", "é</w>"],
    ["l'ar", "chitec"],
    ["journ", "ée</w>"],
    ["aut", "ant</w>"],
    ["da", "y</w>"],
    ["ouver", "te</w>"],
    ["r", "ê"],
    ["sym", "bo"],
    ["b", "ec"],
    ["f", "al"],
    ["jus", "te</w>"],
    ["angel", "es</w>"],
    ["m", "aisons</w>"],
    ["lar", "s</w>"],
    ["d'", "astéroïdes</w>"],
    ["édi", "fice</w>"],
    ["tour", "né</w>"],
    ["l'", "objet</w>"],
    ["bur", "g</w>"],
    ["n", "ev"],
    ["vi", "er"],
    ["strat", "ég"],
    ["import", "ants</w>"],
    ["it", "re</w>"],
    ["b", "elle</w>"],
    ["ti", "m"],
    ["prol", "on"],
    ["alis", "ée</w>"],
    ["fil", "les</w>"],
    ["m", "én"],
    ["bi", "t</w>"],
    ["d'", "im"],
    ["am", "énag"],
    ["patric", "k</w>"],
    ["fam", "illes</w>"],
    ["par", "ten"],
    ["tom", "</w>"],
    ["w", "er"],
    ["ré", "public"],
    ["k", "y</w>"],
    ["n", "am"],
    ["objec", "tif</w>"],
    ["j", "i"],
    ["k", "a"],
    ["super", "ficie</w>"],
    ["ter", "s</w>"],
    ["liber", "té</w>"],
    ["déc", "ision</w>"],
    ["qu", "és</w>"],
    ["origin", "aire</w>"],
    ["éd", "é</w>"],
    ["al", "le</w>"],
    ["s", "ements</w>"],
    ["sim", "on</w>"],
    ["h", "eur"],
    ["l'", "auteur</w>"],
    ["du", "-"],
    ["ra", "te</w>"],
    ["is", "ent</w>"],
    ["y", "o"],
    ["j", "et"],
    ["m", "am"],
    ["dan", "te</w>"],
    ["v", "ac"],
    ["com", "bat"],
    ["cor", "por"],
    ["gu", "y</w>"],
    ["tom", "b"],
    ["scén", "ariste</w>"],
    ["mon", "as"],
    ["pa", "t"],
    ["st", "and"],
    ["c", "y</w>"],
    ["soci", "étés</w>"],
    ["enseign", "ement</w>"],
    ["s", "mit"],
    ["t", "le</w>"],
    ["psy", "ch"],
    ["nouv", "el</w>"],
    ["spor", "tif</w>"],
    ["région", "al</w>"],
    ["on", "a</w>"],
    ["chant", "euse</w>"],
    ["su", "éd"],
    ["lo", "in</w>"],
    ["y", "u"],
    ["hon", "or"],
    ["pro", "pr"],
    ["anci", "ennes</w>"],
    ["ar", "i</w>"],
    ["h", "ouse</w>"],
    ["cr", "ise</w>"],
    ["rom", "aine</w>"],
    ["remplac", "é</w>"],
    ["blan", "che</w>"],
    ["li", "ées</w>"],
    ["ver", "se</w>"],
    ["dr", "ag"],
    ["cour", "onne</w>"],
    ["d", "am</w>"],
    ["philosoph", "ie</w>"],
    ["con", "centr"],
    ["re", "group"],
    ["l", "è"],
    ["av", "oc"],
    ["or", "th"],
    ["bask", "et-"],
    ["constitu", "e</w>"],
    ["ac", "cès</w>"],
    ["anim", "aux</w>"],
    ["rel", "ation</w>"],
    ["basket-", "ball</w>"],
    ["vér", "it"],
    ["aiss", "ent</w>"],
    ["jo", "sé</w>"],
    ["toulou", "se</w>"],
    ["l", "ine</w>"],
    ["re", "vient</w>"],
    ["re", "traite</w>"],
    ["marse", "ille</w>"],
    ["un", "ités</w>"],
    ["p", "ologie</w>"],
    ["quel", "que</w>"],
    ["dou", "bl"],
    ["l'", "organisation</w>"],
    ["lib", "ération</w>"],
    ["pro", "jets</w>"],
    ["san", "te</w>"],
    ["ro", "se</w>"],
    ["ar", "mes</w>"],
    ["g", "abri"],
    ["fam", "ili"],
    ["plan", "ète</w>"],
    ["c", "f</w>"],
    ["h", "i</w>"],
    ["n", "oire</w>"],
    ["re", "fu"],
    ["chac", "un</w>"],
    ["str", "e"],
    ["ver", "t</w>"],
    ["ten", "us</w>"],
    ["chang", "ement</w>"],
    ["a", "x"],
    ["offici", "ellement</w>"],
    ["mic", "ro"],
    ["syst", "èmes</w>"],
    ["fon", "de</w>"],
    ["z", "él"],
    ["ad", "er</w>"],
    ["mouv", "ements</w>"],
    ["shi", "p</w>"],
    ["distin", "ctions</w>"],
    ["britann", "iques</w>"],
    ["ve", "ill"],
    ["hab", "itu"],
    ["ser", "ont</w>"],
    ["ist", "an</w>"],
    ["syn", "dic"],
    ["contr", "ô"],
    ["occu", "pe</w>"],
    ["her", "ine</w>"],
    ["franc", "is"],
    ["vict", "or</w>"],
    ["ci", "-"],
    ["ar", "th"],
    ["am", "élior"],
    ["médec", "ine</w>"],
    ["ot", "y"],
    ["conse", "ill"],
    ["bi", "ens</w>"],
    ["s", "pen"],
    ["tr", "op"],
    ["lé", "gu"],
    ["dis", "que</w>"],
    ["ne", "w"],
    ["t", "elles</w>"],
    ["ograph", "iques</w>"],
    ["chic", "ago</w>"],
    ["ju", "ri"],
    ["rè", "gne</w>"],
    ["hu", "man"],
    ["b", "ell"],
    ["dé", "di"],
    ["l", "ois</w>"],
    ["and", "a</w>"],
    ["lim", "ite</w>"],
    ["dessin", "ée</w>"],
    ["lab", "el</w>"],
    ["vol", "on"],
    ["four", "ni"],
    ["tiv", "ité</w>"],
    ["pass", "ant</w>"],
    ["suiv", "antes</w>"],
    ["comm", "un</w>"],
    ["t", "or</w>"],
    ["décl", "are</w>"],
    ["d", "y"],
    ["mati", "ère</w>"],
    ["ru", "is"],
    ["enn", "em"],
    ["fi", "x"],
    ["jard", "in</w>"],
    ["so", "r</w>"],
    ["al", "i</w>"],
    ["w", "ash"],
    ["lumi", "ère</w>"],
    ["eu", "ves</w>"],
    ["nég", "o"],
    ["min", "a</w>"],
    ["architec", "ture</w>"],
    ["all", "er</w>"],
    ["at", "ures</w>"],
    ["ten", "nis</w>"],
    ["n'", "y</w>"],
    ["enti", "n</w>"],
    ["b", "in</w>"],
    ["it", "eurs</w>"],
    ["mag", "n"],
    ["rem", "porté</w>"],
    ["trai", "ts</w>"],
    ["col", "le"],
    ["con", "sul"],
    ["ch", "ement</w>"],
    ["nap", "ol"],
    ["chi", "en</w>"],
    ["ex", "position</w>"],
    ["éco", "les</w>"],
    ["proces", "sus</w>"],
    ["jo", "int</w>"],
    ["m", "ang"],
    ["sh", "o"],
    ["l'em", "pereur</w>"],
    ["con", "ception</w>"],
    ["n", "ar"],
    ["désign", "er</w>"],
    ["fil", "mographie</w>"],
    ["s", "embl"],
    ["lég", "ion</w>"],
    ["musi", "c</w>"],
    ["ac", "te</w>"],
    ["é", "mi"],
    ["pa", "th"],
    ["in", "f"],
    ["l'", "observ"],
    ["éd", "iteur</w>"],
    ["télé", "film</w>"],
    ["isi", "ons</w>"],
    ["d'", "o"],
    ["st", "ock"],
    ["b", "ét"],
    ["fil", "i"],
    ["meill", "eurs</w>"],
    ["ch", "ir"],
    ["pl", "ay"],
    ["condu", "it</w>"],
    ["ph", "one</w>"],
    ["électr", "ique</w>"],
    ["e", "la</w>"],
    ["tom", "e</w>"],
    ["p", "seu"],
    ["b", "is"],
    ["en", "ir</w>"],
    ["s", "o</w>"],
    ["beau", "x-"],
    ["b", "i</w>"],
    ["ra", "y</w>"],
    ["con", "tient</w>"],
    ["mar", "k</w>"],
    ["cou", "ple</w>"],
    ["m", "és</w>"],
    ["s", "prin"],
    ["dépu", "tés</w>"],
    ["di", "men"],
    ["réalis", "ée</w>"],
    ["trai", "tement</w>"],
    ["ba", "ch</w>"],
    ["commen", "cé</w>"],
    ["maladi", "e</w>"],
    ["r", "er</w>"],
    ["m", "en</w>"],
    ["l'", "él"],
    ["on", "d"],
    ["poi", "ds</w>"],
    ["r", "and"],
    ["pl", "antes</w>"],
    ["chev", "al</w>"],
    ["vill", "ages</w>"],
    ["k", "ir"],
    ["pi", "er</w>"],
    ["littér", "aire</w>"],
    ["voy", "ag"],
    ["den", "is</w>"],
    ["r", "ang"],
    ["au-", "dessus</w>"],
    ["re", "ti"],
    ["accor", "d</w>"],
    ["es", "pace</w>"],
    ["rév", "él"],
    ["n", "er"],
    ["ren", "om"],
    ["occid", "entale</w>"],
    ["ré", "at</w>"],
    ["ir", "lande</w>"],
    ["constru", "ire</w>"],
    ["ac", "teurs</w>"],
    ["it", "ed</w>"],
    ["cultur", "el</w>"],
    ["n", "on"],
    ["bor", "de"],
    ["priv", "ée</w>"],
    ["l'", "a</w>"],
    ["vi", "en"],
    ["ob", "tenu</w>"],
    ["ré", "uni"],
    ["prin", "cipe</w>"],
    ["essi", "vement</w>"],
    ["ch", "il"],
    ["nu", "clé"],
    ["loc", "aux</w>"],
    ["m", "iss"],
    ["ac", "tes</w>"],
    ["al", "ain</w>"],
    ["ten", "te</w>"],
    ["mar", "i</w>"],
    ["diffus", "ée</w>"],
    ["j", "an</w>"],
    ["beaux-", "arts</w>"],
    ["dev", "ait</w>"],
    ["le", "e</w>"],
    ["n", "as"],
    ["ten", "sion</w>"],
    ["hy", "po"],
    ["actu", "el</w>"],
    ["p", "tions</w>"],
    ["univers", "itaire</w>"],
    ["el", "ier</w>"],
    ["respons", "able</w>"],
    ["vi", "gn"],
    ["mari", "time</w>"],
    ["essenti", "ellement</w>"],
    ["jac", "k</w>"],
    ["li", "br"],
    ["peti", "tes</w>"],
    ["dé", "s"],
    ["tradi", "tion</w>"],
    ["ven", "te</w>"],
    ["mar", "tin"],
    ["utilis", "er</w>"],
    ["aff", "lu"],
    ["n", "our"],
    ["di", "er</w>"],
    ["dol", "lars</w>"],
    ["fa", "une</w>"],
    ["arm", "ées</w>"],
    ["for", "mule</w>"],
    ["j", "o</w>"],
    ["ell", "ation</w>"],
    ["ré", "d"],
    ["l", "ag"],
    ["univers", "ity</w>"],
    ["j", "az"],
    ["lo", "ve</w>"],
    ["wash", "ington</w>"],
    ["off", "ice</w>"],
    ["in", "te</w>"],
    ["gran", "de-"],
    ["a", "la</w>"],
    ["mau", "v"],
    ["w", "es"],
    ["ris", "ques</w>"],
    ["quo", "i</w>"],
    ["é", "colog"],
    ["n", "ag"],
    ["trans", "fér"],
    ["gr", "ec</w>"],
    ["di", "r</w>"],
    ["p", "iste</w>"],
    ["san", "ces</w>"],
    ["sal", "on</w>"],
    ["hom", "mage</w>"],
    ["mon", "ie</w>"],
    ["bou", "t</w>"],
    ["ori", "es</w>"],
    ["riv", "ée</w>"],
    ["circu", "it</w>"],
    ["publi", "ée</w>"],
    ["loc", "al</w>"],
    ["as", "truc"],
    ["ach", "ev"],
    ["dem", "ain</w>"],
    ["c", "tu"],
    ["ren", "for"],
    ["f", "r</w>"],
    ["m", "éri"],
    ["v", "eut</w>"],
    ["fer", "me</w>"],
    ["mu", "r</w>"],
    ["l", "ad"],
    ["y", "e</w>"],
    ["appar", "ition</w>"],
    ["utilis", "és</w>"],
    ["marc", "el</w>"],
    ["tem", "ents</w>"],
    ["ati", "onn"],
    ["ch", "t</w>"],
    ["conn", "exe</w>"],
    ["ju", "ge</w>"],
    ["fac", "il"],
    ["m", "ains</w>"],
    ["py", "ré"],
    ["urb", "aine</w>"],
    ["cit", "oy"],
    ["command", "ement</w>"],
    ["peu", "t-"],
    ["se", "ine</w>"],
    ["pi", "e"],
    ["i", "ens</w>"],
    ["s'", "im"],
    ["suiv", "re</w>"],
    ["mad", "ri"],
    ["b", "et"],
    ["par", "isi"],
    ["p", "ét"],
    ["long", "temps</w>"],
    ["l'ar", "rondissement</w>"],
    ["lar", "gement</w>"],
    ["cou", "n"],
    ["pos", "ent</w>"],
    ["néer", "landais</w>"],
    ["lo", "gi"],
    ["enf", "ance</w>"],
    ["es", "c"],
    ["us", "ine</w>"],
    ["cat", "al"],
    ["péri", "ence</w>"],
    ["éro", "port</w>"],
    ["inter", "net</w>"],
    ["str", "as"],
    ["u", "ss"],
    ["c", "an</w>"],
    ["g", "rég"],
    ["abb", "é</w>"],
    ["si", "ble</w>"],
    ["i", "z"],
    ["l", "n"],
    ["a", "que</w>"],
    ["publi", "cs</w>"],
    ["cri", "min"],
    ["cur", "r"],
    ["g", "les</w>"],
    ["ori", "ent</w>"],
    ["ti", "c</w>"],
    ["su", "ède</w>"],
    ["propriét", "aire</w>"],
    ["titul", "aire</w>"],
    ["x", "xie</w>"],
    ["sem", "aines</w>"],
    ["carac", "tère</w>"],
    ["l'", "entreprise</w>"],
    ["opér", "ations</w>"],
    ["p", "o</w>"],
    ["ng", "c</w>"],
    ["tom", "be</w>"],
    ["l'", "ad"],
    ["fai", "ts</w>"],
    ["l", "le</w>"],
    ["d", "r</w>"],
    ["s", "u</w>"],
    ["el", "e"],
    ["n", "on-"],
    ["dipl", "om"],
    ["ti", "ens</w>"],
    ["cu", "is"],
    ["soci", "aliste</w>"],
    ["ex", "i"],
    ["confér", "ence</w>"],
    ["lan", "cé</w>"],
    ["li", "ve</w>"],
    ["l'", "élection</w>"],
    ["s'", "il</w>"],
    ["frédér", "ic</w>"],
    ["sch", "o"],
    ["v", "a"],
    ["diam", "ètre</w>"],
    ["k", "in</w>"],
    ["land", "aise</w>"],
    ["signi", "fie</w>"],
    ["ch", "en</w>"],
    ["im", "médi"],
    ["f", "ête</w>"],
    ["cu", "s"],
    ["vég", "ét"],
    ["ell", "o</w>"],
    ["itu", "res</w>"],
    ["centr", "e-"],
    ["at", "oires</w>"],
    ["vo", "iture</w>"],
    ["re", "d</w>"],
    ["w", "ell</w>"],
    ["permet", "tent</w>"],
    ["d", "au"],
    ["rejo", "indre</w>"],
    ["re", "prise</w>"],
    ["i", "enne</w>"],
    ["l'", "œuvre</w>"],
    ["ou", "l</w>"],
    ["er", "y</w>"],
    ["sk", "y</w>"],
    ["eff", "ets</w>"],
    ["san", "ts</w>"],
    ["smit", "h</w>"],
    ["conf", "lit</w>"],
    ["cat", "herine</w>"],
    ["ot", "a</w>"],
    ["nomin", "ation</w>"],
    ["pier", "re-"],
    ["vi", "eux</w>"],
    ["ant", "oni"],
    ["écr", "ite</w>"],
    ["produ", "c"],
    ["territ", "ori"],
    ["dé", "si"],
    ["lieu", "tenant</w>"],
    ["constitu", "é</w>"],
    ["métr", "o</w>"],
    ["mi", "d"],
    ["fav", "eur</w>"],
    ["emplo", "i</w>"],
    ["accu", "eil</w>"],
    ["sol", "eil</w>"],
    ["aw", "a</w>"],
    ["ou", "n</w>"],
    ["étudi", "ants</w>"],
    ["not", "re</w>"],
    ["religi", "on</w>"],
    ["ad", "el"],
    ["dé", "mo"],
    ["inv", "esti"],
    ["fu", "tur</w>"],
    ["dépen", "dance</w>"],
    ["châ", "te"],
    ["ress", "our"],
    ["d'in", "fanterie</w>"],
    ["it", "ations</w>"],
    ["éten", "d</w>"],
    ["do", "s</w>"],
    ["par", "k</w>"],
    ["phot", "os</w>"],
    ["mont", "age</w>"],
    ["iter", "ran"],
    ["main", "tenant</w>"],
    ["hu", "ile</w>"],
    ["f", "ab"],
    ["bar", "on</w>"],
    ["gr", "èce</w>"],
    ["cl", "am"],
    ["rés", "ist"],
    ["por", "trait</w>"],
    ["eff", "ic"],
    ["eu", "sement</w>"],
    ["onn", "ée</w>"],
    ["gal", "a"],
    ["suiv", "ants</w>"],
    ["cour", "eur</w>"],
    ["blac", "k</w>"],
    ["fl", "euve</w>"],
    ["ic", "o</w>"],
    ["n'", "ont</w>"],
    ["b", "ad"],
    ["sh", "ire</w>"],
    ["en", "ue</w>"],
    ["ob", "lig"],
    ["maî", "tr"],
    ["stu", "di"],
    ["ferrovi", "aire</w>"],
    ["an", "ique</w>"],
    ["déc", "ret</w>"],
    ["re", "fus"],
    ["m", "ai"],
    ["dou", "ze</w>"],
    ["portug", "al</w>"],
    ["trouv", "er</w>"],
    ["mus", "eum</w>"],
    ["enti", "èrement</w>"],
    ["per", "man"],
    ["l'", "autor"],
    ["li", "s</w>"],
    ["pê", "che</w>"],
    ["w", "n"],
    ["autor", "ités</w>"],
    ["ren", "ouv"],
    ["ex", "plor"],
    ["promo", "tion</w>"],
    ["intitul", "é</w>"],
    ["d'", "av"],
    ["restaur", "ation</w>"],
    ["initi", "alement</w>"],
    ["mes", "ures</w>"],
    ["réguli", "èrement</w>"],
    ["appli", "cation</w>"],
    ["fran", "k</w>"],
    ["jap", "onaise</w>"],
    ["ma", "x</w>"],
    ["candid", "at</w>"],
    ["spor", "ts</w>"],
    ["al", "p"],
    ["m", "ill"],
    ["peut-", "être</w>"],
    ["champi", "ons</w>"],
    ["présent", "ation</w>"],
    ["er", "r"],
    ["y", "ou</w>"],
    ["patr", "onyme</w>"],
    ["hér", "os</w>"],
    ["uni", "quement</w>"],
    ["qu", "anti"],
    ["h", "and"],
    ["qu'", "on</w>"],
    ["ox", "y"],
    ["tionn", "el</w>"],
    ["in", "ée</w>"],
    ["import", "antes</w>"],
    ["car", "t"],
    ["h", "un"],
    ["ab", "ilité</w>"],
    ["om", "étr"],
    ["dis", "co"],
    ["ag", "ent</w>"],
    ["g", "-"],
    ["déta", "ill"],
    ["ri", "ght</w>"],
    ["w", "er</w>"],
    ["music", "ale</w>"],
    ["dérou", "le</w>"],
    ["siè", "ges</w>"],
    ["ju", "les</w>"],
    ["por", "tes</w>"],
    ["év", "alu"],
    ["tradu", "it</w>"],
    ["préfec", "ture</w>"],
    ["organis", "é</w>"],
    ["gr", "a"],
    ["co", "s"],
    ["gr", "os</w>"],
    ["l'in", "du"],
    ["ga", "z</w>"],
    ["atte", "indre</w>"],
    ["ang", "es</w>"],
    ["trouv", "ent</w>"],
    ["législ", "atives</w>"],
    ["commun", "ale</w>"],
    ["vin", "cent</w>"],
    ["ban", "que</w>"],
    ["lor", "r"],
    ["fr", "ag"],
    ["ouv", "rir</w>"],
    ["ri", "ers</w>"],
    ["fr", "om</w>"],
    ["in", "scr"],
    ["m", "m</w>"],
    ["dé", "t"],
    ["gr", "ade</w>"],
    ["ruis", "seau</w>"],
    ["et", "y</w>"],
    ["ci", "o</w>"],
    ["tionn", "elle</w>"],
    ["métho", "de</w>"],
    ["gl", "om"],
    ["borde", "aux</w>"],
    ["dan", "se</w>"],
    ["matéri", "el</w>"],
    ["man", "ie</w>"],
    ["h", "all</w>"],
    ["gen", "ève</w>"],
    ["g", "az"],
    ["û", "</w>"],
    ["natur", "els</w>"],
    ["c", "ec"],
    ["ot", "es</w>"],
    ["g", "ers</w>"],
    ["com", "port"],
    ["mar", "in</w>"],
    ["an", "des</w>"],
    ["com", "porte</w>"],
    ["con", "ver"],
    ["it", "h</w>"],
    ["he", "im</w>"],
    ["résult", "at</w>"],
    ["ch", "asse</w>"],
    ["chu", "te</w>"],
    ["des", "sous</w>"],
    ["baptis", "te</w>"],
    ["it", "z</w>"],
    ["commun", "iste</w>"],
    ["contr", "ain"],
    ["p", "â"],
    ["ph", "e</w>"],
    ["champi", "onne</w>"],
    ["état", "-"],
    ["d'", "environ</w>"],
    ["as", "tron"],
    ["colle", "ge</w>"],
    ["ré", "alité</w>"],
    ["re", "v"],
    ["angl", "aise</w>"],
    ["dic", "tionnaire</w>"],
    ["-", "sur-"],
    ["is", "si"],
    ["tr", "y</w>"],
    ["inform", "ations</w>"],
    ["lux", "embour"],
    ["se", "y</w>"],
    ["s", "ouver"],
    ["ant", "age</w>"],
    ["plac", "es</w>"],
    ["dens", "ité</w>"],
    ["er", "ies</w>"],
    ["s", "un"],
    ["professionn", "elle</w>"],
    ["madri", "d</w>"],
    ["j", "on</w>"],
    ["tot", "ale</w>"],
    ["élev", "é</w>"],
    ["è", "che</w>"],
    ["lég", "ende</w>"],
    ["min", "im"],
    ["particip", "é</w>"],
    ["d'", "espagne</w>"],
    ["uni", "vers</w>"],
    ["mil", "an</w>"],
    ["présent", "é</w>"],
    ["par", "u</w>"],
    ["ili", "en</w>"],
    ["ab", "</w>"],
    ["per", "d</w>"],
    ["mod", "èles</w>"],
    ["deven", "ue</w>"],
    ["ang", "le</w>"],
    ["ess", "ais</w>"],
    ["vis", "ite</w>"],
    ["méd", "iterran"],
    ["é", "tienne</w>"],
    ["th", "ème</w>"],
    ["rom", "ans</w>"],
    ["e", "di"],
    ["l", "as"],
    ["s'", "y</w>"],
    ["pro", "vis"],
    ["concer", "t</w>"],
    ["cer", "ti"],
    ["m", "em"],
    ["con", "te</w>"],
    ["viv", "ant</w>"],
    ["in", "et</w>"],
    ["pl", "ement</w>"],
    ["r", "as"],
    ["re", "groupe</w>"],
    ["départem", "ental</w>"],
    ["phén", "om"],
    ["pr", "euves</w>"],
    ["tribun", "al</w>"],
    ["oli", "vier</w>"],
    ["i", "x</w>"],
    ["o", "te</w>"],
    ["-", "de-"],
    ["r", "ô"],
    ["s", "n"],
    ["and", "er"],
    ["ty", "pologie</w>"],
    ["d'", "afrique</w>"],
    ["l'ar", "rivée</w>"],
    ["ét", "o"],
    ["al", "iment"],
    ["r", "hô"],
    ["k", "or"],
    ["an", "y</w>"],
    ["d", "v"],
    ["g", "mina</w>"],
    ["ch", "en"],
    ["mand", "at</w>"],
    ["offici", "elle</w>"],
    ["probl", "ème</w>"],
    ["v", "ent"],
    ["avi", "er</w>"],
    ["l'", "émission</w>"],
    ["d", "ec"],
    ["n", "ation</w>"],
    ["ple", "in</w>"],
    ["remar", "qu"],
    ["er", "o</w>"],
    ["vi", "vre</w>"],
    ["vers", "aire</w>"],
    ["rur", "ale</w>"],
    ["espagn", "ole</w>"],
    ["fer", "n"],
    ["or", "es</w>"],
    ["ré", "pu"],
    ["mis", "sions</w>"],
    ["eu", "s</w>"],
    ["off", "</w>"],
    ["exem", "pl"],
    ["ter", "a</w>"],
    ["él", "èves</w>"],
    ["l'", "évolution</w>"],
    ["l'es", "pace</w>"],
    ["ri", "o</w>"],
    ["ï", "</w>"],
    ["comp", "ét"],
    ["antoni", "o</w>"],
    ["b", "an</w>"],
    ["ti", "ennent</w>"],
    ["l", "ent</w>"],
    ["ti", "ne</w>"],
    ["we", "b</w>"],
    ["ch", "el"],
    ["ur", "a</w>"],
    ["ju", "di"],
    ["w", "e</w>"],
    ["gi", "o</w>"],
    ["disponi", "ble</w>"],
    ["ann", "i</w>"],
    ["éd", "ou"],
    ["pu", "r"],
    ["ré", "cu"],
    ["fi", "ant</w>"],
    ["guer", "res</w>"],
    ["dis", "ci"],
    ["gn", "on</w>"],
    ["athl", "ète</w>"],
    ["mor", "te</w>"],
    ["s", "core</w>"],
    ["ar", "k</w>"],
    ["alli", "ance</w>"],
    ["cap", "</w>"],
    ["stras", "bourg</w>"],
    ["ch", "œur</w>"],
    ["d'", "ab"],
    ["fin", "anc"],
    ["sup", "er</w>"],
    ["ac", "eae</w>"],
    ["ré", "su"],
    ["som", "me</w>"],
    ["conn", "aît</w>"],
    ["on", "al</w>"],
    ["disci", "pl"],
    ["par", "vient</w>"],
    ["ten", "ti"],
    ["fran", "co"],
    ["ex", "clu"],
    ["s", "ence</w>"],
    ["vo", "te</w>"],
    ["conn", "aissance</w>"],
    ["ex", "prim"],
    ["bas", "é</w>"],
    ["pro", "v"],
    ["nor", "man"],
    ["l'observ", "atoire</w>"],
    ["ré", "gl"],
    ["s", "ag"],
    ["suppl", "ém"],
    ["è", "n"],
    ["in", "er</w>"],
    ["st", "a</w>"],
    ["i", "ie</w>"],
    ["pro", "por"],
    ["con", "clu"],
    ["mu", "sul"],
    ["ap", "proche</w>"],
    ["bar", "cel"],
    ["apparti", "ent</w>"],
    ["ess", "ai</w>"],
    ["is", "ol"],
    ["ving", "t-"],
    ["in", "clin"],
    ["w", "est</w>"],
    ["sau", "f</w>"],
    ["fi", "d"],
    ["res", "se</w>"],
    ["au", "x"],
    ["atlan", "tique</w>"],
    ["présid", "enti"],
    ["p", "éd"],
    ["col", "</w>"],
    ["br", "as</w>"],
    ["li", "a</w>"],
    ["y", "eux</w>"],
    ["rec", "ev"],
    ["san", "ta</w>"],
    ["as", "si"],
    ["ti", "ères</w>"],
    ["fais", "ait</w>"],
    ["d'", "italie</w>"],
    ["s", "qu"],
    ["jaz", "z</w>"],
    ["g", "ens</w>"],
    ["l", "on</w>"],
    ["diff", "icile</w>"],
    ["seign", "ement</w>"],
    ["représent", "ations</w>"],
    ["k", "ol"],
    ["infr", "astruc"],
    ["mété", "or"],
    ["val", "eurs</w>"],
    ["tour", "isme</w>"],
    ["ar", "ité</w>"],
    ["r", "ang</w>"],
    ["cu", "le</w>"],
    ["al", "pes</w>"],
    ["l", "abor"],
    ["ay", "a</w>"],
    ["t", "z</w>"],
    ["mon", "t-"],
    ["mas", "se</w>"],
    ["ch", "és</w>"],
    ["bat", "eau</w>"],
    ["and", "re</w>"],
    ["j", "ar"],
    ["mil", "it"],
    ["r", "ai"],
    ["c", "ale</w>"],
    ["prot", "est"],
    ["tér", "êt</w>"],
    ["par", "ce</w>"],
    ["débu", "te</w>"],
    ["élec", "tron"],
    ["v", "ais"],
    ["mi", "r</w>"],
    ["gér", "ard</w>"],
    ["au", "par"],
    ["ré", "union</w>"],
    ["ac", "ces"],
    ["per", "du</w>"],
    ["n", "au"],
    ["dyn", "as"],
    ["h", "r"],
    ["égyp", "te</w>"],
    ["san", "g</w>"],
    ["arab", "e</w>"],
    ["aupar", "avant</w>"],
    ["n", "ées</w>"],
    ["bom", "bar"],
    ["d'", "avoir</w>"],
    ["scienti", "fiques</w>"],
    ["pos", "és</w>"],
    ["d'", "histoire</w>"],
    ["déroul", "ant</w>"],
    ["agri", "cole</w>"],
    ["gu", "l"],
    ["du", "es</w>"],
    ["pouv", "ant</w>"],
    ["mar", "oc</w>"],
    ["concep", "t</w>"],
    ["hi", "p"],
    ["su", "g"],
    ["ac", "tif</w>"],
    ["comm", "iss"],
    ["des", "serv"],
    ["marqu", "ée</w>"],
    ["dou", "te</w>"],
    ["man", "que</w>"],
    ["h", "tt"],
    ["ra", "ce</w>"],
    ["o", "y</w>"],
    ["sa", "x"],
    ["compl", "exe</w>"],
    ["médi", "as</w>"],
    ["l", "om"],
    ["arti", "ll"],
    ["c", "ations</w>"],
    ["étu", "die</w>"],
    ["pe", "ine</w>"],
    ["man", "us"],
    ["inst", "alle</w>"],
    ["anti", "-"],
    ["l'", "été</w>"],
    ["représent", "ation</w>"],
    ["pr", "être</w>"],
    ["gr", "at"],
    ["li", "vr"],
    ["dr", "ap"],
    ["l'", "o"],
    ["c", "m</w>"],
    ["ré", "fu"],
    ["cor", "é"],
    ["tran", "si"],
    ["g", "ence</w>"],
    ["au", "di"],
    ["len", "demain</w>"],
    ["lé", "on</w>"],
    ["h", "av"],
    ["état-", "major</w>"],
    ["n", "es"],
    ["is", "és</w>"],
    ["dev", "int</w>"],
    ["è", "gre</w>"],
    ["sor", "te</w>"],
    ["jac", "k"],
    ["li", "on</w>"],
    ["avi", "ons</w>"],
    ["ré", "uss"],
    ["dat", "es</w>"],
    ["k", "ur"],
    ["ir", "o</w>"],
    ["permet", "tre</w>"],
    ["dé", "pendant</w>"],
    ["bat", "aill"],
    ["em", "pr"],
    ["génér", "ation</w>"],
    ["napol", "é"],
    ["déri", "v"],
    ["tém", "oign"],
    ["fai", "te</w>"],
    ["maj", "eur</w>"],
    ["urb", "anisme</w>"],
    ["d'h", "iver</w>"],
    ["fi", "és</w>"],
    ["hongr", "ie</w>"],
    ["produ", "ire</w>"],
    ["ter", "mes</w>"],
    ["fémin", "ine</w>"],
    ["for", "tement</w>"],
    ["pro", "cès</w>"],
    ["ré", "ussi"],
    ["pré", "ci"],
    ["soi", "ent</w>"],
    ["vier", "ge</w>"],
    ["v", "ont</w>"],
    ["prin", "temps</w>"],
    ["par", "lem"],
    ["su", "spen"],
    ["mo", "bil"],
    ["infér", "i"],
    ["mas", "sif</w>"],
    ["cert", "aine</w>"],
    ["itu", "de</w>"],
    ["é", "br"],
    ["con", "tres</w>"],
    ["j", "un"],
    ["fin", "it</w>"],
    ["on", "i</w>"],
    ["aw", "ard</w>"],
    ["cardin", "al</w>"],
    ["i", "des</w>"],
    ["é", "ducation</w>"],
    ["iv", "al"],
    ["ét", "ér"],
    ["mé", "tro"],
    ["gé", "ographique</w>"],
    ["éd", "ité</w>"],
    ["ger", "man"],
    ["pro", "pos</w>"],
    ["is", "ées</w>"],
    ["is", "son</w>"],
    ["défin", "i"],
    ["rap", "ide</w>"],
    ["l'", "allemagne</w>"],
    ["appar", "tenant</w>"],
    ["form", "ations</w>"],
    ["ch", "a</w>"],
    ["im", "prim"],
    ["législ", "ature</w>"],
    ["économ", "iques</w>"],
    ["es", "ses</w>"],
    ["m", "ann"],
    ["figu", "r"],
    ["chem", "ins</w>"],
    ["cor", "ée</w>"],
    ["s", "in</w>"],
    ["sign", "é</w>"],
    ["utilis", "ant</w>"],
    ["ff", "re</w>"],
    ["ré", "forme</w>"],
    ["l'indu", "strie</w>"],
    ["co", "pe</w>"],
    ["m", "ène</w>"],
    ["tri", "ques</w>"],
    ["ré", "di"],
    ["mot", "s</w>"],
    ["d'", "ag"],
    ["ressour", "ces</w>"],
    ["ar", "ri"],
    ["min", "es</w>"],
    ["ol", "s</w>"],
    ["sain", "te</w>"],
    ["produ", "ctions</w>"],
    ["bi", "a</w>"],
    ["suff", "is"],
    ["propr", "es</w>"],
    ["mar", "ne</w>"],
    ["un", "ited</w>"],
    ["contr", "e"],
    ["europé", "ens</w>"],
    ["c", "eau</w>"],
    ["él", "us</w>"],
    ["t", "est"],
    ["moy", "ens</w>"],
    ["r", "at"],
    ["diri", "gé</w>"],
    ["diri", "ge</w>"],
    ["d'at", "traction</w>"],
    ["docu", "ments</w>"],
    ["demi-", "grand</w>"],
    ["h", "o</w>"],
    ["m", "onn"],
    ["flu", "ence</w>"],
    ["tir", "er</w>"],
    ["commun", "al</w>"],
    ["bri", "dge</w>"],
    ["expli", "que</w>"],
    ["bat", "terie</w>"],
    ["k", "en</w>"],
    ["vérit", "able</w>"],
    ["l’", "in"],
    ["aur", "a</w>"],
    ["déc", "édé</w>"],
    ["év", "iter</w>"],
    ["l'", "air</w>"],
    ["is", "sions</w>"],
    ["col", "or"],
    ["h", "il"],
    ["tor", "at</w>"],
    ["ren", "aissance</w>"],
    ["ky", "o</w>"],
    ["jean", "ne</w>"],
    ["lin", "gu"],
    ["li", "ée</w>"],
    ["région", "ale</w>"],
    ["soci", "ety</w>"],
    ["tu", "elle</w>"],
    ["ray", "mond</w>"],
    ["dé", "signe</w>"],
    ["dé", "p"],
    ["d", "û</w>"],
    ["euro", "s</w>"],
    ["m", "ages</w>"],
    ["ég", "lis"],
    ["bil", "an</w>"],
    ["iss", "ons</w>"],
    ["éc", "ois</w>"],
    ["li", "re</w>"],
    ["p", "ill"],
    ["indi", "que</w>"],
    ["ic", "s</w>"],
    ["s'", "en"],
    ["p", "p</w>"],
    ["as", "pec"],
    ["tr", "om"],
    ["rec", "ru"],
    ["ren", "contres</w>"],
    ["h", "aw"],
    ["québ", "écois</w>"],
    ["k", "an"],
    ["monas", "tère</w>"],
    ["notre-", "dame</w>"],
    ["ak", "e</w>"],
    ["americ", "an</w>"],
    ["mar", "y</w>"],
    ["fac", "ulté</w>"],
    ["nécess", "aire</w>"],
    ["top", "onymie</w>"],
    ["médi", "év"],
    ["fl", "ori"],
    ["po", "tenti"],
    ["particip", "er</w>"],
    ["l", "et</w>"],
    ["v", "o</w>"],
    ["fran", "cis</w>"],
    ["j", "'"],
    ["co", "stu"],
    ["col", "or</w>"],
    ["v", "ain</w>"],
    ["ph", "ère</w>"],
    ["si", "mul"],
    ["lu", "c</w>"],
    ["seu", "ls</w>"],
    ["d'", "ailleurs</w>"],
    ["correspon", "d</w>"],
    ["négo", "ci"],
    ["orig", "ines</w>"],
    ["wit", "h</w>"],
    ["ble", "u</w>"],
    ["n", "ou"],
    ["tu", "é</w>"],
    ["ab", "sol"],
    ["puis", "que</w>"],
    ["y", "ves</w>"],
    ["vil", "la</w>"],
    ["plan", "ètes</w>"],
    ["iss", "u</w>"],
    ["arth", "ur</w>"],
    ["mi", "t</w>"],
    ["ent", "aux</w>"],
    ["classi", "fication</w>"],
    ["jean-", "pierre</w>"],
    ["lesqu", "els</w>"],
    ["francis", "co</w>"],
    ["b", "ag"],
    ["ch", "or"],
    ["l'", "occupation</w>"],
    ["déc", "ou"],
    ["el", "-"],
    ["ww", "w</w>"],
    ["in", "car"],
    ["ber", "to</w>"],
    ["architec", "te</w>"],
    ["n", "antes</w>"],
    ["v", "ul"],
    ["cy", "cle</w>"],
    ["l'", "ai"],
    ["b", "un"],
    ["y", "e"],
    ["dom", "aines</w>"],
    ["soci", "ales</w>"],
    ["min", "eures</w>"],
    ["g", "agne</w>"],
    ["col", "oni"],
    ["in", "s"],
    ["pr", "ê"],
    ["am", "bass"],
    ["prin", "cesse</w>"],
    ["l", "ot"],
    ["c", "re</w>"],
    ["sec", "ret</w>"],
    ["faç", "ade</w>"],
    ["dispu", "te</w>"],
    ["reconn", "aissance</w>"],
    ["l'", "édition</w>"],
    ["s", "ar</w>"],
    ["institu", "t</w>"],
    ["précéd", "ent</w>"],
    ["i", "an</w>"],
    ["ob", "le</w>"],
    ["plo", "itation</w>"],
    ["dess", "in</w>"],
    ["fin", "aliste</w>"],
    ["w", "an</w>"],
    ["lé", "ans</w>"],
    ["im", "ages</w>"],
    ["déc", "r"],
    ["g", "la"],
    ["ju", "an</w>"],
    ["par", "is-"],
    ["hy", "dr"],
    ["il", "la</w>"],
    ["artill", "erie</w>"],
    ["my", "th"],
    ["b", "aie</w>"],
    ["s-", "de-"],
    ["an", "es</w>"],
    ["e", "au-"],
    ["st", "an"],
    ["k", "az"],
    ["in", "-"],
    ["assur", "er</w>"],
    ["pl", "ans</w>"],
    ["région", "ales</w>"],
    ["l'", "issue</w>"],
    ["mar", "ins</w>"],
    ["effectu", "e</w>"],
    ["ép", "ou"],
    ["publi", "ques</w>"],
    ["s", "me</w>"],
    ["eu", "il</w>"],
    ["éto", "iles</w>"],
    ["f", "éli"],
    ["pro", "ches</w>"],
    ["sat", "ell"],
    ["l'", "ob"],
    ["dom", "icile</w>"],
    ["n", "y"],
    ["édou", "ard</w>"],
    ["pour", "suit</w>"],
    ["par", "le</w>"],
    ["s", "z"],
    ["ari", "at</w>"],
    ["entr", "er</w>"],
    ["br", "ou"],
    ["h", "as"],
    ["vari", "ables</w>"],
    ["l'", "europe</w>"],
    ["présid", "ence</w>"],
    ["avoc", "at</w>"],
    ["travaill", "er</w>"],
    ["ln", "h</w>"],
    ["ph", "ar"],
    ["d", "in</w>"],
    ["contr", "airement</w>"],
    ["ress", "ort</w>"],
    ["évén", "ement</w>"],
    ["im", "ag"],
    ["on", "ique</w>"],
    ["off", "en"],
    ["le", "ague</w>"],
    ["comm", "ande</w>"],
    ["y", "n</w>"],
    ["to", "kyo</w>"],
    ["mat", "s</w>"],
    ["sav", "oie</w>"],
    ["cél", "ébr"],
    ["judi", "ci"],
    ["prov", "ence</w>"],
    ["pré", "cip"],
    ["secon", "des</w>"],
    ["gal", "li"],
    ["églis", "es</w>"],
    ["tr", "am"],
    ["pa", "ces</w>"],
    ["c", "ités</w>"],
    ["v", "oire</w>"],
    ["i", "o</w>"],
    ["pré", "fér"],
    ["zi", "ème</w>"],
    ["chap", "itre</w>"],
    ["con", "vention</w>"],
    ["augu", "ste</w>"],
    ["o", "di"],
    ["s", "c</w>"],
    ["recu", "eil</w>"],
    ["l'", "hôtel</w>"],
    ["dé", "cid"],
    ["bran", "che</w>"],
    ["étrang", "ères</w>"],
    ["im", "age</w>"],
    ["dipl", "ô"],
    ["isra", "ël</w>"],
    ["an", "iste</w>"],
    ["o", "'"],
    ["e", "i"],
    ["cré", "d"],
    ["dis", "cours</w>"],
    ["stat", "ue</w>"],
    ["ex", "cep"],
    ["l", "aisse</w>"],
    ["démocr", "atique</w>"],
    ["plat", "eau</w>"],
    ["com", "pose</w>"],
    ["établi", "r</w>"],
    ["ving", "t</w>"],
    ["l'", "utilisation</w>"],
    ["ol", "i</w>"],
    ["at", "o</w>"],
    ["di", "z"],
    ["ni", "ce</w>"],
    ["p", "un"],
    ["po", "ésie</w>"],
    ["ag", "nes</w>"],
    ["a", "o</w>"],
    ["plac", "ement</w>"],
    ["l'in", "see</w>"],
    ["loc", "alisation</w>"],
    ["î", "t</w>"],
    ["l’", "état</w>"],
    ["re", "y</w>"],
    ["glom", "ération</w>"],
    ["métro", "pole</w>"],
    ["am", "bi"],
    ["no", "ël</w>"],
    ["m", "ant</w>"],
    ["rel", "ativement</w>"],
    ["anc", "y</w>"],
    ["pac", "t</w>"],
    ["récompen", "ses</w>"],
    ["ma", "ill"],
    ["lors", "qu'il</w>"],
    ["gu", "st"],
    ["dé", "tr"],
    ["établis", "sements</w>"],
    ["th", "ér"],
    ["n", "oc"],
    ["déc", "ouvre</w>"],
    ["vie", "w</w>"],
    ["ent", "é</w>"],
    ["vic", "times</w>"],
    ["domin", "ique</w>"],
    ["éch", "app"],
    ["ver", "sions</w>"],
    ["pour", "tant</w>"],
    ["scho", "ol</w>"],
    ["em", "y</w>"],
    ["chris", "t</w>"],
    ["or", "a</w>"],
    ["ois", "eaux</w>"],
    ["uti", "onn"],
    ["ed", "ward</w>"],
    ["f", "il</w>"],
    ["infrastruc", "tures</w>"],
    ["brig", "ade</w>"],
    ["il", "y</w>"],
    ["représent", "ants</w>"],
    ["bour", "ge"],
    ["l'", "importance</w>"],
    ["m", "o</w>"],
    ["ste", "ph"],
    ["z", "i</w>"],
    ["inter", "nes</w>"],
    ["feu", "illes</w>"],
    ["-", "c</w>"],
    ["spéci", "aliste</w>"],
    ["bas", "e"],
    ["n", "aît</w>"],
    ["or", "chestre</w>"],
    ["l'", "an"],
    ["terr", "ains</w>"],
    ["mo", "i</w>"],
    ["jusqu’", "à</w>"],
    ["et", "t</w>"],
    ["è", "re-"],
    ["pa", "sc"],
    ["t", "oire</w>"],
    ["spectac", "le</w>"],
    ["ru", "sses</w>"],
    ["mo", "b"],
    ["identi", "té</w>"],
    ["in", "cen"],
    ["fl", "eurs</w>"],
    ["organis", "me</w>"],
    ["véhicu", "les</w>"],
    ["ak", "a</w>"],
    ["envir", "onn"],
    ["mo", "re</w>"],
    ["fl", "otte</w>"],
    ["jou", "euse</w>"],
    ["cer", "cle</w>"],
    ["ar", "chi"],
    ["l", "ant</w>"],
    ["barcel", "one</w>"],
    ["aï", "</w>"],
    ["aff", "i"],
    ["rec", "om"],
    ["m", "our"],
    ["ni", "ght</w>"],
    ["ç", "ons</w>"],
    ["b", "c</w>"],
    ["h", "it"],
    ["comb", "ats</w>"],
    ["t", "oile</w>"],
    ["cul", "te</w>"],
    ["wal", "ter</w>"],
    ["qu", "ées</w>"],
    ["f", "our</w>"],
    ["pos", "ées</w>"],
    ["s", "oir</w>"],
    ["eng", "age</w>"],
    ["v", "ou"],
    ["in", "hu"],
    ["ver", "n"],
    ["ser", "bie</w>"],
    ["lau", "réat</w>"],
    ["k", "al"],
    ["cab", "inet</w>"],
    ["ni", "er</w>"],
    ["or", "i</w>"],
    ["ém", "atique</w>"],
    ["lo", "t</w>"],
    ["tric", "es</w>"],
    ["ne", "i"],
    ["eu", "e</w>"],
    ["lorr", "aine</w>"],
    ["priv", "é</w>"],
    ["vir", "gin"],
    ["l'é", "ch"],
    ["font", "aine</w>"],
    ["sol", "o</w>"],
    ["christoph", "e</w>"],
    ["di", "x-"],
    ["ré", "fl"],
    ["ent", "en"],
    ["par", "am"],
    ["bu", "t"],
    ["elle-", "même</w>"],
    ["fr", "es"],
    ["contac", "t</w>"],
    ["f", "el"],
    ["ques", "tions</w>"],
    ["suéd", "ois</w>"],
    ["anti", "n</w>"],
    ["d", "ing</w>"],
    ["ti", "es</w>"],
    ["v", "es"],
    ["popul", "ations</w>"],
    ["possi", "bilité</w>"],
    ["administr", "ative</w>"],
    ["réalis", "er</w>"],
    ["beso", "in</w>"],
    ["cli", "p"],
    ["pro", "ch"],
    ["ay", "s</w>"],
    ["gen", "er"],
    ["pi", "que</w>"],
    ["che", "f-"],
    ["ex", "ion</w>"],
    ["l'", "énergie</w>"],
    ["fran", "co-"],
    ["diffus", "é</w>"],
    ["z", "h"],
    ["k", "u</w>"],
    ["ré", "seaux</w>"],
    ["ent", "our"],
    ["sc", "ott</w>"],
    ["r", "ab"],
    ["di", "vers"],
    ["tr", "ains</w>"],
    ["spor", "tive</w>"],
    ["cal", "cul"],
    ["respec", "tivement</w>"],
    ["pro", "cé"],
    ["zél", "ande</w>"],
    ["né", "o-"],
    ["tourn", "age</w>"],
    ["del", "à</w>"],
    ["dispar", "u</w>"],
    ["é", "tiques</w>"],
    ["op", "ol"],
    ["ingén", "ieur</w>"],
    ["tur", "qu"],
    ["er", "ait</w>"],
    ["carol", "ine</w>"],
    ["u", "els</w>"],
    ["c", "ouv"],
    ["t", "ap"],
    ["ré", "per"],
    ["annon", "cé</w>"],
    ["fri", "ed"],
    ["canadi", "enne</w>"],
    ["d", "as</w>"],
    ["rel", "ev"],
    ["on", "ale</w>"],
    ["distin", "gu"],
    ["dis", "ney</w>"],
    ["ser", "be</w>"],
    ["dynas", "tie</w>"],
    ["ac", "tive</w>"],
    ["dé", "légu"],
    ["ti", "ème</w>"],
    ["influ", "ence</w>"],
    ["ann", "uelle</w>"],
    ["déclar", "é</w>"],
    ["int", "ègre</w>"],
    ["sp", "an</w>"],
    ["z", "y</w>"],
    ["ja", "une</w>"],
    ["ais", "sances</w>"],
    ["v", "ar</w>"],
    ["éco", "sse</w>"],
    ["re", "j"],
    ["prom", "u</w>"],
    ["sc", "ènes</w>"],
    ["év", "ent"],
    ["ri", "che</w>"],
    ["pro", "jec"],
    ["différ", "ence</w>"],
    ["fédér", "al</w>"],
    ["interpr", "ète</w>"],
    ["révol", "utionn"],
    ["ven", "ise</w>"],
    ["loc", "ales</w>"],
    ["mili", "eux</w>"],
    ["n", "s</w>"],
    ["g", "ab"],
    ["cy", "r"],
    ["pouv", "ait</w>"],
    ["b", "ér"],
    ["p", "édition</w>"],
    ["l", "ap"],
    ["c", "us</w>"],
    ["juni", "or</w>"],
    ["bas", "-"],
    ["n", "an"],
    ["hum", "aine</w>"],
    ["s", "ent</w>"],
    ["s", "oc"],
    ["offici", "ers</w>"],
    ["s", "emi-"],
    ["sim", "plement</w>"],
    ["civ", "il</w>"],
    ["jo", "e</w>"],
    ["ven", "ant</w>"],
    ["su", "ffr"],
    ["o", "ffr"],
    ["si", "xième</w>"],
    ["ter", "n</w>"],
    ["traver", "se</w>"],
    ["comp", "il"],
    ["ic", "ité</w>"],
    ["gi", "u"],
    ["religi", "euse</w>"],
    ["pl", "as"],
    ["j", "im"],
    ["bar", "bar"],
    ["inter", "nationales</w>"],
    ["et", "ti</w>"],
    ["ill", "y</w>"],
    ["cat", "alogue</w>"],
    ["sen", "si"],
    ["l", "ée</w>"],
    ["in", "de</w>"],
    ["chau", "ff"],
    ["ru", "es</w>"],
    ["h", "er</w>"],
    ["ath", "lé"],
    ["ru", "p"],
    ["uni", "es</w>"],
    ["r", "aisons</w>"],
    ["anti", "qu"],
    ["é", "cou"],
    ["no", "y"],
    ["mur", "s</w>"],
    ["l'", "administration</w>"],
    ["s", "is"],
    ["ori", "al</w>"],
    ["for", "ti"],
    ["ul", "tés</w>"],
    ["publi", "és</w>"],
    ["im", "p"],
    ["l'", "entrée</w>"],
    ["génér", "aux</w>"],
    ["gi", "ov"],
    ["crois", "sance</w>"],
    ["tu", "e</w>"],
    ["l", "ille</w>"],
    ["g", "oth"],
    ["anth", "ro"],
    ["or", "dres</w>"],
    ["d’", "autres</w>"],
    ["form", "ée</w>"],
    ["dipl", "ôme</w>"],
    ["col", "l</w>"],
    ["recu", "e"],
    ["tex", "as</w>"],
    ["n’", "est</w>"],
    ["men", "tion</w>"],
    ["orb", "ite</w>"],
    ["ak", "i</w>"],
    ["l'é", "ducation</w>"],
    ["e", "ch"],
    ["se", "in"],
    ["ches", "ter</w>"],
    ["li", "ège</w>"],
    ["i", "p"],
    ["el", "li"],
    ["ju", "lien</w>"],
    ["aéri", "ennes</w>"],
    ["dé", "ci"],
    ["ograph", "e</w>"],
    ["conseill", "ers</w>"],
    ["m", "as</w>"],
    ["or", "y</w>"],
    ["conn", "us</w>"],
    ["al", "é"],
    ["a", "sie</w>"],
    ["béné", "fici"],
    ["en", "ni"],
    ["associ", "é</w>"],
    ["em", "pl"],
    ["ces", "sion</w>"],
    ["é", "car"],
    ["gabri", "el</w>"],
    ["b", "el</w>"],
    ["esp", "ér"],
    ["em", "pê"],
    ["organ", "ise</w>"],
    ["mar", "éch"],
    ["cri", "ti"],
    ["performan", "ce</w>"],
    ["compl", "ète</w>"],
    ["for", "ment</w>"],
    ["ali", "ce</w>"],
    ["fin", "lande</w>"],
    ["fo", "ss"],
    ["tour", "ner</w>"],
    ["ou", "n"],
    ["dé", "es</w>"],
    ["résid", "ence</w>"],
    ["ai", "es</w>"],
    ["eur", "-"],
    ["dv", "d</w>"],
    ["c", "af"],
    ["ar", "c"],
    ["ex", "pér"],
    ["ma", "ch"],
    ["jean-", "baptiste</w>"],
    ["ar", "rière</w>"],
    ["l'i", "dée</w>"],
    ["fi", "a</w>"],
    ["ro", "ss"],
    ["rè", "gles</w>"],
    ["j", "ones</w>"],
    ["at", "ur"],
    ["d", "ra"],
    ["ten", "tion</w>"],
    ["on", "y"],
    ["ro", "y</w>"],
    ["pé", "tro"],
    ["ho", "sp"],
    ["i", "d</w>"],
    ["ac", "u"],
    ["envoy", "é</w>"],
    ["bos", "ni"],
    ["ry", "th"],
    ["hu", "iti"],
    ["en", "ci"],
    ["g", "os"],
    ["chev", "aux</w>"],
    ["al", "ph"],
    ["t", "ants</w>"],
    ["ométr", "ie</w>"],
    ["sym", "phon"],
    ["commerci", "al</w>"],
    ["sculp", "teur</w>"],
    ["è", "lement</w>"],
    ["considér", "ée</w>"],
    ["réci", "t</w>"],
    ["pr", "o</w>"],
    ["ét", "ym"],
    ["exempl", "aires</w>"],
    ["d'", "animation</w>"],
    ["k", "el"],
    ["et", "a</w>"],
    ["direc", "t</w>"],
    ["musi", "cien</w>"],
    ["ati", "</w>"],
    ["em", "ark</w>"],
    ["r", "in"],
    ["ol", "o</w>"],
    ["affir", "me</w>"],
    ["océ", "an</w>"],
    ["numér", "ique</w>"],
    ["class", "ements</w>"],
    ["écr", "its</w>"],
    ["d", "ement</w>"],
    ["s'", "en</w>"],
    ["m", "airie</w>"],
    ["ad", "joint</w>"],
    ["dévelop", "pe</w>"],
    ["ten", "ait</w>"],
    ["camer", "oun</w>"],
    ["po", "t"],
    ["mi", "-"],
    ["l", "an</w>"],
    ["con", "c"],
    ["d'", "affaires</w>"],
    ["base", "ball</w>"],
    ["oi", "r"],
    ["at", "ti"],
    ["w", "in</w>"],
    ["nouvelle-", "zélande</w>"],
    ["men", "ac"],
    ["intéri", "eur</w>"],
    ["autom", "ne</w>"],
    ["lou", "is-"],
    ["consac", "ré</w>"],
    ["l'é", "pis"],
    ["trans", "fer"],
    ["dess", "ins</w>"],
    ["l'", "aire</w>"],
    ["voyag", "eurs</w>"],
    ["s", "év"],
    ["gar", "dien</w>"],
    ["maj", "eure</w>"],
    ["étab", "li</w>"],
    ["li", "é</w>"],
    ["by", "z"],
    ["fabri", "cation</w>"],
    ["class", "ée</w>"],
    ["t", "an</w>"],
    ["l'é", "preuve</w>"],
    ["v", "ite</w>"],
    ["enc", "e-"],
    ["li", "que</w>"],
    ["oty", "pe</w>"],
    ["û", "te</w>"],
    ["ég", "al</w>"],
    ["fonctionn", "ement</w>"],
    ["ologi", "es</w>"],
    ["n", "és</w>"],
    ["c", "roy"],
    ["as", "h</w>"],
    ["bl", "es"],
    ["dat", "ant</w>"],
    ["ag", "o"],
    ["gn", "y</w>"],
    ["l", "esse</w>"],
    ["si", "eur</w>"],
    ["g", "is"],
    ["g", "agn"],
    ["norman", "die</w>"],
    ["flor", "ence</w>"],
    ["l’", "église</w>"],
    ["s", "ais"],
    ["organis", "ée</w>"],
    ["re", "tourne</w>"],
    ["an", "tin"],
    ["li", "fe</w>"],
    ["olog", "y</w>"],
    ["r", "al"],
    ["parti", "s</w>"],
    ["l'é", "conom"],
    ["concer", "ne</w>"],
    ["c", "aire</w>"],
    ["es", "e</w>"],
    ["nor", "v"],
    ["tr", "in"],
    ["am", "our</w>"],
    ["ep", "ti"],
    ["a", "dul"],
    ["part", "ag"],
    ["candid", "ats</w>"],
    ["li", "mi"],
    ["cham", "ps</w>"],
    ["met", "tant</w>"],
    ["rou", "tes</w>"],
    ["di", "um</w>"],
    ["sub", "s"],
    ["turqu", "ie</w>"],
    ["g", "our"],
    ["bi", "g</w>"],
    ["luxembour", "g</w>"],
    ["augment", "ation</w>"],
    ["dr", "o</w>"],
    ["at", "ement</w>"],
    ["m", "aine</w>"],
    ["p", "t"],
    ["mathém", "atiques</w>"],
    ["norv", "ège</w>"],
    ["four", "n"],
    ["con", "fron"],
    ["og", "ie</w>"],
    ["sé", "qu"],
    ["idé", "es</w>"],
    ["aéri", "enne</w>"],
    ["ad", "am</w>"],
    ["év", "ê"],
    ["ver", "ti"],
    ["alg", "éri"],
    ["alter", "nati"],
    ["accue", "ille</w>"],
    ["d'al", "titude</w>"],
    ["th", "or"],
    ["ü", "n"],
    ["dan", "emark</w>"],
    ["su", "ites</w>"],
    ["consom", "mation</w>"],
    ["tr", "af"],
    ["bas", "ée</w>"],
    ["mont", "agnes</w>"],
    ["c", "on</w>"],
    ["è", "s-"],
    ["ois", "eau</w>"],
    ["d'", "études</w>"],
    ["ari", "a</w>"],
    ["ph", "are</w>"],
    ["em", "manuel</w>"],
    ["log", "ements</w>"],
    ["réguli", "ère</w>"],
    ["pa", "st"],
    ["gu", "y"],
    ["g", "ées</w>"],
    ["et", "er</w>"],
    ["au-", "delà</w>"],
    ["ang", "lo"],
    ["h", "ec"],
    ["divers", "ité</w>"],
    ["ex", "per"],
    ["cri", "me</w>"],
    ["respon", "sab"],
    ["as", "su"],
    ["f", "li"],
    ["è", "vre</w>"],
    ["mo", "ham"],
    ["siè", "cles</w>"],
    ["disco", "graphie</w>"],
    ["m", "ique</w>"],
    ["l'ex", "position</w>"],
    ["nob", "lesse</w>"],
    ["is", "t</w>"],
    ["su", "i"],
    ["céd", "er</w>"],
    ["nom", "me</w>"],
    ["ren", "du</w>"],
    ["my", "st"],
    ["l'", "environnement</w>"],
    ["vic", "time</w>"],
    ["studi", "os</w>"],
    ["l'ac", "tion</w>"],
    ["des", "tru"],
    ["ori", "z"],
    ["chang", "ements</w>"],
    ["d'", "entre</w>"],
    ["équ", "ival"],
    ["collec", "tions</w>"],
    ["collec", "tif</w>"],
    ["chois", "i</w>"],
    ["marqu", "é</w>"],
    ["dr", "ome</w>"],
    ["ot", "o</w>"],
    ["provin", "ci"],
    ["c", "eux-"],
    ["consid", "ère</w>"],
    ["fer", "r"],
    ["dem", "eure</w>"],
    ["cour", "ses</w>"],
    ["gr", "ille</w>"],
    ["vo", "itures</w>"],
    ["eu", "gène</w>"],
    ["en", "sis</w>"],
    ["pr", "ouv"],
    ["h", "in"],
    ["port", "e-"],
    ["fédér", "ale</w>"],
    ["stand", "ard</w>"],
    ["ter", "res"],
    ["gar", "onne</w>"],
    ["cr", "ist"],
    ["capa", "ble</w>"],
    ["fin", "ales</w>"],
    ["limi", "troph"],
    ["marqu", "is</w>"],
    ["n", "el</w>"],
    ["b", "ar</w>"],
    ["re", "t"],
    ["b", "ob"],
    ["at", "h</w>"],
    ["caractér", "isée</w>"],
    ["w", "om"],
    ["par", "oles</w>"],
    ["l'", "article</w>"],
    ["inspi", "ré</w>"],
    ["h", "ay"],
    ["st", "ations</w>"],
    ["tu", "el</w>"],
    ["bud", "get</w>"],
    ["ou", "e</w>"],
    ["cin", "qu"],
    ["l'h", "onneur</w>"],
    ["k", "om"],
    ["dét", "ec"],
    ["éco", "ss"],
    ["a", "f</w>"],
    ["he", "in"],
    ["refu", "se</w>"],
    ["end", "aire</w>"],
    ["m", "ement</w>"],
    ["bou", "lev"],
    ["st", "éph"],
    ["musi", "ciens</w>"],
    ["arch", "ie</w>"],
    ["brun", "o</w>"],
    ["on", "y</w>"],
    ["l'épis", "ode</w>"],
    ["di", "ction</w>"],
    ["lesqu", "elles</w>"],
    ["d'", "autre</w>"],
    ["s'", "étend</w>"],
    ["min", "i"],
    ["li", "aison</w>"],
    ["l'é", "cr"],
    ["étab", "lie</w>"],
    ["i", "ch</w>"],
    ["habit", "at</w>"],
    ["program", "mes</w>"],
    ["in", "cl"],
    ["mes", "ur"],
    ["cho", "se</w>"],
    ["re", "van"],
    ["mont", "ée</w>"],
    ["k", "un"],
    ["quit", "ter</w>"],
    ["pi", "onn"],
    ["moul", "in</w>"],
    ["quarti", "ers</w>"],
    ["des", "-"],
    ["mar", "guer"],
    ["ad", "ri"],
    ["ra", "dic"],
    ["re", "pris</w>"],
    ["n'", "était</w>"],
    ["di", "g"],
    ["al", "fred</w>"],
    ["résu", "mé</w>"],
    ["ém", "er"],
    ["ill", "i</w>"],
    ["on", "de</w>"],
    ["sci", "ence-"],
    ["lon", "don</w>"],
    ["ant", "éri"],
    ["pl", "ante</w>"],
    ["ann", "i"],
    ["mati", "n</w>"],
    ["poin", "te</w>"],
    ["wh", "ite</w>"],
    ["développ", "er</w>"],
    ["dé", "non"],
    ["al", "titude</w>"],
    ["con", "serve</w>"],
    ["paci", "fique</w>"],
    ["véhicu", "le</w>"],
    ["a", "w</w>"],
    ["con", "qu"],
    ["spec", "t"],
    ["-", "-"],
    ["p", "es"],
    ["posi", "tif</w>"],
    ["ag", "ers</w>"],
    ["compl", "et</w>"],
    ["appar", "eil</w>"],
    ["z", "ar"],
    ["napolé", "on</w>"],
    ["grande-", "bretagne</w>"],
    ["har", "ry</w>"],
    ["am", "our"],
    ["esti", "me</w>"],
    ["cav", "al"],
    ["g", "eur</w>"],
    ["rar", "es</w>"],
    ["ann", "ul"],
    ["k", "ou"],
    ["muni", "ch</w>"],
    ["détru", "it</w>"],
    ["science-", "fiction</w>"],
    ["f", "all"],
    ["ceux-", "ci</w>"],
    ["rô", "les</w>"],
    ["servi", "r</w>"],
    ["vas", "te</w>"],
    ["soci", "aux</w>"],
    ["mascul", "in</w>"],
    ["ev", "in</w>"],
    ["mon", "te</w>"],
    ["x", "i</w>"],
    ["enn", "ement</w>"],
    ["l'", "affaire</w>"],
    ["conç", "u</w>"],
    ["souh", "ai"],
    ["électron", "ique</w>"],
    ["revan", "che</w>"],
    ["sal", "les</w>"],
    ["hum", "ains</w>"],
    ["n", "ancy</w>"],
    ["l", "ast</w>"],
    ["qu", "in</w>"],
    ["comm", "ent</w>"],
    ["s", "û"],
    ["a", "z</w>"],
    ["sén", "ateur</w>"],
    ["indi", "en</w>"],
    ["ch", "et</w>"],
    ["ex", "am"],
    ["cal", "end"],
    ["gén", "ie</w>"],
    ["ori", "entale</w>"],
    ["b", "ill</w>"],
    ["lou", "ise</w>"],
    ["plac", "é</w>"],
    ["rel", "ais</w>"],
    ["t", "ori"],
    ["es", "paces</w>"],
    ["quali", "fié</w>"],
    ["comp", "any</w>"],
    ["chir", "ur"],
    ["l'ex", "tr"],
    ["ir", "al</w>"],
    ["mis", "es</w>"],
    ["fr", "app"],
    ["h", "ad"],
    ["propri", "étés</w>"],
    ["c", "oc"],
    ["donn", "ée</w>"],
    ["hau", "t-"],
    ["l'", "hôpital</w>"],
    ["part", "age</w>"],
    ["alis", "er</w>"],
    ["l’", "université</w>"],
    ["dan", "ger"],
    ["p", "ée</w>"],
    ["me", "d</w>"],
    ["m", "ées</w>"],
    ["volon", "té</w>"],
    ["lo", "y"],
    ["tr", "ent"],
    ["infér", "ieur</w>"],
    ["am", "en"],
    ["pens", "ée</w>"],
    ["ro", "ck"],
    ["aign", "ées</w>"],
    ["tr", "ente</w>"],
    ["pro", "fit</w>"],
    ["pol", "onaise</w>"],
    ["re", "connu</w>"],
    ["v", "ê"],
    ["déf", "ens"],
    ["concer", "ts</w>"],
    ["ex", "positions</w>"],
    ["sti", "n</w>"],
    ["physi", "ques</w>"],
    ["prés", "ents</w>"],
    ["l'économ", "ie</w>"],
    ["sc", "or"],
    ["condam", "né</w>"],
    ["t", "ay"],
    ["conserv", "ateur</w>"],
    ["sé", "bas"],
    ["niv", "eaux</w>"],
    ["intér", "êt</w>"],
    ["ot", "tom"],
    ["v", "la"],
    ["ti", "ce</w>"],
    ["isab", "eth</w>"],
    ["onn", "er</w>"],
    ["h", "e</w>"],
    ["z", "ab"],
    ["présidenti", "elle</w>"],
    ["volu", "mes</w>"],
    ["hum", "ain</w>"],
    ["d", "t</w>"],
    ["di", "e"],
    ["bo", "w"],
    ["lic", "ence</w>"],
    ["sélec", "tions</w>"],
    ["ex", "téri"],
    ["portug", "ais</w>"],
    ["cour", "te</w>"],
    ["al", "em</w>"],
    ["stre", "et</w>"],
    ["associ", "ations</w>"],
    ["accu", "s"],
    ["ch", "auss"],
    ["compéti", "tions</w>"],
    ["réussi", "t</w>"],
    ["nuclé", "aire</w>"],
    ["d'", "où</w>"],
    ["o", "i</w>"],
    ["al", "im"],
    ["vien", "dra</w>"],
    ["cor", "n"],
    ["défin", "ition</w>"],
    ["bo", "ok</w>"],
    ["li", "és</w>"],
    ["troph", "ée</w>"],
    ["h", "ur"],
    ["athlé", "tisme</w>"],
    ["om", "es</w>"],
    ["di", "manche</w>"],
    ["cons", "iste</w>"],
    ["mag", "as"],
    ["l'en", "seignement</w>"],
    ["ven", "u</w>"],
    ["barr", "age</w>"],
    ["l'", "ap"],
    ["précéd", "ente</w>"],
    ["spir", "itu"],
    ["le", "w"],
    ["empr", "un"],
    ["arriv", "ée</w>"],
    ["m", "ille</w>"],
    ["é", "-"],
    ["réfu", "gi"],
    ["ko", "v</w>"],
    ["b", "ob</w>"],
    ["è", "tement</w>"],
    ["s", "ch</w>"],
    ["p", "ent"],
    ["and", "o</w>"],
    ["l'am", "our</w>"],
    ["l’", "école</w>"],
    ["mi", "di</w>"],
    ["par", "ler</w>"],
    ["ma", "chine</w>"],
    ["v", "él"],
    ["cr", "it"],
    ["h", "éri"],
    ["j", "as"],
    ["willi", "ams</w>"],
    ["bo", "ston</w>"],
    ["norm", "ale</w>"],
    ["impéri", "ale</w>"],
    ["ist", "ence</w>"],
    ["d'", "angleterre</w>"],
    ["pré", "serv"],
    ["is", "ie</w>"],
    ["appel", "és</w>"],
    ["rh", "in</w>"],
    ["contempor", "ain</w>"],
    ["interprét", "ation</w>"],
    ["s", "l"],
    ["p", "in</w>"],
    ["professionn", "els</w>"],
    ["on", "to</w>"],
    ["r", "ois</w>"],
    ["l'", "italie</w>"],
    ["étym", "ologie</w>"],
    ["communaut", "és</w>"],
    ["n", "am</w>"],
    ["médaill", "é</w>"],
    ["in", "aire</w>"],
    ["ukr", "ain"],
    ["du", "o</w>"],
    ["donn", "ant</w>"],
    ["priv", "il"],
    ["v", "en</w>"],
    ["g", "illes</w>"],
    ["sep", "tième</w>"],
    ["bataill", "on</w>"],
    ["mari", "o</w>"],
    ["céré", "monie</w>"],
    ["déc", "ors</w>"],
    ["enregistr", "é</w>"],
    ["ro", "che</w>"],
    ["progr", "essivement</w>"],
    ["utilis", "ées</w>"],
    ["gu", "ide</w>"],
    ["sup", "prim"],
    ["mon", "o"],
    ["re", "aux</w>"],
    ["ém", "issions</w>"],
    ["p", "i</w>"],
    ["doc", "torat</w>"],
    ["h", "ard</w>"],
    ["con", "vo"],
    ["su", "pr"],
    ["l'", "agriculture</w>"],
    ["ne", "f</w>"],
    ["immédi", "atement</w>"],
    ["tis", "h</w>"],
    ["sor", "tant</w>"],
    ["br", "û"],
    ["ac", "cident</w>"],
    ["ri", "que</w>"],
    ["in", "ois</w>"],
    ["contre-", "la-"],
    ["op", "position</w>"],
    ["l", "l</w>"],
    ["v", "ey</w>"],
    ["pré", "vu</w>"],
    ["it", "ent</w>"],
    ["è", "dent</w>"],
    ["pri", "me</w>"],
    ["don", "ald</w>"],
    ["er", "ic</w>"],
    ["lat", "ér"],
    ["contre-la-", "montre</w>"],
    ["t", "at"],
    ["cli", "mats</w>"],
    ["ob", "li"],
    ["ul", "aire</w>"],
    ["s", "œurs</w>"],
    ["a", "ér"],
    ["l'", "étude</w>"],
    ["d'", "allemagne</w>"],
    ["pouv", "oirs</w>"],
    ["europé", "ennes</w>"],
    ["l'architec", "te</w>"],
    ["chef-", "lieu</w>"],
    ["vice-", "président</w>"],
    ["pa", "g"],
    ["chac", "une</w>"],
    ["second", "aire</w>"],
    ["b", "elles</w>"],
    ["n", "is"],
    ["moder", "nes</w>"],
    ["e", "fs</w>"],
    ["mix", "te</w>"],
    ["lor", "d</w>"],
    ["anim", "al</w>"],
    ["you", "ng</w>"],
    ["l'", "is"],
    ["l'", "unité</w>"],
    ["nor", "vég"],
    ["enti", "er</w>"],
    ["po", "èmes</w>"],
    ["tch", "èque</w>"],
    ["traf", "ic</w>"],
    ["abr", "ite</w>"],
    ["er", "ry</w>"],
    ["u", "p</w>"],
    ["consé", "cu"],
    ["ré", "nov"],
    ["v", "ad"],
    ["b", "eau</w>"],
    ["sculp", "ture</w>"],
    ["w", "est"],
    ["c", "ède</w>"],
    ["ém", "or"],
    ["accue", "illi"],
    ["prim", "aire</w>"],
    ["fi", "ées</w>"],
    ["br", "as"],
    ["cé", "sar</w>"],
    ["ci", "ers</w>"],
    ["gar", "es</w>"],
    ["ü", "r"],
    ["av", "a</w>"],
    ["second", "aires</w>"],
    ["h", "ill</w>"],
    ["di", "ag"],
    ["har", "mon"],
    ["bro", "wn</w>"],
    ["pein", "tures</w>"],
    ["ap", "prend</w>"],
    ["che", "fs</w>"],
    ["con", "curr"],
    ["s'", "ag"],
    ["conséqu", "ence</w>"],
    ["l’", "ex"],
    ["conn", "aître</w>"],
    ["tor", "onto</w>"],
    ["cul", "tiv"],
    ["bo", "y"],
    ["bl", "in</w>"],
    ["c", "ouverture</w>"],
    ["ch", "ris</w>"],
    ["susc", "epti"],
    ["c", "is"],
    ["p", "ann"],
    ["arg", "entine</w>"],
    ["dev", "rait</w>"],
    ["bou", "dd"],
    ["mex", "ic"],
    ["col", "um"],
    ["uti", "n</w>"],
    ["ou", "te</w>"],
    ["maréch", "al</w>"],
    ["dr", "ame</w>"],
    ["mis", "s</w>"],
    ["r", "ass"],
    ["in", "dépendant</w>"],
    ["z", "er"],
    ["prisonn", "iers</w>"],
    ["ing", "er</w>"],
    ["bac", "k"],
    ["boulev", "ard</w>"],
    ["sur", "veill"],
    ["fran", "ces"],
    ["all", "ant</w>"],
    ["entre", "tien</w>"],
    ["répon", "se</w>"],
    ["con", "tenant</w>"],
    ["et", "on</w>"],
    ["g", "un"],
    ["ac", "tifs</w>"],
    ["protég", "er</w>"],
    ["vé", "cu</w>"],
    ["ex", "centr"],
    ["médi", "aire</w>"],
    ["mar", "ti"],
    ["du", "ché</w>"],
    ["co", "opération</w>"],
    ["ton", "y</w>"],
    ["sei", "gne</w>"],
    ["ren", "seign"],
    ["op", "le</w>"],
    ["de", "hors</w>"],
    ["tr", "ône</w>"],
    ["p", "é</w>"],
    ["dé", "bar"],
    ["atten", "tion</w>"],
    ["st", "ar"],
    ["cec", "i</w>"],
    ["ali", "ers</w>"],
    ["hongr", "ois</w>"],
    ["p", "è"],
    ["sh", "e"],
    ["lo", "r</w>"],
    ["lang", "age</w>"],
    ["ste", "ve</w>"],
    ["mari", "é</w>"],
    ["her", "z"],
    ["e", "ant</w>"],
    ["com", "po"],
    ["li", "qui"],
    ["auton", "ome</w>"],
    ["sén", "at</w>"],
    ["emb", "ar"],
    ["cl", "aire</w>"],
    ["ég", "alité</w>"],
    ["compl", "ém"],
    ["s", "ait</w>"],
    ["techn", "ologie</w>"],
    ["c", "ra"],
    ["po", "p</w>"],
    ["nouv", "eau-"],
    ["esti", "mé</w>"],
    ["u", "d"],
    ["rou", "manie</w>"],
    ["d'", "as"],
    ["cat", "as"],
    ["constitu", "ée</w>"],
    ["ess", "eurs</w>"],
    ["parall", "èle</w>"],
    ["fond", "eur</w>"],
    ["sc", "ar</w>"],
    ["z", "y"],
    ["p", "t</w>"],
    ["mont", "pel"],
    ["natur", "elles</w>"],
    ["top", "onyme</w>"],
    ["mad", "ame</w>"],
    ["mi", "ke</w>"],
    ["giov", "anni</w>"],
    ["ell", "ec"],
    ["c", "n"],
    ["on", "cle</w>"],
    ["pasc", "al</w>"],
    ["gr", "os"],
    ["he", "b"],
    ["grav", "e</w>"],
    ["san", "ne</w>"],
    ["cl", "air</w>"],
    ["l'", "enfant</w>"],
    ["clas", "ses</w>"],
    ["r", "all"],
    ["étrang", "ers</w>"],
    ["o", "se</w>"],
    ["gu", "i"],
    ["lec", "ture</w>"],
    ["correspon", "dant</w>"],
    ["su", "jets</w>"],
    ["intér", "ess"],
    ["kar", "l</w>"],
    ["bul", "le"],
    ["ce", "aux</w>"],
    ["pl", "ais"],
    ["philosoph", "e</w>"],
    ["is", "sus</w>"],
    ["peti", "t-"],
    ["en", "quête</w>"],
    ["man", "u"],
    ["pré", "nom</w>"],
    ["ér", "ité</w>"],
    ["calend", "rier</w>"],
    ["l", "une</w>"],
    ["alli", "és</w>"],
    ["pul", "sion</w>"],
    ["in", "ond"],
    ["r", "ati"],
    ["d'", "ai"],
    ["en", "vers</w>"],
    ["alg", "érie</w>"],
    ["arch", "ev"],
    ["appr", "enti"],
    ["démoc", "rate</w>"],
    ["ré", "action</w>"],
    ["orth", "odo"],
    ["grec", "que</w>"],
    ["mot", "eurs</w>"],
    ["qu", "er"],
    ["comb", "in"],
    ["d'", "inter"],
    ["suiv", "ent</w>"],
    ["marguer", "ite</w>"],
    ["drap", "eau</w>"],
    ["es", "prit</w>"],
    ["travaill", "é</w>"],
    ["w", "id"],
    ["ch", "ol"],
    ["us", "alem</w>"],
    ["catas", "troph"],
    ["it", "z"],
    ["pou", "le</w>"],
    ["assass", "in"],
    ["tre", "i"],
    ["lég", "èrement</w>"],
    ["con", "tenu</w>"],
    ["in", "age</w>"],
    ["om", "ique</w>"],
    ["chim", "ie</w>"],
    ["per", "te</w>"],
    ["er", "i</w>"],
    ["é", "preuves</w>"],
    ["succ", "ède</w>"],
    ["inter", "nationaux</w>"],
    ["ét", "oile</w>"],
    ["quin", "ze</w>"],
    ["com", "prenant</w>"],
    ["fin", "ances</w>"],
    ["d'in", "térêt</w>"],
    ["qu'", "elles</w>"],
    ["mass", "ac"],
    ["inter", "ne</w>"],
    ["ru", "ss"],
    ["s'", "installe</w>"],
    ["su", "ici"],
    ["install", "é</w>"],
    ["t", "â"],
    ["manifes", "tations</w>"],
    ["h", "ans</w>"],
    ["do", "ssi"],
    ["pour", "suite</w>"],
    ["o", "ss"],
    ["effec", "tif</w>"],
    ["si", "a</w>"],
    ["î", "tre</w>"],
    ["diffic", "ultés</w>"],
    ["d", "ation</w>"],
    ["héli", "e</w>"],
    ["en", "vis"],
    ["pl", "on"],
    ["chi", "ffr"],
    ["char", "l"],
    ["distin", "c"],
    ["gn", "e-"],
    ["rhô", "ne</w>"],
    ["thé", "or"],
    ["dé", "mi"],
    ["con", "vain"],
    ["in", "connu</w>"],
    ["ron", "de</w>"],
    ["spéci", "ale</w>"],
    ["écolog", "ique</w>"],
    ["un", "es</w>"],
    ["gu", "ér"],
    ["pal", "é"],
    ["ess", "ay"],
    ["scr", "utin</w>"],
    ["appr", "ouv"],
    ["conserv", "é</w>"],
    ["cam", "p"],
    ["sc", "and"],
    ["cu", "p</w>"],
    ["jur", "y</w>"],
    ["ma", "h"],
    ["aî", "né</w>"],
    ["australi", "en</w>"],
    ["l'ex", "térieur</w>"],
    ["contempor", "aine</w>"],
    ["fant", "as"],
    ["d'ar", "aignées</w>"],
    ["av", "enue</w>"],
    ["car", "los</w>"],
    ["as", "sure</w>"],
    ["r", "assembl"],
    ["ge", "ant</w>"],
    ["e", "in"],
    ["urb", "ain</w>"],
    ["ro", "s</w>"],
    ["ég", "i"],
    ["tent", "ative</w>"],
    ["pré", "voit</w>"],
    ["provin", "ces</w>"],
    ["présent", "ant</w>"],
    ["gr", "ad"],
    ["cein", "te</w>"],
    ["photograph", "e</w>"],
    ["h", "eure</w>"],
    ["d'", "état-major</w>"],
    ["em", "ent"],
    ["sk", "a</w>"],
    ["cau", "s"],
    ["on", "iste</w>"],
    ["pr", "atiques</w>"],
    ["t", "al</w>"],
    ["lim", "itée</w>"],
    ["pyré", "nées</w>"],
    ["écr", "iture</w>"],
    ["r", "emi"],
    ["moder", "n"],
    ["e", "i</w>"],
    ["histor", "y</w>"],
    ["dé", "ch"],
    ["pe", "au</w>"],
    ["-", "en-"],
    ["st", "one</w>"],
    ["av", "anc"],
    ["z", "am"],
    ["ser", "ies</w>"],
    ["gala", "xie</w>"],
    ["de", "z</w>"],
    ["tis", "te</w>"],
    ["ci", "ère</w>"],
    ["défini", "tivement</w>"],
    ["rom", "anci"],
    ["ci", "ation</w>"],
    ["gren", "oble</w>"],
    ["co", "û"],
    ["g", "ym"],
    ["cultur", "elle</w>"],
    ["inféri", "eure</w>"],
    ["l'a", "éroport</w>"],
    ["destin", "é</w>"],
    ["vis", "ant</w>"],
    ["s", "am</w>"],
    ["tem", "p"],
    ["g", "ame</w>"],
    ["re", "té</w>"],
    ["succ", "ession</w>"],
    ["b", "et</w>"],
    ["circul", "ation</w>"],
    ["g", "y"],
    ["cul", "aire</w>"],
    ["bel", "l</w>"],
    ["vict", "oria</w>"],
    ["oc", "cit"],
    ["xi", "ii</w>"],
    ["écri", "re</w>"],
    ["te", "am</w>"],
    ["décid", "é</w>"],
    ["contr", "aire</w>"],
    ["dau", "ph"],
    ["sélectionn", "é</w>"],
    ["arm", "én"],
    ["qu", "art</w>"],
    ["effic", "ac"],
    ["conserv", "ation</w>"],
    ["car", "lo</w>"],
    ["labor", "atoire</w>"],
    ["précip", "itations</w>"],
    ["er", "ne</w>"],
    ["métho", "des</w>"],
    ["conn", "ec"],
    ["d'", "ur"],
    ["phénom", "ène</w>"],
    ["mar", "d</w>"],
    ["péri", "hélie</w>"],
    ["t", "ain"],
    ["l’", "histoire</w>"],
    ["v", "ap"],
    ["rou", "en</w>"],
    ["nu", "l</w>"],
    ["table", "aux</w>"],
    ["e", "z"],
    ["cuis", "ine</w>"],
    ["chin", "oise</w>"],
    ["car", "l</w>"],
    ["tin", "a</w>"],
    ["tre", "fois</w>"],
    ["spéci", "al</w>"],
    ["struc", "tures</w>"],
    ["récu", "pér"],
    ["alis", "és</w>"],
    ["situ", "ées</w>"],
    ["industri", "el</w>"],
    ["mathém", "ati"],
    ["qu", "es-"],
    ["en", "tique</w>"],
    ["ot", "t"],
    ["ba", "ï"],
    ["blu", "e</w>"],
    ["po", "stes</w>"],
    ["ber", "tr"],
    ["int", "ellec"],
    ["situ", "és</w>"],
    ["mar", "oc"],
    ["ev", "a</w>"],
    ["cycl", "op"],
    ["port", "és</w>"],
    ["b", "one</w>"],
    ["ac", "a"],
    ["cul", "tures</w>"],
    ["fer", "din"],
    ["caval", "erie</w>"],
    ["intégr", "al</w>"],
    ["t", "z"],
    ["su", "le</w>"],
    ["ven", "du</w>"],
    ["condu", "ite</w>"],
    ["te", "d</w>"],
    ["lo", "w</w>"],
    ["ér", "ique</w>"],
    ["v", "ali"],
    ["l'ar", "chi"],
    ["g", "ère</w>"],
    ["alexand", "er</w>"],
    ["e", "h"],
    ["proven", "ant</w>"],
    ["ham", "eau</w>"],
    ["w", "r"],
    ["thi", "erry</w>"],
    ["mat", "ern"],
    ["pr", "ague</w>"],
    ["ir", "landais</w>"],
    ["pro", "cur"],
    ["mon", "sieur</w>"],
    ["dé", "l"],
    ["ve", "ille</w>"],
    ["ist", "er</w>"],
    ["améric", "aines</w>"],
    ["inclin", "aison</w>"],
    ["cycl", "isme</w>"],
    ["l'", "édifice</w>"],
    ["dam", "es</w>"],
    ["par", "ole</w>"],
    ["ont", "ario</w>"],
    ["organis", "ations</w>"],
    ["ser", "ge</w>"],
    ["can", "tons</w>"],
    ["étap", "es</w>"],
    ["inter", "dit</w>"],
    ["pen", "n"],
    ["distin", "gue</w>"],
    ["ben", "o"],
    ["con", "quête</w>"],
    ["lanc", "ement</w>"],
    ["im", "a</w>"],
    ["comp", "li"],
    ["conserv", "atoire</w>"],
    ["con", "tro"],
    ["particip", "ants</w>"],
    ["syl", "van"],
    ["con", "go</w>"],
    ["él", "ément</w>"],
    ["commiss", "aire</w>"],
    ["è", "vement</w>"],
    ["dom", "</w>"],
    ["ox", "ford</w>"],
    ["th", "er</w>"],
    ["étab", "lit</w>"],
    ["blan", "cs</w>"],
    ["quoti", "dien</w>"],
    ["gal", "les</w>"],
    ["dis", "position</w>"],
    ["lu", "min"],
    ["produ", "ite</w>"],
    ["ré", "par"],
    ["é", "tro"],
    ["afflu", "ent</w>"],
    ["l'é", "clip"],
    ["rév", "èle</w>"],
    ["décl", "en"],
    ["vr", "ai</w>"],
    ["au", "quel</w>"],
    ["retrouv", "er</w>"],
    ["ap", "pe</w>"],
    ["religi", "euses</w>"],
    ["john", "son</w>"],
    ["em", "pereur</w>"],
    ["del", "la</w>"],
    ["coll", "è"],
    ["ren", "nes</w>"],
    ["poli", "ti"],
    ["fond", "am"],
    ["désign", "é</w>"],
    ["si", "r</w>"],
    ["extr", "ê"],
    ["pê", "ch"],
    ["destru", "ction</w>"],
    ["for", "tes</w>"],
    ["v", "ec"],
    ["s", "son</w>"],
    ["institu", "tions</w>"],
    ["tun", "isie</w>"],
    ["pr", "ai"],
    ["parlem", "entaire</w>"],
    ["univers", "itaires</w>"],
    ["k", "ong</w>"],
    ["ac", "o</w>"],
    ["g", "om"],
    ["dor", "f</w>"],
    ["lan", "cer</w>"],
    ["men", "ée</w>"],
    ["tro", "y"],
    ["l'", "artiste</w>"],
    ["w", "ar</w>"],
    ["montpel", "lier</w>"],
    ["bo", "î"],
    ["w", "ag"],
    ["i", "k"],
    ["avent", "ures</w>"],
    ["maxim", "um</w>"],
    ["réci", "pi"],
    ["ac", "adémie</w>"],
    ["h", "él"],
    ["ben", "jam"],
    ["e", "o</w>"],
    ["fic", "es</w>"],
    ["ev", "ille</w>"],
    ["is", "tr"],
    ["émi", "le</w>"],
    ["diri", "gée</w>"],
    ["transi", "tion</w>"],
    ["sébas", "tien</w>"],
    ["jér", "usalem</w>"],
    ["cri", "t</w>"],
    ["t", "au"],
    ["sé", "min"],
    ["iss", "ait</w>"],
    ["ph", "i"],
    ["r", "aient</w>"],
    ["j", "r</w>"],
    ["communic", "ations</w>"],
    ["représent", "é</w>"],
    ["pens", "er</w>"],
    ["pa", "pier</w>"],
    ["dirige", "ants</w>"],
    ["transfer", "t</w>"],
    ["st", "al"],
    ["g", "y</w>"],
    ["prépar", "ation</w>"],
    ["poss", "éd"],
    ["performan", "ces</w>"],
    ["pl", "age</w>"],
    ["d'", "euros</w>"],
    ["le", "ader</w>"],
    ["min", "eure</w>"],
    ["administr", "atif</w>"],
    ["détaill", "ée</w>"],
    ["it", "o</w>"],
    ["mécan", "ique</w>"],
    ["c", "ite</w>"],
    ["am", "ent</w>"],
    ["n", "oirs</w>"],
    ["soph", "ie</w>"],
    ["di", "min"],
    ["poli", "cier</w>"],
    ["simil", "aire</w>"],
    ["tu", "be</w>"],
    ["ouvr", "ant</w>"],
    ["can", "cer</w>"],
    ["ill", "é</w>"],
    ["san", "tes</w>"],
    ["sh", "i</w>"],
    ["si", "er</w>"],
    ["ba", "y</w>"],
    ["accep", "te</w>"],
    ["g", "el"],
    ["avent", "ure</w>"],
    ["cen", "tres</w>"],
    ["pl", "aine</w>"],
    ["ér", "ic</w>"],
    ["bat", "tu</w>"],
    ["d", "c</w>"],
    ["gen", "res</w>"],
    ["e", "le</w>"],
    ["cor", "d</w>"],
    ["ex", "périence</w>"],
    ["au", "trefois</w>"],
    ["é", "change</w>"],
    ["for", "esti"],
    ["is", "h</w>"],
    ["dom", "mages</w>"],
    ["em", "par"],
    ["cy", "lin"],
    ["isab", "elle</w>"],
    ["ir", "an</w>"],
    ["quoti", "di"],
    ["g", "t</w>"],
    ["o", "que</w>"],
    ["ci", "enne</w>"],
    ["grou", "nd</w>"],
    ["costu", "mes</w>"],
    ["philip", "p"],
    ["met", "z</w>"],
    ["objec", "tifs</w>"],
    ["pays", "age</w>"],
    ["pal", "esti"],
    ["huiti", "ème</w>"],
    ["comport", "ement</w>"],
    ["serv", "i</w>"],
    ["d", "ers</w>"],
    ["tric", "ité</w>"],
    ["atta", "ques</w>"],
    ["t", "eau</w>"],
    ["ster", "dam</w>"],
    ["jo", "in"],
    ["visi", "ble</w>"],
    ["et", "ta</w>"],
    ["l", "-"],
    ["co", "r</w>"],
    ["m", "aires</w>"],
    ["st", "ev"],
    ["con", "sult"],
    ["can", "ons</w>"],
    ["bl", "in"],
    ["or", "ité</w>"],
    ["mar", "ty"],
    ["reli", "ef</w>"],
    ["tr", "ag"],
    ["é", "pi"],
    ["vol", "ont"],
    ["li", "o</w>"],
    ["sho", "w</w>"],
    ["pl", "om"],
    ["l'ex", "istence</w>"],
    ["l'", "évêque</w>"],
    ["matéri", "aux</w>"],
    ["eff", "or"],
    ["sou", "ff"],
    ["ov", "ine</w>"],
    ["rou", "ges</w>"],
    ["conséqu", "ences</w>"],
    ["pier", "res</w>"],
    ["cor", "rec"],
    ["cu", "re</w>"],
    ["l'im", "age</w>"],
    ["cou", "ps</w>"],
    ["s", "è"],
    ["v", "el</w>"],
    ["d'", "amérique</w>"],
    ["re", "ts</w>"],
    ["d", "ist"],
    ["bo", "y</w>"],
    ["excentr", "icité</w>"],
    ["mér", "ite</w>"],
    ["s", "ace</w>"],
    ["d'", "ad"],
    ["atte", "ign"],
    ["condi", "tion</w>"],
    ["ar", "do</w>"],
    ["re", "d"],
    ["multi", "pli"],
    ["onn", "ais</w>"],
    ["l'é", "qu"],
    ["ven", "ue</w>"],
    ["montr", "é</w>"],
    ["or", "n"],
    ["f", "i</w>"],
    ["it", "age</w>"],
    ["l'éclip", "tique</w>"],
    ["nap", "les</w>"],
    ["con", "cert"],
    ["ing", "en</w>"],
    ["met", "al</w>"],
    ["og", "ènes</w>"],
    ["sam", "uel</w>"],
    ["jui", "ve</w>"],
    ["g", "érie</w>"],
    ["con", "stat"],
    ["qu’", "elle</w>"],
    ["chil", "i</w>"],
    ["g", "i</w>"],
    ["si", "vement</w>"],
    ["p", "el</w>"],
    ["ag", "a</w>"],
    ["ennem", "i</w>"],
    ["can", "on</w>"],
    ["l", "u</w>"],
    ["mi", "tr"],
    ["hist", "oires</w>"],
    ["saint-", "jean</w>"],
    ["rap", "ports</w>"],
    ["multi", "ples</w>"],
    ["esp", "oir</w>"],
    ["spéci", "fique</w>"],
    ["direc", "te</w>"],
    ["nav", "y</w>"],
    ["occup", "é</w>"],
    ["ple", "ine</w>"],
    ["rom", "ains</w>"],
    ["form", "ant</w>"],
    ["viol", "ence</w>"],
    ["avi", "ation</w>"],
    ["é", "si"],
    ["l'", "océan</w>"],
    ["la", "h</w>"],
    ["quanti", "té</w>"],
    ["bless", "é</w>"],
    ["li", "ère</w>"],
    ["é", "ti"],
    ["riv", "er</w>"],
    ["ven", "us</w>"],
    ["res", "tent</w>"],
    ["s", "pe"],
    ["départem", "entale</w>"],
    ["app", "ellation</w>"],
    ["tot", "alement</w>"],
    ["m", "r</w>"],
    ["sol", "u"],
    ["k", "as"],
    ["im", "s</w>"],
    ["ri", "ères</w>"],
    ["cam", "pagn"],
    ["ban", "lieu"],
    ["k", "ey</w>"],
    ["anci", "ennement</w>"],
    ["bourg", "ogne</w>"],
    ["ph", "ones</w>"],
    ["ch", "y</w>"],
    ["aur", "aient</w>"],
    ["htt", "p</w>"],
    ["rè", "gl"],
    ["l", "eu"],
    ["intitul", "ée</w>"],
    ["ber", "ger</w>"],
    ["pres", "ti"],
    ["pe", "int</w>"],
    ["arab", "es</w>"],
    ["i", "ons</w>"],
    ["re", "trait</w>"],
    ["grou", "p</w>"],
    ["h", "iver</w>"],
    ["adap", "té</w>"],
    ["élev", "age</w>"],
    ["fi", "ance</w>"],
    ["tot", "alité</w>"],
    ["y", "a"],
    ["équip", "ements</w>"],
    ["fac", "es</w>"],
    ["ch", "on</w>"],
    ["u", "p"],
    ["l'", "un"],
    ["e", "in</w>"],
    ["céd", "é</w>"],
    ["co", "ali"],
    ["interprét", "ée</w>"],
    ["jard", "ins</w>"],
    ["k", "it"],
    ["symbo", "le</w>"],
    ["o", "va</w>"],
    ["herz", "ég"],
    ["pi", "d"],
    ["cad", "r"],
    ["c'", "était</w>"],
    ["vi", "tr"],
    ["trouv", "é</w>"],
    ["afric", "ain</w>"],
    ["cellu", "les</w>"],
    ["év", "èn"],
    ["provis", "oire</w>"],
    ["ten", "dance</w>"],
    ["i", "ra"],
    ["prot", "é"],
    ["hon", "g</w>"],
    ["mo", "bile</w>"],
    ["inform", "atique</w>"],
    ["absol", "ue</w>"],
    ["k", "-"],
    ["us", "se</w>"],
    ["pers", "pec"],
    ["arti", "fici"],
    ["aqu", "ie</w>"],
    ["bri", "tish</w>"],
    ["au", "x-"],
    ["bas", "ti"],
    ["nor", "th</w>"],
    ["gu", "é</w>"],
    ["s", "ap"],
    ["présid", "ente</w>"],
    ["scol", "aire</w>"],
    ["élec", "tricité</w>"],
    ["an", "cé</w>"],
    ["pa", "tin"],
    ["fran", "cs</w>"],
    ["hen", "ri"],
    ["feu", "ill"],
    ["m", "aur"],
    ["slov", "aquie</w>"],
    ["div", "isions</w>"],
    ["h", "all"],
    ["a", "ci"],
    ["gi", "en</w>"],
    ["engag", "ement</w>"],
    ["bu", "ry</w>"],
    ["libér", "al</w>"],
    ["è", "ses</w>"],
    ["ar", "an"],
    ["cho", "ses</w>"],
    ["œ", "il</w>"],
    ["judici", "aire</w>"],
    ["autri", "chien</w>"],
    ["g", "â"],
    ["la", "ï"],
    ["constru", "its</w>"],
    ["quali", "fication</w>"],
    ["ciném", "at"],
    ["drag", "on</w>"],
    ["st", "ad"],
    ["accompagn", "é</w>"],
    ["res", "ter</w>"],
    ["ra", "conte</w>"],
    ["pro", "fondeur</w>"],
    ["y", "am"],
    ["h", "onneur</w>"],
    ["dispar", "ition</w>"],
    ["cor", "se</w>"],
    ["élev", "ée</w>"],
    ["ot", "to</w>"],
    ["classi", "ques</w>"],
    ["d'", "action</w>"],
    ["l'é", "tr"],
    ["jack", "son</w>"],
    ["v", "entes</w>"],
    ["w", "y"],
    ["mad", "ele"],
    ["emb", "er"],
    ["colon", "ie</w>"],
    ["nav", "al</w>"],
    ["compl", "ètement</w>"],
    ["cam", "bridge</w>"],
    ["s'", "op"],
    ["mém", "oires</w>"],
    ["int", "ég"],
    ["im", "plant"],
    ["hom", "onymie</w>"],
    ["engag", "é</w>"],
    ["a", "tr"],
    ["ad", "eur</w>"],
    ["nei", "ge</w>"],
    ["lati", "ne</w>"],
    ["couv", "ent</w>"],
    ["hu", "go</w>"],
    ["citoy", "ens</w>"],
    ["él", "abor"],
    ["l", "oi"],
    ["vais", "seau</w>"],
    ["l'", "ur"],
    ["ann", "u"],
    ["mang", "a</w>"],
    ["as", "te</w>"],
    ["blu", "es</w>"],
    ["syndic", "at</w>"],
    ["th", "èmes</w>"],
    ["herzég", "ovine</w>"],
    ["sou", "tient</w>"],
    ["men", "ace</w>"],
    ["milli", "on</w>"],
    ["co", "ût</w>"],
    ["d", "its</w>"],
    ["po", "ème</w>"],
    ["signi", "fic"],
    ["logi", "ciel</w>"],
    ["ab", "e</w>"],
    ["benjam", "in</w>"],
    ["instru", "ments</w>"],
    ["préf", "et</w>"],
    ["v", "ues</w>"],
    ["exem", "ples</w>"],
    ["l'in", "dépendance</w>"],
    ["aujour", "d’"],
    ["vir", "us</w>"],
    ["tex", "t-"],
    ["reconn", "ue</w>"],
    ["bulle", "tin</w>"],
    ["aujourd’", "hui</w>"],
    ["pa", "vill"],
    ["gre", "en</w>"],
    ["d", "ai"],
    ["ren", "on"],
    ["z", "en"],
    ["minis", "tres</w>"],
    ["com", "pagne</w>"],
    ["urb", "anis"],
    ["limitroph", "es</w>"],
    ["dé", "mar"],
    ["autri", "chi"],
    ["indivi", "dus</w>"],
    ["sau", "t</w>"],
    ["dépen", "d</w>"],
    ["afric", "aine</w>"],
    ["pil", "otes</w>"],
    ["is", "a</w>"],
    ["préc", "ise</w>"],
    ["pen", "se</w>"],
    ["for", "t"],
    ["migr", "ation</w>"],
    ["ap", "er"],
    ["propriét", "aires</w>"],
    ["text-", "align</w>"],
    ["br", "ill"],
    ["u", "se</w>"],
    ["l'", "opération</w>"],
    ["méd", "ailles</w>"],
    ["ell", "y</w>"],
    ["ec", "s</w>"],
    ["voi", "ent</w>"],
    ["hu", "mi"],
    ["deu", "x-"],
    ["acqu", "is</w>"],
    ["bas", "es</w>"],
    ["jé", "sus</w>"],
    ["prot", "ec"],
    ["bo", "t</w>"],
    ["el", "ec"],
    ["terr", "or"],
    ["bas", "il"],
    ["hau", "tes</w>"],
    ["observ", "ée</w>"],
    ["g", "an"],
    ["isi", "tion</w>"],
    ["catholi", "ques</w>"],
    ["le", "on"],
    ["k", "im</w>"],
    ["vla", "di"],
    ["t", "est</w>"],
    ["présent", "ent</w>"],
    ["l'ag", "ence</w>"],
    ["vi", "i</w>"],
    ["sec", "ours</w>"],
    ["ch", "t"],
    ["nour", "r"],
    ["bl", "ement</w>"],
    ["dan", "ces</w>"],
    ["utilis", "ent</w>"],
    ["un", "a</w>"],
    ["k", "ins</w>"],
    ["assist", "ant</w>"],
    ["li", "ga</w>"],
    ["lu", "is</w>"],
    ["peu", "ples</w>"],
    ["mat", "hi"],
    ["franç", "oise</w>"],
    ["den", "ses</w>"],
    ["constitu", "ent</w>"],
    ["py", "ram"],
    ["qua", "si"],
    ["ro", "w"],
    ["f", "lan"],
    ["gi", "a</w>"],
    ["su", "res</w>"],
    ["k", "ab"],
    ["org", "ie</w>"],
    ["journ", "aux</w>"],
    ["da", "d</w>"],
    ["ic", "ale</w>"],
    ["l'", "univers</w>"],
    ["avi", "ère</w>"],
    ["ré", "el</w>"],
    ["du", "m</w>"],
    ["eli", "ers</w>"],
    ["sing", "les</w>"],
    ["our", "i</w>"],
    ["st", "ate</w>"],
    ["lim", "ites</w>"],
    ["om", "orph"],
    ["l'in", "di"],
    ["v", "ah"],
    ["en", "cour"],
    ["bas", "se-"],
    ["investi", "ss"],
    ["bac", "k</w>"],
    ["charl", "otte</w>"],
    ["ac", "ad"],
    ["n", "arr"],
    ["ét", "age</w>"],
    ["san", "ctu"],
    ["colom", "bie</w>"],
    ["viol", "on</w>"],
    ["vari", "été</w>"],
    ["d'al", "ex"],
    ["anth", "ony</w>"],
    ["trouv", "ait</w>"],
    ["cher", "che</w>"],
    ["e-", "de-"],
    ["an", "at"],
    ["bo", "ard</w>"],
    ["froi", "d</w>"],
    ["at", "elier</w>"],
    ["adel", "ph"],
    ["lieu", "ten"],
    ["ro", "ad</w>"],
    ["madele", "ine</w>"],
    ["industri", "elle</w>"],
    ["comm", "émor"],
    ["renouv", "el"],
    ["en", "seigne</w>"],
    ["déclar", "ation</w>"],
    ["xvi", "iie</w>"],
    ["introdu", "it</w>"],
    ["popul", "aires</w>"],
    ["com", "t"],
    ["l'", "espèce</w>"],
    ["î", "le-"],
    ["pro", "position</w>"],
    ["départem", "ents</w>"],
    ["n", "ér"],
    ["appar", "e"],
    ["er", "ont</w>"],
    ["l'ab", "sence</w>"],
    ["coali", "tion</w>"],
    ["remplac", "ement</w>"],
    ["s’", "est</w>"],
    ["ni", "g"],
    ["cor", "des</w>"],
    ["d'", "éch"],
    ["donn", "a</w>"],
    ["n", "ing</w>"],
    ["av", "er"],
    ["des", "ign</w>"],
    ["ém", "ité</w>"],
    ["ly", "n"],
    ["mob", "ilier</w>"],
    ["i", "dée</w>"],
    ["ukr", "aine</w>"],
    ["e", "e</w>"],
    ["observ", "ations</w>"],
    ["beno", "ît</w>"],
    ["concentr", "ation</w>"],
    ["ci", "vil"],
    ["scor", "pi"],
    ["ré", "tab"],
    ["pseu", "don"],
    ["métr", "opol"],
    ["pie", "ds</w>"],
    ["ony", "mes</w>"],
    ["ô", "mes</w>"],
    ["présent", "er</w>"],
    ["pon", "ts</w>"],
    ["de", "viennent</w>"],
    ["renom", "mée</w>"],
    ["gam", "me</w>"],
    ["cal", "ais</w>"],
    ["célè", "bres</w>"],
    ["ch", "all"],
    ["ré", "solution</w>"],
    ["saint-", "louis</w>"],
    ["vari", "ations</w>"],
    ["p", "son</w>"],
    ["ta", "ï"],
    ["ant", "e-"],
    ["compagn", "ies</w>"],
    ["gé", "orgie</w>"],
    ["fran", "k"],
    ["r", "d</w>"],
    ["étudi", "er</w>"],
    ["ag", "r"],
    ["d", "ait</w>"],
    ["w", "ill"],
    ["ferdin", "and</w>"],
    ["flori", "de</w>"],
    ["heb", "dom"],
    ["gos", "lav"],
    ["on", "d</w>"],
    ["rédu", "it</w>"],
    ["l'", "ouverture</w>"],
    ["docu", "ment</w>"],
    ["b", "am"],
    ["chré", "tiens</w>"],
    ["for", "ter"],
    ["con", "ven"],
    ["k", "ing"],
    ["to", "wn</w>"],
    ["am", "ateur</w>"],
    ["reven", "u</w>"],
    ["tay", "lor</w>"],
    ["mauv", "ais</w>"],
    ["beso", "ins</w>"],
    ["or", "g</w>"],
    ["édi", "e</w>"],
    ["chré", "tienne</w>"],
    ["ois", "-"],
    ["hebdom", "ad"],
    ["pi", "ers</w>"],
    ["iss", "eur</w>"],
    ["j", "im</w>"],
    ["de", "au</w>"],
    ["you", "goslav"],
    ["f", "ü"],
    ["flo", "re</w>"],
    ["p", "ôle</w>"],
    ["h", "ir"],
    ["l'", "afrique</w>"],
    ["r", "ho"],
    ["se", "g"],
    ["influ", "en"],
    ["sor", "tir</w>"],
    ["ni", "a</w>"],
    ["princip", "es</w>"],
    ["co", "ver</w>"],
    ["meu", "ble</w>"],
    ["propor", "tion</w>"],
    ["regis", "tre</w>"],
    ["remplac", "er</w>"],
    ["d'", "az"],
    ["l'es", "pagne</w>"],
    ["s'", "engage</w>"],
    ["r", "ais"],
    ["b", "g"],
    ["d'", "ang"],
    ["r", "are</w>"],
    ["saint-", "ger"],
    ["k", "l"],
    ["lew", "is</w>"],
    ["qu'", "au</w>"],
    ["ern", "est</w>"],
    ["t", "sch"],
    ["qui", "er</w>"],
    ["br", "y"],
    ["stratég", "ie</w>"],
    ["él", "oign"],
    ["eth", "n"],
    ["nob", "le</w>"],
    ["grat", "u"],
    ["bu", "ff"],
    ["-", "et-"],
    ["d", "wi"],
    ["ou", "bli"],
    ["pr", "ès-"],
    ["pour", "quoi</w>"],
    ["install", "ations</w>"],
    ["révolutionn", "aire</w>"],
    ["h", "oriz"],
    ["trav", "ailleurs</w>"],
    ["ô", "ts</w>"],
    ["desserv", "ie</w>"],
    ["tor", "al</w>"],
    ["prai", "ries</w>"],
    ["gil", "bert</w>"],
    ["ch", "ées</w>"],
    ["cass", "ini</w>"],
    ["sylvan", "ie</w>"],
    ["inv", "ité</w>"],
    ["sh", "er"],
    ["nic", "k</w>"],
    ["vers", "ant</w>"],
    ["antiqu", "ité</w>"],
    ["archev", "êque</w>"],
    ["rou", "x</w>"],
    ["bertr", "and</w>"],
    ["b", "and</w>"],
    ["appar", "aissent</w>"],
    ["maîtr", "ise</w>"],
    ["conn", "ues</w>"],
    ["ca", "de</w>"],
    ["ré", "col"],
    ["l'architec", "ture</w>"],
    ["g", "em"],
    ["reven", "us</w>"],
    ["t", "ain</w>"],
    ["rem", "place</w>"],
    ["p", "c</w>"],
    ["vers", "ailles</w>"],
    ["to", "wn"],
    ["steph", "en</w>"],
    ["maladi", "es</w>"],
    ["k", "ans"],
    ["ex", "-"],
    ["fron", "tières</w>"],
    ["pè", "ler"],
    ["win", "do"],
    ["w", "el"],
    ["qu", "ette</w>"],
    ["meur", "tre</w>"],
    ["dav", "antage</w>"],
    ["l'", "abbé</w>"],
    ["adi", "s</w>"],
    ["compét", "ences</w>"],
    ["brés", "ilien</w>"],
    ["man", "oir</w>"],
    ["ar", "gent</w>"],
    ["péri", "odes</w>"],
    ["ab", "ou"],
    ["wil", "hel"],
    ["se", "a</w>"],
    ["é", "dée</w>"],
    ["océ", "anique</w>"],
    ["confér", "ences</w>"],
    ["le", "y-"],
    ["l", "ation</w>"],
    ["b", "it"],
    ["traditionn", "elle</w>"],
    ["pas", "sion</w>"],
    ["laiss", "er</w>"],
    ["responsab", "ilité</w>"],
    ["méri", "di"],
    ["m", "ac</w>"],
    ["réc", "emment</w>"],
    ["disponi", "bles</w>"],
    ["phil", "adelph"],
    ["is", "s</w>"],
    ["spati", "al</w>"],
    ["jean-", "paul</w>"],
    ["d", "or</w>"],
    ["donn", "ent</w>"],
    ["spect", "ateurs</w>"],
    ["présent", "ée</w>"],
    ["b", "avière</w>"],
    ["el", "in</w>"],
    ["mar", "ais</w>"],
    ["t", "onn"],
    ["r", "c</w>"],
    ["ar", "me</w>"],
    ["h", "l</w>"],
    ["bi", "er</w>"],
    ["ili", "ers</w>"],
    ["qu", "e-"],
    ["eur", "ie</w>"],
    ["tin", "s</w>"],
    ["h", "étér"],
    ["ban", "des</w>"],
    ["parall", "èlement</w>"],
    ["décr", "ite</w>"],
    ["so", "ins</w>"],
    ["rédu", "ire</w>"],
    ["re", "ims</w>"],
    ["iti", "é</w>"],
    ["f", "us</w>"],
    ["l'ac", "tivité</w>"],
    ["j", "ette</w>"],
    ["pr", "éten"],
    ["peu", "pl"],
    ["bri", "an</w>"],
    ["laiss", "ant</w>"],
    ["stéph", "ane</w>"],
    ["o", "ks</w>"],
    ["l'in", "t"],
    ["ri", "a</w>"],
    ["pol", "lu"],
    ["d", "al</w>"],
    ["é", "dant</w>"],
    ["esp", "oirs</w>"],
    ["catég", "ories</w>"],
    ["l'", "attaque</w>"],
    ["é", "du"],
    ["s", "ant</w>"],
    ["vap", "eur</w>"],
    ["isl", "and</w>"],
    ["wh", "it"],
    ["st", "ac"],
    ["pr", "e"],
    ["su", "l</w>"],
    ["ar", "bres</w>"],
    ["saint-", "pierre</w>"],
    ["méditerran", "ée</w>"],
    ["monn", "aie</w>"],
    ["meill", "eures</w>"],
    ["c", "e-"],
    ["j", "ane</w>"],
    ["rè", "gle</w>"],
    ["pa", "k"],
    ["hypo", "thèse</w>"],
    ["deven", "ant</w>"],
    ["arché", "ologique</w>"],
    ["énag", "ement</w>"],
    ["pén", "in"],
    ["wil", "son</w>"],
    ["fi", "xe</w>"],
    ["n'", "avait</w>"],
    ["op", "en</w>"],
    ["min", "ér"],
    ["con", "science</w>"],
    ["er", "e</w>"],
    ["milli", "ards</w>"],
    ["suiv", "ie</w>"],
    ["facil", "ement</w>"],
    ["bour", "se</w>"],
    ["g", "ar</w>"],
    ["juni", "ors</w>"],
    ["cou", "l"],
    ["v", "ins</w>"],
    ["le", "y"],
    ["ti", "onne</w>"],
    ["l'", "ouvrage</w>"],
    ["no", "tion</w>"],
    ["gar", "anti"],
    ["plu", "vi"],
    ["termin", "é</w>"],
    ["compl", "ét"],
    ["appli", "cations</w>"],
    ["ai", "me</w>"],
    ["ed", "i</w>"],
    ["re", "al</w>"],
    ["cro", "ss</w>"],
    ["char", "gée</w>"],
    ["l'étr", "anger</w>"],
    ["id", "entique</w>"],
    ["écoss", "ais</w>"],
    ["é", "preuve</w>"],
    ["bl", "oc"],
    ["ç", "onn"],
    ["nomin", "ations</w>"],
    ["g", "ang</w>"],
    ["l'in", "st"],
    ["sh", "ar"],
    ["ac", "cro"],
    ["ill", "inois</w>"],
    ["tempér", "atures</w>"],
    ["zi", "g</w>"],
    ["tu", "er</w>"],
    ["tr", "ement</w>"],
    ["ser", "ie</w>"],
    ["révol", "te</w>"],
    ["ar", "ist"],
    ["nécess", "aires</w>"],
    ["men", "é</w>"],
    ["it", "al</w>"],
    ["seign", "eurs</w>"],
    ["rap", "pro"],
    ["bless", "és</w>"],
    ["x", "avier</w>"],
    ["ent", "-"],
    ["fu", "sionn"],
    ["g", "enti"],
    ["id", "a</w>"],
    ["po", "issons</w>"],
    ["mi", "er</w>"],
    ["e", "ver"],
    ["char", "les-"],
    ["trans", "mission</w>"],
    ["supplém", "entaires</w>"],
    ["l'", "angleterre</w>"],
    ["l’", "armée</w>"],
    ["féli", "x</w>"],
    ["caractéris", "tique</w>"],
    ["qu", "ad"],
    ["pon", "ti"],
    ["dé", "b"],
    ["d’", "in"],
    ["gol", "den</w>"],
    ["ch", "é"],
    ["remon", "te</w>"],
    ["met", "tent</w>"],
    ["évo", "que</w>"],
    ["aband", "on</w>"],
    ["h", "c</w>"],
    ["olog", "iste</w>"],
    ["thé", "â"],
    ["su", "m"],
    ["trans", "formation</w>"],
    ["travers", "ée</w>"],
    ["entraî", "ne</w>"],
    ["gl", "as</w>"],
    ["bre", "ton</w>"],
    ["andre", "w</w>"],
    ["ég", "al"],
    ["voi", "le</w>"],
    ["représent", "ent</w>"],
    ["cou", "tu"],
    ["h", "ell"],
    ["wid", "th</w>"],
    ["en", "qu"],
    ["cur", "ie</w>"],
    ["l'in", "fluence</w>"],
    ["rivi", "ères</w>"],
    ["si", "mon"],
    ["reg", "ard</w>"],
    ["s", "pa"],
    ["a", "iles</w>"],
    ["v", "et</w>"],
    ["v", "ass"],
    ["pu", "its</w>"],
    ["transfér", "é</w>"],
    ["'", "'</w>"],
    ["banlieu", "e</w>"],
    ["ob", "er"],
    ["o", "per"],
    ["ta", "k"],
    ["consac", "rée</w>"],
    ["essenti", "el</w>"],
    ["d'", "ap"],
    ["com", "ics</w>"],
    ["employ", "é</w>"],
    ["str", "ic"],
    ["distin", "ction</w>"],
    ["dan", "ger</w>"],
    ["ajou", "te</w>"],
    ["mor", "ph"],
    ["s", "m"],
    ["zab", "eth</w>"],
    ["rac", "ing</w>"],
    ["p", "ist"],
    ["s", "pon"],
    ["supr", "ême</w>"],
    ["interpr", "été</w>"],
    ["tr", "ine</w>"],
    ["cli", "p</w>"],
    ["n'", "en</w>"],
    ["sou", "th</w>"],
    ["satell", "ite</w>"],
    ["tun", "isi"],
    ["ad", "di"],
    ["cherch", "eurs</w>"],
    ["dirige", "ant</w>"],
    ["municip", "ales</w>"],
    ["en", "e</w>"],
    ["d", "ney</w>"],
    ["ath", "ènes</w>"],
    ["l'", "om"],
    ["l’", "occupation</w>"],
    ["phot", "o</w>"],
    ["ro", "ber"],
    ["succ", "esseur</w>"],
    ["ér", "aire</w>"],
    ["ab", "ré"],
    ["trac", "es</w>"],
    ["lég", "er</w>"],
    ["év", "acu"],
    ["v", "éri"],
    ["p", "eur</w>"],
    ["fréqu", "ent"],
    ["l'", "ass"],
    ["bo", "x"],
    ["si", "fs</w>"],
    ["gouvern", "em"],
    ["t", "ag"],
    ["ham", "il"],
    ["seu", "il</w>"],
    ["s", "atis"],
    ["v", "é</w>"],
    ["ci-", "dessous</w>"],
    ["él", "ue</w>"],
    ["em", "a</w>"],
    ["co", "or"],
    ["orient", "ation</w>"],
    ["v", "or"],
    ["destin", "ée</w>"],
    ["muni", "cipale</w>"],
    ["hum", "aines</w>"],
    ["inscr", "its</w>"],
    ["fer", "a</w>"],
    ["br", "un</w>"],
    ["tr", "ap"],
    ["envir", "ons</w>"],
    ["sous-", "marin</w>"],
    ["t", "f</w>"],
    ["fru", "its</w>"],
    ["v", "ité</w>"],
    ["jean-", "claude</w>"],
    ["sé", "jour</w>"],
    ["clo", "cher</w>"],
    ["cô", "tes</w>"],
    ["l'es", "prit</w>"],
    ["fried", "rich</w>"],
    ["mos", "elle</w>"],
    ["s", "ak"],
    ["wes", "tern</w>"],
    ["montr", "er</w>"],
    ["itali", "ens</w>"],
    ["ag", "ré"],
    ["dan", "ois</w>"],
    ["municip", "alités</w>"],
    ["mus", "ées</w>"],
    ["acces", "sible</w>"],
    ["cl", "c</w>"],
    ["lav", "al</w>"],
    ["un", "der"],
    ["s", "eur</w>"],
    ["défens", "eur</w>"],
    ["bo", "x</w>"],
    ["pla", "çant</w>"],
    ["s", "el</w>"],
    ["reli", "ant</w>"],
    ["vesti", "ges</w>"],
    ["be", "y"],
    ["b", "ic"],
    ["spec", "teur</w>"],
    ["effectu", "é</w>"],
    ["ro", "w</w>"],
    ["reven", "ir</w>"],
    ["vi", "de</w>"],
    ["personn", "elle</w>"],
    ["conse", "ils</w>"],
    ["â", "gé</w>"],
    ["fer", "met"],
    ["ser", "aient</w>"],
    ["mach", "ines</w>"],
    ["ch", "ent</w>"],
    ["command", "eur</w>"],
    ["an", "-"],
    ["vid", "ence</w>"],
    ["milli", "ers</w>"],
    ["u", "a</w>"],
    ["r", "ag"],
    ["mari", "ée</w>"],
    ["do", "y"],
    ["pic", "tures</w>"],
    ["im", "pres"],
    ["l", "ai"],
    ["ers", "bourg</w>"],
    ["fo", "i</w>"],
    ["ch", "ou"],
    ["de", "viendra</w>"],
    ["as", "cen"],
    ["capit", "al</w>"],
    ["m", "el</w>"],
    ["d", "son</w>"],
    ["oli", "que</w>"],
    ["lit", "tle</w>"],
    ["d’", "être</w>"],
    ["campagn", "es</w>"],
    ["temp", "ête</w>"],
    ["w", "ell"],
    ["dr", "ess"],
    ["souh", "aite</w>"],
    ["et", "to</w>"],
    ["odo", "re</w>"],
    ["qu", "els</w>"],
    ["autor", "ité</w>"],
    ["d", "f</w>"],
    ["quat", "or"],
    ["re", "prendre</w>"],
    ["ai", "der</w>"],
    ["ré", "ception</w>"],
    ["g", "at"],
    ["joh", "ann</w>"],
    ["lad", "y</w>"],
    ["d", "age</w>"],
    ["log", "ement</w>"],
    ["ver", "re</w>"],
    ["attribu", "é</w>"],
    ["l'", "ign</w>"],
    ["vi", "gueur</w>"],
    ["vie", "ille</w>"],
    ["récipi", "endaire</w>"],
    ["val", "ence</w>"],
    ["port", "ail</w>"],
    ["univers", "ités</w>"],
    ["ro", "b"],
    ["allem", "andes</w>"],
    ["fer", "mé</w>"],
    ["pré", "hen"],
    ["e", "as"],
    ["ru", "ption</w>"],
    ["install", "er</w>"],
    ["républic", "ain</w>"],
    ["pr", "él"],
    ["main", "tenir</w>"],
    ["dav", "is</w>"],
    ["l", "ait</w>"],
    ["d", "d</w>"],
    ["ca", "hi"],
    ["al", "ex</w>"],
    ["soi", "x"],
    ["r", "ain"],
    ["financ", "ement</w>"],
    ["poss", "ession</w>"],
    ["f", "an</w>"],
    ["sub", "st"],
    ["al", "an</w>"],
    ["carac", "tères</w>"],
    ["bg", "color</w>"],
    ["sar", "ah</w>"],
    ["mac", "éd"],
    ["fr", "om"],
    ["or", "ches"],
    ["â", "me</w>"],
    ["min", "i-"],
    ["pass", "agers</w>"],
    ["mas", "ter</w>"],
    ["enti", "ère</w>"],
    ["dimen", "sion</w>"],
    ["l'op", "position</w>"],
    ["ten", "ues</w>"],
    ["fis", "c"],
    ["détr", "oit</w>"],
    ["re", "p"],
    ["ré", "sul"],
    ["l'", "usage</w>"],
    ["t", "én"],
    ["d'", "administration</w>"],
    ["l", "us"],
    ["enter", "tain"],
    ["ti", "le</w>"],
    ["windo", "ws</w>"],
    ["sain", "ts</w>"],
    ["scri", "ptions</w>"],
    ["viv", "ants</w>"],
    ["b", "al</w>"],
    ["è", "ques</w>"],
    ["jér", "ôme</w>"],
    ["l’", "année</w>"],
    ["décou", "page</w>"],
    ["gr", "im"],
    ["outi", "ls</w>"],
    ["di", "dier</w>"],
    ["ar", "bre</w>"],
    ["rel", "s</w>"],
    ["cal", "cu"],
    ["vau", "t</w>"],
    ["é", "pon"],
    ["b", "est</w>"],
    ["galli", "mard</w>"],
    ["rel", "ie</w>"],
    ["anni", "versaire</w>"],
    ["figu", "res</w>"],
    ["particuli", "ère</w>"],
    ["not", "er</w>"],
    ["parti", "sans</w>"],
    ["eli", "zabeth</w>"],
    ["s'im", "pose</w>"],
    ["b", "ai"],
    ["évê", "ques</w>"],
    ["for", "ts</w>"],
    ["affec", "té</w>"],
    ["s", "as"],
    ["seign", "eurie</w>"],
    ["ir", "s</w>"],
    ["gag", "ner</w>"],
    ["environn", "em"],
    ["h", "r</w>"],
    ["ist", "a</w>"],
    ["car", "ré</w>"],
    ["caf", "é</w>"],
    ["air", "s</w>"],
    ["l'", "opéra</w>"],
    ["es", "clav"],
    ["tur", "b"],
    ["métropol", "it"],
    ["k", "ar</w>"],
    ["centre-", "ville</w>"],
    ["g", "ènes</w>"],
    ["pénin", "sule</w>"],
    ["chois", "it</w>"],
    ["cus", "sions</w>"],
    ["destin", "ation</w>"],
    ["comp", "ter</w>"],
    ["c", "annes</w>"],
    ["rol", "and</w>"],
    ["n", "el"],
    ["pr", "ussi"],
    ["chron", "ologie</w>"],
    ["car", "di"],
    ["bl", "oc</w>"],
    ["comm", "uni"],
    ["var", "so"],
    ["ani", "me</w>"],
    ["ét", "e"],
    ["d", "all"],
    ["réd", "action</w>"],
    ["quali", "fie</w>"],
    ["ois", "es</w>"],
    ["frances", "co</w>"],
    ["varso", "vie</w>"],
    ["guit", "ariste</w>"],
    ["de", "o</w>"],
    ["cultur", "elles</w>"],
    ["ma", "z"],
    ["d", "ale</w>"],
    ["recev", "oir</w>"],
    ["fourni", "r</w>"],
    ["is", "ti"],
    ["pays", "ages</w>"],
    ["c", "isme</w>"],
    ["l'é", "cri"],
    ["h", "n</w>"],
    ["gi", "ques</w>"],
    ["constru", "cteur</w>"],
    ["dé", "lég"],
    ["gu", "inée</w>"],
    ["navi", "gation</w>"],
    ["d'", "années</w>"],
    ["h", "aï"],
    ["vol", "ley-"],
    ["ap", "préci"],
    ["de", "x</w>"],
    ["volley-", "ball</w>"],
    ["b", "ains</w>"],
    ["clim", "atique</w>"],
    ["mou", "n"],
    ["architec", "tur"],
    ["tou", "che</w>"],
    ["plu", "ie</w>"],
    ["gar", "y</w>"],
    ["plat", "e"],
    ["l'", "établissement</w>"],
    ["employ", "és</w>"],
    ["com", "prendre</w>"],
    ["lau", "sanne</w>"],
    ["pro", "posé</w>"],
    ["dyn", "am"],
    ["ch", "rom"],
    ["ili", "enne</w>"],
    ["is", "tiques</w>"],
    ["enn", "y</w>"],
    ["pét", "ersbourg</w>"],
    ["l'", "usine</w>"],
    ["ac", "t</w>"],
    ["ant", "aine</w>"],
    ["effectu", "er</w>"],
    ["hy", "per"],
    ["do", "wn</w>"],
    ["dédi", "ée</w>"],
    ["m", "ente</w>"],
    ["d'", "u"],
    ["élec", "triques</w>"],
    ["mon", "str"],
    ["l'", "us</w>"],
    ["v", "et"],
    ["mu", "et</w>"],
    ["l'ex", "ception</w>"],
    ["cou", "sin</w>"],
    ["pseudon", "yme</w>"],
    ["qu", "ai</w>"],
    ["b", "aisse</w>"],
    ["sign", "al"],
    ["mis", "sionn"],
    ["ck", "y</w>"],
    ["météor", "ologique</w>"],
    ["cor", "ine</w>"],
    ["offen", "sive</w>"],
    ["juri", "dique</w>"],
    ["orient", "ales</w>"],
    ["rel", "ève</w>"],
    ["a", "x</w>"],
    ["l’", "un</w>"],
    ["dom", "mag"],
    ["l'", "hér"],
    ["cl", "é</w>"],
    ["surveill", "ance</w>"],
    ["a", "éro"],
    ["n", "e-"],
    ["br", "and"],
    ["é", "en</w>"],
    ["ember", "g</w>"],
    ["qui", "ert</w>"],
    ["bas", "que</w>"],
    ["mâ", "le</w>"],
    ["chan", "tier</w>"],
    ["manus", "crit</w>"],
    ["is", "mes</w>"],
    ["ou", "d</w>"],
    ["atta", "quant</w>"],
    ["ouvr", "ent</w>"],
    ["et", "tre</w>"],
    ["sou", "tenu</w>"],
    ["nev", "eu</w>"],
    ["sign", "es</w>"],
    ["p", "ic</w>"],
    ["m", "'"],
    ["indépen", "dante</w>"],
    ["réuss", "i</w>"],
    ["p", "s"],
    ["d'", "iv"],
    ["die", "go</w>"],
    ["re", "construction</w>"],
    ["lon", "gues</w>"],
    ["sch", "u"],
    ["t", "ad"],
    ["a", "fr"],
    ["ph", "al"],
    ["dr", "ait</w>"],
    ["vér", "ité</w>"],
    ["pu", "isse</w>"],
    ["gir", "l</w>"],
    ["s", "co"],
    ["n", "ba</w>"],
    ["appu", "i</w>"],
    ["entraîn", "ement</w>"],
    ["trei", "ze</w>"],
    ["ouv", "riers</w>"],
    ["b", "is</w>"],
    ["mon", "tant</w>"],
    ["lo", "isi"],
    ["h", "al</w>"],
    ["ab", "il"],
    ["mo", "ines</w>"],
    ["champi", "on"],
    ["entertain", "ment</w>"],
    ["l'", "an</w>"],
    ["pein", "tres</w>"],
    ["gu", "in"],
    ["til", "le</w>"],
    ["compil", "ation</w>"],
    ["pro", "b"],
    ["particip", "ent</w>"],
    ["évolu", "é</w>"],
    ["tr", "é</w>"],
    ["chré", "tien</w>"],
    ["chall", "en"],
    ["avi", "gnon</w>"],
    ["préc", "is"],
    ["we", "b"],
    ["d'", "en</w>"],
    ["lieuten", "ant-"],
    ["g", "as</w>"],
    ["coll", "ine</w>"],
    ["ingén", "i"],
    ["f", "at"],
    ["rou", "ss"],
    ["f", "aux</w>"],
    ["si", "le</w>"],
    ["laiss", "é</w>"],
    ["ad", "resse</w>"],
    ["inv", "ent"],
    ["r", "as</w>"],
    ["discipl", "ine</w>"],
    ["j", "al"],
    ["thé", "tique</w>"],
    ["parois", "si"],
    ["vi", "vent</w>"],
    ["dem", "i</w>"],
    ["bosni", "e-"],
    ["b", "ons</w>"],
    ["v", "u"],
    ["franç", "ois-"],
    ["di", "es</w>"],
    ["cro", "atie</w>"],
    ["catastroph", "e</w>"],
    ["mor", "ceaux</w>"],
    ["bosnie-", "herzégovine</w>"],
    ["gu", "il"],
    ["cent", "aines</w>"],
    ["fin", "i</w>"],
    ["tu", "és</w>"],
    ["communaut", "aire</w>"],
    ["ash", "i</w>"],
    ["ac", "cid"],
    ["americ", "a</w>"],
    ["d’", "occupation</w>"],
    ["ch", "at</w>"],
    ["graph", "e</w>"],
    ["c", "ens"],
    ["jean-", "françois</w>"],
    ["sa", "ï"],
    ["bio", "physique</w>"],
    ["ma", "d</w>"],
    ["montr", "ent</w>"],
    ["mo", "des"],
    ["ag", "ents</w>"],
    ["dimen", "sions</w>"],
    ["l", "ob"],
    ["tré", "sor</w>"],
    ["men", "er</w>"],
    ["trou", "bles</w>"],
    ["baptis", "é</w>"],
    ["en", "droit</w>"],
    ["k", "evin</w>"],
    ["fe", "der"],
    ["saint-", "pétersbourg</w>"],
    ["anglo", "-"],
    ["v", "euve</w>"],
    ["accueilli", "r</w>"],
    ["ch", "ance</w>"],
    ["john", "ny</w>"],
    ["cul", "tu"],
    ["maî", "tres</w>"],
    ["dessin", "ateur</w>"],
    ["os", "ex"],
    ["jui", "f</w>"],
    ["am", "ie</w>"],
    ["pi", "aniste</w>"],
    ["spéci", "alisée</w>"],
    ["chiffr", "es</w>"],
    ["di", "minu"],
    ["hand", "ball</w>"],
    ["o", "pi"],
    ["isl", "am</w>"],
    ["v", "ise</w>"],
    ["per", "tes</w>"],
    ["mél", "ange</w>"],
    ["or", "léans</w>"],
    ["chi", "ffre</w>"],
    ["ser", "p"],
    ["k", "g</w>"],
    ["fu", "ture</w>"],
    ["ar", "es</w>"],
    ["f", "l</w>"],
    ["r", "êt</w>"],
    ["magn", "itude</w>"],
    ["pré", "face</w>"],
    ["commen", "cent</w>"],
    ["forter", "esse</w>"],
    ["histori", "ens</w>"],
    ["pro", "fon"],
    ["t", "oit</w>"],
    ["d'", "ass"],
    ["lar", "geur</w>"],
    ["gol", "d"],
    ["vi", "c</w>"],
    ["li", "mo"],
    ["associ", "és</w>"],
    ["provo", "que</w>"],
    ["o", "w</w>"],
    ["mari", "on</w>"],
    ["long", "s</w>"],
    ["ri", "re</w>"],
    ["jac", "ob</w>"],
    ["d'", "athlétisme</w>"],
    ["cl", "an</w>"],
    ["sold", "at</w>"],
    ["contin", "ent</w>"],
    ["pass", "ent</w>"],
    ["ou", "gh</w>"],
    ["produc", "teurs</w>"],
    ["m", "ons</w>"],
    ["techn", "ologies</w>"],
    ["eur", "é</w>"],
    ["k", "le"],
    ["gi", "es</w>"],
    ["march", "and</w>"],
    ["en", "voie</w>"],
    ["con", "fiance</w>"],
    ["d", "j</w>"],
    ["i", "al</w>"],
    ["défen", "dre</w>"],
    ["ho", "ward</w>"],
    ["h", "is"],
    ["sh", "in"],
    ["con", "grég"],
    ["indi", "ens</w>"],
    ["bi", "ologie</w>"],
    ["soi", "rée</w>"],
    ["diplô", "mé</w>"],
    ["parti", "ellement</w>"],
    ["respons", "ables</w>"],
    ["vill", "e-"],
    ["re", "fl"],
    ["z-", "vous</w>"],
    ["vo", "il"],
    ["y-", "sur-"],
    ["i", "um</w>"],
    ["coun", "try</w>"],
    ["correspon", "dance</w>"],
    ["ath", "an</w>"],
    ["chron", "ique</w>"],
    ["dis", "ques</w>"],
    ["éri", "r</w>"],
    ["trac", "é</w>"],
    ["t-", "il</w>"],
    ["pi", "t</w>"],
    ["kans", "as</w>"],
    ["lib", "res</w>"],
    ["mathémati", "cien</w>"],
    ["rem", "is</w>"],
    ["ou", "i</w>"],
    ["goth", "ique</w>"],
    ["introdu", "ction</w>"],
    ["cit", "er</w>"],
    ["gar", "der</w>"],
    ["um", "p</w>"],
    ["c", "ents</w>"],
    ["virgin", "ie</w>"],
    ["ir", "on</w>"],
    ["al", "is</w>"],
    ["ex", "cell"],
    ["sign", "ature</w>"],
    ["év", "ang"],
    ["e", "ar</w>"],
    ["génér", "ales</w>"],
    ["orthodo", "xe</w>"],
    ["saint-", "denis</w>"],
    ["col", "span</w>"],
    ["int", "é"],
    ["demi-", "finale</w>"],
    ["ic", "es</w>"],
    ["fran", "z</w>"],
    ["achev", "é</w>"],
    ["pa", "p"],
    ["hi", "ér"],
    ["ch", "at"],
    ["hamil", "ton</w>"],
    ["déc", "er"],
    ["l", "itu"],
    ["l'or", "chestre</w>"],
    ["ss", "age</w>"],
    ["vis", "age</w>"],
    ["ff", "e</w>"],
    ["explo", "itation</w>"],
    ["an", "çon</w>"],
    ["corpor", "ation</w>"],
    ["am", "sterdam</w>"],
    ["fo", "x</w>"],
    ["démocr", "atie</w>"],
    ["inaugu", "ré</w>"],
    ["réalis", "és</w>"],
    ["désign", "ation</w>"],
    ["li", "gh"],
    ["s'", "élève</w>"],
    ["caractér", "ise</w>"],
    ["financi", "ère</w>"],
    ["ré", "élu</w>"],
    ["gu", "e"],
    ["cu", "ri"],
    ["pér", "ou</w>"],
    ["gar", "çon</w>"],
    ["o", "in"],
    ["inté", "gré</w>"],
    ["s", "hu"],
    ["l'autor", "ité</w>"],
    ["ab", "at"],
    ["ennem", "is</w>"],
    ["a", "er"],
    ["fr", "ais</w>"],
    ["bo", "h"],
    ["wor", "th</w>"],
    ["por", "traits</w>"],
    ["adol", "esc"],
    ["pl", "at</w>"],
    ["fen", "êtres</w>"],
    ["hél", "ène</w>"],
    ["div", "or"],
    ["as", "es</w>"],
    ["ar", "gu"],
    ["onn", "és</w>"],
    ["g", "r</w>"],
    ["saint-", "martin</w>"],
    ["dé", "bat</w>"],
    ["it", "ées</w>"],
    ["ly", "wood</w>"],
    ["th", "r"],
    ["a", "sion</w>"],
    ["aband", "onné</w>"],
    ["sy", "rie</w>"],
    ["ordin", "aire</w>"],
    ["la", "y</w>"],
    ["pl", "ain"],
    ["inhu", "mée</w>"],
    ["oc", "r"],
    ["ci", "ble</w>"],
    ["mon", "ts</w>"],
    ["franch", "ise</w>"],
    ["ar", "re</w>"],
    ["rom", "an"],
    ["cap", "tur"],
    ["fili", "ale</w>"],
    ["fort", "une</w>"],
    ["human", "ité</w>"],
    ["lin", "col"],
    ["app", "ell"],
    ["bi", "ent"],
    ["ét", "aire</w>"],
    ["espagn", "ols</w>"],
    ["l'ex", "ploitation</w>"],
    ["bient", "ôt</w>"],
    ["enseign", "ant</w>"],
    ["appare", "ils</w>"],
    ["vladi", "mir</w>"],
    ["su", "bit</w>"],
    ["k", "el</w>"],
    ["vi", "et"],
    ["di", "al"],
    ["en", "vah"],
    ["d", "ine</w>"],
    ["intér", "êts</w>"],
    ["rem", "ise</w>"],
    ["fou", "illes</w>"],
    ["isra", "éli"],
    ["es", "que</w>"],
    ["mar", "gar"],
    ["mag", "istr"],
    ["d", "il"],
    ["fer", "mée</w>"],
    ["hol", "m</w>"],
    ["étrang", "ère</w>"],
    ["loc", "alités</w>"],
    ["dossi", "er</w>"],
    ["ho", "sti"],
    ["gol", "fe</w>"],
    ["l", "ouv"],
    ["l'ac", "cès</w>"],
    ["ed", "a</w>"],
    ["f", "ec"],
    ["spati", "ale</w>"],
    ["d'in", "formation</w>"],
    ["dou", "glas</w>"],
    ["territori", "ale</w>"],
    ["rê", "ve</w>"],
    ["rej", "oign"],
    ["civ", "ils</w>"],
    ["g", "ê"],
    ["rup", "ture</w>"],
    ["voc", "ation</w>"],
    ["spir", "ation</w>"],
    ["sex", "u"],
    ["ét", "ages</w>"],
    ["él", "isabeth</w>"],
    ["fem", "elle</w>"],
    ["m", "ali"],
    ["d", "ôme</w>"],
    ["ch", "ê"],
    ["ak", "h"],
    ["aspec", "ts</w>"],
    ["sou", "tenir</w>"],
    ["cu", "iv"],
    ["associ", "ée</w>"],
    ["ec", "clé"],
    ["plac", "ée</w>"],
    ["com", "o"],
    ["am", "iral</w>"],
    ["souver", "ain</w>"],
    ["néer", "landaise</w>"],
    ["al", "ban"],
    ["l'int", "égr"],
    ["ven", "e"],
    ["trib", "u</w>"],
    ["b", "lis"],
    ["commerci", "ale</w>"],
    ["a", "a</w>"],
    ["feu", "ille</w>"],
    ["ili", "bre</w>"],
    ["étrang", "er</w>"],
    ["bi", "ographique</w>"],
    ["sat", "ur"],
    ["rédu", "ction</w>"],
    ["fre", "der"],
    ["olo", "gues</w>"],
    ["er", "baï"],
    ["p", "ie</w>"],
    ["l'in", "iti"],
    ["sol", "aire</w>"],
    ["pour", "suivre</w>"],
    ["const", "antin"],
    ["ar", "ou"],
    ["tr", "ace</w>"],
    ["cell", "es-"],
    ["pon", "t-"],
    ["ci", "ce</w>"],
    ["vit", "ch</w>"],
    ["f", "êtes</w>"],
    ["sé", "cher"],
    ["a", "che</w>"],
    ["suffr", "ages</w>"],
    ["quit", "té</w>"],
    ["vois", "in</w>"],
    ["ba", "d</w>"],
    ["co", "gn"],
    ["entr", "e-"],
    ["voy", "ages</w>"],
    ["pla", "que</w>"],
    ["d'", "i"],
    ["ru", "m"],
    ["iti", "ve</w>"],
    ["franco", "phone</w>"],
    ["g", "u</w>"],
    ["ent", "ou"],
    ["d'", "entrée</w>"],
    ["éch", "elle</w>"],
    ["march", "and"],
    ["sur", "rec"],
    ["s", "car"],
    ["organis", "mes</w>"],
    ["bat", "tant</w>"],
    ["f", "ay"],
    ["dom", "es"],
    ["con", "fl"],
    ["ecclé", "si"],
    ["lim", "ité</w>"],
    ["des", "c"],
    ["at", "eliers</w>"],
    ["o", "ch"],
    ["cou", "che</w>"],
    ["em", "an</w>"],
    ["littér", "aires</w>"],
    ["d", "ac"],
    ["écriv", "ains</w>"],
    ["ev", "el"],
    ["cons", "ist"],
    ["jou", "ant</w>"],
    ["chang", "er</w>"],
    ["é", "e-"],
    ["es", "sions</w>"],
    ["détermin", "er</w>"],
    ["par", "ad"],
    ["lu", "ci"],
    ["com", "pren"],
    ["précis", "ément</w>"],
    ["um", "s</w>"],
    ["lac", "s</w>"],
    ["a", "j"],
    ["succ", "essi"],
    ["thé", "ologie</w>"],
    ["lég", "iti"],
    ["n", "ad"],
    ["dé", "bit</w>"],
    ["and", "y</w>"],
    ["gl", "as"],
    ["mi", "chi"],
    ["mé", "tier</w>"],
    ["har", "a</w>"],
    ["progr", "ess"],
    ["fréqu", "ence</w>"],
    ["fermet", "ure</w>"],
    ["pr", "êt</w>"],
    ["musul", "mans</w>"],
    ["sac", "ré</w>"],
    ["cam", "ille</w>"],
    ["auton", "omie</w>"],
    ["lu", "cien</w>"],
    ["t", "ai"],
    ["d'", "e"],
    ["re", "pose</w>"],
    ["inter", "rom"],
    ["champion", "ship</w>"],
    ["en", "cyclop"],
    ["remarqu", "able</w>"],
    ["ph", "o"],
    ["consac", "re</w>"],
    ["col", "onnes</w>"],
    ["fond", "ateurs</w>"],
    ["prof", "il</w>"],
    ["syn", "thèse</w>"],
    ["enregistr", "ement</w>"],
    ["p", "oul"],
    ["sépar", "ation</w>"],
    ["ver", "te</w>"],
    ["fi", "chi"],
    ["h", "ach"],
    ["sy", "dney</w>"],
    ["rou", "es</w>"],
    ["u", "t"],
    ["p", "istes</w>"],
    ["di", "vin"],
    ["ant", "on</w>"],
    ["r", "appelle</w>"],
    ["par", "aît</w>"],
    ["br", "ad"],
    ["c", "ouvre</w>"],
    ["con", "fédération</w>"],
    ["eff", "</w>"],
    ["du", "quel</w>"],
    ["psy", "chi"],
    ["restaur", "ant</w>"],
    ["c", "ées</w>"],
    ["individu", "el</w>"],
    ["man", "e</w>"],
    ["effor", "ts</w>"],
    ["met", "s</w>"],
    ["ra", "se</w>"],
    ["institu", "te</w>"],
    ["lan", "cée</w>"],
    ["i", "z</w>"],
    ["colum", "bia</w>"],
    ["maxim", "ale</w>"],
    ["québ", "éco"],
    ["er", "te</w>"],
    ["sec", "tes</w>"],
    ["atten", "dre</w>"],
    ["affi", "che</w>"],
    ["tri", "o</w>"],
    ["indu", "strie</w>"],
    ["ch", "ur"],
    ["vo", "s"],
    ["port", "a</w>"],
    ["écu", "tion</w>"],
    ["gr", "otte</w>"],
    ["expér", "iment"],
    ["augment", "er</w>"],
    ["sal", "ari"],
    ["christi", "ne</w>"],
    ["seu", "les</w>"],
    ["étudi", "é</w>"],
    ["s’", "agit</w>"],
    ["lanc", "eur</w>"],
    ["go", "ût</w>"],
    ["jer", "sey</w>"],
    ["lingu", "istique</w>"],
    ["apprenti", "ssage</w>"],
    ["ca", "se</w>"],
    ["k", "ers</w>"],
    ["w", "is"],
    ["nom", "més</w>"],
    ["chass", "eurs</w>"],
    ["diffic", "ulté</w>"],
    ["assassin", "at</w>"],
    ["const", "ellation</w>"],
    ["qu", "arts</w>"],
    ["op", "in"],
    ["d", "og"],
    ["cho", "isi"],
    ["port", "ées</w>"],
    ["exécu", "tif</w>"],
    ["déc", "ouvrir</w>"],
    ["lo", "ge</w>"],
    ["d'", "autriche</w>"],
    ["ouver", "ts</w>"],
    ["gul", "aire</w>"],
    ["pan", "sion</w>"],
    ["giu", "sep"],
    ["traditionn", "el</w>"],
    ["ander", "son</w>"],
    ["boudd", "h"],
    ["al", "ber"],
    ["char", "ges</w>"],
    ["op", "old</w>"],
    ["p", "édi"],
    ["sovi", "étiques</w>"],
    ["libér", "é</w>"],
    ["dém", "ission</w>"],
    ["om", "iques</w>"],
    ["dép", "ôt</w>"],
    ["chauss", "ée</w>"],
    ["de-", "france</w>"],
    ["ap", "ost"],
    ["al", "b"],
    ["gu", "id"],
    ["ent", "o</w>"],
    ["rem", "porter</w>"],
    ["e", "w"],
    ["pu", "issant</w>"],
    ["s", "ach"],
    ["c", "és</w>"],
    ["adop", "té</w>"],
    ["élector", "ale</w>"],
    ["éch", "ec</w>"],
    ["d'", "artillerie</w>"],
    ["basil", "ique</w>"],
    ["parti", "cul"],
    ["pro", "clam"],
    ["go", "t</w>"],
    ["us", "a</w>"],
    ["t", "as"],
    ["c", "teurs</w>"],
    ["col", "onne</w>"],
    ["st", "an</w>"],
    ["ag", "as"],
    ["r", "it"],
    ["coré", "en</w>"],
    ["emb", "ou"],
    ["cam", "ps</w>"],
    ["exist", "ence</w>"],
    ["d'a", "sie</w>"],
    ["co", "vid"],
    ["an", "ten"],
    ["b", "u</w>"],
    ["covid", "-</w>"],
    ["lou", "p</w>"],
    ["sprin", "t</w>"],
    ["l'ar", "gent</w>"],
    ["pré", "-"],
    ["san", "t"],
    ["r", "abb"],
    ["os", "ité</w>"],
    ["d'", "em"],
    ["fant", "astique</w>"],
    ["philadelph", "ie</w>"],
    ["k", "im"],
    ["mon", "aco</w>"],
    ["comp", "tes</w>"],
    ["fin", "landais</w>"],
    ["s'", "était</w>"],
    ["in", "don"],
    ["j'", "ai</w>"],
    ["pyré", "né"],
    ["ch", "ure</w>"],
    ["x", "iv</w>"],
    ["meu", "bles</w>"],
    ["car", "bone</w>"],
    ["bi", "en"],
    ["recom", "mand"],
    ["terres", "tre</w>"],
    ["err", "eur</w>"],
    ["k", "ings</w>"],
    ["t", "onnes</w>"],
    ["t", "ante</w>"],
    ["un", "s</w>"],
    ["it", "ement</w>"],
    ["comt", "esse</w>"],
    ["én", "or"],
    ["occid", "ental</w>"],
    ["b", "ite</w>"],
    ["s", "able</w>"],
    ["colon", "ies</w>"],
    ["ri", "ck</w>"],
    ["ti", "re</w>"],
    ["organis", "er</w>"],
    ["i", "us</w>"],
    ["aut", "el</w>"],
    ["ro", "ss</w>"],
    ["radi", "o"],
    ["gas", "ton</w>"],
    ["tch", "éco"],
    ["ë", "</w>"],
    ["arr", "ang"],
    ["ay", "-"],
    ["ex", "trait</w>"],
    ["maill", "ot</w>"],
    ["is", "ses</w>"],
    ["tri", "om"],
    ["s'", "empar"],
    ["g", "ot"],
    ["récompen", "se</w>"],
    ["m", "iller</w>"],
    ["ec", "k</w>"],
    ["entr", "et"],
    ["ju", "st"],
    ["ach", "at</w>"],
    ["parti", "elle</w>"],
    ["neu", "vi"],
    ["ex", "tension</w>"],
    ["déf", "ai"],
    ["trou", "pe</w>"],
    ["d'", "ou"],
    ["chim", "ique</w>"],
    ["brun", "sw"],
    ["oi", "gne</w>"],
    ["zu", "ela</w>"],
    ["du", "ch"],
    ["st", "ars</w>"],
    ["pa", "in</w>"],
    ["représent", "er</w>"],
    ["cart", "ographiques</w>"],
    ["regroup", "ant</w>"],
    ["éri", "ques</w>"],
    ["acad", "emy</w>"],
    ["cl", "ément</w>"],
    ["procé", "dure</w>"],
    ["évolu", "ant</w>"],
    ["mot", "or"],
    ["ven", "dre"],
    ["équip", "ement</w>"],
    ["ex", "tra"],
    ["amélior", "er</w>"],
    ["tram", "way</w>"],
    ["cr", "eu"],
    ["gro", "ss"],
    ["l", "istes</w>"],
    ["c", "c</w>"],
    ["cor", "ri"],
    ["lig", "ence</w>"],
    ["h", "ag"],
    ["emb", "lement</w>"],
    ["compos", "és</w>"],
    ["ob", "us</w>"],
    ["c", "all"],
    ["mét", "alli"],
    ["s", "oign"],
    ["eff", "on"],
    ["at", "re</w>"],
    ["la", "ke</w>"],
    ["char", "te</w>"],
    ["l'écri", "vain</w>"],
    ["grand-", "père</w>"],
    ["tél", "es"],
    ["mag", "né"],
    ["sec", "teurs</w>"],
    ["class", "és</w>"],
    ["sanctu", "aire</w>"],
    ["inter", "view</w>"],
    ["ré", "tro"],
    ["m", "ais"],
    ["fu", "l"],
    ["tar", "di"],
    ["décor", "ation</w>"],
    ["sam", "edi</w>"],
    ["wilhel", "m</w>"],
    ["av", "ant-"],
    ["chan", "till"],
    ["épon", "yme</w>"],
    ["arriv", "é</w>"],
    ["réper", "toire</w>"],
    ["eur", "o</w>"],
    ["ch", "ô"],
    ["z", "ac</w>"],
    ["gar", "n"],
    ["con", "form"],
    ["aménag", "ement</w>"],
    ["sch", "ém"],
    ["past", "eur</w>"],
    ["exer", "ce</w>"],
    ["br", "a</w>"],
    ["cam", "ar"],
    ["giusep", "pe</w>"],
    ["jean-", "louis</w>"],
    ["rel", "ative</w>"],
    ["christoph", "er</w>"],
    ["bu", "en"],
    ["char", "lie</w>"],
    ["int", "el"],
    ["pro", "sp"],
    ["gr", "is</w>"],
    ["s", "par"],
    ["ver", "ts</w>"],
    ["n", "ant</w>"],
    ["es", "co</w>"],
    ["spéci", "fiques</w>"],
    ["fin", "s</w>"],
    ["bar", "oque</w>"],
    ["con", "fon"],
    ["intéri", "eure</w>"],
    ["arr", "êt</w>"],
    ["ren", "dent</w>"],
    ["succ", "essivement</w>"],
    ["ver", "a</w>"],
    ["mati", "ères</w>"],
    ["h", "onn"],
    ["il", "ie</w>"],
    ["barbar", "a</w>"],
    ["wal", "d</w>"],
    ["indi", "enne</w>"],
    ["cu", "b"],
    ["we", "ek"],
    ["circon", "scriptions</w>"],
    ["dédi", "é</w>"],
    ["tur", "in</w>"],
    ["l'in", "formation</w>"],
    ["ex", "térieur</w>"],
    ["a", "éroport</w>"],
    ["penn", "sylvanie</w>"],
    ["on", "au"],
    ["administr", "ateur</w>"],
    ["sécher", "esse</w>"],
    ["d'", "ed"],
    ["sei", "ze</w>"],
    ["cc", "i</w>"],
    ["g", "li"],
    ["sim", "ples</w>"],
    ["fai", "tes</w>"],
    ["remarqu", "ables</w>"],
    ["program", "mation</w>"],
    ["lo", "como"],
    ["pré", "vue</w>"],
    ["grav", "es</w>"],
    ["l'écr", "iture</w>"],
    ["aspec", "t</w>"],
    ["s", "ph"],
    ["respec", "t</w>"],
    ["fran", "co</w>"],
    ["n’", "a</w>"],
    ["pri", "euré</w>"],
    ["sh", "ak"],
    ["wor", "k</w>"],
    ["mess", "age</w>"],
    ["re", "pouss"],
    ["fi", "ent</w>"],
    ["m", "euse</w>"],
    ["re", "ich</w>"],
    ["cas", "tel"],
    ["déch", "ets</w>"],
    ["mor", "ceau</w>"],
    ["l'in", "de</w>"],
    ["v", "ag"],
    ["marqu", "és</w>"],
    ["bul", "gar"],
    ["alim", "entaire</w>"],
    ["ab", "on"],
    ["va", "sion</w>"],
    ["pl", "ati"],
    ["quit", "aine</w>"],
    ["fau", "te</w>"],
    ["br", "on"],
    ["th", "aï"],
    ["alph", "ab"],
    ["li", "min"],
    ["ul", "téri"],
    ["neuvi", "ème</w>"],
    ["aper", "ç"],
    ["z", "in"],
    ["outi", "l</w>"],
    ["gé", "ologie</w>"],
    ["ti", "ré</w>"],
    ["co", "ol</w>"],
    ["fl", "eur"],
    ["cr", "yp"],
    ["dispar", "ue</w>"],
    ["gi", "le</w>"],
    ["al", "t"],
    ["gr", "o</w>"],
    ["bat", "eaux</w>"],
    ["s", "lav"],
    ["tiss", "ement</w>"],
    ["ti", "m</w>"],
    ["photograph", "ies</w>"],
    ["install", "ée</w>"],
    ["entre", "pren"],
    ["péri", "ences</w>"],
    ["ru", "ines</w>"],
    ["vois", "ins</w>"],
    ["direc", "trice</w>"],
    ["l'", "ou"],
    ["min", "eur</w>"],
    ["av", "is</w>"],
    ["par", "ts</w>"],
    ["h", "op</w>"],
    ["confl", "its</w>"],
    ["concurr", "ence</w>"],
    ["colom", "bi"],
    ["hom", "osex"],
    ["référ", "en"],
    ["c", "ann"],
    ["hebdomad", "aire</w>"],
    ["pavill", "on</w>"],
    ["fréqu", "emment</w>"],
    ["c", "oi"],
    ["ét", "hi"],
    ["mari", "times</w>"],
    ["dial", "ec"],
    ["qu", "eue</w>"],
    ["grav", "eur</w>"],
    ["ju", "m"],
    ["inv", "entaire</w>"],
    ["ir", "ani"],
    ["sén", "égal</w>"],
    ["maj", "eurs</w>"],
    ["présent", "es</w>"],
    ["anti", "ne</w>"],
    ["découver", "tes</w>"],
    ["af", "gh"],
    ["march", "és</w>"],
    ["manus", "cr"],
    ["at", "tent"],
    ["sup", "port</w>"],
    ["hi", "o</w>"],
    ["al", "o</w>"],
    ["il", "-"],
    ["l’", "ordre</w>"],
    ["bu", "reaux</w>"],
    ["post", "-"],
    ["er", "s-"],
    ["domin", "ation</w>"],
    ["bour", "ne</w>"],
    ["métr", "ages</w>"],
    ["e", "b"],
    ["départem", "entales</w>"],
    ["pro", "vient</w>"],
    ["d'ar", "mes</w>"],
    ["ri", "ches</w>"],
    ["att", "es"],
    ["ov", "er</w>"],
    ["journ", "alistes</w>"],
    ["ju", "lie</w>"],
    ["orb", "it"],
    ["répu", "tation</w>"],
    ["b", "oc"],
    ["mar", "co</w>"],
    ["mor", "t"],
    ["ar", "c</w>"],
    ["boî", "te</w>"],
    ["l'éch", "elle</w>"],
    ["ch", "ab"],
    ["lé", "on"],
    ["graph", "iques</w>"],
    ["jou", "ent</w>"],
    ["exclu", "sivement</w>"],
    ["vi", "ii</w>"],
    ["solu", "tions</w>"],
    ["diag", "no"],
    ["se", "x</w>"],
    ["gener", "al</w>"],
    ["o", "scar</w>"],
    ["ré", "cep"],
    ["ann", "e-"],
    ["h", "ot"],
    ["dé", "nomination</w>"],
    ["défin", "i</w>"],
    ["post", "érité</w>"],
    ["di", "ques</w>"],
    ["in", "corpor"],
    ["con", "tes</w>"],
    ["m", "c</w>"],
    ["ju", "mel"],
    ["jon", "athan</w>"],
    ["p", "neu"],
    ["mar", "t</w>"],
    ["ratta", "chée</w>"],
    ["b", "og"],
    ["empê", "cher</w>"],
    ["car", "d</w>"],
    ["des", "ser"],
    ["w", "ur"],
    ["hu", "bert</w>"],
    ["aéri", "en</w>"],
    ["ag", "ence</w>"],
    ["v", "ed"],
    ["m", "ü"],
    ["enregis", "tre</w>"],
    ["st", "ér"],
    ["celles-", "ci</w>"],
    ["hér", "al"],
    ["sau", "ver</w>"],
    ["to", "x"],
    ["hi", "gh</w>"],
    ["trai", "tés</w>"],
    ["qu", "a</w>"],
    ["inter", "ro"],
    ["li", "ght</w>"],
    ["ob", "s"],
    ["pe", "dro</w>"],
    ["opér", "ationn"],
    ["s", "ée</w>"],
    ["ain", "ement</w>"],
    ["bén", "édi"],
    ["pr", "usse</w>"],
    ["négoci", "ations</w>"],
    ["exist", "ent</w>"],
    ["o-", "france</w>"],
    ["potenti", "el</w>"],
    ["cultu", "rels</w>"],
    ["menti", "onné</w>"],
    ["échapp", "er</w>"],
    ["gor", "don</w>"],
    ["blac", "k"],
    ["divis", "é</w>"],
    ["it", "ch</w>"],
    ["pseu", "do"],
    ["mo", "du"],
    ["correspon", "dent</w>"],
    ["l’", "époque</w>"],
    ["bou", "ch"],
    ["ell", "er</w>"],
    ["fac", "teurs</w>"],
    ["ch", "ante</w>"],
    ["constantin", "ople</w>"],
    ["sauv", "age</w>"],
    ["délég", "ation</w>"],
    ["sa", "xe</w>"],
    ["mat", "ches</w>"],
    ["stor", "y</w>"],
    ["univers", "elle</w>"],
    ["ab", "ore</w>"],
    ["entr", "é</w>"],
    ["spéci", "alisé</w>"],
    ["n", "in"],
    ["lan", "des</w>"],
    ["évalu", "ation</w>"],
    ["souv", "enir</w>"],
    ["calcu", "l</w>"],
    ["incen", "die</w>"],
    ["cham", "pagne</w>"],
    ["tent", "er</w>"],
    ["ty", "r"],
    ["fac", "teur</w>"],
    ["-", "-</w>"],
    ["d", "s"],
    ["su", "z"],
    ["oc", "y"],
    ["stad", "t</w>"],
    ["numér", "os</w>"],
    ["inter", "médiaire</w>"],
    ["s", "ér"],
    ["no", "t</w>"],
    ["dé", "plo"],
    ["administr", "ativement</w>"],
    ["j", "ou</w>"],
    ["cas", "t"],
    ["dis", "sou"],
    ["c", "-"],
    ["sec", "tions</w>"],
    ["ambass", "adeur</w>"],
    ["ib", "n</w>"],
    ["viol", "on"],
    ["nat", "ale</w>"],
    ["di", "jon</w>"],
    ["petit-", "fils</w>"],
    ["f", "eli"],
    ["famili", "ale</w>"],
    ["phon", "se</w>"],
[...]
