{
  "vocab_size": 500,
  "merges": [
    [
      "e",
      "</w>"
    ],
    [
      "s",
      "</w>"
    ],
    [
      "t",
      "</w>"
    ],
    [
      "n",
      "</w>"
    ],
    [
      "o",
      "u"
    ],
    [
      "r",
      "</w>"
    ],
    [
      "e",
      "n"
    ],
    [
      "o",
      "i"
    ],
    [
      "q",
      "u"
    ],
    [
      "e",
      "s</w>"
    ],
    [
      "a",
      "n"
    ],
    [
      "l",
      "e</w>"
    ],
    [
      "a",
      "i"
    ],
    [
      "a",
      "</w>"
    ],
    [
      "r",
      "e</w>"
    ],
    [
      "e",
      "u"
    ],
    [
      "a",
      "u"
    ],
    [
      "d",
      "e</w>"
    ],
    [
      "o",
      "n"
    ],
    [
      "i",
      "l"
    ],
    [
      "o",
      "n</w>"
    ],
    [
      "e",
      "t</w>"
    ],
    [
      "e",
      "n</w>"
    ],
    [
      "i",
      "</w>"
    ],
    [
      "n",
      "e</w>"
    ],
    [
      "l",
      "'"
    ],
    [
      "c",
      "h"
    ],
    [
      "e",
      "r"
    ],
    [
      "p",
      "a"
    ],
    [
      "u",
      "n</w>"
    ],
    [
      "e",
      "r</w>"
    ],
    [
      "l",
      "a</w>"
    ],
    [
      "il",
      "</w>"
    ],
    [
      "e",
      "s"
    ],
    [
      "en",
      "t</w>"
    ],
    [
      "x",
      "</w>"
    ],
    [
      "qu",
      "e</w>"
    ],
    [
      "o",
      "r"
    ],
    [
      "l",
      "es</w>"
    ],
    [
      "oi",
      "t</w>"
    ],
    [
      "t",
      "e</w>"
    ],
    [
      "r",
      "i"
    ],
    [
      "d",
      "i"
    ],
    [
      "à",
      "</w>"
    ],
    [
      "e",
      "l"
    ],
    [
      "t",
      "r"
    ],
    [
      "ou",
      "s</w>"
    ],
    [
      "s",
      "e</w>"
    ],
    [
      "an",
      "t</w>"
    ],
    [
      "c",
      "e</w>"
    ],
    [
      "o",
      "m"
    ],
    [
      "t",
      "re</w>"
    ],
    [
      "e",
      "m"
    ],
    [
      "a",
      "r"
    ],
    [
      "l",
      "u"
    ],
    [
      "d",
      "'"
    ],
    [
      "qu",
      "'"
    ],
    [
      "p",
      "r"
    ],
    [
      "t",
      "i"
    ],
    [
      "m",
      "e</w>"
    ],
    [
      "t",
      "ou"
    ],
    [
      "s",
      "s"
    ],
    [
      "v",
      "i"
    ],
    [
      "au",
      "</w>"
    ],
    [
      "t",
      "s</w>"
    ],
    [
      "u",
      "</w>"
    ],
    [
      "é",
      "</w>"
    ],
    [
      "eu",
      "x</w>"
    ],
    [
      "a",
      "l"
    ],
    [
      "a",
      "v"
    ],
    [
      "eu",
      "r</w>"
    ],
    [
      "ou",
      "r"
    ],
    [
      "s",
      "u"
    ],
    [
      "f",
      "ai"
    ],
    [
      "e",
      "z"
    ],
    [
      "s",
      "on</w>"
    ],
    [
      "j",
      "e</w>"
    ],
    [
      "a",
      "g"
    ],
    [
      "es",
      "t</w>"
    ],
    [
      "ou",
      "r</w>"
    ],
    [
      "d",
      "</w>"
    ],
    [
      "an",
      "s</w>"
    ],
    [
      "d",
      "es</w>"
    ],
    [
      "v",
      "ous</w>"
    ],
    [
      "r",
      "e"
    ],
    [
      "c",
      "on"
    ],
    [
      "n",
      "'"
    ],
    [
      "m",
      "ai"
    ],
    [
      "é",
      "t"
    ],
    [
      "l",
      "i"
    ],
    [
      "qu",
      "i</w>"
    ],
    [
      "ez",
      "</w>"
    ],
    [
      "i",
      "n"
    ],
    [
      "d",
      "u</w>"
    ],
    [
      "b",
      "i"
    ],
    [
      "c",
      "om"
    ],
    [
      "u",
      "ne</w>"
    ],
    [
      "s",
      "'"
    ],
    [
      "on",
      "t</w>"
    ],
    [
      "el",
      "le</w>"
    ],
    [
      "a",
      "m"
    ],
    [
      "oi",
      "s</w>"
    ],
    [
      "pa",
      "r"
    ],
    [
      "au",
      "x</w>"
    ],
    [
      "p",
      "lu"
    ],
    [
      "en",
      "d"
    ],
    [
      "oi",
      "</w>"
    ],
    [
      "p",
      "our</w>"
    ],
    [
      "tou",
      "t</w>"
    ],
    [
      "u",
      "i"
    ],
    [
      "f",
      "i"
    ],
    [
      "ou",
      "v"
    ],
    [
      "s",
      "i"
    ],
    [
      "e",
      "t"
    ],
    [
      "t",
      "-"
    ],
    [
      "s",
      "a</w>"
    ],
    [
      "pa",
      "s</w>"
    ],
    [
      "d",
      "é"
    ],
    [
      "oi",
      "n"
    ],
    [
      "p",
      "l"
    ],
    [
      "v",
      "o"
    ],
    [
      "plu",
      "s</w>"
    ],
    [
      "eu",
      "r"
    ],
    [
      "p",
      "ri"
    ],
    [
      "ag",
      "e</w>"
    ],
    [
      "c",
      "r"
    ],
    [
      "di",
      "t</w>"
    ],
    [
      "a",
      "t"
    ],
    [
      "a",
      "p"
    ],
    [
      "g",
      "r"
    ],
    [
      "è",
      "re</w>"
    ],
    [
      "s",
      "i</w>"
    ],
    [
      "c",
      "</w>"
    ],
    [
      "on",
      "s</w>"
    ],
    [
      "en",
      "s</w>"
    ],
    [
      "m",
      "i"
    ],
    [
      "lu",
      "i</w>"
    ],
    [
      "v",
      "oi"
    ],
    [
      "e",
      "au</w>"
    ],
    [
      "mai",
      "s</w>"
    ],
    [
      "bi",
      "en</w>"
    ],
    [
      "eu",
      "</w>"
    ],
    [
      "ou",
      "p"
    ],
    [
      "d",
      "ans</w>"
    ],
    [
      "c",
      "es</w>"
    ],
    [
      "em",
      "p"
    ],
    [
      "pa",
      "r</w>"
    ],
    [
      "s",
      "es</w>"
    ],
    [
      "a",
      "b"
    ],
    [
      "su",
      "r</w>"
    ],
    [
      "n",
      "ous</w>"
    ],
    [
      "u",
      "t</w>"
    ],
    [
      "a",
      "c"
    ],
    [
      "l",
      "eur</w>"
    ],
    [
      "qu'",
      "il</w>"
    ],
    [
      "f",
      "or"
    ],
    [
      "fai",
      "t</w>"
    ],
    [
      "eur",
      "s</w>"
    ],
    [
      "c",
      "i"
    ],
    [
      "n",
      "o"
    ],
    [
      "qu",
      "el"
    ],
    [
      "et",
      "te</w>"
    ],
    [
      "t",
      "er</w>"
    ],
    [
      "p",
      "i"
    ],
    [
      "il",
      "s</w>"
    ],
    [
      "oi",
      "ent</w>"
    ],
    [
      "i",
      "m"
    ],
    [
      "an",
      "g"
    ],
    [
      "g",
      "n"
    ],
    [
      "s",
      "er"
    ],
    [
      "au",
      "tre</w>"
    ],
    [
      "t",
      "ant</w>"
    ],
    [
      "c",
      "'"
    ],
    [
      "our",
      "s</w>"
    ],
    [
      "on",
      "n"
    ],
    [
      "ai",
      "n"
    ],
    [
      "pr",
      "o"
    ],
    [
      "r",
      "é"
    ],
    [
      "p",
      "oin"
    ],
    [
      "j",
      "'"
    ],
    [
      "s",
      "ans</w>"
    ],
    [
      "t",
      "es</w>"
    ],
    [
      "c",
      "o"
    ],
    [
      "t",
      "é</w>"
    ],
    [
      "a",
      "ss"
    ],
    [
      "an",
      "d</w>"
    ],
    [
      "ai",
      "</w>"
    ],
    [
      "poin",
      "t</w>"
    ],
    [
      "m",
      "a"
    ],
    [
      "c",
      "a"
    ],
    [
      "ét",
      "oit</w>"
    ],
    [
      "t-",
      "il</w>"
    ],
    [
      "p",
      "er"
    ],
    [
      "fai",
      "re</w>"
    ],
    [
      "d'",
      "un</w>"
    ],
    [
      "é",
      "e</w>"
    ],
    [
      "t",
      "ous</w>"
    ],
    [
      "r",
      "en"
    ],
    [
      "j",
      "u"
    ],
    [
      "eu",
      "t</w>"
    ],
    [
      "er",
      "s</w>"
    ],
    [
      "m",
      "es</w>"
    ],
    [
      "c",
      "ette</w>"
    ],
    [
      "c'",
      "est</w>"
    ],
    [
      "y",
      "</w>"
    ],
    [
      "p",
      "or"
    ],
    [
      "g",
      "u"
    ],
    [
      "s",
      "o"
    ],
    [
      "al",
      "</w>"
    ],
    [
      "p",
      "o"
    ],
    [
      "s",
      "e"
    ],
    [
      "é",
      "s</w>"
    ],
    [
      "c",
      "i</w>"
    ],
    [
      "p",
      "ui"
    ],
    [
      "g",
      "e</w>"
    ],
    [
      "r",
      "a"
    ],
    [
      "n",
      "i"
    ],
    [
      "f",
      "f"
    ],
    [
      "r",
      "oit</w>"
    ],
    [
      "m",
      "on"
    ],
    [
      "en",
      "t"
    ],
    [
      "ou",
      "</w>"
    ],
    [
      "c",
      "e"
    ],
    [
      "p",
      "e"
    ],
    [
      "s",
      "se</w>"
    ],
    [
      "h",
      "om"
    ],
    [
      "l",
      "à</w>"
    ],
    [
      "com",
      "me</w>"
    ],
    [
      "il",
      "le</w>"
    ],
    [
      "au",
      "t</w>"
    ],
    [
      "em",
      "ent</w>"
    ],
    [
      "ê",
      "me</w>"
    ],
    [
      "i",
      "s</w>"
    ],
    [
      "oup",
      "</w>"
    ],
    [
      "m",
      "oi</w>"
    ],
    [
      "t",
      "emp"
    ],
    [
      "f",
      "ut</w>"
    ],
    [
      "s",
      "ou"
    ],
    [
      "l'",
      "autre</w>"
    ],
    [
      "m",
      "on</w>"
    ],
    [
      "d",
      "e"
    ],
    [
      "v",
      "en"
    ],
    [
      "r",
      "es</w>"
    ],
    [
      "di",
      "s"
    ],
    [
      "e",
      "x"
    ],
    [
      "é",
      "c"
    ],
    [
      "l",
      "ai"
    ],
    [
      "s",
      "ont</w>"
    ],
    [
      "g",
      "ens</w>"
    ],
    [
      "s",
      "or"
    ],
    [
      "r",
      "ai"
    ],
    [
      "m",
      "or"
    ],
    [
      "è",
      "s</w>"
    ],
    [
      "r",
      "ent</w>"
    ],
    [
      "ch",
      "e</w>"
    ],
    [
      "m",
      "o"
    ],
    [
      "e",
      "c</w>"
    ],
    [
      "ô",
      "t</w>"
    ],
    [
      "al",
      "l"
    ],
    [
      "d",
      "eux</w>"
    ],
    [
      "au",
      "ss"
    ],
    [
      "l",
      "o"
    ],
    [
      "ez",
      "-"
    ],
    [
      "j",
      "ours</w>"
    ],
    [
      "u",
      "re</w>"
    ],
    [
      "ê",
      "te</w>"
    ],
    [
      "av",
      "oit</w>"
    ],
    [
      "quel",
      "que</w>"
    ],
    [
      "c",
      "our"
    ],
    [
      "m",
      "ême</w>"
    ],
    [
      "ai",
      "n</w>"
    ],
    [
      "em",
      "b"
    ],
    [
      "î",
      "tre</w>"
    ],
    [
      "û",
      "t</w>"
    ],
    [
      "c",
      "er"
    ],
    [
      "an",
      "ts</w>"
    ],
    [
      "d",
      "s</w>"
    ],
    [
      "t",
      "u</w>"
    ],
    [
      "-",
      "-"
    ],
    [
      "qu'",
      "on</w>"
    ],
    [
      "m",
      "'"
    ],
    [
      "ê",
      "tre</w>"
    ],
    [
      "hom",
      "me</w>"
    ],
    [
      "au",
      "v"
    ],
    [
      "fi",
      "n</w>"
    ],
    [
      "c",
      "or"
    ],
    [
      "temp",
      "s</w>"
    ],
    [
      "vo",
      "y"
    ],
    [
      "fi",
      "t</w>"
    ],
    [
      "f",
      "r"
    ],
    [
      "qu",
      "and</w>"
    ],
    [
      "av",
      "ec</w>"
    ],
    [
      "ri",
      "en</w>"
    ],
    [
      "m",
      "é"
    ],
    [
      "l",
      "</w>"
    ],
    [
      "ar",
      "d</w>"
    ],
    [
      "no",
      "tre</w>"
    ],
    [
      "ch",
      "i"
    ],
    [
      "il",
      "l"
    ],
    [
      "an",
      "ce</w>"
    ],
    [
      "end",
      "re</w>"
    ],
    [
      "d",
      "on"
    ],
    [
      "p",
      "eu</w>"
    ],
    [
      "pa",
      "ss"
    ],
    [
      "ch",
      "a"
    ],
    [
      "el",
      "</w>"
    ],
    [
      "m",
      "ar"
    ],
    [
      "m",
      "a</w>"
    ],
    [
      "mai",
      "n"
    ],
    [
      "c",
      "u"
    ],
    [
      "é",
      "r"
    ],
    [
      "tr",
      "ouv"
    ],
    [
      "l",
      "eurs</w>"
    ],
    [
      "s",
      "ai"
    ],
    [
      "i",
      "t"
    ],
    [
      "m",
      "oin"
    ],
    [
      "s",
      "-"
    ],
    [
      "oi",
      "r</w>"
    ],
    [
      "for",
      "t</w>"
    ],
    [
      "p",
      "our"
    ],
    [
      "i",
      "n</w>"
    ],
    [
      "v",
      "ou"
    ],
    [
      "m",
      "ent</w>"
    ],
    [
      "es",
      "se</w>"
    ],
    [
      "ab",
      "le</w>"
    ],
    [
      "an",
      "im"
    ],
    [
      "oi",
      "n</w>"
    ],
    [
      "c",
      "el"
    ],
    [
      "pri",
      "t</w>"
    ],
    [
      "c",
      "et</w>"
    ],
    [
      "vi",
      "ent</w>"
    ],
    [
      "n'",
      "est</w>"
    ],
    [
      "j",
      "our</w>"
    ],
    [
      "at",
      "t"
    ],
    [
      "en",
      "ts</w>"
    ],
    [
      "d",
      "ou"
    ],
    [
      "pl",
      "ai"
    ],
    [
      "d",
      "em"
    ],
    [
      "l",
      "e"
    ],
    [
      "l'",
      "h"
    ],
    [
      "f",
      "aut</w>"
    ],
    [
      "p",
      "en"
    ],
    [
      "ch",
      "o"
    ],
    [
      "d",
      "es"
    ],
    [
      "en",
      "f"
    ],
    [
      "s'",
      "en</w>"
    ],
    [
      "di",
      "t-il</w>"
    ],
    [
      "p",
      "h"
    ],
    [
      "en",
      "co"
    ],
    [
      "t",
      "er"
    ],
    [
      "s",
      "oit</w>"
    ],
    [
      "ma",
      "ître</w>"
    ],
    [
      "qu'",
      "un</w>"
    ],
    [
      "n",
      "i</w>"
    ],
    [
      "pui",
      "s</w>"
    ],
    [
      "r",
      "s</w>"
    ],
    [
      "n",
      "u"
    ],
    [
      "b",
      "r"
    ],
    [
      "o",
      "b"
    ],
    [
      "l'",
      "on</w>"
    ],
    [
      "d'",
      "une</w>"
    ],
    [
      "tr",
      "es</w>"
    ],
    [
      "ap",
      "p"
    ],
    [
      "i",
      "ne</w>"
    ],
    [
      "n",
      "on</w>"
    ],
    [
      "on",
      "g"
    ],
    [
      "t",
      "on</w>"
    ],
    [
      "ch",
      "ez</w>"
    ],
    [
      "vo",
      "tre</w>"
    ],
    [
      "o",
      "ù"
    ],
    [
      "où",
      "</w>"
    ],
    [
      "b",
      "on</w>"
    ],
    [
      "p",
      "eu"
    ],
    [
      "n'",
      "en</w>"
    ],
    [
      "o",
      "p"
    ],
    [
      "a",
      "s</w>"
    ],
    [
      "oi",
      "re</w>"
    ],
    [
      "ui",
      "t</w>"
    ],
    [
      "s",
      "t"
    ],
    [
      "j",
      "a"
    ],
    [
      "d",
      "onn"
    ],
    [
      "ch",
      "er</w>"
    ],
    [
      "pr",
      "ès</w>"
    ],
    [
      "m",
      "al"
    ],
    [
      "voi",
      "r</w>"
    ],
    [
      "s",
      "eu"
    ],
    [
      "vi",
      "e</w>"
    ],
    [
      "o",
      "y"
    ],
    [
      "--",
      "</w>"
    ],
    [
      "qu",
      "oi</w>"
    ],
    [
      "om",
      "b"
    ],
    [
      "ain",
      "si</w>"
    ],
    [
      "tr",
      "ai"
    ],
    [
      "pr",
      "é"
    ],
    [
      "m",
      "ou"
    ],
    [
      "e",
      "f"
    ],
    [
      "tou",
      "jours</w>"
    ],
    [
      "v",
      "ers</w>"
    ],
    [
      "auss",
      "i</w>"
    ],
    [
      "ri",
      "s</w>"
    ],
    [
      "ca",
      "r</w>"
    ],
    [
      "ez-",
      "vous</w>"
    ],
    [
      "don",
      "c</w>"
    ],
    [
      "p",
      "u"
    ],
    [
      "b",
      "eau</w>"
    ],
    [
      "g",
      "er</w>"
    ],
    [
      "h",
      "u"
    ],
    [
      "cer",
      "t"
    ],
    [
      "l",
      "oup</w>"
    ],
    [
      "m",
      "an"
    ],
    [
      "t",
      "u"
    ],
    [
      "é",
      "l"
    ],
    [
      "l'",
      "un</w>"
    ],
    [
      "ch",
      "ac"
    ],
    [
      "di",
      "re</w>"
    ],
    [
      "b",
      "ou"
    ],
    [
      "d",
      "re</w>"
    ],
    [
      "moin",
      "s</w>"
    ],
    [
      "di",
      "eu</w>"
    ],
    [
      "g",
      "ar"
    ],
    [
      "l",
      "le</w>"
    ],
    [
      "r",
      "a</w>"
    ],
    [
      "ti",
      "t</w>"
    ],
    [
      "f",
      "u"
    ],
    [
      "cho",
      "se</w>"
    ],
    [
      "di",
      "eux</w>"
    ],
    [
      "chac",
      "un</w>"
    ],
    [
      "f",
      "on"
    ],
    [
      "on",
      "ne</w>"
    ],
    [
      "i",
      "r</w>"
    ],
    [
      "en",
      "ce</w>"
    ],
    [
      "no",
      "s</w>"
    ],
    [
      "ch",
      "er"
    ],
    [
      "end",
      "ant</w>"
    ],
    [
      "ri",
      "r</w>"
    ],
    [
      "tou",
      "te</w>"
    ],
    [
      "t",
      "a</w>"
    ],
    [
      "c",
      "oup</w>"
    ],
    [
      "r",
      "es"
    ],
    [
      "t",
      "en"
    ],
    [
      "mi",
      "eux</w>"
    ],
    [
      "n",
      "t</w>"
    ],
    [
      "qu'",
      "à</w>"
    ],
    [
      "d",
      "ont</w>"
    ],
    [
      "i",
      "gn"
    ],
    [
      "e",
      "ût</w>"
    ],
    [
      "v",
      "er"
    ],
    [
      "c",
      "ou"
    ],
    [
      "pr",
      "en"
    ],
    [
      "j'",
      "ai</w>"
    ],
    [
      "p",
      "eut</w>"
    ],
    [
      "s",
      "er</w>"
    ],
    [
      "en",
      "fin</w>"
    ],
    [
      "f",
      "</w>"
    ],
    [
      "m",
      "en"
    ],
    [
      "r",
      "oi</w>"
    ]
  ],
  "vocab": {
    "<pad>": 0,
    "<unk>": 1,
    "<bos>": 2,
    "<eos>": 3,
    "'": 4,
    "-": 5,
    "</w>": 6,
    "a": 7,
    "b": 8,
    "c": 9,
    "d": 10,
    "e": 11,
    "f": 12,
    "g": 13,
    "h": 14,
    "i": 15,
    "j": 16,
    "l": 17,
    "m": 18,
    "n": 19,
    "o": 20,
    "p": 21,
    "q": 22,
    "r": 23,
    "s": 24,
    "t": 25,
    "u": 26,
    "v": 27,
    "w": 28,
    "x": 29,
    "y": 30,
    "z": 31,
    "à": 32,
    "â": 33,
    "ç": 34,
    "è": 35,
    "é": 36,
    "ê": 37,
    "ë": 38,
    "î": 39,
    "ï": 40,
    "ô": 41,
    "ù": 42,
    "û": 43,
    "e</w>": 44,
    "s</w>": 45,
    "t</w>": 46,
    "n</w>": 47,
    "ou": 48,
    "r</w>": 49,
    "en": 50,
    "oi": 51,
    "qu": 52,
    "es</w>": 53,
    "an": 54,
    "le</w>": 55,
    "ai": 56,
    "a</w>": 57,
    "re</w>": 58,
    "eu": 59,
    "au": 60,
    "de</w>": 61,
    "on": 62,
    "il": 63,
    "on</w>": 64,
    "et</w>": 65,
    "en</w>": 66,
    "i</w>": 67,
    "ne</w>": 68,
    "l'": 69,
    "ch": 70,
    "er": 71,
    "pa": 72,
    "un</w>": 73,
    "er</w>": 74,
    "la</w>": 75,
    "il</w>": 76,
    "es": 77,
    "ent</w>": 78,
    "x</w>": 79,
    "que</w>": 80,
    "or": 81,
    "les</w>": 82,
    "oit</w>": 83,
    "te</w>": 84,
    "ri": 85,
    "di": 86,
    "à</w>": 87,
    "el": 88,
    "tr": 89,
    "ous</w>": 90,
    "se</w>": 91,
    "ant</w>": 92,
    "ce</w>": 93,
    "om": 94,
    "tre</w>": 95,
    "em": 96,
    "ar": 97,
    "lu": 98,
    "d'": 99,
    "qu'": 100,
    "pr": 101,
    "ti": 102,
    "me</w>": 103,
    "tou": 104,
    "ss": 105,
    "vi": 106,
    "au</w>": 107,
    "ts</w>": 108,
    "u</w>": 109,
    "é</w>": 110,
    "eux</w>": 111,
    "al": 112,
    "av": 113,
    "eur</w>": 114,
    "our": 115,
    "su": 116,
    "fai": 117,
    "ez": 118,
    "son</w>": 119,
    "je</w>": 120,
    "ag": 121,
    "est</w>": 122,
    "our</w>": 123,
    "d</w>": 124,
    "ans</w>": 125,
    "des</w>": 126,
    "vous</w>": 127,
    "re": 128,
    "con": 129,
    "n'": 130,
    "mai": 131,
    "ét": 132,
    "li": 133,
    "qui</w>": 134,
    "ez</w>": 135,
    "in": 136,
    "du</w>": 137,
    "bi": 138,
    "com": 139,
    "une</w>": 140,
    "s'": 141,
    "ont</w>": 142,
    "elle</w>": 143,
    "am": 144,
    "ois</w>": 145,
    "par": 146,
    "aux</w>": 147,
    "plu": 148,
    "end": 149,
    "oi</w>": 150,
    "pour</w>": 151,
    "tout</w>": 152,
    "ui": 153,
    "fi": 154,
    "ouv": 155,
    "si": 156,
    "et": 157,
    "t-": 158,
    "sa</w>": 159,
    "pas</w>": 160,
    "dé": 161,
    "oin": 162,
    "pl": 163,
    "vo": 164,
    "plus</w>": 165,
    "eur": 166,
    "pri": 167,
    "age</w>": 168,
    "cr": 169,
    "dit</w>": 170,
    "at": 171,
    "ap": 172,
    "gr": 173,
    "ère</w>": 174,
    "si</w>": 175,
    "c</w>": 176,
    "ons</w>": 177,
    "ens</w>": 178,
    "mi": 179,
    "lui</w>": 180,
    "voi": 181,
    "eau</w>": 182,
    "mais</w>": 183,
    "bien</w>": 184,
    "eu</w>": 185,
    "oup": 186,
    "dans</w>": 187,
    "ces</w>": 188,
    "emp": 189,
    "par</w>": 190,
    "ses</w>": 191,
    "ab": 192,
    "sur</w>": 193,
    "nous</w>": 194,
    "ut</w>": 195,
    "ac": 196,
    "leur</w>": 197,
    "qu'il</w>": 198,
    "for": 199,
    "fait</w>": 200,
    "eurs</w>": 201,
    "ci": 202,
    "no": 203,
    "quel": 204,
    "ette</w>": 205,
    "ter</w>": 206,
    "pi": 207,
    "ils</w>": 208,
    "oient</w>": 209,
    "im": 210,
    "ang": 211,
    "gn": 212,
    "ser": 213,
    "autre</w>": 214,
    "tant</w>": 215,
    "c'": 216,
    "ours</w>": 217,
    "onn": 218,
    "ain": 219,
    "pro": 220,
    "ré": 221,
    "poin": 222,
    "j'": 223,
    "sans</w>": 224,
    "tes</w>": 225,
    "co": 226,
    "té</w>": 227,
    "ass": 228,
    "and</w>": 229,
    "ai</w>": 230,
    "point</w>": 231,
    "ma": 232,
    "ca": 233,
    "étoit</w>": 234,
    "t-il</w>": 235,
    "per": 236,
    "faire</w>": 237,
    "d'un</w>": 238,
    "ée</w>": 239,
    "tous</w>": 240,
    "ren": 241,
    "ju": 242,
    "eut</w>": 243,
    "ers</w>": 244,
    "mes</w>": 245,
    "cette</w>": 246,
    "c'est</w>": 247,
    "y</w>": 248,
    "por": 249,
    "gu": 250,
    "so": 251,
    "al</w>": 252,
    "po": 253,
    "se": 254,
    "és</w>": 255,
    "ci</w>": 256,
    "pui": 257,
    "ge</w>": 258,
    "ra": 259,
    "ni": 260,
    "ff": 261,
    "roit</w>": 262,
    "mon": 263,
    "ent": 264,
    "ou</w>": 265,
    "ce": 266,
    "pe": 267,
    "sse</w>": 268,
    "hom": 269,
    "là</w>": 270,
    "comme</w>": 271,
    "ille</w>": 272,
    "aut</w>": 273,
    "ement</w>": 274,
    "ême</w>": 275,
    "is</w>": 276,
    "oup</w>": 277,
    "moi</w>": 278,
    "temp": 279,
    "fut</w>": 280,
    "sou": 281,
    "l'autre</w>": 282,
    "mon</w>": 283,
    "de": 284,
    "ven": 285,
    "res</w>": 286,
    "dis": 287,
    "ex": 288,
    "éc": 289,
    "lai": 290,
    "sont</w>": 291,
    "gens</w>": 292,
    "sor": 293,
    "rai": 294,
    "mor": 295,
    "ès</w>": 296,
    "rent</w>": 297,
    "che</w>": 298,
    "mo": 299,
    "ec</w>": 300,
    "ôt</w>": 301,
    "all": 302,
    "deux</w>": 303,
    "auss": 304,
    "lo": 305,
    "ez-": 306,
    "jours</w>": 307,
    "ure</w>": 308,
    "ête</w>": 309,
    "avoit</w>": 310,
    "quelque</w>": 311,
    "cour": 312,
    "même</w>": 313,
    "ain</w>": 314,
    "emb": 315,
    "ître</w>": 316,
    "ût</w>": 317,
    "cer": 318,
    "ants</w>": 319,
    "ds</w>": 320,
    "tu</w>": 321,
    "--": 322,
    "qu'on</w>": 323,
    "m'": 324,
    "être</w>": 325,
    "homme</w>": 326,
    "auv": 327,
    "fin</w>": 328,
    "cor": 329,
    "temps</w>": 330,
    "voy": 331,
    "fit</w>": 332,
    "fr": 333,
    "quand</w>": 334,
    "avec</w>": 335,
    "rien</w>": 336,
    "mé": 337,
    "l</w>": 338,
    "ard</w>": 339,
    "notre</w>": 340,
    "chi": 341,
    "ill": 342,
    "ance</w>": 343,
    "endre</w>": 344,
    "don": 345,
    "peu</w>": 346,
    "pass": 347,
    "cha": 348,
    "el</w>": 349,
    "mar": 350,
    "ma</w>": 351,
    "main": 352,
    "cu": 353,
    "ér": 354,
    "trouv": 355,
    "leurs</w>": 356,
    "sai": 357,
    "it": 358,
    "moin": 359,
    "s-": 360,
    "oir</w>": 361,
    "fort</w>": 362,
    "pour": 363,
    "in</w>": 364,
    "vou": 365,
    "ment</w>": 366,
    "esse</w>": 367,
    "able</w>": 368,
    "anim": 369,
    "oin</w>": 370,
    "cel": 371,
    "prit</w>": 372,
    "cet</w>": 373,
    "vient</w>": 374,
    "n'est</w>": 375,
    "jour</w>": 376,
    "att": 377,
    "ents</w>": 378,
    "dou": 379,
    "plai": 380,
    "dem": 381,
    "le": 382,
    "l'h": 383,
    "faut</w>": 384,
    "pen": 385,
    "cho": 386,
    "des": 387,
    "enf": 388,
    "s'en</w>": 389,
    "dit-il</w>": 390,
    "ph": 391,
    "enco": 392,
    "ter": 393,
    "soit</w>": 394,
    "maître</w>": 395,
    "qu'un</w>": 396,
    "ni</w>": 397,
    "puis</w>": 398,
    "rs</w>": 399,
    "nu": 400,
    "br": 401,
    "ob": 402,
    "l'on</w>": 403,
    "d'une</w>": 404,
    "tres</w>": 405,
    "app": 406,
    "ine</w>": 407,
    "non</w>": 408,
    "ong": 409,
    "ton</w>": 410,
    "chez</w>": 411,
    "votre</w>": 412,
    "où": 413,
    "où</w>": 414,
    "bon</w>": 415,
    "peu": 416,
    "n'en</w>": 417,
    "op": 418,
    "as</w>": 419,
    "oire</w>": 420,
    "uit</w>": 421,
    "st": 422,
    "ja": 423,
    "donn": 424,
    "cher</w>": 425,
    "près</w>": 426,
    "mal": 427,
    "voir</w>": 428,
    "seu": 429,
    "vie</w>": 430,
    "oy": 431,
    "--</w>": 432,
    "quoi</w>": 433,
    "omb": 434,
    "ainsi</w>": 435,
    "trai": 436,
    "pré": 437,
    "mou": 438,
    "ef": 439,
    "toujours</w>": 440,
    "vers</w>": 441,
    "aussi</w>": 442,
    "ris</w>": 443,
    "car</w>": 444,
    "ez-vous</w>": 445,
    "donc</w>": 446,
    "pu": 447,
    "beau</w>": 448,
    "ger</w>": 449,
    "hu": 450,
    "cert": 451,
    "loup</w>": 452,
    "man": 453,
    "tu": 454,
    "él": 455,
    "l'un</w>": 456,
    "chac": 457,
    "dire</w>": 458,
    "bou": 459,
    "dre</w>": 460,
    "moins</w>": 461,
    "dieu</w>": 462,
    "gar": 463,
    "lle</w>": 464,
    "ra</w>": 465,
    "tit</w>": 466,
    "fu": 467,
    "chose</w>": 468,
    "dieux</w>": 469,
    "chacun</w>": 470,
    "fon": 471,
    "onne</w>": 472,
    "ir</w>": 473,
    "ence</w>": 474,
    "nos</w>": 475,
    "cher": 476,
    "endant</w>": 477,
    "rir</w>": 478,
    "toute</w>": 479,
    "ta</w>": 480,
    "coup</w>": 481,
    "res": 482,
    "ten": 483,
    "mieux</w>": 484,
    "nt</w>": 485,
    "qu'à</w>": 486,
    "dont</w>": 487,
    "ign": 488,
    "eût</w>": 489,
    "ver": 490,
    "cou": 491,
    "pren": 492,
    "j'ai</w>": 493,
    "peut</w>": 494,
    "ser</w>": 495,
    "enfin</w>": 496,
    "f</w>": 497,
    "men": 498,
    "roi</w>": 499
  }
}