{
  "vocab_size": 2000,
  "min_freq": 2,
  "merges": [
    [
      "e",
      "</w>"
    ],
    [
      "s",
      "</w>"
    ],
    [
      "t",
      "</w>"
    ],
    [
      "n",
      "</w>"
    ],
    [
      "o",
      "u"
    ],
    [
      "r",
      "</w>"
    ],
    [
      "q",
      "u"
    ],
    [
      "e",
      "s</w>"
    ],
    [
      "e",
      "n"
    ],
    [
      "a",
      "i"
    ],
    [
      "d",
      "e</w>"
    ],
    [
      "r",
      "e</w>"
    ],
    [
      "a",
      "n"
    ],
    [
      "a",
      "</w>"
    ],
    [
      "l",
      "e</w>"
    ],
    [
      "e",
      "u"
    ],
    [
      "i",
      "</w>"
    ],
    [
      "o",
      "n"
    ],
    [
      "o",
      "i"
    ],
    [
      "e",
      "t</w>"
    ],
    [
      "i",
      "l"
    ],
    [
      "o",
      "n</w>"
    ],
    [
      "n",
      "e</w>"
    ],
    [
      "e",
      "s"
    ],
    [
      "a",
      "u"
    ],
    [
      "qu",
      "e</w>"
    ],
    [
      "t",
      "e</w>"
    ],
    [
      "p",
      "a"
    ],
    [
      "r",
      "i"
    ],
    [
      "e",
      "n</w>"
    ],
    [
      "l",
      "a</w>"
    ],
    [
      "e",
      "r</w>"
    ],
    [
      "ou",
      "s</w>"
    ],
    [
      "e",
      "r"
    ],
    [
      "c",
      "e</w>"
    ],
    [
      "à",
      "</w>"
    ],
    [
      "e",
      "l"
    ],
    [
      "m",
      "e</w>"
    ],
    [
      "il",
      "</w>"
    ],
    [
      "t",
      "i"
    ],
    [
      "o",
      "r"
    ],
    [
      "l",
      "es</w>"
    ],
    [
      "en",
      "t</w>"
    ],
    [
      "c",
      "h"
    ],
    [
      "d",
      "i"
    ],
    [
      "x",
      "</w>"
    ],
    [
      "e",
      "m"
    ],
    [
      "l",
      "'"
    ],
    [
      "s",
      "e</w>"
    ],
    [
      "t",
      "r"
    ],
    [
      "o",
      "m"
    ],
    [
      "t",
      "re</w>"
    ],
    [
      "é",
      "</w>"
    ],
    [
      "p",
      "r"
    ],
    [
      "u",
      "n</w>"
    ],
    [
      "l",
      "u"
    ],
    [
      "v",
      "ous</w>"
    ],
    [
      "qu",
      "'"
    ],
    [
      "j",
      "e</w>"
    ],
    [
      "a",
      "r"
    ],
    [
      "l",
      "i"
    ],
    [
      "p",
      "ou"
    ],
    [
      "es",
      "t</w>"
    ],
    [
      "a",
      "v"
    ],
    [
      "u",
      "</w>"
    ],
    [
      "d",
      "'"
    ],
    [
      "qu",
      "i</w>"
    ],
    [
      "eu",
      "r</w>"
    ],
    [
      "s",
      "i"
    ],
    [
      "an",
      "s</w>"
    ],
    [
      "e",
      "z"
    ],
    [
      "s",
      "u"
    ],
    [
      "i",
      "n"
    ],
    [
      "eu",
      "x</w>"
    ],
    [
      "f",
      "ai"
    ],
    [
      "a",
      "l"
    ],
    [
      "an",
      "t</w>"
    ],
    [
      "t",
      "ou"
    ],
    [
      "c",
      "on"
    ],
    [
      "pou",
      "r</w>"
    ],
    [
      "ez",
      "</w>"
    ],
    [
      "el",
      "le</w>"
    ],
    [
      "v",
      "i"
    ],
    [
      "u",
      "ne</w>"
    ],
    [
      "a",
      "m"
    ],
    [
      "s",
      "i</w>"
    ],
    [
      "d",
      "es</w>"
    ],
    [
      "pa",
      "r"
    ],
    [
      "e",
      "t"
    ],
    [
      "ai",
      "s</w>"
    ],
    [
      "c",
      "om"
    ],
    [
      "r",
      "s</w>"
    ],
    [
      "d",
      "é"
    ],
    [
      "d",
      "</w>"
    ],
    [
      "d",
      "ans</w>"
    ],
    [
      "a",
      "g"
    ],
    [
      "on",
      "t</w>"
    ],
    [
      "n",
      "'"
    ],
    [
      "oi",
      "t</w>"
    ],
    [
      "c",
      "</w>"
    ],
    [
      "v",
      "o"
    ],
    [
      "s",
      "on</w>"
    ],
    [
      "s",
      "s"
    ],
    [
      "p",
      "lu"
    ],
    [
      "d",
      "u</w>"
    ],
    [
      "o",
      "i</w>"
    ],
    [
      "pa",
      "s</w>"
    ],
    [
      "r",
      "e"
    ],
    [
      "b",
      "i"
    ],
    [
      "plu",
      "s</w>"
    ],
    [
      "au",
      "</w>"
    ],
    [
      "t",
      "s</w>"
    ],
    [
      "oi",
      "s</w>"
    ],
    [
      "è",
      "re</w>"
    ],
    [
      "u",
      "i"
    ],
    [
      "t",
      "é</w>"
    ],
    [
      "oi",
      "n"
    ],
    [
      "en",
      "d"
    ],
    [
      "c",
      "ou"
    ],
    [
      "c",
      "i"
    ],
    [
      "pa",
      "r</w>"
    ],
    [
      "on",
      "s</w>"
    ],
    [
      "p",
      "ri"
    ],
    [
      "a",
      "c"
    ],
    [
      "oi",
      "r</w>"
    ],
    [
      "eu",
      "</w>"
    ],
    [
      "s",
      "es</w>"
    ],
    [
      "t",
      "es</w>"
    ],
    [
      "g",
      "r"
    ],
    [
      "a",
      "b"
    ],
    [
      "ou",
      "v"
    ],
    [
      "r",
      "é"
    ],
    [
      "m",
      "ais</w>"
    ],
    [
      "f",
      "i"
    ],
    [
      "qu'",
      "il</w>"
    ],
    [
      "n",
      "o"
    ],
    [
      "n",
      "ous</w>"
    ],
    [
      "tou",
      "t</w>"
    ],
    [
      "em",
      "ent</w>"
    ],
    [
      "a",
      "p"
    ],
    [
      "ai",
      "t</w>"
    ],
    [
      "p",
      "l"
    ],
    [
      "ai",
      "n"
    ],
    [
      "s",
      "a</w>"
    ],
    [
      "m",
      "on</w>"
    ],
    [
      "on",
      "n"
    ],
    [
      "m",
      "es</w>"
    ],
    [
      "a",
      "t"
    ],
    [
      "ai",
      "</w>"
    ],
    [
      "é",
      "t"
    ],
    [
      "bi",
      "en</w>"
    ],
    [
      "m",
      "a"
    ],
    [
      "c",
      "r"
    ],
    [
      "et",
      "te</w>"
    ],
    [
      "c",
      "es</w>"
    ],
    [
      "lu",
      "i</w>"
    ],
    [
      "s",
      "'"
    ],
    [
      "j",
      "'"
    ],
    [
      "y",
      "</w>"
    ],
    [
      "f",
      "f"
    ],
    [
      "fai",
      "t</w>"
    ],
    [
      "ti",
      "on</w>"
    ],
    [
      "m",
      "i"
    ],
    [
      "eu",
      "rs</w>"
    ],
    [
      "il",
      "le</w>"
    ],
    [
      "é",
      "e</w>"
    ],
    [
      "p",
      "o"
    ],
    [
      "a",
      "r</w>"
    ],
    [
      "qu",
      "el"
    ],
    [
      "m",
      "on"
    ],
    [
      "é",
      "r"
    ],
    [
      "p",
      "</w>"
    ],
    [
      "e",
      "x"
    ],
    [
      "c",
      "o"
    ],
    [
      "j",
      "ou"
    ],
    [
      "m",
      "'"
    ],
    [
      "c",
      "ette</w>"
    ],
    [
      "j",
      "u"
    ],
    [
      "p",
      "oin"
    ],
    [
      "p",
      "er"
    ],
    [
      "c",
      "'"
    ],
    [
      "p",
      "i"
    ],
    [
      "en",
      "s</w>"
    ],
    [
      "au",
      "x</w>"
    ],
    [
      "poin",
      "t</w>"
    ],
    [
      "s",
      "er"
    ],
    [
      "ag",
      "e</w>"
    ],
    [
      "v",
      "er"
    ],
    [
      "il",
      "s</w>"
    ],
    [
      "m",
      "ê"
    ],
    [
      "-",
      "</w>"
    ],
    [
      "a",
      "s"
    ],
    [
      "d",
      "e"
    ],
    [
      "i",
      "s</w>"
    ],
    [
      "l",
      "</w>"
    ],
    [
      "t",
      "-"
    ],
    [
      "av",
      "e"
    ],
    [
      "m",
      "a</w>"
    ],
    [
      "m",
      "é"
    ],
    [
      "su",
      "r</w>"
    ],
    [
      "c'",
      "est</w>"
    ],
    [
      "s",
      "ans</w>"
    ],
    [
      "pr",
      "o"
    ],
    [
      "t",
      "u</w>"
    ],
    [
      "fai",
      "re</w>"
    ],
    [
      "s",
      "c"
    ],
    [
      "s",
      "e"
    ],
    [
      "f",
      "or"
    ],
    [
      "m",
      "o"
    ],
    [
      "ave",
      "c</w>"
    ],
    [
      "è",
      "s</w>"
    ],
    [
      "v",
      "ar</w>"
    ],
    [
      "an",
      "g"
    ],
    [
      "ou",
      "</w>"
    ],
    [
      "g",
      "n"
    ],
    [
      "l",
      "eur</w>"
    ],
    [
      "t",
      "er</w>"
    ],
    [
      "p",
      "or"
    ],
    [
      "r",
      "es</w>"
    ],
    [
      "p",
      "ui"
    ],
    [
      "d",
      "re</w>"
    ],
    [
      "i",
      "m"
    ],
    [
      "s",
      "ou"
    ],
    [
      "g",
      "u"
    ],
    [
      "c",
      "l"
    ],
    [
      "com",
      "me</w>"
    ],
    [
      "mê",
      "me</w>"
    ],
    [
      "vo",
      "tre</w>"
    ],
    [
      "pr",
      "é"
    ],
    [
      "è",
      "ne</w>"
    ],
    [
      "m",
      "oi</w>"
    ],
    [
      "c",
      "e"
    ],
    [
      "ê",
      "tre</w>"
    ],
    [
      "t",
      "u"
    ],
    [
      "v",
      "oir</w>"
    ],
    [
      "f",
      "au"
    ],
    [
      "p",
      "eu"
    ],
    [
      "an",
      "d</w>"
    ],
    [
      "s",
      "o"
    ],
    [
      "d'",
      "un</w>"
    ],
    [
      "an",
      "te</w>"
    ],
    [
      "t",
      "ant</w>"
    ],
    [
      "n",
      "i"
    ],
    [
      "p",
      "h"
    ],
    [
      "c",
      "u"
    ],
    [
      "end",
      "re</w>"
    ],
    [
      "t",
      "en"
    ],
    [
      "é",
      "s</w>"
    ],
    [
      "es",
      "se</w>"
    ],
    [
      "b",
      "le</w>"
    ],
    [
      "an",
      "ce</w>"
    ],
    [
      "h",
      "om"
    ],
    [
      "em",
      "p"
    ],
    [
      "p",
      "e"
    ],
    [
      "v",
      "en"
    ],
    [
      "ù",
      "</w>"
    ],
    [
      "o",
      "ù</w>"
    ],
    [
      "di",
      "s"
    ],
    [
      "t",
      "ous</w>"
    ],
    [
      "a",
      "s</w>"
    ],
    [
      "d",
      "ou"
    ],
    [
      "el",
      "</w>"
    ],
    [
      "f",
      "r"
    ],
    [
      "d",
      "on"
    ],
    [
      "s",
      "en"
    ],
    [
      "c",
      "or"
    ],
    [
      "au",
      "tre</w>"
    ],
    [
      "di",
      "t</w>"
    ],
    [
      "ab",
      "le</w>"
    ],
    [
      "s",
      "ont</w>"
    ],
    [
      "ch",
      "e</w>"
    ],
    [
      "m",
      "al"
    ],
    [
      "d",
      "onn"
    ],
    [
      "o",
      "b"
    ],
    [
      "d",
      "ont</w>"
    ],
    [
      "p",
      "u"
    ],
    [
      "a",
      "ss"
    ],
    [
      "ai",
      "n</w>"
    ],
    [
      "f",
      "u"
    ],
    [
      "l",
      "à</w>"
    ],
    [
      "b",
      "l"
    ],
    [
      "ju",
      "s"
    ],
    [
      "d",
      "eux</w>"
    ],
    [
      "i",
      "r</w>"
    ],
    [
      "v",
      "oi"
    ],
    [
      "c",
      "i</w>"
    ],
    [
      "en",
      "ce</w>"
    ],
    [
      "g",
      "e</w>"
    ],
    [
      "ri",
      "en</w>"
    ],
    [
      "am",
      "ou"
    ],
    [
      "d",
      "o"
    ],
    [
      "m",
      "ent</w>"
    ],
    [
      "d",
      "es"
    ],
    [
      "qu'",
      "on</w>"
    ],
    [
      "d",
      "r"
    ],
    [
      "ai",
      "re</w>"
    ],
    [
      "é",
      "di"
    ],
    [
      "tr",
      "o"
    ],
    [
      "v",
      "ou"
    ],
    [
      "tr",
      "ouv"
    ],
    [
      "b",
      "e"
    ],
    [
      "s",
      "t"
    ],
    [
      "pr",
      "ès</w>"
    ],
    [
      "é",
      "ri"
    ],
    [
      "en",
      "co"
    ],
    [
      "l",
      "eurs</w>"
    ],
    [
      "n'",
      "est</w>"
    ],
    [
      "pou",
      "r"
    ],
    [
      "ai",
      "s"
    ],
    [
      "p",
      "eu</w>"
    ],
    [
      "av",
      "oir</w>"
    ],
    [
      "or",
      "t</w>"
    ],
    [
      "fau",
      "t</w>"
    ],
    [
      "oin",
      "s</w>"
    ],
    [
      "sc",
      "ène</w>"
    ],
    [
      "ch",
      "o"
    ],
    [
      "i",
      "v"
    ],
    [
      "tr",
      "es</w>"
    ],
    [
      "s",
      "eu"
    ],
    [
      "oi",
      "re</w>"
    ],
    [
      "c",
      "a"
    ],
    [
      "d",
      "em"
    ],
    [
      "b",
      "r"
    ],
    [
      "quel",
      "que</w>"
    ],
    [
      "r",
      "en"
    ],
    [
      "au",
      "r"
    ],
    [
      "fi",
      "n</w>"
    ],
    [
      "tro",
      "p</w>"
    ],
    [
      "m",
      "ar"
    ],
    [
      "j'",
      "ai</w>"
    ],
    [
      "p",
      "en"
    ],
    [
      "l",
      "er</w>"
    ],
    [
      "t",
      "on</w>"
    ],
    [
      "h",
      "</w>"
    ],
    [
      "î",
      "tre</w>"
    ],
    [
      "vo",
      "y"
    ],
    [
      "ez",
      "-"
    ],
    [
      "é",
      "li"
    ],
    [
      "r",
      "o"
    ],
    [
      "c",
      "ri"
    ],
    [
      "amou",
      "r</w>"
    ],
    [
      "e",
      "ille</w>"
    ],
    [
      "f",
      "l"
    ],
    [
      "si",
      "eur</w>"
    ],
    [
      "t",
      "emp"
    ],
    [
      "em",
      "i"
    ],
    [
      "di",
      "re</w>"
    ],
    [
      "m",
      "en"
    ],
    [
      "hom",
      "me</w>"
    ],
    [
      "vo",
      "s</w>"
    ],
    [
      "d'",
      "une</w>"
    ],
    [
      "ti",
      "ons</w>"
    ],
    [
      "s",
      "-"
    ],
    [
      "l",
      "e"
    ],
    [
      "c",
      "el"
    ],
    [
      "m",
      "an"
    ],
    [
      "ver",
      "s</w>"
    ],
    [
      "d",
      "on</w>"
    ],
    [
      "t",
      "h"
    ],
    [
      "peu",
      "t</w>"
    ],
    [
      "n",
      "i</w>"
    ],
    [
      "g",
      "ar"
    ],
    [
      "qu",
      "es</w>"
    ],
    [
      "m",
      "oins</w>"
    ],
    [
      "mon",
      "sieur</w>"
    ],
    [
      "t",
      "a"
    ],
    [
      "es",
      "pri"
    ],
    [
      "n",
      "on</w>"
    ],
    [
      "ai",
      "ss"
    ],
    [
      "jou",
      "rs</w>"
    ],
    [
      "qu",
      "oi</w>"
    ],
    [
      "t",
      "er"
    ],
    [
      "gr",
      "an"
    ],
    [
      "es",
      "s"
    ],
    [
      "s",
      "se</w>"
    ],
    [
      "l'",
      "on</w>"
    ],
    [
      "u",
      "e</w>"
    ],
    [
      "qu",
      "</w>"
    ],
    [
      "eu",
      "r"
    ],
    [
      "d",
      "a"
    ],
    [
      "pr",
      "emi"
    ],
    [
      "temp",
      "s</w>"
    ],
    [
      "a",
      "près</w>"
    ],
    [
      "au",
      "s"
    ],
    [
      "a",
      "t</w>"
    ],
    [
      "cou",
      "r"
    ],
    [
      "u",
      "i</w>"
    ],
    [
      "n",
      "om"
    ],
    [
      "di",
      "eu</w>"
    ],
    [
      "i",
      "ne</w>"
    ],
    [
      "g",
      "an"
    ],
    [
      "vi",
      "e</w>"
    ],
    [
      "d",
      "s</w>"
    ],
    [
      "pri",
      "n"
    ],
    [
      "su",
      "is</w>"
    ],
    [
      "v",
      "al"
    ],
    [
      "qu",
      "and</w>"
    ],
    [
      "t-",
      "il</w>"
    ],
    [
      "v",
      "eu"
    ],
    [
      "f",
      "ois</w>"
    ],
    [
      "v",
      "e</w>"
    ],
    [
      "cor",
      "n"
    ],
    [
      "s",
      "or"
    ],
    [
      "ui",
      "t</w>"
    ],
    [
      "v",
      "r"
    ],
    [
      "ô",
      "t</w>"
    ],
    [
      "a",
      "ce</w>"
    ],
    [
      "e",
      "ff"
    ],
    [
      "â",
      "me</w>"
    ],
    [
      "i",
      "i</w>"
    ],
    [
      "on",
      "ne</w>"
    ],
    [
      "qu",
      "i"
    ],
    [
      "é",
      "g"
    ],
    [
      "ch",
      "er</w>"
    ],
    [
      "j",
      "am"
    ],
    [
      "no",
      "tre</w>"
    ],
    [
      "ai",
      "son</w>"
    ],
    [
      "si",
      "on</w>"
    ],
    [
      "l",
      "y"
    ],
    [
      "an",
      "t"
    ],
    [
      "u",
      "r</w>"
    ],
    [
      "enco",
      "re</w>"
    ],
    [
      "ou",
      "r"
    ],
    [
      "al",
      "l"
    ],
    [
      "s",
      "em"
    ],
    [
      "qu'",
      "à</w>"
    ],
    [
      "s",
      "oit</w>"
    ],
    [
      "s",
      "é"
    ],
    [
      "û",
      "t</w>"
    ],
    [
      "s",
      "er</w>"
    ],
    [
      "om",
      "p"
    ],
    [
      "il",
      "l"
    ],
    [
      "espri",
      "t</w>"
    ],
    [
      "d",
      "u"
    ],
    [
      "jam",
      "ais</w>"
    ],
    [
      "corn",
      "eille</w>"
    ],
    [
      "gr",
      "and</w>"
    ],
    [
      "qu'",
      "elle</w>"
    ],
    [
      "p",
      "ère</w>"
    ],
    [
      "ez-",
      "vous</w>"
    ],
    [
      "ain",
      "si</w>"
    ],
    [
      "m",
      "</w>"
    ],
    [
      "o",
      "ri"
    ],
    [
      "r",
      "es"
    ],
    [
      "c",
      "et</w>"
    ],
    [
      "er",
      "s</w>"
    ],
    [
      "don",
      "c</w>"
    ],
    [
      "s",
      "gan"
    ],
    [
      "sgan",
      "ar"
    ],
    [
      "sganar",
      "elle</w>"
    ],
    [
      "for",
      "t</w>"
    ],
    [
      "t",
      "eur</w>"
    ],
    [
      "tou",
      "te</w>"
    ],
    [
      "l'",
      "h"
    ],
    [
      "qu'",
      "un</w>"
    ],
    [
      "el",
      "les</w>"
    ],
    [
      "con",
      "n"
    ],
    [
      "no",
      "s</w>"
    ],
    [
      "pui",
      "s</w>"
    ],
    [
      "ce",
      "la</w>"
    ],
    [
      "c",
      "li"
    ],
    [
      "v",
      "eux</w>"
    ],
    [
      "ai",
      "l"
    ],
    [
      "ri",
      "r</w>"
    ],
    [
      "en",
      "ts</w>"
    ],
    [
      "il",
      "i"
    ],
    [
      "con",
      "tre</w>"
    ],
    [
      "t",
      "a</w>"
    ],
    [
      "a",
      "ri"
    ],
    [
      "g",
      "ne</w>"
    ],
    [
      "y",
      "eux</w>"
    ],
    [
      "au",
      "tres</w>"
    ],
    [
      "pr",
      "en"
    ],
    [
      "per",
      "s"
    ],
    [
      "oi",
      "n</w>"
    ],
    [
      "t",
      "és</w>"
    ],
    [
      "s'",
      "il</w>"
    ],
    [
      "i",
      "ci</w>"
    ],
    [
      "s",
      "te</w>"
    ],
    [
      "aus",
      "si</w>"
    ],
    [
      "se",
      "i"
    ],
    [
      "s",
      "a"
    ],
    [
      "f",
      "er"
    ],
    [
      "é",
      "l"
    ],
    [
      "cou",
      "rs</w>"
    ],
    [
      "ê",
      "te</w>"
    ],
    [
      "ass",
      "ez</w>"
    ],
    [
      "m",
      "er</w>"
    ],
    [
      "an",
      "dre</w>"
    ],
    [
      "ain",
      "s</w>"
    ],
    [
      "t",
      "ri"
    ],
    [
      "tr",
      "a"
    ],
    [
      "cou",
      "p</w>"
    ],
    [
      "oi",
      "ent</w>"
    ],
    [
      "su",
      "r"
    ],
    [
      "l",
      "ement</w>"
    ],
    [
      "tou",
      "jours</w>"
    ],
    [
      "mon",
      "de</w>"
    ],
    [
      "a",
      "h</w>"
    ],
    [
      "ap",
      "p"
    ],
    [
      "pr",
      "endre</w>"
    ],
    [
      "pa",
      "ss"
    ],
    [
      "v",
      "re</w>"
    ],
    [
      "as",
      "te</w>"
    ],
    [
      "tou",
      "tes</w>"
    ],
    [
      "b",
      "li"
    ],
    [
      "en",
      "tr"
    ],
    [
      "voy",
      "ez</w>"
    ],
    [
      "al",
      "</w>"
    ],
    [
      "u",
      "s</w>"
    ],
    [
      "cho",
      "se</w>"
    ],
    [
      "vi",
      "ent</w>"
    ],
    [
      "m",
      "et"
    ],
    [
      "m",
      "ort</w>"
    ],
    [
      "é",
      "té</w>"
    ],
    [
      "c",
      "er"
    ],
    [
      "t",
      "ôt</w>"
    ],
    [
      "-",
      "-"
    ],
    [
      "-",
      "même</w>"
    ],
    [
      "be",
      "au"
    ],
    [
      "r",
      "oi</w>"
    ],
    [
      "d",
      "or"
    ],
    [
      "de",
      "v"
    ],
    [
      "su",
      "iv"
    ],
    [
      "f",
      "em"
    ],
    [
      "en",
      "fin</w>"
    ],
    [
      "don",
      "ne</w>"
    ],
    [
      "pré",
      "sen"
    ],
    [
      "en",
      "n"
    ],
    [
      "vou",
      "l"
    ],
    [
      "o",
      "</w>"
    ],
    [
      "tr",
      "ai"
    ],
    [
      "jou",
      "r</w>"
    ],
    [
      "ch",
      "ar"
    ],
    [
      "av",
      "ez</w>"
    ],
    [
      "an",
      "ts</w>"
    ],
    [
      "l'",
      "autre</w>"
    ],
    [
      "cl",
      "é"
    ],
    [
      "l",
      "on"
    ],
    [
      "pl",
      "ai"
    ],
    [
      "mi",
      "eux</w>"
    ],
    [
      "d",
      "er</w>"
    ],
    [
      "è",
      "res</w>"
    ],
    [
      "f",
      "on"
    ],
    [
      "th",
      "é"
    ],
    [
      "qu'",
      "ils</w>"
    ],
    [
      "r",
      "em"
    ],
    [
      "l",
      "aiss"
    ],
    [
      "par",
      "t</w>"
    ],
    [
      "quel",
      "</w>"
    ],
    [
      "a",
      "tion</w>"
    ],
    [
      "end",
      "r"
    ],
    [
      "da",
      "me</w>"
    ],
    [
      "por",
      "te</w>"
    ],
    [
      "n'",
      "en</w>"
    ],
    [
      "g",
      "l"
    ],
    [
      "c",
      "eux</w>"
    ],
    [
      "ti",
      "r</w>"
    ],
    [
      "n",
      "ouv"
    ],
    [
      "s",
      "ous</w>"
    ],
    [
      "é",
      "n"
    ],
    [
      "j",
      "et</w>"
    ],
    [
      "b",
      "re</w>"
    ],
    [
      "su",
      "i"
    ],
    [
      "a",
      "n</w>"
    ],
    [
      "î",
      "t</w>"
    ],
    [
      "h",
      "or"
    ],
    [
      "v",
      "u</w>"
    ],
    [
      "ou",
      "i</w>"
    ],
    [
      "donn",
      "er</w>"
    ],
    [
      "m",
      "u"
    ],
    [
      "ti",
      "n"
    ],
    [
      "pri",
      "s</w>"
    ],
    [
      "b",
      "ou"
    ],
    [
      "veu",
      "t</w>"
    ],
    [
      "n'",
      "a</w>"
    ],
    [
      "g",
      "e"
    ],
    [
      "o",
      "y"
    ],
    [
      "mal",
      "</w>"
    ],
    [
      "cel",
      "ui</w>"
    ],
    [
      "ma",
      "ri"
    ],
    [
      "t",
      "e"
    ],
    [
      "ai",
      "ne</w>"
    ],
    [
      "v",
      "</w>"
    ],
    [
      "eu",
      "se</w>"
    ],
    [
      "m",
      "ain</w>"
    ],
    [
      "g",
      "ens</w>"
    ],
    [
      "ag",
      "es</w>"
    ],
    [
      "ti",
      "r"
    ],
    [
      "m",
      "or"
    ],
    [
      "ch",
      "ez</w>"
    ],
    [
      "t",
      "'"
    ],
    [
      "es",
      "p"
    ],
    [
      "h",
      "i"
    ],
    [
      "ai",
      "ent</w>"
    ],
    [
      "d",
      "oit</w>"
    ],
    [
      "p",
      "li"
    ],
    [
      "ma",
      "dame</w>"
    ],
    [
      "seu",
      "l</w>"
    ],
    [
      "h",
      "eur"
    ],
    [
      "c",
      "ar"
    ],
    [
      "b",
      "on</w>"
    ],
    [
      "s",
      "que</w>"
    ],
    [
      "et",
      "s</w>"
    ],
    [
      "d",
      "er"
    ],
    [
      "i",
      "e</w>"
    ],
    [
      "s",
      "ouv"
    ],
    [
      "gr",
      "â"
    ],
    [
      "si",
      "r</w>"
    ],
    [
      "iv",
      "</w>"
    ],
    [
      "ar",
      "r"
    ],
    [
      "end",
      "ant</w>"
    ],
    [
      "con",
      "tr"
    ],
    [
      "a",
      "y"
    ],
    [
      "sou",
      "ff"
    ],
    [
      "es",
      "t-"
    ],
    [
      "sem",
      "ble</w>"
    ],
    [
      "par",
      "o"
    ],
    [
      "ser",
      "vi"
    ],
    [
      "g",
      "er</w>"
    ],
    [
      "v",
      "a</w>"
    ],
    [
      "l'",
      "in"
    ],
    [
      "on",
      "te</w>"
    ],
    [
      "en",
      "tre</w>"
    ],
    [
      "h",
      "u"
    ],
    [
      "pour",
      "r"
    ],
    [
      "voi",
      "là</w>"
    ],
    [
      "au",
      "v"
    ],
    [
      "ét",
      "oit</w>"
    ],
    [
      "eu",
      "re</w>"
    ],
    [
      "ch",
      "er"
    ],
    [
      "p",
      "e</w>"
    ],
    [
      "av",
      "ait</w>"
    ],
    [
      "c",
      "in"
    ],
    [
      "t",
      "ent</w>"
    ],
    [
      "li",
      "eu</w>"
    ],
    [
      "pe",
      "ti"
    ],
    [
      "j'",
      "en</w>"
    ],
    [
      "gu",
      "e</w>"
    ],
    [
      "ci",
      "el</w>"
    ],
    [
      "mé",
      "ri"
    ],
    [
      "fu",
      "t</w>"
    ],
    [
      "s",
      "si"
    ],
    [
      "s",
      "ais</w>"
    ],
    [
      "n",
      "é"
    ],
    [
      "s",
      "age</w>"
    ],
    [
      "è",
      "ce</w>"
    ],
    [
      "hom",
      "mes</w>"
    ],
    [
      "l'",
      "é"
    ],
    [
      "v",
      "oit</w>"
    ],
    [
      "ét",
      "ait</w>"
    ],
    [
      "h",
      "eur</w>"
    ],
    [
      "h",
      "au"
    ],
    [
      "t",
      "ement</w>"
    ],
    [
      "pa",
      "g"
    ],
    [
      "h",
      "onn"
    ],
    [
      "o",
      "l"
    ],
    [
      "pr",
      "es"
    ],
    [
      "dem",
      "an"
    ],
    [
      "par",
      "ti"
    ],
    [
      "p",
      "s</w>"
    ],
    [
      "par",
      "ler</w>"
    ],
    [
      "t",
      "el</w>"
    ],
    [
      "t",
      "oi</w>"
    ],
    [
      "qu",
      "elle</w>"
    ],
    [
      "pe",
      "ine</w>"
    ],
    [
      "m'",
      "en</w>"
    ],
    [
      "cho",
      "ses</w>"
    ],
    [
      "nom",
      "</w>"
    ],
    [
      "r",
      "aison</w>"
    ],
    [
      "at",
      "u"
    ],
    [
      "ac",
      "te</w>"
    ],
    [
      "n'",
      "y</w>"
    ],
    [
      "en",
      "t"
    ],
    [
      "fem",
      "me</w>"
    ],
    [
      "li",
      "ère</w>"
    ],
    [
      "end",
      "s</w>"
    ],
    [
      "a",
      "li"
    ],
    [
      "ê",
      "tes</w>"
    ],
    [
      "b",
      "on"
    ],
    [
      "a",
      "d"
    ],
    [
      "ri",
      "e</w>"
    ],
    [
      "ce",
      "p"
    ],
    [
      "ai",
      "me</w>"
    ],
    [
      "ch",
      "e"
    ],
    [
      "ré",
      "p"
    ],
    [
      "v",
      "ois</w>"
    ],
    [
      "trouv",
      "e</w>"
    ],
    [
      "ang",
      "</w>"
    ],
    [
      "r",
      "ou"
    ],
    [
      "dis",
      "cours</w>"
    ],
    [
      "m",
      "oi"
    ],
    [
      "ser",
      "v"
    ],
    [
      "com",
      "édi"
    ],
    [
      "thé",
      "â"
    ],
    [
      "a",
      "ff"
    ],
    [
      "be",
      "au</w>"
    ],
    [
      "a",
      "ti"
    ],
    [
      "l",
      "or"
    ],
    [
      "enco",
      "r</w>"
    ],
    [
      "o",
      "ff"
    ],
    [
      "b",
      "er"
    ],
    [
      "au",
      "c"
    ],
    [
      "co",
      "eur</w>"
    ],
    [
      "i",
      "s"
    ],
    [
      "l",
      "ou"
    ],
    [
      "dor",
      "ante</w>"
    ],
    [
      "m",
      "er"
    ],
    [
      "d",
      "ui"
    ],
    [
      "pui",
      "ss"
    ],
    [
      "h",
      "ar"
    ],
    [
      "grâ",
      "ce</w>"
    ],
    [
      "s",
      "ent</w>"
    ],
    [
      "e",
      "au</w>"
    ],
    [
      "premi",
      "er</w>"
    ],
    [
      "f",
      "fi"
    ],
    [
      "c",
      "t"
    ],
    [
      "è",
      "me</w>"
    ],
    [
      "sei",
      "gn"
    ],
    [
      "d",
      "eur</w>"
    ],
    [
      "par",
      "l"
    ],
    [
      "f",
      "oi</w>"
    ],
    [
      "qu'",
      "en</w>"
    ],
    [
      "ang",
      "e</w>"
    ],
    [
      "b",
      "elle</w>"
    ],
    [
      "s'",
      "en</w>"
    ],
    [
      "pu",
      "bli"
    ],
    [
      "at",
      "t"
    ],
    [
      "ch",
      "oi"
    ],
    [
      "ti",
      "é</w>"
    ],
    [
      "tou",
      "r"
    ],
    [
      "av",
      "ant</w>"
    ],
    [
      "c",
      "é"
    ],
    [
      "s",
      "é</w>"
    ],
    [
      "a",
      "f"
    ],
    [
      "s",
      "ens</w>"
    ],
    [
      "en",
      "ne</w>"
    ],
    [
      "théâ",
      "tre</w>"
    ],
    [
      "f",
      "</w>"
    ],
    [
      "mo",
      "t</w>"
    ],
    [
      "édi",
      "tion</w>"
    ],
    [
      "ri",
      "s</w>"
    ],
    [
      "v",
      "in"
    ],
    [
      "sen",
      "ti"
    ],
    [
      "a",
      "le</w>"
    ],
    [
      "der",
      "ni"
    ],
    [
      "t",
      "ér"
    ],
    [
      "f",
      "av"
    ],
    [
      "dé",
      "e</w>"
    ],
    [
      "c",
      "elle</w>"
    ],
    [
      "ma",
      "sc"
    ],
    [
      "ar",
      "d</w>"
    ],
    [
      "é",
      "cri"
    ],
    [
      "j",
      "eu"
    ],
    [
      "av",
      "oit</w>"
    ],
    [
      "l'",
      "amour</w>"
    ],
    [
      "dé",
      "f"
    ],
    [
      "f",
      "ille</w>"
    ],
    [
      "v",
      "éri"
    ],
    [
      "r",
      "eur</w>"
    ],
    [
      "e",
      "il</w>"
    ],
    [
      "s",
      "ait</w>"
    ],
    [
      "pers",
      "onne</w>"
    ],
    [
      "val",
      "ère</w>"
    ],
    [
      "masc",
      "ar"
    ],
    [
      "es",
      "-"
    ],
    [
      "tr",
      "ois</w>"
    ],
    [
      "ér",
      "aste</w>"
    ],
    [
      "si",
      "e</w>"
    ],
    [
      "u",
      "ni"
    ],
    [
      "tu",
      "re</w>"
    ],
    [
      "vr",
      "ai</w>"
    ],
    [
      "t",
      "able</w>"
    ],
    [
      "mo",
      "lière</w>"
    ],
    [
      "mi",
      "s</w>"
    ],
    [
      "r",
      "endre</w>"
    ],
    [
      "di",
      "s</w>"
    ],
    [
      "d'",
      "être</w>"
    ],
    [
      "m",
      "in"
    ],
    [
      "beau",
      "coup</w>"
    ],
    [
      "gl",
      "oire</w>"
    ],
    [
      "éli",
      "e</w>"
    ],
    [
      "heur",
      "eux</w>"
    ],
    [
      "p",
      "au"
    ],
    [
      "se",
      "cr"
    ],
    [
      "mascar",
      "ille</w>"
    ],
    [
      "l",
      "o"
    ],
    [
      "e",
      "ût</w>"
    ],
    [
      "es",
      "te</w>"
    ],
    [
      "en",
      "f"
    ],
    [
      "hu",
      "m"
    ],
    [
      "su",
      "p"
    ],
    [
      "n",
      "atu"
    ],
    [
      "v",
      "ent</w>"
    ],
    [
      "s",
      "ain"
    ],
    [
      "su",
      "s</w>"
    ],
    [
      "gran",
      "ds</w>"
    ],
    [
      "t",
      "é"
    ],
    [
      "cer",
      "t"
    ],
    [
      "j",
      "à</w>"
    ],
    [
      "c",
      "esse</w>"
    ],
    [
      "c",
      "ar</w>"
    ],
    [
      "c",
      "ès</w>"
    ],
    [
      "o",
      "c"
    ],
    [
      "dé",
      "jà</w>"
    ],
    [
      "qui",
      "t"
    ],
    [
      "ven",
      "ir</w>"
    ],
    [
      "prin",
      "ce</w>"
    ],
    [
      "a",
      "ît</w>"
    ],
    [
      "f",
      "ils</w>"
    ],
    [
      "ma",
      "ître</w>"
    ],
    [
      "est-",
      "ce</w>"
    ],
    [
      "s",
      "om"
    ],
    [
      "tou",
      "r</w>"
    ],
    [
      "seu",
      "lement</w>"
    ],
    [
      "ob",
      "li"
    ],
    [
      "f",
      "ont</w>"
    ],
    [
      "pers",
      "onn"
    ],
    [
      "re",
      "gar"
    ],
    [
      "peu",
      "t-"
    ],
    [
      "n",
      "es</w>"
    ],
    [
      "cr",
      "ain"
    ],
    [
      "l'",
      "un</w>"
    ],
    [
      "ai",
      "m"
    ],
    [
      "tr",
      "ou"
    ],
    [
      "t",
      "ez</w>"
    ],
    [
      "s",
      "on"
    ],
    [
      "c",
      "tion</w>"
    ],
    [
      "as",
      "se</w>"
    ],
    [
      "gran",
      "de</w>"
    ],
    [
      "pou",
      "voir</w>"
    ],
    [
      "m'",
      "a</w>"
    ],
    [
      "e",
      "il"
    ],
    [
      "fr",
      "an"
    ],
    [
      "r",
      "ent</w>"
    ],
    [
      "i",
      "ii</w>"
    ],
    [
      "met",
      "tre</w>"
    ],
    [
      "é",
      "cl"
    ],
    [
      "b",
      "e</w>"
    ],
    [
      "lu",
      "</w>"
    ],
    [
      "au",
      "tant</w>"
    ],
    [
      "ab",
      "les</w>"
    ],
    [
      "g",
      "i"
    ],
    [
      "em",
      "ents</w>"
    ],
    [
      "seign",
      "eur</w>"
    ],
    [
      "t",
      "o"
    ],
    [
      "pou",
      "v"
    ],
    [
      "so",
      "l"
    ],
    [
      "p",
      "u</w>"
    ],
    [
      "eff",
      "et</w>"
    ],
    [
      "ph",
      "il"
    ],
    [
      "t",
      "om"
    ],
    [
      "di",
      "eux</w>"
    ],
    [
      "e",
      "h</w>"
    ],
    [
      "pren",
      "d</w>"
    ],
    [
      "l",
      "et"
    ],
    [
      "dou",
      "te</w>"
    ],
    [
      "quel",
      "ques</w>"
    ],
    [
      "e",
      "ill"
    ],
    [
      "s",
      "ort</w>"
    ],
    [
      "fl",
      "am"
    ],
    [
      "qu",
      "er</w>"
    ],
    [
      "v",
      "ille</w>"
    ],
    [
      "ouv",
      "r"
    ],
    [
      "oi",
      "e</w>"
    ],
    [
      "a",
      "dr"
    ],
    [
      "premi",
      "ère</w>"
    ],
    [
      "-",
      "je</w>"
    ],
    [
      "pr",
      "om"
    ],
    [
      "jou",
      "r"
    ],
    [
      "ch",
      "a"
    ],
    [
      "ti",
      "n</w>"
    ],
    [
      "p",
      "le</w>"
    ],
    [
      "ch",
      "é</w>"
    ],
    [
      "er",
      "re</w>"
    ],
    [
      "é",
      "es</w>"
    ],
    [
      "ti",
      "ce</w>"
    ],
    [
      "rép",
      "on"
    ],
    [
      "n",
      "er</w>"
    ],
    [
      "d'",
      "h"
    ],
    [
      "t",
      "ête</w>"
    ],
    [
      "su",
      "jet</w>"
    ],
    [
      "m",
      "auv"
    ],
    [
      "t",
      "une</w>"
    ],
    [
      "r",
      "u"
    ],
    [
      "tr",
      "an"
    ],
    [
      "par",
      "le</w>"
    ],
    [
      "d",
      "am"
    ],
    [
      "ét",
      "at</w>"
    ],
    [
      "g",
      "ag"
    ],
    [
      "c",
      "au"
    ],
    [
      "ph",
      "i"
    ],
    [
      "l'",
      "ar"
    ],
    [
      "r",
      "a"
    ],
    [
      "cr",
      "oy"
    ],
    [
      "co",
      "l"
    ],
    [
      "lon",
      "g"
    ],
    [
      "des",
      "sus</w>"
    ],
    [
      "men",
      "ts</w>"
    ],
    [
      "pl",
      "ace</w>"
    ],
    [
      "ti",
      "que</w>"
    ],
    [
      "su",
      "c"
    ],
    [
      "re",
      "ç"
    ],
    [
      "f",
      "am"
    ],
    [
      "s",
      "aur"
    ],
    [
      "e",
      "in"
    ],
    [
      "in",
      "di"
    ],
    [
      "po",
      "ë"
    ],
    [
      "et",
      "é</w>"
    ],
    [
      "po",
      "ly"
    ],
    [
      "s",
      "ang</w>"
    ],
    [
      "r",
      "er</w>"
    ],
    [
      "entr",
      "e"
    ],
    [
      "g",
      "o"
    ],
    [
      "g",
      "én"
    ],
    [
      "l'",
      "édition</w>"
    ],
    [
      "res",
      "te</w>"
    ],
    [
      "r",
      "el"
    ],
    [
      "peut-",
      "être</w>"
    ],
    [
      "t",
      "el"
    ],
    [
      "c",
      "ré"
    ],
    [
      "com",
      "b"
    ],
    [
      "trouv",
      "er</w>"
    ],
    [
      "souv",
      "ent</w>"
    ],
    [
      "av",
      "ons</w>"
    ],
    [
      "ten",
      "ir</w>"
    ],
    [
      "m",
      "om"
    ],
    [
      "do",
      "ri"
    ],
    [
      "gr",
      "é</w>"
    ],
    [
      "re",
      "présen"
    ],
    [
      "b",
      "u"
    ],
    [
      "cou",
      "r</w>"
    ],
    [
      "n",
      "ée</w>"
    ],
    [
      "ar",
      "ri"
    ],
    [
      "em",
      "bl"
    ],
    [
      "ph",
      "e</w>"
    ],
    [
      "d",
      "an"
    ],
    [
      "lu",
      "i"
    ],
    [
      "jus",
      "te</w>"
    ],
    [
      "h",
      "a"
    ],
    [
      "at",
      "ta"
    ],
    [
      "ti",
      "ens</w>"
    ],
    [
      "pui",
      "sque</w>"
    ],
    [
      "v",
      "er</w>"
    ],
    [
      "cr",
      "u"
    ],
    [
      "pi",
      "èce</w>"
    ],
    [
      "to",
      "me</w>"
    ],
    [
      "bi",
      "en"
    ],
    [
      "ta",
      "tion</w>"
    ],
    [
      "fai",
      "s</w>"
    ],
    [
      "mé",
      "li"
    ],
    [
      "o",
      "r</w>"
    ],
    [
      "ch",
      "ac"
    ],
    [
      "de",
      "puis</w>"
    ],
    [
      "tr",
      "av"
    ],
    [
      "v",
      "ain"
    ],
    [
      "ti",
      "ent</w>"
    ],
    [
      "for",
      "ce</w>"
    ],
    [
      "ê",
      "t</w>"
    ],
    [
      "en",
      "te</w>"
    ],
    [
      "si",
      "eurs</w>"
    ],
    [
      "av",
      "ant"
    ],
    [
      "pen",
      "se</w>"
    ],
    [
      "m",
      "ains</w>"
    ],
    [
      "lui",
      "-même</w>"
    ],
    [
      "al",
      "c"
    ],
    [
      "ais",
      "se</w>"
    ],
    [
      "m",
      "ou"
    ],
    [
      "pa",
      "y"
    ],
    [
      "qu'",
      "une</w>"
    ],
    [
      "man",
      "i"
    ],
    [
      "f",
      "a"
    ],
    [
      "n",
      "é</w>"
    ],
    [
      "b",
      "onne</w>"
    ],
    [
      "fr",
      "ère</w>"
    ],
    [
      "gén",
      "ér"
    ],
    [
      "pr",
      "ét"
    ],
    [
      "honn",
      "eur</w>"
    ],
    [
      "c",
      "ent</w>"
    ],
    [
      "ch",
      "ang"
    ],
    [
      "comédi",
      "e</w>"
    ],
    [
      "con",
      "ten"
    ],
    [
      "ver",
      "tu</w>"
    ],
    [
      "l",
      "ang"
    ],
    [
      "hau",
      "t</w>"
    ],
    [
      "u",
      "n"
    ],
    [
      "ai",
      "r</w>"
    ],
    [
      "t",
      "aire</w>"
    ],
    [
      "b",
      "les</w>"
    ],
    [
      "am",
      "ant</w>"
    ],
    [
      "m",
      "ille</w>"
    ],
    [
      "o",
      "p"
    ],
    [
      "ai",
      "se</w>"
    ],
    [
      "do",
      "r</w>"
    ],
    [
      "ter",
      "re</w>"
    ],
    [
      "sei",
      "n</w>"
    ],
    [
      "g",
      "é</w>"
    ],
    [
      "méri",
      "te</w>"
    ],
    [
      "prin",
      "cesse</w>"
    ],
    [
      "é",
      "cou"
    ],
    [
      "dé",
      "s"
    ],
    [
      "m",
      "aison</w>"
    ],
    [
      "plai",
      "sir</w>"
    ],
    [
      "vi",
      "ens</w>"
    ],
    [
      "é",
      "tr"
    ],
    [
      "ff",
      "ér"
    ],
    [
      "dé",
      "li"
    ],
    [
      "è",
      "le</w>"
    ],
    [
      "c",
      "ess"
    ],
    [
      "s",
      "ée</w>"
    ],
    [
      "en",
      "ti"
    ],
    [
      "mon",
      "tr"
    ],
    [
      "î",
      "tr"
    ],
    [
      "in",
      "s"
    ],
    [
      "sui",
      "te</w>"
    ],
    [
      "d",
      "ent</w>"
    ],
    [
      "al",
      "ou"
    ],
    [
      "è",
      "de</w>"
    ],
    [
      "v",
      "res</w>"
    ],
    [
      "vou",
      "dr"
    ],
    [
      "si",
      "n"
    ],
    [
      "a",
      "ître</w>"
    ],
    [
      "a",
      "-"
    ],
    [
      "or",
      "s</w>"
    ],
    [
      "m",
      "ène</w>"
    ],
    [
      "har",
      "pag"
    ],
    [
      "harpag",
      "on</w>"
    ],
    [
      "se",
      "con"
    ],
    [
      "pi",
      "re</w>"
    ],
    [
      "di",
      "n"
    ],
    [
      "in",
      "tér"
    ],
    [
      "am",
      "i</w>"
    ],
    [
      "fi",
      "t</w>"
    ],
    [
      "mê",
      "mes</w>"
    ],
    [
      "al",
      "ors</w>"
    ],
    [
      "i",
      "r"
    ],
    [
      "m",
      "é</w>"
    ],
    [
      "por",
      "ter</w>"
    ],
    [
      "o",
      "s</w>"
    ],
    [
      "f",
      "in"
    ],
    [
      "di",
      "n</w>"
    ],
    [
      "cep",
      "endant</w>"
    ],
    [
      "chac",
      "un</w>"
    ],
    [
      "-",
      "tu</w>"
    ],
    [
      "ac",
      "t"
    ],
    [
      "for",
      "tune</w>"
    ],
    [
      "ex",
      "emp"
    ],
    [
      "dé",
      "r"
    ],
    [
      "qu",
      "a"
    ],
    [
      "mo",
      "y"
    ],
    [
      "ad",
      "mi"
    ],
    [
      "dou",
      "x</w>"
    ],
    [
      "l",
      "oin</w>"
    ],
    [
      "r",
      "ap"
    ],
    [
      "m",
      "es"
    ],
    [
      "-",
      "a</w>"
    ],
    [
      "s'",
      "est</w>"
    ],
    [
      "é",
      "pou"
    ],
    [
      "fai",
      "tes</w>"
    ],
    [
      "i",
      "n</w>"
    ],
    [
      "d",
      "ri"
    ],
    [
      "com",
      "men"
    ],
    [
      "v",
      "i</w>"
    ],
    [
      "pro",
      "po"
    ],
    [
      "dev",
      "ant</w>"
    ],
    [
      "t",
      "ée</w>"
    ],
    [
      "l",
      "aisse</w>"
    ],
    [
      "j",
      "alou"
    ],
    [
      "cr",
      "oire</w>"
    ],
    [
      "v",
      "ue</w>"
    ],
    [
      "n'",
      "ai</w>"
    ],
    [
      "au",
      "jour"
    ],
    [
      "em",
      "pl"
    ],
    [
      "a",
      "c</w>"
    ],
    [
      "l'",
      "av"
    ],
    [
      "ser",
      "a</w>"
    ],
    [
      "sem",
      "bl"
    ],
    [
      "or",
      "d</w>"
    ],
    [
      "cli",
      "ton</w>"
    ],
    [
      "cr",
      "ois</w>"
    ],
    [
      "hor",
      "ace</w>"
    ],
    [
      "ac",
      "tion</w>"
    ],
    [
      "tr",
      "ag"
    ],
    [
      "r",
      "ais"
    ],
    [
      "c",
      "er</w>"
    ],
    [
      "t",
      "i</w>"
    ],
    [
      "at",
      "ten"
    ],
    [
      "com",
      "ment</w>"
    ],
    [
      "donn",
      "é</w>"
    ],
    [
      "r",
      "om"
    ],
    [
      "e",
      "-"
    ],
    [
      "r",
      "ement</w>"
    ],
    [
      "cl",
      "ari"
    ],
    [
      "ç",
      "on</w>"
    ],
    [
      "ch",
      "i"
    ],
    [
      "oi",
      "s"
    ],
    [
      "édi",
      "tions</w>"
    ],
    [
      "ex",
      "tr"
    ],
    [
      "ver",
      "r"
    ],
    [
      "ar",
      "mes</w>"
    ],
    [
      "b",
      "es"
    ],
    [
      "en",
      "semble</w>"
    ],
    [
      "c",
      "ô"
    ],
    [
      "mo",
      "ts</w>"
    ],
    [
      "mom",
      "ent</w>"
    ],
    [
      "c",
      "éli"
    ],
    [
      "in",
      "-</w>"
    ],
    [
      "qua",
      "tre</w>"
    ],
    [
      "d'h",
      "ui</w>"
    ],
    [
      "esp",
      "ér"
    ],
    [
      "p",
      "re</w>"
    ],
    [
      "l",
      "a"
    ],
    [
      "tr",
      "omp"
    ],
    [
      "é",
      "ni"
    ],
    [
      "aujour",
      "d'hui</w>"
    ],
    [
      "ob",
      "jet</w>"
    ],
    [
      "pui",
      "sse</w>"
    ],
    [
      "l'",
      "or"
    ],
    [
      "ap",
      "h"
    ],
    [
      "g",
      "ent</w>"
    ],
    [
      "pe",
      "c"
    ],
    [
      "es",
      "ti"
    ],
    [
      "pri",
      "se</w>"
    ],
    [
      "fai",
      "te</w>"
    ],
    [
      "con",
      "no"
    ],
    [
      "jus",
      "tice</w>"
    ],
    [
      "g",
      "al"
    ],
    [
      "m",
      "ain"
    ],
    [
      "flam",
      "me</w>"
    ],
    [
      "y",
      "m"
    ],
    [
      "s",
      "avoir</w>"
    ],
    [
      "sor",
      "te</w>"
    ],
    [
      "ch",
      "ap"
    ],
    [
      "m",
      "i</w>"
    ],
    [
      "li",
      "t</w>"
    ],
    [
      "com",
      "pa"
    ],
    [
      "-",
      "dessus</w>"
    ],
    [
      "dr",
      "oit</w>"
    ],
    [
      "n",
      "u"
    ],
    [
      "quel",
      "qu"
    ],
    [
      "v",
      "ais</w>"
    ],
    [
      "l'",
      "esprit</w>"
    ],
    [
      "auc",
      "un</w>"
    ],
    [
      "jeu",
      "ne</w>"
    ],
    [
      "trai",
      "ts</w>"
    ],
    [
      "ju",
      "g"
    ],
    [
      "d'",
      "autres</w>"
    ],
    [
      "seu",
      "le</w>"
    ],
    [
      "enn",
      "em"
    ],
    [
      "b",
      "as</w>"
    ],
    [
      "e",
      "fois</w>"
    ],
    [
      "voi",
      "ci</w>"
    ],
    [
      "s",
      "sion</w>"
    ],
    [
      "ju",
      "an</w>"
    ],
    [
      "ay",
      "ant</w>"
    ],
    [
      "l'",
      "au"
    ],
    [
      "d",
      "oi"
    ],
    [
      "fi",
      "d"
    ],
    [
      "d",
      "ès</w>"
    ],
    [
      "â",
      "ch"
    ],
    [
      "s-",
      "je</w>"
    ],
    [
      "deman",
      "de</w>"
    ],
    [
      "ci",
      "d</w>"
    ],
    [
      "ci",
      "le</w>"
    ],
    [
      "af",
      "faire</w>"
    ],
    [
      "d",
      "é</w>"
    ],
    [
      "en",
      "ir</w>"
    ],
    [
      "de",
      "voir</w>"
    ],
    [
      "av",
      "i"
    ],
    [
      "com",
      "m"
    ],
    [
      "des",
      "sein</w>"
    ],
    [
      "par",
      "ce</w>"
    ],
    [
      "t",
      "elle</w>"
    ],
    [
      "cour",
      "age</w>"
    ],
    [
      "avant",
      "age</w>"
    ],
    [
      "é",
      "ch"
    ],
    [
      "esp",
      "oir</w>"
    ],
    [
      "bon",
      "heur</w>"
    ],
    [
      "pa",
      "ris</w>"
    ],
    [
      "choi",
      "x</w>"
    ],
    [
      "d",
      "uit</w>"
    ],
    [
      "fav",
      "eur</w>"
    ],
    [
      "l'",
      "a</w>"
    ],
    [
      "g",
      "ér"
    ],
    [
      "m",
      "ili"
    ],
    [
      "ac",
      "cor"
    ],
    [
      "con",
      "se"
    ],
    [
      "cau",
      "se</w>"
    ],
    [
      "pro",
      "pre</w>"
    ],
    [
      "mé",
      "de"
    ],
    [
      "ser",
      "oit</w>"
    ],
    [
      "s",
      "el"
    ],
    [
      "li",
      "e</w>"
    ],
    [
      "pl",
      "ain"
    ],
    [
      "p",
      "eur</w>"
    ],
    [
      "fran",
      "ç"
    ],
    [
      "ouv",
      "er"
    ],
    [
      "s",
      "ac"
    ],
    [
      "ma",
      "îtr"
    ],
    [
      "al",
      "ler</w>"
    ],
    [
      "l",
      "élie</w>"
    ],
    [
      "mal",
      "heur</w>"
    ],
    [
      "ab",
      "ord</w>"
    ],
    [
      "r",
      "è"
    ],
    [
      "ch",
      "im"
    ],
    [
      "pré",
      "ci"
    ],
    [
      "fai",
      "s"
    ],
    [
      "cri",
      "me</w>"
    ],
    [
      "b",
      "ri"
    ],
    [
      "no",
      "l"
    ],
    [
      "j",
      "oie</w>"
    ],
    [
      "o",
      "se</w>"
    ],
    [
      "ph",
      "ili"
    ],
    [
      "secr",
      "et</w>"
    ],
    [
      "pa",
      "sse</w>"
    ],
    [
      "pl",
      "e"
    ],
    [
      "si",
      "rs</w>"
    ],
    [
      "sa",
      "ti"
    ],
    [
      "di",
      "ffér"
    ],
    [
      "an",
      "ti"
    ],
    [
      "com",
      "p"
    ],
    [
      "véri",
      "té</w>"
    ],
    [
      "im",
      "por"
    ],
    [
      "plu",
      "tôt</w>"
    ],
    [
      "v",
      "ain</w>"
    ],
    [
      "a",
      "dieu</w>"
    ],
    [
      "f",
      "eu</w>"
    ],
    [
      "ai",
      "mer</w>"
    ],
    [
      "all",
      "ons</w>"
    ],
    [
      "i",
      "gn"
    ],
    [
      "st",
      "oire</w>"
    ],
    [
      "di",
      "e</w>"
    ],
    [
      "e",
      "c"
    ],
    [
      "vi",
      "i</w>"
    ],
    [
      "mal",
      "gré</w>"
    ],
    [
      "bes",
      "oin</w>"
    ],
    [
      "oin",
      "dre</w>"
    ],
    [
      "s",
      "u</w>"
    ],
    [
      "an",
      "i"
    ],
    [
      "d'",
      "en</w>"
    ],
    [
      "ha",
      "bi"
    ],
    [
      "m",
      "ère</w>"
    ],
    [
      "con",
      "si"
    ],
    [
      "ro",
      "y"
    ],
    [
      "l'",
      "</w>"
    ],
    [
      "l'h",
      "onn"
    ],
    [
      "vi",
      "ol"
    ],
    [
      "ti",
      "en</w>"
    ],
    [
      "n'",
      "ont</w>"
    ],
    [
      "x",
      "i"
    ],
    [
      "dou",
      "c"
    ],
    [
      "n",
      "our"
    ],
    [
      "s",
      "oins</w>"
    ],
    [
      "d'",
      "avoir</w>"
    ],
    [
      "di",
      "r"
    ],
    [
      "an",
      "ces</w>"
    ],
    [
      "v",
      "é</w>"
    ],
    [
      "maîtr",
      "esse</w>"
    ],
    [
      "no",
      "te</w>"
    ],
    [
      "re",
      "ce"
    ],
    [
      "pl",
      "aît</w>"
    ],
    [
      "si",
      "tôt</w>"
    ],
    [
      "m",
      "et</w>"
    ],
    [
      "am",
      "i"
    ],
    [
      "y",
      "r"
    ],
    [
      "al",
      "ci"
    ],
    [
      "au",
      "tr"
    ],
    [
      "cou",
      "ps</w>"
    ],
    [
      "cu",
      "ri"
    ],
    [
      "b",
      "our"
    ],
    [
      "ro",
      "dri"
    ],
    [
      "a",
      "de</w>"
    ],
    [
      "servi",
      "r</w>"
    ],
    [
      "vi",
      "sage</w>"
    ],
    [
      "pe",
      "in"
    ],
    [
      "g",
      "en"
    ],
    [
      "l",
      "ég"
    ],
    [
      "h",
      "as"
    ],
    [
      "f",
      "our"
    ],
    [
      "as",
      "si"
    ],
    [
      "re",
      "fu"
    ],
    [
      "ch",
      "am"
    ],
    [
      "ail",
      "leurs</w>"
    ],
    [
      "m",
      "ée</w>"
    ],
    [
      "d",
      "ois</w>"
    ],
    [
      "p",
      "éri"
    ],
    [
      "ez-",
      "moi</w>"
    ],
    [
      "li",
      "ber"
    ],
    [
      "clari",
      "ce</w>"
    ],
    [
      "li",
      "eux</w>"
    ],
    [
      "ail",
      "le</w>"
    ],
    [
      "am",
      "is</w>"
    ],
    [
      "t",
      "ar"
    ],
    [
      "n",
      "uit</w>"
    ],
    [
      "cor",
      "ps</w>"
    ],
    [
      "m",
      "ag"
    ],
    [
      "ti",
      "fi"
    ],
    [
      "an",
      "tes</w>"
    ],
    [
      "ge",
      "or"
    ],
    [
      "é",
      "v"
    ],
    [
      "ai",
      "gn"
    ],
    [
      "s",
      "oin</w>"
    ],
    [
      "nouv",
      "elle</w>"
    ],
    [
      "peti",
      "t</w>"
    ],
    [
      "x",
      "x"
    ],
    [
      "a",
      "ch"
    ],
    [
      "app",
      "el"
    ],
    [
      "l'",
      "ex"
    ],
    [
      "oi",
      "ss"
    ],
    [
      "souff",
      "rir</w>"
    ],
    [
      "c",
      "le</w>"
    ],
    [
      "hor",
      "s</w>"
    ],
    [
      "ang",
      "éli"
    ],
    [
      "pa",
      "ble</w>"
    ],
    [
      "br",
      "as</w>"
    ],
    [
      "jus",
      "qu'à</w>"
    ],
    [
      "ti",
      "tu"
    ],
    [
      "voul",
      "oir</w>"
    ],
    [
      "enn",
      "ent</w>"
    ],
    [
      "angéli",
      "que</w>"
    ],
    [
      "c",
      "teur</w>"
    ],
    [
      "h",
      "on"
    ],
    [
      "suc",
      "cès</w>"
    ],
    [
      "l",
      "ent</w>"
    ],
    [
      "po",
      "se</w>"
    ],
    [
      "as",
      "sur"
    ],
    [
      "pui",
      "s"
    ],
    [
      "ten",
      "ant</w>"
    ],
    [
      "r",
      "omp"
    ],
    [
      "t",
      "ant"
    ],
    [
      "-",
      "-</w>"
    ],
    [
      "tr",
      "é"
    ],
    [
      "t",
      "es-"
    ],
    [
      "natu",
      "re</w>"
    ],
    [
      "chim",
      "ène</w>"
    ],
    [
      "c",
      "as</w>"
    ],
    [
      "mauv",
      "ais</w>"
    ],
    [
      "o",
      "si"
    ],
    [
      "derni",
      "er</w>"
    ],
    [
      "col",
      "ère</w>"
    ],
    [
      "pour",
      "quoi</w>"
    ],
    [
      "eu",
      "t</w>"
    ],
    [
      "t",
      "te</w>"
    ],
    [
      "è",
      "te</w>"
    ],
    [
      "r",
      "end"
    ],
    [
      "rodri",
      "gue</w>"
    ],
    [
      "phili",
      "ste</w>"
    ],
    [
      "ren",
      "d</w>"
    ],
    [
      "di",
      "gne</w>"
    ],
    [
      "ar",
      "nol"
    ],
    [
      "arnol",
      "phe</w>"
    ],
    [
      "mou",
      "rir</w>"
    ],
    [
      "pl",
      "aire</w>"
    ],
    [
      "n",
      "a</w>"
    ],
    [
      "gn",
      "ac</w>"
    ],
    [
      "c",
      "am"
    ],
    [
      "l'honn",
      "eur</w>"
    ],
    [
      "ouvr",
      "age</w>"
    ],
    [
      "auc",
      "une</w>"
    ],
    [
      "val",
      "</w>"
    ],
    [
      "f",
      "oi"
    ],
    [
      "cli",
      "t"
    ],
    [
      "clit",
      "andre</w>"
    ],
    [
      "ê",
      "me</w>"
    ],
    [
      "él",
      "as</w>"
    ],
    [
      "qu'",
      "au</w>"
    ],
    [
      "i",
      "t</w>"
    ],
    [
      "qu",
      "is</w>"
    ],
    [
      "po",
      "ss"
    ],
    [
      "f",
      "eux</w>"
    ],
    [
      "av",
      "er"
    ],
    [
      "pr",
      "ends</w>"
    ],
    [
      "tant",
      "ôt</w>"
    ],
    [
      "bl",
      "esse</w>"
    ],
    [
      "sou",
      "p"
    ],
    [
      "a",
      "fin</w>"
    ],
    [
      "pl",
      "ac"
    ],
    [
      "e",
      "aux</w>"
    ],
    [
      "l'",
      "im"
    ],
    [
      "gr",
      "o"
    ],
    [
      "oc",
      "ca"
    ],
    [
      "ven",
      "u</w>"
    ],
    [
      "clé",
      "ante</w>"
    ],
    [
      "si",
      "ons</w>"
    ],
    [
      "fon",
      "d</w>"
    ],
    [
      "sou",
      "h"
    ],
    [
      "as",
      "su"
    ],
    [
      "let",
      "tre</w>"
    ],
    [
      "h",
      "élas</w>"
    ],
    [
      "be",
      "aux</w>"
    ],
    [
      "suiv",
      "re</w>"
    ],
    [
      "pi",
      "e"
    ],
    [
      "fai",
      "ts</w>"
    ],
    [
      "peu",
      "ple</w>"
    ],
    [
      "per",
      "dre</w>"
    ],
    [
      "emp",
      "ê"
    ],
    [
      "c",
      "te</w>"
    ],
    [
      "pl",
      "ais"
    ],
    [
      "ré",
      "e</w>"
    ],
    [
      "g",
      "ui"
    ],
    [
      "au",
      "di"
    ],
    [
      "nouv",
      "eau</w>"
    ],
    [
      "er",
      "a</w>"
    ],
    [
      "ar",
      "que</w>"
    ],
    [
      "fem",
      "mes</w>"
    ],
    [
      "pr",
      "omp"
    ],
    [
      "contr",
      "aire</w>"
    ],
    [
      "ch",
      "es</w>"
    ],
    [
      "g",
      "le</w>"
    ],
    [
      "tr",
      "ait</w>"
    ],
    [
      "méli",
      "te</w>"
    ],
    [
      "ap",
      "par"
    ],
    [
      "moy",
      "en</w>"
    ],
    [
      "is",
      "ab"
    ],
    [
      "pa",
      "l"
    ],
    [
      "er",
      "reur</w>"
    ],
    [
      "re",
      "ine</w>"
    ],
    [
      "si",
      "è"
    ],
    [
      "mani",
      "ère</w>"
    ],
    [
      "es",
      "ses</w>"
    ],
    [
      "av",
      "ois</w>"
    ],
    [
      "vo",
      "l"
    ],
    [
      "-",
      "ci</w>"
    ],
    [
      "li",
      "vres</w>"
    ],
    [
      "ét",
      "ant</w>"
    ],
    [
      "pass",
      "er</w>"
    ],
    [
      "ar",
      "t</w>"
    ],
    [
      "ami",
      "tié</w>"
    ],
    [
      "h",
      "aine</w>"
    ],
    [
      "lor",
      "sque</w>"
    ],
    [
      "ég",
      "li"
    ],
    [
      "oi",
      "gn"
    ],
    [
      "ai",
      "-je</w>"
    ],
    [
      "con",
      "dui"
    ],
    [
      "mi",
      "s"
    ],
    [
      "eu",
      "ses</w>"
    ],
    [
      "isab",
      "elle</w>"
    ],
    [
      "espri",
      "ts</w>"
    ],
    [
      "il",
      "lu"
    ],
    [
      "paro",
      "le</w>"
    ],
    [
      "res",
      "pec"
    ],
    [
      "ét",
      "u"
    ],
    [
      "off",
      "en"
    ],
    [
      "vi",
      "vre</w>"
    ],
    [
      "vi",
      "v"
    ],
    [
      "ch",
      "an"
    ],
    [
      "ch",
      "ant</w>"
    ],
    [
      "mari",
      "age</w>"
    ],
    [
      "pour",
      "ce"
    ],
    [
      "tir",
      "er</w>"
    ],
    [
      "p",
      "endant</w>"
    ],
    [
      "né",
      "cess"
    ],
    [
      "bou",
      "che</w>"
    ],
    [
      "exemp",
      "le</w>"
    ],
    [
      "l",
      "é"
    ],
    [
      "p",
      "ée</w>"
    ],
    [
      "p",
      "omp"
    ],
    [
      "mar",
      "i</w>"
    ],
    [
      "méde",
      "ci"
    ],
    [
      "ly",
      "se</w>"
    ],
    [
      "s",
      "û"
    ],
    [
      "â",
      "che</w>"
    ],
    [
      "conno",
      "ître</w>"
    ],
    [
      "ô",
      "tre</w>"
    ],
    [
      "all",
      "ez</w>"
    ],
    [
      "es",
      "t-il</w>"
    ],
    [
      "st",
      "o"
    ],
    [
      "dé",
      "cou"
    ],
    [
      "r",
      "é</w>"
    ],
    [
      "cô",
      "té</w>"
    ],
    [
      "pource",
      "au"
    ],
    [
      "en",
      "vie</w>"
    ],
    [
      "ci",
      "s</w>"
    ],
    [
      "si",
      "m"
    ],
    [
      "souh",
      "ai"
    ],
    [
      "i",
      "mi"
    ],
    [
      "vi",
      "ii</w>"
    ],
    [
      "di",
      "t-il</w>"
    ],
    [
      "par",
      "mi</w>"
    ],
    [
      "ac",
      "le</w>"
    ],
    [
      "f",
      "ui"
    ],
    [
      "j",
      "et"
    ],
    [
      "au",
      "t"
    ],
    [
      "l",
      "le</w>"
    ],
    [
      "vou",
      "lu</w>"
    ],
    [
      "pourceau",
      "gnac</w>"
    ],
    [
      "enf",
      "ants</w>"
    ],
    [
      "m",
      "ouv"
    ],
    [
      "j'",
      "aur"
    ],
    [
      "pu",
      "ni"
    ],
    [
      "long",
      "temps</w>"
    ],
    [
      "ent",
      "endre</w>"
    ],
    [
      "qu",
      "er"
    ],
    [
      "re",
      "conn"
    ],
    [
      "bien",
      "tôt</w>"
    ],
    [
      "senti",
      "ments</w>"
    ],
    [
      "si",
      "ble</w>"
    ],
    [
      "gér",
      "onte</w>"
    ],
    [
      "tou",
      "te"
    ],
    [
      "è",
      "ve</w>"
    ],
    [
      "gar",
      "de</w>"
    ],
    [
      "av",
      "is</w>"
    ],
    [
      "parti",
      "e</w>"
    ],
    [
      "j'",
      "y</w>"
    ],
    [
      "li",
      "er</w>"
    ],
    [
      "sain",
      "t</w>"
    ],
    [
      "d",
      "el"
    ],
    [
      "j",
      "ets</w>"
    ],
    [
      "ex",
      "i"
    ],
    [
      "hi",
      "p"
    ],
    [
      "app",
      "elle</w>"
    ],
    [
      "sati",
      "s"
    ],
    [
      "beau",
      "té</w>"
    ],
    [
      "qu",
      "é</w>"
    ],
    [
      "trag",
      "édi"
    ],
    [
      "s'",
      "y</w>"
    ],
    [
      "tran",
      "s"
    ],
    [
      "u",
      "t</w>"
    ],
    [
      "aiss",
      "ance</w>"
    ],
    [
      "si",
      "x</w>"
    ],
    [
      "sor",
      "tir</w>"
    ],
    [
      "gu",
      "eur</w>"
    ],
    [
      "tom",
      "b"
    ],
    [
      "cher",
      "cher</w>"
    ],
    [
      "fl",
      "at"
    ],
    [
      "au",
      "gu"
    ],
    [
      "an",
      "ci"
    ],
    [
      "im",
      "pri"
    ],
    [
      "com",
      "man"
    ],
    [
      "toute",
      "fois</w>"
    ],
    [
      "ff",
      "e</w>"
    ],
    [
      "b",
      "ar"
    ],
    [
      "té",
      "moi"
    ],
    [
      "vi",
      "t</w>"
    ],
    [
      "voul",
      "ez</w>"
    ],
    [
      "poë",
      "te</w>"
    ],
    [
      "bou",
      "t</w>"
    ],
    [
      "br",
      "uit</w>"
    ],
    [
      "f",
      "asse</w>"
    ],
    [
      "cr",
      "oit</w>"
    ],
    [
      "r",
      "ois</w>"
    ],
    [
      "pres",
      "que</w>"
    ],
    [
      "aff",
      "r"
    ],
    [
      "è",
      "ces</w>"
    ],
    [
      "si",
      "gn"
    ],
    [
      "vo",
      "lon"
    ],
    [
      "an",
      "e</w>"
    ],
    [
      "ex",
      "pli"
    ],
    [
      "d'",
      "abord</w>"
    ],
    [
      "a",
      "jou"
    ],
    [
      "è",
      "s-"
    ],
    [
      "à",
      "-"
    ],
    [
      "d",
      "aph"
    ],
    [
      "man",
      "que</w>"
    ],
    [
      "af",
      "fai"
    ],
    [
      "po",
      "ssi"
    ],
    [
      "ap",
      "pro"
    ],
    [
      "c",
      "at"
    ],
    [
      "h",
      "onte</w>"
    ],
    [
      "ch",
      "ré"
    ],
    [
      "amou",
      "r"
    ],
    [
      "s",
      "pe"
    ],
    [
      "di",
      "ver"
    ],
    [
      "voi",
      "x</w>"
    ],
    [
      "por",
      "t</w>"
    ],
    [
      "nour",
      "ri"
    ],
    [
      "ri",
      "ez</w>"
    ],
    [
      "p",
      "ér"
    ],
    [
      "au",
      "près</w>"
    ],
    [
      "con",
      "serv"
    ],
    [
      "ag",
      "ré"
    ],
    [
      "ss",
      "ent</w>"
    ],
    [
      "l'",
      "em"
    ],
    [
      "tel",
      "s</w>"
    ],
    [
      "pré",
      "sent</w>"
    ],
    [
      "quelqu",
      "efois</w>"
    ],
    [
      "personn",
      "es</w>"
    ],
    [
      "dem",
      "eur"
    ],
    [
      "aur",
      "a</w>"
    ],
    [
      "ori",
      "s</w>"
    ],
    [
      "r",
      "ess"
    ],
    [
      "paro",
      "les</w>"
    ],
    [
      "arr",
      "ê"
    ],
    [
      "vi",
      "ct"
    ],
    [
      "m",
      "oindre</w>"
    ],
    [
      "a-",
      "t-il</w>"
    ],
    [
      "liber",
      "té</w>"
    ],
    [
      "con",
      "st"
    ],
    [
      "admi",
      "r"
    ],
    [
      "cé",
      "s"
    ],
    [
      "cin",
      "na</w>"
    ],
    [
      "a",
      "ts</w>"
    ],
    [
      "ci",
      "eux</w>"
    ],
    [
      "t'",
      "en</w>"
    ],
    [
      "s",
      "ci"
    ],
    [
      "su",
      "ffi"
    ],
    [
      "main",
      "tenant</w>"
    ],
    [
      "dan",
      "din</w>"
    ],
    [
      "fl",
      "or"
    ],
    [
      "propo",
      "s</w>"
    ],
    [
      "puiss",
      "ance</w>"
    ],
    [
      "tr",
      "ès-"
    ],
    [
      "pi",
      "èces</w>"
    ],
    [
      "ai",
      "res</w>"
    ],
    [
      "f",
      "ein"
    ],
    [
      "es",
      "pag"
    ],
    [
      "â",
      "ge</w>"
    ],
    [
      "é",
      "ment</w>"
    ],
    [
      "hum",
      "eur</w>"
    ],
    [
      "do",
      "re</w>"
    ],
    [
      "hip",
      "poly"
    ],
    [
      "hippoly",
      "te</w>"
    ],
    [
      "pri",
      "x</w>"
    ],
    [
      "m",
      "ant</w>"
    ],
    [
      "s",
      "tre</w>"
    ],
    [
      "il",
      "les</w>"
    ],
    [
      "a",
      "me</w>"
    ],
    [
      "pau",
      "vre</w>"
    ],
    [
      "f",
      "ût</w>"
    ],
    [
      "dou",
      "leur</w>"
    ],
    [
      "po",
      "ser</w>"
    ],
    [
      "cés",
      "ar</w>"
    ],
    [
      "mé",
      "dée</w>"
    ],
    [
      "lu",
      "t</w>"
    ],
    [
      "in",
      "no"
    ],
    [
      "s",
      "ement</w>"
    ],
    [
      "j",
      "ac"
    ],
    [
      "pa",
      "tre</w>"
    ],
    [
      "sel",
      "on</w>"
    ],
    [
      "ven",
      "ge"
    ],
    [
      "s",
      "av"
    ],
    [
      "s",
      "auv"
    ],
    [
      "compa",
      "gn"
    ],
    [
      "voi",
      "e</w>"
    ],
    [
      "s",
      "oient</w>"
    ],
    [
      "car",
      "act"
    ],
    [
      "fau",
      "te</w>"
    ],
    [
      "ex",
      "cu"
    ],
    [
      "r",
      "a</w>"
    ],
    [
      "ar",
      "deur</w>"
    ],
    [
      "pr",
      "ess"
    ],
    [
      "pr",
      "ouv"
    ],
    [
      "sou",
      "pi"
    ],
    [
      "alc",
      "este</w>"
    ],
    [
      "so",
      "sie</w>"
    ],
    [
      "clé",
      "o"
    ],
    [
      "laiss",
      "er</w>"
    ],
    [
      "or",
      "din"
    ],
    [
      "pa",
      "ssion</w>"
    ],
    [
      "ro",
      "me</w>"
    ],
    [
      "l'",
      "ac"
    ],
    [
      "geor",
      "ge</w>"
    ],
    [
      "h",
      "ér"
    ],
    [
      "ou",
      "bli"
    ],
    [
      "endr",
      "oit</w>"
    ],
    [
      "com",
      "bien</w>"
    ],
    [
      "p",
      "ai"
    ],
    [
      "n",
      "is</w>"
    ],
    [
      "av",
      "ou"
    ],
    [
      "éli",
      "se</w>"
    ],
    [
      "cléo",
      "patre</w>"
    ],
    [
      "de",
      "dans</w>"
    ],
    [
      "ci",
      "té</w>"
    ],
    [
      "v",
      "au"
    ],
    [
      "prin",
      "ci"
    ],
    [
      "el",
      "vi"
    ],
    [
      "elvi",
      "re</w>"
    ],
    [
      "j",
      "a"
    ],
    [
      "t-",
      "on</w>"
    ],
    [
      "re",
      "pro"
    ],
    [
      "cha",
      "que</w>"
    ],
    [
      "plai",
      "sirs</w>"
    ],
    [
      "r",
      "av"
    ],
    [
      "possi",
      "ble</w>"
    ],
    [
      "è",
      "rement</w>"
    ],
    [
      "cli",
      "n"
    ],
    [
      "pi",
      "tié</w>"
    ],
    [
      "e",
      "rie</w>"
    ],
    [
      "dé",
      "p"
    ],
    [
      "senti",
      "ment</w>"
    ],
    [
      "av",
      "e</w>"
    ],
    [
      "con",
      "tin"
    ],
    [
      "cour",
      "rou"
    ],
    [
      "témoi",
      "gn"
    ],
    [
      "l",
      "ois</w>"
    ],
    [
      "lor",
      "s"
    ],
    [
      "c",
      "é</w>"
    ],
    [
      "tu",
      "s</w>"
    ],
    [
      "ré",
      "ci"
    ],
    [
      "sup",
      "pli"
    ],
    [
      "ex",
      "te</w>"
    ],
    [
      "médeci",
      "n</w>"
    ],
    [
      "l'",
      "homme</w>"
    ],
    [
      "pré",
      "f"
    ],
    [
      "tr",
      "u"
    ],
    [
      "dé",
      "sor"
    ],
    [
      "tr",
      "y"
    ],
    [
      "quel",
      "qu'un</w>"
    ],
    [
      "b",
      "elles</w>"
    ],
    [
      "s",
      "ez</w>"
    ],
    [
      "con",
      "fi"
    ],
    [
      "eil",
      "les</w>"
    ],
    [
      "a",
      "che"
    ],
    [
      "pri",
      "e</w>"
    ],
    [
      "quel",
      "s</w>"
    ],
    [
      "on",
      "i"
    ],
    [
      "rais",
      "onn"
    ],
    [
      "pres",
      "sion</w>"
    ],
    [
      "com",
      "mo"
    ],
    [
      "ac",
      "tions</w>"
    ],
    [
      "a",
      "tions</w>"
    ],
    [
      "l'",
      "ai</w>"
    ],
    [
      "li",
      "vre</w>"
    ],
    [
      "b",
      "at"
    ],
    [
      "mer",
      "v"
    ],
    [
      "mes",
      "sieurs</w>"
    ],
    [
      "r",
      "et"
    ],
    [
      "oi",
      "si"
    ],
    [
      "c",
      "es"
    ],
    [
      "in",
      "te</w>"
    ],
    [
      "d",
      "om"
    ],
    [
      "z",
      "e</w>"
    ],
    [
      "u",
      "x</w>"
    ],
    [
      "moi",
      "-même</w>"
    ],
    [
      "mon",
      "tre</w>"
    ],
    [
      "pen",
      "ser</w>"
    ],
    [
      "cr",
      "u</w>"
    ],
    [
      "qu",
      "oi"
    ],
    [
      "ob",
      "é"
    ],
    [
      "g",
      "on</w>"
    ],
    [
      "im",
      "ag"
    ],
    [
      "spe",
      "ct"
    ],
    [
      "oi",
      "ts</w>"
    ],
    [
      "an",
      "im"
    ],
    [
      "ç",
      "ons</w>"
    ],
    [
      "aur",
      "oit</w>"
    ],
    [
      "m",
      "eil"
    ],
    [
      "cert",
      "ain</w>"
    ],
    [
      "in",
      "ter"
    ],
    [
      "par",
      "tout</w>"
    ],
    [
      "su",
      "b"
    ],
    [
      "ori",
      "g"
    ],
    [
      "ju",
      "re</w>"
    ],
    [
      "mal",
      "heureux</w>"
    ],
    [
      "f",
      "o"
    ],
    [
      "courrou",
      "x</w>"
    ],
    [
      "parti",
      "cu"
    ],
    [
      "pren",
      "ez</w>"
    ],
    [
      "peu",
      "vent</w>"
    ],
    [
      "extr",
      "ême</w>"
    ],
    [
      "pen",
      "sée</w>"
    ],
    [
      "ti",
      "er</w>"
    ],
    [
      "cel",
      "les</w>"
    ],
    [
      "présen",
      "ce</w>"
    ],
    [
      "c",
      "ap"
    ],
    [
      "do",
      "g"
    ],
    [
      "m",
      "our"
    ],
    [
      "affai",
      "res</w>"
    ],
    [
      "déf",
      "en"
    ],
    [
      "l'",
      "âme</w>"
    ],
    [
      "f",
      "ou"
    ],
    [
      "ti",
      "tre</w>"
    ],
    [
      "poly",
      "eu"
    ],
    [
      "polyeu",
      "cte</w>"
    ],
    [
      "pr",
      "ê"
    ],
    [
      "gu",
      "erre</w>"
    ],
    [
      "d",
      "avantage</w>"
    ],
    [
      "in",
      "s</w>"
    ],
    [
      "po",
      "li"
    ],
    [
      "fu",
      "n"
    ],
    [
      "fid",
      "èle</w>"
    ],
    [
      "occa",
      "sion</w>"
    ],
    [
      "tragédi",
      "e</w>"
    ],
    [
      "am",
      "phi"
    ],
    [
      "som",
      "mes</w>"
    ],
    [
      "m'",
      "est</w>"
    ],
    [
      "crain",
      "dre</w>"
    ],
    [
      "rece",
      "voir</w>"
    ],
    [
      "d",
      "as</w>"
    ],
    [
      "sc",
      "u"
    ],
    [
      "c",
      "ab"
    ],
    [
      "re",
      "gr"
    ],
    [
      "t",
      "es"
    ],
    [
      "g",
      "es</w>"
    ],
    [
      "vain",
      "c"
    ],
    [
      "sé",
      "v"
    ],
    [
      "m",
      "at"
    ],
    [
      "éri",
      "r</w>"
    ],
    [
      "nécess",
      "aire</w>"
    ],
    [
      "r",
      "ez</w>"
    ],
    [
      "é",
      "vi"
    ],
    [
      "des",
      "tin"
    ],
    [
      "ro",
      "dog"
    ],
    [
      "ili",
      "té</w>"
    ],
    [
      "s",
      "al"
    ],
    [
      "adr",
      "esse</w>"
    ],
    [
      "montr",
      "er</w>"
    ],
    [
      "com",
      "pli"
    ],
    [
      "qu",
      "ali"
    ],
    [
      "a",
      "te</w>"
    ],
    [
      "mé",
      "pris</w>"
    ],
    [
      "secon",
      "d</w>"
    ],
    [
      "er",
      "n"
    ],
    [
      "ennem",
      "is</w>"
    ],
    [
      "jalou",
      "x</w>"
    ],
    [
      "s",
      "oi"
    ],
    [
      "cour",
      "t</w>"
    ],
    [
      "so",
      "lu"
    ],
    [
      "rodog",
      "une</w>"
    ],
    [
      "d",
      "ez</w>"
    ],
    [
      "si",
      "re</w>"
    ],
    [
      "se",
      "cours</w>"
    ],
    [
      "paro",
      "ître</w>"
    ],
    [
      "li",
      "r</w>"
    ],
    [
      "publi",
      "c</w>"
    ],
    [
      "x",
      "-"
    ],
    [
      "g",
      "or"
    ],
    [
      "amphi",
      "try"
    ],
    [
      "é",
      "dit</w>"
    ],
    [
      "fi",
      "gu"
    ],
    [
      "vin",
      "g"
    ],
    [
      "dem",
      "ois"
    ],
    [
      "pr",
      "u"
    ],
    [
      "é",
      "le"
    ],
    [
      "fr",
      "ance</w>"
    ],
    [
      "u",
      "sage</w>"
    ],
    [
      "cou",
      "rir</w>"
    ],
    [
      "for",
      "me</w>"
    ],
    [
      "ti",
      "re</w>"
    ],
    [
      "po",
      "é"
    ],
    [
      "t",
      "ons</w>"
    ],
    [
      "s",
      "an"
    ],
    [
      "ven",
      "ger</w>"
    ],
    [
      "espag",
      "no"
    ],
    [
      "amphitry",
      "on</w>"
    ],
    [
      "or",
      "onte</w>"
    ],
    [
      "pomp",
      "ée</w>"
    ],
    [
      "cher",
      "che</w>"
    ],
    [
      "j",
      "eu</w>"
    ],
    [
      "eff",
      "ort</w>"
    ],
    [
      "ri",
      "ch"
    ],
    [
      "trouv",
      "é</w>"
    ],
    [
      "re",
      "c"
    ],
    [
      "or",
      "gon</w>"
    ],
    [
      "pou",
      "ss"
    ],
    [
      "per",
      "te</w>"
    ],
    [
      "sui",
      "t</w>"
    ],
    [
      "venge",
      "ance</w>"
    ],
    [
      "cr",
      "oi"
    ],
    [
      "un",
      "s</w>"
    ],
    [
      "comb",
      "at</w>"
    ],
    [
      "d",
      "ence</w>"
    ],
    [
      "l'",
      "une</w>"
    ],
    [
      "ti",
      "le</w>"
    ],
    [
      "u",
      "se</w>"
    ],
    [
      "tr",
      "oisi"
    ],
    [
      "fam",
      "ille</w>"
    ],
    [
      "ain",
      "es</w>"
    ],
    [
      "par",
      "er</w>"
    ],
    [
      "ly",
      "s"
    ],
    [
      "ss",
      "ement</w>"
    ],
    [
      "u",
      "rs</w>"
    ],
    [
      "mili",
      "eu</w>"
    ],
    [
      "siè",
      "cle</w>"
    ],
    [
      "ri",
      "val</w>"
    ],
    [
      "lu",
      "mi"
    ],
    [
      "tra",
      "ître</w>"
    ],
    [
      "t",
      "yr"
    ],
    [
      "ri",
      "re</w>"
    ],
    [
      "d'",
      "amour</w>"
    ],
    [
      "re",
      "dou"
    ],
    [
      "di",
      "ffi"
    ],
    [
      "ci",
      "e</w>"
    ],
    [
      "c",
      "ence</w>"
    ],
    [
      "or",
      "ts</w>"
    ],
    [
      "troisi",
      "ème</w>"
    ],
    [
      "son",
      "ge</w>"
    ],
    [
      "r",
      "ang</w>"
    ],
    [
      "tri",
      "ste</w>"
    ],
    [
      "mar",
      "quis</w>"
    ],
    [
      "crain",
      "te</w>"
    ],
    [
      "épou",
      "x</w>"
    ],
    [
      "servi",
      "ce</w>"
    ],
    [
      "el",
      "le"
    ],
    [
      "pi",
      "erre</w>"
    ],
    [
      "il",
      "es</w>"
    ],
    [
      "h",
      "o"
    ],
    [
      "con",
      "di"
    ],
    [
      "em",
      "b"
    ],
    [
      "s-",
      "tu</w>"
    ],
    [
      "bi",
      "ens</w>"
    ],
    [
      "di",
      "x</w>"
    ],
    [
      "pal",
      "ais</w>"
    ],
    [
      "vi",
      "ennent</w>"
    ],
    [
      "ssi",
      "ons</w>"
    ],
    [
      "f",
      "éli"
    ],
    [
      "ma",
      "xi"
    ],
    [
      "mari",
      "ane</w>"
    ],
    [
      "ma",
      "ti"
    ],
    [
      "l'h",
      "i"
    ],
    [
      "premi",
      "ers</w>"
    ],
    [
      "respec",
      "t</w>"
    ],
    [
      "ser",
      "t</w>"
    ],
    [
      "ang",
      "er</w>"
    ],
    [
      "esti",
      "me</w>"
    ],
    [
      "jus",
      "ques</w>"
    ],
    [
      "plu",
      "sieurs</w>"
    ],
    [
      "l'",
      "uni"
    ],
    [
      "écri",
      "t</w>"
    ],
    [
      "d",
      "ement</w>"
    ],
    [
      "fa",
      "çon</w>"
    ],
    [
      "h",
      "eure</w>"
    ],
    [
      "q",
      "</w>"
    ],
    [
      "daph",
      "nis</w>"
    ],
    [
      "en",
      "ten"
    ],
    [
      "j",
      "o"
    ],
    [
      "ab",
      "an"
    ],
    [
      "gu",
      "eil</w>"
    ],
    [
      "vr",
      "ai"
    ],
    [
      "i",
      "ss"
    ],
    [
      "dem",
      "eure</w>"
    ],
    [
      "ti",
      "enne</w>"
    ],
    [
      "nom",
      "bre</w>"
    ],
    [
      "aus",
      "sitôt</w>"
    ],
    [
      "l'hi",
      "stoire</w>"
    ],
    [
      "som",
      "me</w>"
    ],
    [
      "f",
      "âch"
    ],
    [
      "d'",
      "où</w>"
    ],
    [
      "fr",
      "oi"
    ],
    [
      "natu",
      "r"
    ],
    [
      "rel",
      "i"
    ],
    [
      "vi",
      "eux</w>"
    ],
    [
      "di",
      "gn"
    ],
    [
      "ouvr",
      "ages</w>"
    ],
    [
      "nourri",
      "ce</w>"
    ],
    [
      "qu'",
      "elles</w>"
    ],
    [
      "e",
      "ri"
    ],
    [
      "b",
      "us</w>"
    ],
    [
      "ét",
      "aient</w>"
    ],
    [
      "em",
      "por"
    ],
    [
      "ign",
      "or"
    ],
    [
      "o",
      "re</w>"
    ],
    [
      "tir",
      "cis</w>"
    ],
    [
      "grâ",
      "ces</w>"
    ],
    [
      "in",
      "i"
    ],
    [
      "di",
      "tes</w>"
    ],
    [
      "demois",
      "elle</w>"
    ]
  ],
  "vocab": {
    "<pad>": 0,
    "<unk>": 1,
    "<bos>": 2,
    "<eos>": 3,
    "'": 4,
    "-": 5,
    "</w>": 6,
    "a": 7,
    "b": 8,
    "c": 9,
    "d": 10,
    "e": 11,
    "f": 12,
    "g": 13,
    "h": 14,
    "i": 15,
    "j": 16,
    "k": 17,
    "l": 18,
    "m": 19,
    "n": 20,
    "o": 21,
    "p": 22,
    "q": 23,
    "r": 24,
    "s": 25,
    "t": 26,
    "u": 27,
    "v": 28,
    "w": 29,
    "x": 30,
    "y": 31,
    "z": 32,
    "à": 33,
    "á": 34,
    "â": 35,
    "æ": 36,
    "ç": 37,
    "è": 38,
    "é": 39,
    "ê": 40,
    "ë": 41,
    "ì": 42,
    "í": 43,
    "î": 44,
    "ï": 45,
    "ñ": 46,
    "ó": 47,
    "ô": 48,
    "ù": 49,
    "ú": 50,
    "û": 51,
    "ü": 52,
    "e</w>": 53,
    "s</w>": 54,
    "t</w>": 55,
    "n</w>": 56,
    "ou": 57,
    "r</w>": 58,
    "qu": 59,
    "es</w>": 60,
    "en": 61,
    "ai": 62,
    "de</w>": 63,
    "re</w>": 64,
    "an": 65,
    "a</w>": 66,
    "le</w>": 67,
    "eu": 68,
    "i</w>": 69,
    "on": 70,
    "oi": 71,
    "et</w>": 72,
    "il": 73,
    "on</w>": 74,
    "ne</w>": 75,
    "es": 76,
    "au": 77,
    "que</w>": 78,
    "te</w>": 79,
    "pa": 80,
    "ri": 81,
    "en</w>": 82,
    "la</w>": 83,
    "er</w>": 84,
    "ous</w>": 85,
    "er": 86,
    "ce</w>": 87,
    "à</w>": 88,
    "el": 89,
    "me</w>": 90,
    "il</w>": 91,
    "ti": 92,
    "or": 93,
    "les</w>": 94,
    "ent</w>": 95,
    "ch": 96,
    "di": 97,
    "x</w>": 98,
    "em": 99,
    "l'": 100,
    "se</w>": 101,
    "tr": 102,
    "om": 103,
    "tre</w>": 104,
    "é</w>": 105,
    "pr": 106,
    "un</w>": 107,
    "lu": 108,
    "vous</w>": 109,
    "qu'": 110,
    "je</w>": 111,
    "ar": 112,
    "li": 113,
    "pou": 114,
    "est</w>": 115,
    "av": 116,
    "u</w>": 117,
    "d'": 118,
    "qui</w>": 119,
    "eur</w>": 120,
    "si": 121,
    "ans</w>": 122,
    "ez": 123,
    "su": 124,
    "in": 125,
    "eux</w>": 126,
    "fai": 127,
    "al": 128,
    "ant</w>": 129,
    "tou": 130,
    "con": 131,
    "pour</w>": 132,
    "ez</w>": 133,
    "elle</w>": 134,
    "vi": 135,
    "une</w>": 136,
    "am": 137,
    "si</w>": 138,
    "des</w>": 139,
    "par": 140,
    "et": 141,
    "ais</w>": 142,
    "com": 143,
    "rs</w>": 144,
    "dé": 145,
    "d</w>": 146,
    "dans</w>": 147,
    "ag": 148,
    "ont</w>": 149,
    "n'": 150,
    "oit</w>": 151,
    "c</w>": 152,
    "vo": 153,
    "son</w>": 154,
    "ss": 155,
    "plu": 156,
    "du</w>": 157,
    "oi</w>": 158,
    "pas</w>": 159,
    "re": 160,
    "bi": 161,
    "plus</w>": 162,
    "au</w>": 163,
    "ts</w>": 164,
    "ois</w>": 165,
    "ère</w>": 166,
    "ui": 167,
    "té</w>": 168,
    "oin": 169,
    "end": 170,
    "cou": 171,
    "ci": 172,
    "par</w>": 173,
    "ons</w>": 174,
    "pri": 175,
    "ac": 176,
    "oir</w>": 177,
    "eu</w>": 178,
    "ses</w>": 179,
    "tes</w>": 180,
    "gr": 181,
    "ab": 182,
    "ouv": 183,
    "ré": 184,
    "mais</w>": 185,
    "fi": 186,
    "qu'il</w>": 187,
    "no": 188,
    "nous</w>": 189,
    "tout</w>": 190,
    "ement</w>": 191,
    "ap": 192,
    "ait</w>": 193,
    "pl": 194,
    "ain": 195,
    "sa</w>": 196,
    "mon</w>": 197,
    "onn": 198,
    "mes</w>": 199,
    "at": 200,
    "ai</w>": 201,
    "ét": 202,
    "bien</w>": 203,
    "ma": 204,
    "cr": 205,
    "ette</w>": 206,
    "ces</w>": 207,
    "lui</w>": 208,
    "s'": 209,
    "j'": 210,
    "y</w>": 211,
    "ff": 212,
    "fait</w>": 213,
    "tion</w>": 214,
    "mi": 215,
    "eurs</w>": 216,
    "ille</w>": 217,
    "ée</w>": 218,
    "po": 219,
    "ar</w>": 220,
    "quel": 221,
    "mon": 222,
    "ér": 223,
    "p</w>": 224,
    "ex": 225,
    "co": 226,
    "jou": 227,
    "m'": 228,
    "cette</w>": 229,
    "ju": 230,
    "poin": 231,
    "per": 232,
    "c'": 233,
    "pi": 234,
    "ens</w>": 235,
    "aux</w>": 236,
    "point</w>": 237,
    "ser": 238,
    "age</w>": 239,
    "ver": 240,
    "ils</w>": 241,
    "mê": 242,
    "-</w>": 243,
    "as": 244,
    "de": 245,
    "is</w>": 246,
    "l</w>": 247,
    "t-": 248,
    "ave": 249,
    "ma</w>": 250,
    "mé": 251,
    "sur</w>": 252,
    "c'est</w>": 253,
    "sans</w>": 254,
    "pro": 255,
    "tu</w>": 256,
    "faire</w>": 257,
    "sc": 258,
    "se": 259,
    "for": 260,
    "mo": 261,
    "avec</w>": 262,
    "ès</w>": 263,
    "var</w>": 264,
    "ang": 265,
    "ou</w>": 266,
    "gn": 267,
    "leur</w>": 268,
    "ter</w>": 269,
    "por": 270,
    "res</w>": 271,
    "pui": 272,
    "dre</w>": 273,
    "im": 274,
    "sou": 275,
    "gu": 276,
    "cl": 277,
    "comme</w>": 278,
    "même</w>": 279,
    "votre</w>": 280,
    "pré": 281,
    "ène</w>": 282,
    "moi</w>": 283,
    "ce": 284,
    "être</w>": 285,
    "tu": 286,
    "voir</w>": 287,
    "fau": 288,
    "peu": 289,
    "and</w>": 290,
    "so": 291,
    "d'un</w>": 292,
    "ante</w>": 293,
    "tant</w>": 294,
    "ni": 295,
    "ph": 296,
    "cu": 297,
    "endre</w>": 298,
    "ten": 299,
    "és</w>": 300,
    "esse</w>": 301,
    "ble</w>": 302,
    "ance</w>": 303,
    "hom": 304,
    "emp": 305,
    "pe": 306,
    "ven": 307,
    "ù</w>": 308,
    "où</w>": 309,
    "dis": 310,
    "tous</w>": 311,
    "as</w>": 312,
    "dou": 313,
    "el</w>": 314,
    "fr": 315,
    "don": 316,
    "sen": 317,
    "cor": 318,
    "autre</w>": 319,
    "dit</w>": 320,
    "able</w>": 321,
    "sont</w>": 322,
    "che</w>": 323,
    "mal": 324,
    "donn": 325,
    "ob": 326,
    "dont</w>": 327,
    "pu": 328,
    "ass": 329,
    "ain</w>": 330,
    "fu": 331,
    "là</w>": 332,
    "bl": 333,
    "jus": 334,
    "deux</w>": 335,
    "ir</w>": 336,
    "voi": 337,
    "ci</w>": 338,
    "ence</w>": 339,
    "ge</w>": 340,
    "rien</w>": 341,
    "amou": 342,
    "do": 343,
    "ment</w>": 344,
    "des": 345,
    "qu'on</w>": 346,
    "dr": 347,
    "aire</w>": 348,
    "édi": 349,
    "tro": 350,
    "vou": 351,
    "trouv": 352,
    "be": 353,
    "st": 354,
    "près</w>": 355,
    "éri": 356,
    "enco": 357,
    "leurs</w>": 358,
    "n'est</w>": 359,
    "pour": 360,
    "ais": 361,
    "peu</w>": 362,
    "avoir</w>": 363,
    "ort</w>": 364,
    "faut</w>": 365,
    "oins</w>": 366,
    "scène</w>": 367,
    "cho": 368,
    "iv": 369,
    "tres</w>": 370,
    "seu": 371,
    "oire</w>": 372,
    "ca": 373,
    "dem": 374,
    "br": 375,
    "quelque</w>": 376,
    "ren": 377,
    "aur": 378,
    "fin</w>": 379,
    "trop</w>": 380,
    "mar": 381,
    "j'ai</w>": 382,
    "pen": 383,
    "ler</w>": 384,
    "ton</w>": 385,
    "h</w>": 386,
    "ître</w>": 387,
    "voy": 388,
    "ez-": 389,
    "éli": 390,
    "ro": 391,
    "cri": 392,
    "amour</w>": 393,
    "eille</w>": 394,
    "fl": 395,
    "sieur</w>": 396,
    "temp": 397,
    "emi": 398,
    "dire</w>": 399,
    "men": 400,
    "homme</w>": 401,
    "vos</w>": 402,
    "d'une</w>": 403,
    "tions</w>": 404,
    "s-": 405,
    "le": 406,
    "cel": 407,
    "man": 408,
    "vers</w>": 409,
    "don</w>": 410,
    "th": 411,
    "peut</w>": 412,
    "ni</w>": 413,
    "gar": 414,
    "ques</w>": 415,
    "moins</w>": 416,
    "monsieur</w>": 417,
    "ta": 418,
    "espri": 419,
    "non</w>": 420,
    "aiss": 421,
    "jours</w>": 422,
    "quoi</w>": 423,
    "ter": 424,
    "gran": 425,
    "ess": 426,
    "sse</w>": 427,
    "l'on</w>": 428,
    "ue</w>": 429,
    "qu</w>": 430,
    "eur": 431,
    "da": 432,
    "premi": 433,
    "temps</w>": 434,
    "après</w>": 435,
    "aus": 436,
    "at</w>": 437,
    "cour": 438,
    "ui</w>": 439,
    "nom": 440,
    "dieu</w>": 441,
    "ine</w>": 442,
    "gan": 443,
    "vie</w>": 444,
    "ds</w>": 445,
    "prin": 446,
    "suis</w>": 447,
    "val": 448,
    "quand</w>": 449,
    "t-il</w>": 450,
    "veu": 451,
    "fois</w>": 452,
    "ve</w>": 453,
    "corn": 454,
    "sor": 455,
    "uit</w>": 456,
    "vr": 457,
    "ôt</w>": 458,
    "ace</w>": 459,
    "eff": 460,
    "âme</w>": 461,
    "ii</w>": 462,
    "onne</w>": 463,
    "qui": 464,
    "ég": 465,
    "cher</w>": 466,
    "jam": 467,
    "notre</w>": 468,
    "aison</w>": 469,
    "sion</w>": 470,
    "ly": 471,
    "ant": 472,
    "ur</w>": 473,
    "encore</w>": 474,
    "our": 475,
    "all": 476,
    "sem": 477,
    "qu'à</w>": 478,
    "soit</w>": 479,
    "sé": 480,
    "ût</w>": 481,
    "ser</w>": 482,
    "omp": 483,
    "ill": 484,
    "esprit</w>": 485,
    "du": 486,
    "jamais</w>": 487,
    "corneille</w>": 488,
    "grand</w>": 489,
    "qu'elle</w>": 490,
    "père</w>": 491,
    "ez-vous</w>": 492,
    "ainsi</w>": 493,
    "m</w>": 494,
    "ori": 495,
    "res": 496,
    "cet</w>": 497,
    "ers</w>": 498,
    "donc</w>": 499,
    "sgan": 500,
    "sganar": 501,
    "sganarelle</w>": 502,
    "fort</w>": 503,
    "teur</w>": 504,
    "toute</w>": 505,
    "l'h": 506,
    "qu'un</w>": 507,
    "elles</w>": 508,
    "conn": 509,
    "nos</w>": 510,
    "puis</w>": 511,
    "cela</w>": 512,
    "cli": 513,
    "veux</w>": 514,
    "ail": 515,
    "rir</w>": 516,
    "ents</w>": 517,
    "ili": 518,
    "contre</w>": 519,
    "ta</w>": 520,
    "ari": 521,
    "gne</w>": 522,
    "yeux</w>": 523,
    "autres</w>": 524,
    "pren": 525,
    "pers": 526,
    "oin</w>": 527,
    "tés</w>": 528,
    "s'il</w>": 529,
    "ici</w>": 530,
    "ste</w>": 531,
    "aussi</w>": 532,
    "sei": 533,
    "sa": 534,
    "fer": 535,
    "él": 536,
    "cours</w>": 537,
    "ête</w>": 538,
    "assez</w>": 539,
    "mer</w>": 540,
    "andre</w>": 541,
    "ains</w>": 542,
    "tri": 543,
    "tra": 544,
    "coup</w>": 545,
    "oient</w>": 546,
    "sur": 547,
    "lement</w>": 548,
    "toujours</w>": 549,
    "monde</w>": 550,
    "ah</w>": 551,
    "app": 552,
    "prendre</w>": 553,
    "pass": 554,
    "vre</w>": 555,
    "aste</w>": 556,
    "toutes</w>": 557,
    "bli": 558,
    "entr": 559,
    "voyez</w>": 560,
    "al</w>": 561,
    "us</w>": 562,
    "chose</w>": 563,
    "vient</w>": 564,
    "met": 565,
    "mort</w>": 566,
    "été</w>": 567,
    "cer": 568,
    "tôt</w>": 569,
    "--": 570,
    "-même</w>": 571,
    "beau": 572,
    "roi</w>": 573,
    "dor": 574,
    "dev": 575,
    "suiv": 576,
    "fem": 577,
    "enfin</w>": 578,
    "donne</w>": 579,
    "présen": 580,
    "enn": 581,
    "voul": 582,
    "o</w>": 583,
    "trai": 584,
    "jour</w>": 585,
    "char": 586,
    "avez</w>": 587,
    "ants</w>": 588,
    "l'autre</w>": 589,
    "clé": 590,
    "lon": 591,
    "plai": 592,
    "mieux</w>": 593,
    "der</w>": 594,
    "ères</w>": 595,
    "fon": 596,
    "thé": 597,
    "qu'ils</w>": 598,
    "rem": 599,
    "laiss": 600,
    "part</w>": 601,
    "quel</w>": 602,
    "ation</w>": 603,
    "endr": 604,
    "dame</w>": 605,
    "porte</w>": 606,
    "n'en</w>": 607,
    "gl": 608,
    "ceux</w>": 609,
    "tir</w>": 610,
    "nouv": 611,
    "sous</w>": 612,
    "én": 613,
    "jet</w>": 614,
    "bre</w>": 615,
    "sui": 616,
    "an</w>": 617,
    "ît</w>": 618,
    "hor": 619,
    "vu</w>": 620,
    "oui</w>": 621,
    "donner</w>": 622,
    "mu": 623,
    "tin": 624,
    "pris</w>": 625,
    "bou": 626,
    "veut</w>": 627,
    "n'a</w>": 628,
    "ge": 629,
    "oy": 630,
    "mal</w>": 631,
    "celui</w>": 632,
    "mari": 633,
    "te": 634,
    "aine</w>": 635,
    "v</w>": 636,
    "euse</w>": 637,
    "main</w>": 638,
    "gens</w>": 639,
    "ages</w>": 640,
    "tir": 641,
    "mor": 642,
    "chez</w>": 643,
    "t'": 644,
    "esp": 645,
    "hi": 646,
    "aient</w>": 647,
    "doit</w>": 648,
    "pli": 649,
    "madame</w>": 650,
    "seul</w>": 651,
    "heur": 652,
    "car": 653,
    "bon</w>": 654,
    "sque</w>": 655,
    "ets</w>": 656,
    "der": 657,
    "ie</w>": 658,
    "souv": 659,
    "grâ": 660,
    "sir</w>": 661,
    "iv</w>": 662,
    "arr": 663,
    "endant</w>": 664,
    "contr": 665,
    "ay": 666,
    "souff": 667,
    "est-": 668,
    "semble</w>": 669,
    "paro": 670,
    "servi": 671,
    "ger</w>": 672,
    "va</w>": 673,
    "l'in": 674,
    "onte</w>": 675,
    "entre</w>": 676,
    "hu": 677,
    "pourr": 678,
    "voilà</w>": 679,
    "auv": 680,
    "étoit</w>": 681,
    "eure</w>": 682,
    "cher": 683,
    "pe</w>": 684,
    "avait</w>": 685,
    "cin": 686,
    "tent</w>": 687,
    "lieu</w>": 688,
    "peti": 689,
    "j'en</w>": 690,
    "gue</w>": 691,
    "ciel</w>": 692,
    "méri": 693,
    "fut</w>": 694,
    "ssi": 695,
    "sais</w>": 696,
    "né": 697,
    "sage</w>": 698,
    "èce</w>": 699,
    "hommes</w>": 700,
    "l'é": 701,
    "voit</w>": 702,
    "était</w>": 703,
    "heur</w>": 704,
    "hau": 705,
    "tement</w>": 706,
    "pag": 707,
    "honn": 708,
    "ol": 709,
    "pres": 710,
    "deman": 711,
    "parti": 712,
    "ps</w>": 713,
    "parler</w>": 714,
    "tel</w>": 715,
    "toi</w>": 716,
    "quelle</w>": 717,
    "peine</w>": 718,
    "m'en</w>": 719,
    "choses</w>": 720,
    "nom</w>": 721,
    "raison</w>": 722,
    "atu": 723,
    "acte</w>": 724,
    "n'y</w>": 725,
    "ent": 726,
    "femme</w>": 727,
    "lière</w>": 728,
    "ends</w>": 729,
    "ali": 730,
    "êtes</w>": 731,
    "bon": 732,
    "ad": 733,
    "rie</w>": 734,
    "cep": 735,
    "aime</w>": 736,
    "che": 737,
    "rép": 738,
    "vois</w>": 739,
    "trouve</w>": 740,
    "ang</w>": 741,
    "rou": 742,
    "discours</w>": 743,
    "moi": 744,
    "serv": 745,
    "comédi": 746,
    "théâ": 747,
    "aff": 748,
    "beau</w>": 749,
    "ati": 750,
    "lor": 751,
    "encor</w>": 752,
    "off": 753,
    "ber": 754,
    "auc": 755,
    "coeur</w>": 756,
    "is": 757,
    "lou": 758,
    "dorante</w>": 759,
    "mer": 760,
    "dui": 761,
    "puiss": 762,
    "har": 763,
    "grâce</w>": 764,
    "sent</w>": 765,
    "eau</w>": 766,
    "premier</w>": 767,
    "ffi": 768,
    "ct": 769,
    "ème</w>": 770,
    "seign": 771,
    "deur</w>": 772,
    "parl": 773,
    "foi</w>": 774,
    "qu'en</w>": 775,
    "ange</w>": 776,
    "belle</w>": 777,
    "s'en</w>": 778,
    "publi": 779,
    "att": 780,
    "choi": 781,
    "tié</w>": 782,
    "tour": 783,
    "avant</w>": 784,
    "cé": 785,
    "sé</w>": 786,
    "af": 787,
    "sens</w>": 788,
    "enne</w>": 789,
    "théâtre</w>": 790,
    "f</w>": 791,
    "mot</w>": 792,
    "édition</w>": 793,
    "ris</w>": 794,
    "vin": 795,
    "senti": 796,
    "ale</w>": 797,
    "derni": 798,
    "tér": 799,
    "fav": 800,
    "dée</w>": 801,
    "celle</w>": 802,
    "masc": 803,
    "ard</w>": 804,
    "écri": 805,
    "jeu": 806,
    "avoit</w>": 807,
    "l'amour</w>": 808,
    "déf": 809,
    "fille</w>": 810,
    "véri": 811,
    "reur</w>": 812,
    "eil</w>": 813,
    "sait</w>": 814,
    "personne</w>": 815,
    "valère</w>": 816,
    "mascar": 817,
    "es-": 818,
    "trois</w>": 819,
    "éraste</w>": 820,
    "sie</w>": 821,
    "uni": 822,
    "ture</w>": 823,
    "vrai</w>": 824,
    "table</w>": 825,
    "molière</w>": 826,
    "mis</w>": 827,
    "rendre</w>": 828,
    "dis</w>": 829,
    "d'être</w>": 830,
    "min": 831,
    "beaucoup</w>": 832,
    "gloire</w>": 833,
    "élie</w>": 834,
    "heureux</w>": 835,
    "pau": 836,
    "secr": 837,
    "mascarille</w>": 838,
    "lo": 839,
    "eût</w>": 840,
    "este</w>": 841,
    "enf": 842,
    "hum": 843,
    "sup": 844,
    "natu": 845,
    "vent</w>": 846,
    "sain": 847,
    "sus</w>": 848,
    "grands</w>": 849,
    "té": 850,
    "cert": 851,
    "jà</w>": 852,
    "cesse</w>": 853,
    "car</w>": 854,
    "cès</w>": 855,
    "oc": 856,
    "déjà</w>": 857,
    "quit": 858,
    "venir</w>": 859,
    "prince</w>": 860,
    "aît</w>": 861,
    "fils</w>": 862,
    "maître</w>": 863,
    "est-ce</w>": 864,
    "som": 865,
    "tour</w>": 866,
    "seulement</w>": 867,
    "obli": 868,
    "font</w>": 869,
    "personn": 870,
    "regar": 871,
    "peut-": 872,
    "nes</w>": 873,
    "crain": 874,
    "l'un</w>": 875,
    "aim": 876,
    "trou": 877,
    "tez</w>": 878,
    "son": 879,
    "ction</w>": 880,
    "asse</w>": 881,
    "grande</w>": 882,
    "pouvoir</w>": 883,
    "m'a</w>": 884,
    "eil": 885,
    "fran": 886,
    "rent</w>": 887,
    "iii</w>": 888,
    "mettre</w>": 889,
    "écl": 890,
    "be</w>": 891,
    "lu</w>": 892,
    "autant</w>": 893,
    "ables</w>": 894,
    "gi": 895,
    "ements</w>": 896,
    "seigneur</w>": 897,
    "to": 898,
    "pouv": 899,
    "sol": 900,
    "pu</w>": 901,
    "effet</w>": 902,
    "phil": 903,
    "tom": 904,
    "dieux</w>": 905,
    "eh</w>": 906,
    "prend</w>": 907,
    "let": 908,
    "doute</w>": 909,
    "quelques</w>": 910,
    "eill": 911,
    "sort</w>": 912,
    "flam": 913,
    "quer</w>": 914,
    "ville</w>": 915,
    "ouvr": 916,
    "oie</w>": 917,
    "adr": 918,
    "première</w>": 919,
    "-je</w>": 920,
    "prom": 921,
    "jour": 922,
    "cha": 923,
    "tin</w>": 924,
    "ple</w>": 925,
    "ché</w>": 926,
    "erre</w>": 927,
    "ées</w>": 928,
    "tice</w>": 929,
    "répon": 930,
    "ner</w>": 931,
    "d'h": 932,
    "tête</w>": 933,
    "sujet</w>": 934,
    "mauv": 935,
    "tune</w>": 936,
    "ru": 937,
    "tran": 938,
    "parle</w>": 939,
    "dam": 940,
    "état</w>": 941,
    "gag": 942,
    "cau": 943,
    "phi": 944,
    "l'ar": 945,
    "ra": 946,
    "croy": 947,
    "col": 948,
    "long": 949,
    "dessus</w>": 950,
    "ments</w>": 951,
    "place</w>": 952,
    "tique</w>": 953,
    "suc": 954,
    "reç": 955,
    "fam": 956,
    "saur": 957,
    "ein": 958,
    "indi": 959,
    "poë": 960,
    "eté</w>": 961,
    "poly": 962,
    "sang</w>": 963,
    "rer</w>": 964,
    "entre": 965,
    "go": 966,
    "gén": 967,
    "l'édition</w>": 968,
    "reste</w>": 969,
    "rel": 970,
    "peut-être</w>": 971,
    "tel": 972,
    "cré": 973,
    "comb": 974,
    "trouver</w>": 975,
    "souvent</w>": 976,
    "avons</w>": 977,
    "tenir</w>": 978,
    "mom": 979,
    "dori": 980,
    "gré</w>": 981,
    "représen": 982,
    "bu": 983,
    "cour</w>": 984,
    "née</w>": 985,
    "arri": 986,
    "embl": 987,
    "phe</w>": 988,
    "dan": 989,
    "lui": 990,
    "juste</w>": 991,
    "ha": 992,
    "atta": 993,
    "tiens</w>": 994,
    "puisque</w>": 995,
    "ver</w>": 996,
    "cru": 997,
    "pièce</w>": 998,
    "tome</w>": 999,
    "bien": 1000,
    "tation</w>": 1001,
    "fais</w>": 1002,
    "méli": 1003,
    "or</w>": 1004,
    "chac": 1005,
    "depuis</w>": 1006,
    "trav": 1007,
    "vain": 1008,
    "tient</w>": 1009,
    "force</w>": 1010,
    "êt</w>": 1011,
    "ente</w>": 1012,
    "sieurs</w>": 1013,
    "avant": 1014,
    "pense</w>": 1015,
    "mains</w>": 1016,
    "lui-même</w>": 1017,
    "alc": 1018,
    "aisse</w>": 1019,
    "mou": 1020,
    "pay": 1021,
    "qu'une</w>": 1022,
    "mani": 1023,
    "fa": 1024,
    "né</w>": 1025,
    "bonne</w>": 1026,
    "frère</w>": 1027,
    "génér": 1028,
    "prét": 1029,
    "honneur</w>": 1030,
    "cent</w>": 1031,
    "chang": 1032,
    "comédie</w>": 1033,
    "conten": 1034,
    "vertu</w>": 1035,
    "lang": 1036,
    "haut</w>": 1037,
    "un": 1038,
    "air</w>": 1039,
    "taire</w>": 1040,
    "bles</w>": 1041,
    "amant</w>": 1042,
    "mille</w>": 1043,
    "op": 1044,
    "aise</w>": 1045,
    "dor</w>": 1046,
    "terre</w>": 1047,
    "sein</w>": 1048,
    "gé</w>": 1049,
    "mérite</w>": 1050,
    "princesse</w>": 1051,
    "écou": 1052,
    "dés": 1053,
    "maison</w>": 1054,
    "plaisir</w>": 1055,
    "viens</w>": 1056,
    "étr": 1057,
    "ffér": 1058,
    "déli": 1059,
    "èle</w>": 1060,
    "cess": 1061,
    "sée</w>": 1062,
    "enti": 1063,
    "montr": 1064,
    "îtr": 1065,
    "ins": 1066,
    "suite</w>": 1067,
    "dent</w>": 1068,
    "alou": 1069,
    "ède</w>": 1070,
    "vres</w>": 1071,
    "voudr": 1072,
    "sin": 1073,
    "aître</w>": 1074,
    "a-": 1075,
    "ors</w>": 1076,
    "mène</w>": 1077,
    "harpag": 1078,
    "harpagon</w>": 1079,
    "secon": 1080,
    "pire</w>": 1081,
    "din": 1082,
    "intér": 1083,
    "ami</w>": 1084,
    "fit</w>": 1085,
    "mêmes</w>": 1086,
    "alors</w>": 1087,
    "ir": 1088,
    "mé</w>": 1089,
    "porter</w>": 1090,
    "os</w>": 1091,
    "fin": 1092,
    "din</w>": 1093,
    "cependant</w>": 1094,
    "chacun</w>": 1095,
    "-tu</w>": 1096,
    "act": 1097,
    "fortune</w>": 1098,
    "exemp": 1099,
    "dér": 1100,
    "qua": 1101,
    "moy": 1102,
    "admi": 1103,
    "doux</w>": 1104,
    "loin</w>": 1105,
    "rap": 1106,
    "mes": 1107,
    "-a</w>": 1108,
    "s'est</w>": 1109,
    "épou": 1110,
    "faites</w>": 1111,
    "in</w>": 1112,
    "dri": 1113,
    "commen": 1114,
    "vi</w>": 1115,
    "propo": 1116,
    "devant</w>": 1117,
    "tée</w>": 1118,
    "laisse</w>": 1119,
    "jalou": 1120,
    "croire</w>": 1121,
    "vue</w>": 1122,
    "n'ai</w>": 1123,
    "aujour": 1124,
    "empl": 1125,
    "ac</w>": 1126,
    "l'av": 1127,
    "sera</w>": 1128,
    "sembl": 1129,
    "ord</w>": 1130,
    "cliton</w>": 1131,
    "crois</w>": 1132,
    "horace</w>": 1133,
    "action</w>": 1134,
    "trag": 1135,
    "rais": 1136,
    "cer</w>": 1137,
    "ti</w>": 1138,
    "atten": 1139,
    "comment</w>": 1140,
    "donné</w>": 1141,
    "rom": 1142,
    "e-": 1143,
    "rement</w>": 1144,
    "clari": 1145,
    "çon</w>": 1146,
    "chi": 1147,
    "ois": 1148,
    "éditions</w>": 1149,
    "extr": 1150,
    "verr": 1151,
    "armes</w>": 1152,
    "bes": 1153,
    "ensemble</w>": 1154,
    "cô": 1155,
    "mots</w>": 1156,
    "moment</w>": 1157,
    "céli": 1158,
    "in-</w>": 1159,
    "quatre</w>": 1160,
    "d'hui</w>": 1161,
    "espér": 1162,
    "pre</w>": 1163,
    "la": 1164,
    "tromp": 1165,
    "éni": 1166,
    "aujourd'hui</w>": 1167,
    "objet</w>": 1168,
    "puisse</w>": 1169,
    "l'or": 1170,
    "aph": 1171,
    "gent</w>": 1172,
    "pec": 1173,
    "esti": 1174,
    "prise</w>": 1175,
    "faite</w>": 1176,
    "conno": 1177,
    "justice</w>": 1178,
    "gal": 1179,
    "main": 1180,
    "flamme</w>": 1181,
    "ym": 1182,
    "savoir</w>": 1183,
    "sorte</w>": 1184,
    "chap": 1185,
    "mi</w>": 1186,
    "lit</w>": 1187,
    "compa": 1188,
    "-dessus</w>": 1189,
    "droit</w>": 1190,
    "nu": 1191,
    "quelqu": 1192,
    "vais</w>": 1193,
    "l'esprit</w>": 1194,
    "aucun</w>": 1195,
    "jeune</w>": 1196,
    "traits</w>": 1197,
    "jug": 1198,
    "d'autres</w>": 1199,
    "seule</w>": 1200,
    "ennem": 1201,
    "bas</w>": 1202,
    "efois</w>": 1203,
    "voici</w>": 1204,
    "ssion</w>": 1205,
    "juan</w>": 1206,
    "ayant</w>": 1207,
    "l'au": 1208,
    "doi": 1209,
    "fid": 1210,
    "dès</w>": 1211,
    "âch": 1212,
    "s-je</w>": 1213,
    "demande</w>": 1214,
    "cid</w>": 1215,
    "cile</w>": 1216,
    "affaire</w>": 1217,
    "dé</w>": 1218,
    "enir</w>": 1219,
    "devoir</w>": 1220,
    "avi": 1221,
    "comm": 1222,
    "dessein</w>": 1223,
    "parce</w>": 1224,
    "telle</w>": 1225,
    "courage</w>": 1226,
    "avantage</w>": 1227,
    "éch": 1228,
    "espoir</w>": 1229,
    "bonheur</w>": 1230,
    "paris</w>": 1231,
    "choix</w>": 1232,
    "duit</w>": 1233,
    "faveur</w>": 1234,
    "l'a</w>": 1235,
    "gér": 1236,
    "mili": 1237,
    "accor": 1238,
    "conse": 1239,
    "cause</w>": 1240,
    "propre</w>": 1241,
    "méde": 1242,
    "seroit</w>": 1243,
    "sel": 1244,
    "lie</w>": 1245,
    "plain": 1246,
    "peur</w>": 1247,
    "franç": 1248,
    "ouver": 1249,
    "sac": 1250,
    "maîtr": 1251,
    "aller</w>": 1252,
    "lélie</w>": 1253,
    "malheur</w>": 1254,
    "abord</w>": 1255,
    "rè": 1256,
    "chim": 1257,
    "préci": 1258,
    "fais": 1259,
    "crime</w>": 1260,
    "bri": 1261,
    "nol": 1262,
    "joie</w>": 1263,
    "ose</w>": 1264,
    "phili": 1265,
    "secret</w>": 1266,
    "passe</w>": 1267,
    "ple": 1268,
    "sirs</w>": 1269,
    "sati": 1270,
    "différ": 1271,
    "anti": 1272,
    "comp": 1273,
    "vérité</w>": 1274,
    "impor": 1275,
    "plutôt</w>": 1276,
    "vain</w>": 1277,
    "adieu</w>": 1278,
    "feu</w>": 1279,
    "aimer</w>": 1280,
    "allons</w>": 1281,
    "ign": 1282,
    "stoire</w>": 1283,
    "die</w>": 1284,
    "ec": 1285,
    "vii</w>": 1286,
    "malgré</w>": 1287,
    "besoin</w>": 1288,
    "oindre</w>": 1289,
    "su</w>": 1290,
    "ani": 1291,
    "d'en</w>": 1292,
    "habi": 1293,
    "mère</w>": 1294,
    "consi": 1295,
    "roy": 1296,
    "l'</w>": 1297,
    "l'honn": 1298,
    "viol": 1299,
    "tien</w>": 1300,
    "n'ont</w>": 1301,
    "xi": 1302,
    "douc": 1303,
    "nour": 1304,
    "soins</w>": 1305,
    "d'avoir</w>": 1306,
    "dir": 1307,
    "ances</w>": 1308,
    "vé</w>": 1309,
    "maîtresse</w>": 1310,
    "note</w>": 1311,
    "rece": 1312,
    "plaît</w>": 1313,
    "sitôt</w>": 1314,
    "met</w>": 1315,
    "ami": 1316,
    "yr": 1317,
    "alci": 1318,
    "autr": 1319,
    "coups</w>": 1320,
    "curi": 1321,
    "bour": 1322,
    "rodri": 1323,
    "ade</w>": 1324,
    "servir</w>": 1325,
    "visage</w>": 1326,
    "pein": 1327,
    "gen": 1328,
    "lég": 1329,
    "has": 1330,
    "four": 1331,
    "assi": 1332,
    "refu": 1333,
    "cham": 1334,
    "ailleurs</w>": 1335,
    "mée</w>": 1336,
    "dois</w>": 1337,
    "péri": 1338,
    "ez-moi</w>": 1339,
    "liber": 1340,
    "clarice</w>": 1341,
    "lieux</w>": 1342,
    "aille</w>": 1343,
    "amis</w>": 1344,
    "tar": 1345,
    "nuit</w>": 1346,
    "corps</w>": 1347,
    "mag": 1348,
    "tifi": 1349,
    "antes</w>": 1350,
    "geor": 1351,
    "év": 1352,
    "aign": 1353,
    "soin</w>": 1354,
    "nouvelle</w>": 1355,
    "petit</w>": 1356,
    "xx": 1357,
    "ach": 1358,
    "appel": 1359,
    "l'ex": 1360,
    "oiss": 1361,
    "souffrir</w>": 1362,
    "cle</w>": 1363,
    "hors</w>": 1364,
    "angéli": 1365,
    "pable</w>": 1366,
    "bras</w>": 1367,
    "jusqu'à</w>": 1368,
    "titu": 1369,
    "vouloir</w>": 1370,
    "ennent</w>": 1371,
    "angélique</w>": 1372,
    "cteur</w>": 1373,
    "hon": 1374,
    "succès</w>": 1375,
    "lent</w>": 1376,
    "pose</w>": 1377,
    "assur": 1378,
    "puis": 1379,
    "tenant</w>": 1380,
    "romp": 1381,
    "tant": 1382,
    "--</w>": 1383,
    "tré": 1384,
    "tes-": 1385,
    "nature</w>": 1386,
    "chimène</w>": 1387,
    "cas</w>": 1388,
    "mauvais</w>": 1389,
    "osi": 1390,
    "dernier</w>": 1391,
    "colère</w>": 1392,
    "pourquoi</w>": 1393,
    "eut</w>": 1394,
    "tte</w>": 1395,
    "ète</w>": 1396,
    "rend": 1397,
    "rodrigue</w>": 1398,
    "philiste</w>": 1399,
    "rend</w>": 1400,
    "digne</w>": 1401,
    "arnol": 1402,
    "arnolphe</w>": 1403,
    "mourir</w>": 1404,
    "plaire</w>": 1405,
    "na</w>": 1406,
    "gnac</w>": 1407,
    "cam": 1408,
    "l'honneur</w>": 1409,
    "ouvrage</w>": 1410,
    "aucune</w>": 1411,
    "val</w>": 1412,
    "foi": 1413,
    "clit": 1414,
    "clitandre</w>": 1415,
    "ême</w>": 1416,
    "élas</w>": 1417,
    "qu'au</w>": 1418,
    "it</w>": 1419,
    "quis</w>": 1420,
    "poss": 1421,
    "feux</w>": 1422,
    "aver": 1423,
    "prends</w>": 1424,
    "tantôt</w>": 1425,
    "blesse</w>": 1426,
    "soup": 1427,
    "afin</w>": 1428,
    "plac": 1429,
    "eaux</w>": 1430,
    "l'im": 1431,
    "gro": 1432,
    "occa": 1433,
    "venu</w>": 1434,
    "cléante</w>": 1435,
    "sions</w>": 1436,
    "fond</w>": 1437,
    "souh": 1438,
    "assu": 1439,
    "lettre</w>": 1440,
    "hélas</w>": 1441,
    "beaux</w>": 1442,
    "suivre</w>": 1443,
    "pie": 1444,
    "faits</w>": 1445,
    "peuple</w>": 1446,
    "perdre</w>": 1447,
    "empê": 1448,
    "cte</w>": 1449,
    "plais": 1450,
    "rée</w>": 1451,
    "gui": 1452,
    "audi": 1453,
    "nouveau</w>": 1454,
    "era</w>": 1455,
    "arque</w>": 1456,
    "femmes</w>": 1457,
    "promp": 1458,
    "contraire</w>": 1459,
    "ches</w>": 1460,
    "gle</w>": 1461,
    "trait</w>": 1462,
    "mélite</w>": 1463,
    "appar": 1464,
    "moyen</w>": 1465,
    "isab": 1466,
    "pal": 1467,
    "erreur</w>": 1468,
    "reine</w>": 1469,
    "siè": 1470,
    "manière</w>": 1471,
    "esses</w>": 1472,
    "avois</w>": 1473,
    "vol": 1474,
    "-ci</w>": 1475,
    "livres</w>": 1476,
    "étant</w>": 1477,
    "passer</w>": 1478,
    "art</w>": 1479,
    "amitié</w>": 1480,
    "haine</w>": 1481,
    "lorsque</w>": 1482,
    "égli": 1483,
    "oign": 1484,
    "ai-je</w>": 1485,
    "condui": 1486,
    "mis": 1487,
    "euses</w>": 1488,
    "isabelle</w>": 1489,
    "esprits</w>": 1490,
    "illu": 1491,
    "parole</w>": 1492,
    "respec": 1493,
    "étu": 1494,
    "offen": 1495,
    "vivre</w>": 1496,
    "viv": 1497,
    "chan": 1498,
    "chant</w>": 1499,
    "mariage</w>": 1500,
    "pource": 1501,
    "tirer</w>": 1502,
    "pendant</w>": 1503,
    "nécess": 1504,
    "bouche</w>": 1505,
    "exemple</w>": 1506,
    "lé": 1507,
    "pée</w>": 1508,
    "pomp": 1509,
    "mari</w>": 1510,
    "médeci": 1511,
    "lyse</w>": 1512,
    "sû": 1513,
    "âche</w>": 1514,
    "connoître</w>": 1515,
    "ôtre</w>": 1516,
    "allez</w>": 1517,
    "est-il</w>": 1518,
    "sto": 1519,
    "décou": 1520,
    "ré</w>": 1521,
    "côté</w>": 1522,
    "pourceau": 1523,
    "envie</w>": 1524,
    "cis</w>": 1525,
    "sim": 1526,
    "souhai": 1527,
    "imi": 1528,
    "viii</w>": 1529,
    "dit-il</w>": 1530,
    "parmi</w>": 1531,
    "acle</w>": 1532,
    "fui": 1533,
    "jet": 1534,
    "aut": 1535,
    "lle</w>": 1536,
    "voulu</w>": 1537,
    "pourceaugnac</w>": 1538,
    "enfants</w>": 1539,
    "mouv": 1540,
    "j'aur": 1541,
    "puni": 1542,
    "longtemps</w>": 1543,
    "entendre</w>": 1544,
    "quer": 1545,
    "reconn": 1546,
    "bientôt</w>": 1547,
    "sentiments</w>": 1548,
    "sible</w>": 1549,
    "géronte</w>": 1550,
    "toute": 1551,
    "ève</w>": 1552,
    "garde</w>": 1553,
    "avis</w>": 1554,
    "partie</w>": 1555,
    "j'y</w>": 1556,
    "lier</w>": 1557,
    "saint</w>": 1558,
    "del": 1559,
    "jets</w>": 1560,
    "exi": 1561,
    "hip": 1562,
    "appelle</w>": 1563,
    "satis": 1564,
    "beauté</w>": 1565,
    "qué</w>": 1566,
    "tragédi": 1567,
    "s'y</w>": 1568,
    "trans": 1569,
    "ut</w>": 1570,
    "aissance</w>": 1571,
    "six</w>": 1572,
    "sortir</w>": 1573,
    "gueur</w>": 1574,
    "tomb": 1575,
    "chercher</w>": 1576,
    "flat": 1577,
    "augu": 1578,
    "anci": 1579,
    "impri": 1580,
    "comman": 1581,
    "toutefois</w>": 1582,
    "ffe</w>": 1583,
    "bar": 1584,
    "témoi": 1585,
    "vit</w>": 1586,
    "voulez</w>": 1587,
    "poëte</w>": 1588,
    "bout</w>": 1589,
    "bruit</w>": 1590,
    "fasse</w>": 1591,
    "croit</w>": 1592,
    "rois</w>": 1593,
    "presque</w>": 1594,
    "affr": 1595,
    "èces</w>": 1596,
    "sign": 1597,
    "volon": 1598,
    "ane</w>": 1599,
    "expli": 1600,
    "d'abord</w>": 1601,
    "ajou": 1602,
    "ès-": 1603,
    "à-": 1604,
    "daph": 1605,
    "manque</w>": 1606,
    "affai": 1607,
    "possi": 1608,
    "appro": 1609,
    "cat": 1610,
    "honte</w>": 1611,
    "chré": 1612,
    "amour": 1613,
    "spe": 1614,
    "diver": 1615,
    "voix</w>": 1616,
    "port</w>": 1617,
    "nourri": 1618,
    "riez</w>": 1619,
    "pér": 1620,
    "auprès</w>": 1621,
    "conserv": 1622,
    "agré": 1623,
    "ssent</w>": 1624,
    "l'em": 1625,
    "tels</w>": 1626,
    "présent</w>": 1627,
    "quelquefois</w>": 1628,
    "personnes</w>": 1629,
    "demeur": 1630,
    "aura</w>": 1631,
    "oris</w>": 1632,
    "ress": 1633,
    "paroles</w>": 1634,
    "arrê": 1635,
    "vict": 1636,
    "moindre</w>": 1637,
    "a-t-il</w>": 1638,
    "liberté</w>": 1639,
    "const": 1640,
    "admir": 1641,
    "cés": 1642,
    "cinna</w>": 1643,
    "ats</w>": 1644,
    "cieux</w>": 1645,
    "t'en</w>": 1646,
    "sci": 1647,
    "suffi": 1648,
    "maintenant</w>": 1649,
    "dandin</w>": 1650,
    "flor": 1651,
    "propos</w>": 1652,
    "puissance</w>": 1653,
    "très-": 1654,
    "pièces</w>": 1655,
    "aires</w>": 1656,
    "fein": 1657,
    "espag": 1658,
    "âge</w>": 1659,
    "ément</w>": 1660,
    "humeur</w>": 1661,
    "dore</w>": 1662,
    "hippoly": 1663,
    "hippolyte</w>": 1664,
    "prix</w>": 1665,
    "mant</w>": 1666,
    "stre</w>": 1667,
    "illes</w>": 1668,
    "ame</w>": 1669,
    "pauvre</w>": 1670,
    "fût</w>": 1671,
    "douleur</w>": 1672,
    "poser</w>": 1673,
    "césar</w>": 1674,
    "médée</w>": 1675,
    "lut</w>": 1676,
    "inno": 1677,
    "sement</w>": 1678,
    "jac": 1679,
    "patre</w>": 1680,
    "selon</w>": 1681,
    "venge": 1682,
    "sav": 1683,
    "sauv": 1684,
    "compagn": 1685,
    "voie</w>": 1686,
    "soient</w>": 1687,
    "caract": 1688,
    "faute</w>": 1689,
    "excu": 1690,
    "ra</w>": 1691,
    "ardeur</w>": 1692,
    "press": 1693,
    "prouv": 1694,
    "soupi": 1695,
    "alceste</w>": 1696,
    "sosie</w>": 1697,
    "cléo": 1698,
    "laisser</w>": 1699,
    "ordin": 1700,
    "passion</w>": 1701,
    "rome</w>": 1702,
    "l'ac": 1703,
    "george</w>": 1704,
    "hér": 1705,
    "oubli": 1706,
    "endroit</w>": 1707,
    "combien</w>": 1708,
    "pai": 1709,
    "nis</w>": 1710,
    "avou": 1711,
    "élise</w>": 1712,
    "cléopatre</w>": 1713,
    "dedans</w>": 1714,
    "cité</w>": 1715,
    "vau": 1716,
    "princi": 1717,
    "elvi": 1718,
    "elvire</w>": 1719,
    "ja": 1720,
    "t-on</w>": 1721,
    "repro": 1722,
    "chaque</w>": 1723,
    "plaisirs</w>": 1724,
    "rav": 1725,
    "possible</w>": 1726,
    "èrement</w>": 1727,
    "clin": 1728,
    "pitié</w>": 1729,
    "erie</w>": 1730,
    "dép": 1731,
    "sentiment</w>": 1732,
    "ave</w>": 1733,
    "contin": 1734,
    "courrou": 1735,
    "témoign": 1736,
    "lois</w>": 1737,
    "lors": 1738,
    "cé</w>": 1739,
    "tus</w>": 1740,
    "réci": 1741,
    "suppli": 1742,
    "exte</w>": 1743,
    "médecin</w>": 1744,
    "l'homme</w>": 1745,
    "préf": 1746,
    "tru": 1747,
    "désor": 1748,
    "try": 1749,
    "quelqu'un</w>": 1750,
    "belles</w>": 1751,
    "sez</w>": 1752,
    "confi": 1753,
    "eilles</w>": 1754,
    "ache": 1755,
    "prie</w>": 1756,
    "quels</w>": 1757,
    "oni": 1758,
    "raisonn": 1759,
    "pression</w>": 1760,
    "commo": 1761,
    "actions</w>": 1762,
    "ations</w>": 1763,
    "l'ai</w>": 1764,
    "livre</w>": 1765,
    "bat": 1766,
    "merv": 1767,
    "messieurs</w>": 1768,
    "ret": 1769,
    "oisi": 1770,
    "ces": 1771,
    "inte</w>": 1772,
    "dom": 1773,
    "ze</w>": 1774,
    "ux</w>": 1775,
    "moi-même</w>": 1776,
    "montre</w>": 1777,
    "penser</w>": 1778,
    "cru</w>": 1779,
    "quoi": 1780,
    "obé": 1781,
    "gon</w>": 1782,
    "imag": 1783,
    "spect": 1784,
    "oits</w>": 1785,
    "anim": 1786,
    "çons</w>": 1787,
    "auroit</w>": 1788,
    "meil": 1789,
    "certain</w>": 1790,
    "inter": 1791,
    "partout</w>": 1792,
    "sub": 1793,
    "orig": 1794,
    "jure</w>": 1795,
    "malheureux</w>": 1796,
    "fo": 1797,
    "courroux</w>": 1798,
    "particu": 1799,
    "prenez</w>": 1800,
    "peuvent</w>": 1801,
    "extrême</w>": 1802,
    "pensée</w>": 1803,
    "tier</w>": 1804,
    "celles</w>": 1805,
    "présence</w>": 1806,
    "cap": 1807,
    "dog": 1808,
    "mour": 1809,
    "affaires</w>": 1810,
    "défen": 1811,
    "l'âme</w>": 1812,
    "fou": 1813,
    "titre</w>": 1814,
    "polyeu": 1815,
    "polyeucte</w>": 1816,
    "prê": 1817,
    "guerre</w>": 1818,
    "davantage</w>": 1819,
    "ins</w>": 1820,
    "poli": 1821,
    "fun": 1822,
    "fidèle</w>": 1823,
    "occasion</w>": 1824,
    "tragédie</w>": 1825,
    "amphi": 1826,
    "sommes</w>": 1827,
    "m'est</w>": 1828,
    "craindre</w>": 1829,
    "recevoir</w>": 1830,
    "das</w>": 1831,
    "scu": 1832,
    "cab": 1833,
    "regr": 1834,
    "tes": 1835,
    "ges</w>": 1836,
    "vainc": 1837,
    "sév": 1838,
    "mat": 1839,
    "érir</w>": 1840,
    "nécessaire</w>": 1841,
    "rez</w>": 1842,
    "évi": 1843,
    "destin": 1844,
    "rodog": 1845,
    "ilité</w>": 1846,
    "sal": 1847,
    "adresse</w>": 1848,
    "montrer</w>": 1849,
    "compli": 1850,
    "quali": 1851,
    "ate</w>": 1852,
    "mépris</w>": 1853,
    "second</w>": 1854,
    "ern": 1855,
    "ennemis</w>": 1856,
    "jaloux</w>": 1857,
    "soi": 1858,
    "court</w>": 1859,
    "solu": 1860,
    "rodogune</w>": 1861,
    "dez</w>": 1862,
    "sire</w>": 1863,
    "secours</w>": 1864,
    "paroître</w>": 1865,
    "lir</w>": 1866,
    "public</w>": 1867,
    "x-": 1868,
    "gor": 1869,
    "amphitry": 1870,
    "édit</w>": 1871,
    "figu": 1872,
    "ving": 1873,
    "demois": 1874,
    "pru": 1875,
    "éle": 1876,
    "france</w>": 1877,
    "usage</w>": 1878,
    "courir</w>": 1879,
    "forme</w>": 1880,
    "tire</w>": 1881,
    "poé": 1882,
    "tons</w>": 1883,
    "san": 1884,
    "venger</w>": 1885,
    "espagno": 1886,
    "amphitryon</w>": 1887,
    "oronte</w>": 1888,
    "pompée</w>": 1889,
    "cherche</w>": 1890,
    "jeu</w>": 1891,
    "effort</w>": 1892,
    "rich": 1893,
    "trouvé</w>": 1894,
    "rec": 1895,
    "orgon</w>": 1896,
    "pouss": 1897,
    "perte</w>": 1898,
    "suit</w>": 1899,
    "vengeance</w>": 1900,
    "croi": 1901,
    "uns</w>": 1902,
    "combat</w>": 1903,
    "dence</w>": 1904,
    "l'une</w>": 1905,
    "tile</w>": 1906,
    "use</w>": 1907,
    "troisi": 1908,
    "famille</w>": 1909,
    "aines</w>": 1910,
    "parer</w>": 1911,
    "lys": 1912,
    "ssement</w>": 1913,
    "urs</w>": 1914,
    "milieu</w>": 1915,
    "siècle</w>": 1916,
    "rival</w>": 1917,
    "lumi": 1918,
    "traître</w>": 1919,
    "tyr": 1920,
    "rire</w>": 1921,
    "d'amour</w>": 1922,
    "redou": 1923,
    "diffi": 1924,
    "cie</w>": 1925,
    "cence</w>": 1926,
    "orts</w>": 1927,
    "troisième</w>": 1928,
    "songe</w>": 1929,
    "rang</w>": 1930,
    "triste</w>": 1931,
    "marquis</w>": 1932,
    "crainte</w>": 1933,
    "époux</w>": 1934,
    "service</w>": 1935,
    "elle": 1936,
    "pierre</w>": 1937,
    "iles</w>": 1938,
    "ho": 1939,
    "condi": 1940,
    "emb": 1941,
    "s-tu</w>": 1942,
    "biens</w>": 1943,
    "dix</w>": 1944,
    "palais</w>": 1945,
    "viennent</w>": 1946,
    "ssions</w>": 1947,
    "féli": 1948,
    "maxi": 1949,
    "mariane</w>": 1950,
    "mati": 1951,
    "l'hi": 1952,
    "premiers</w>": 1953,
    "respect</w>": 1954,
    "sert</w>": 1955,
    "anger</w>": 1956,
    "estime</w>": 1957,
    "jusques</w>": 1958,
    "plusieurs</w>": 1959,
    "l'uni": 1960,
    "écrit</w>": 1961,
    "dement</w>": 1962,
    "façon</w>": 1963,
    "heure</w>": 1964,
    "q</w>": 1965,
    "daphnis</w>": 1966,
    "enten": 1967,
    "jo": 1968,
    "aban": 1969,
    "gueil</w>": 1970,
    "vrai": 1971,
    "iss": 1972,
    "demeure</w>": 1973,
    "tienne</w>": 1974,
    "nombre</w>": 1975,
    "aussitôt</w>": 1976,
    "l'histoire</w>": 1977,
    "somme</w>": 1978,
    "fâch": 1979,
    "d'où</w>": 1980,
    "froi": 1981,
    "natur": 1982,
    "reli": 1983,
    "vieux</w>": 1984,
    "dign": 1985,
    "ouvrages</w>": 1986,
    "nourrice</w>": 1987,
    "qu'elles</w>": 1988,
    "eri": 1989,
    "bus</w>": 1990,
    "étaient</w>": 1991,
    "empor": 1992,
    "ignor": 1993,
    "ore</w>": 1994,
    "tircis</w>": 1995,
    "grâces</w>": 1996,
    "ini": 1997,
    "dites</w>": 1998,
    "demoiselle</w>": 1999
  }
}