{
  "vocab_size": 32000,
  "min_freq": 2,
  "merges": [
    ["e", "</w>"],
    ["s", "</w>"],
    ["t", "</w>"],
    ["e", "n"],
    ["e", "s</w>"],
    ["o", "n"],
    ["d", "e</w>"],
    ["a", "n"],
    ["r", "</w>"],
    ["a", "</w>"],
    ["l", "e</w>"],
    ["o", "u"],
    ["i", "n"],
    ["t", "i"],
    ["q", "u"],
    ["a", "i"],
    ["a", "r"],
    ["r", "e</w>"],
    ["l", "a</w>"],
    ["e", "r"],
    ["on", "</w>"],
    ["u", "</w>"],
    ["e", "t</w>"],
    ["u", "n"],
    ["e", "s"],
    ["i", "l"],
    ["r", "i"],
    ["a", "l"],
    ["e", "u"],
    ["en", "</w>"],
    ["o", "r"],
    ["e", "m"],
    ["c", "h"],
    ["e", "l"],
    ["é", "</w>"],
    ["i", "s"],
    ["en", "t</w>"],
    ["à", "</w>"],
    ["i", "</w>"],
    ["l", "es</w>"],
    ["o", "m"],
    ["t", "e</w>"],
    ["p", "r"],
    ["a", "u"],
    ["t", "r"],
    ["l", "'"],
    ["e", "r</w>"],
    ["p", "a"],
    ["qu", "e</w>"],
    ["d", "es</w>"],
    ["s", "i"],
    ["c", "e</w>"],
    ["l", "i"],
    ["d", "u</w>"],
    ["o", "i"],
    ["d", "'"],
    ["s", "u"],
    ["a", "v"],
    ["d", "i"],
    ["ti", "on</w>"],
    ["es", "t</w>"],
    ["c", "on"],
    ["x", "</w>"],
    ["s", "e</w>"],
    ["il", "</w>"],
    ["a", "t"],
    ["d", "é"],
    ["un", "</w>"],
    ["a", "m"],
    ["r", "é"],
    ["an", "s</w>"],
    ["un", "e</w>"],
    ["m", "e</w>"],
    ["e", "c"],
    ["d", "</w>"],
    ["an", "t</w>"],
    ["l", "u"],
    ["c", "om"],
    ["c", "i"],
    ["a", "u</w>"],
    ["p", "ar"],
    ["é", "t"],
    ["n", "e</w>"],
    ["ai", "t</w>"],
    ["r", "a"],
    ["d", "ans</w>"],
    ["p", "ou"],
    ["em", "ent</w>"],
    ["en", "t"],
    ["s", "s"],
    ["v", "i"],
    ["o", "l"],
    ["eu", "r</w>"],
    ["r", "e"],
    ["a", "g"],
    ["a", "c"],
    ["é", "e</w>"],
    ["a", "in"],
    ["p", "o"],
    ["i", "t"],
    ["e", "t"],
    ["pa", "r</w>"],
    ["y", "</w>"],
    ["r", "an"],
    ["o", "</w>"],
    ["el", "le</w>"],
    ["pou", "r</w>"],
    ["t", "re</w>"],
    ["s", "on</w>"],
    ["a", "b"],
    ["e", "x"],
    ["on", "s</w>"],
    ["t", "u"],
    ["qu", "i</w>"],
    ["r", "o"],
    ["ou", "r"],
    ["i", "e</w>"],
    ["on", "t</w>"],
    ["s", "t"],
    ["a", "tion</w>"],
    ["pr", "o"],
    ["in", "</w>"],
    ["ai", "s</w>"],
    ["al", "</w>"],
    ["r", "es</w>"],
    ["p", "u"],
    ["ou", "v"],
    ["i", "s</w>"],
    ["t", "er"],
    ["p", "h"],
    ["a", "ti"],
    ["é", "r"],
    ["-", "</w>"],
    ["su", "r</w>"],
    ["on", "n"],
    ["t", "ou"],
    ["t", "es</w>"],
    ["a", "p"],
    ["è", "re</w>"],
    ["g", "u"],
    ["au", "x</w>"],
    ["c", "es</w>"],
    ["p", "l"],
    ["p", "lu"],
    ["eu", "x</w>"],
    ["f", "f"],
    ["t", "h"],
    ["ec", "</w>"],
    ["é", "ri"],
    ["c", "u"],
    ["m", "o"],
    ["t", "é</w>"],
    ["p", "i"],
    ["t", "s</w>"],
    ["eu", "r"],
    ["d", "u"],
    ["qu", "'"],
    ["é", "s</w>"],
    ["è", "s</w>"],
    ["m", "ar"],
    ["an", "</w>"],
    ["av", "ec</w>"],
    ["a", "s"],
    ["n", "o"],
    ["p", "or"],
    ["el", "</w>"],
    ["ai", "re</w>"],
    ["d", "e"],
    ["s", "es</w>"],
    ["c", "o"],
    ["ou", "s</w>"],
    ["m", "on"],
    ["eur", "s</w>"],
    ["f", "ran"],
    ["m", "</w>"],
    ["f", "or"],
    ["s", "e"],
    ["plu", "s</w>"],
    ["b", "i"],
    ["a", "d"],
    ["f", "i"],
    ["v", "er"],
    ["p", "er"],
    ["c", "</w>"],
    ["qu", "es</w>"],
    ["pr", "é"],
    ["oi", "s</w>"],
    ["o", "g"],
    ["n", "i"],
    ["en", "d"],
    ["com", "m"],
    ["i", "m"],
    ["in", "e</w>"],
    ["é", "g"],
    ["s", "a</w>"],
    ["é", "l"],
    ["il", "l"],
    ["b", "u"],
    ["p", "ri"],
    ["c", "l"],
    ["is", "t"],
    ["é", "es</w>"],
    ["g", "</w>"],
    ["ou", "</w>"],
    ["f", "</w>"],
    ["al", "l"],
    ["g", "n"],
    ["g", "e</w>"],
    ["o", "ri"],
    ["a", "le</w>"],
    ["s", "er"],
    ["p", "e</w>"],
    ["g", "r"],
    ["j", "u"],
    ["s", "'"],
    ["pa", "s</w>"],
    ["et", "te</w>"],
    ["é", "n"],
    ["par", "ti"],
    ["ag", "e</w>"],
    ["a", "t</w>"],
    ["v", "o"],
    ["il", "le</w>"],
    ["en", "s</w>"],
    ["o", "c"],
    ["an", "ce</w>"],
    ["z", "</w>"],
    ["ét", "é</w>"],
    ["p", "e"],
    ["l", "e"],
    ["m", "i"],
    ["oi", "r</w>"],
    ["em", "b"],
    ["r", "u"],
    ["a", "ss"],
    ["s", "ont</w>"],
    ["an", "d"],
    ["n", "om"],
    ["an", "n"],
    ["t", "-"],
    ["l", "</w>"],
    ["l", "’"],
    ["k", "</w>"],
    ["m", "in"],
    ["m", "es</w>"],
    ["c", "ar"],
    ["em", "i"],
    ["p", "</w>"],
    ["c", "ri"],
    ["c", "ou"],
    ["com", "me</w>"],
    ["m", "ais</w>"],
    ["o", "b"],
    ["m", "u"],
    ["ent", "s</w>"],
    ["s", "o"],
    ["s", "i</w>"],
    ["f", "u"],
    ["er", "s</w>"],
    ["c", "ette</w>"],
    ["n", "'"],
    ["an", "g"],
    ["l", "is"],
    ["v", "e</w>"],
    ["j", "e</w>"],
    ["en", "ce</w>"],
    ["r", "es"],
    ["pr", "emi"],
    ["t", "e"],
    ["t", "en"],
    ["ch", "e</w>"],
    ["g", "i"],
    ["ai", "ent</w>"],
    ["tr", "es</w>"],
    ["c", "e"],
    ["g", "ran"],
    ["or", "s</w>"],
    ["c", "ol"],
    ["pr", "ès</w>"],
    ["j", "e"],
    ["oi", "re</w>"],
    ["un", "i"],
    ["b", "li"],
    ["oi", "t</w>"],
    ["ti", "ons</w>"],
    ["it", "é</w>"],
    ["c", "a"],
    ["t", "ri"],
    ["ain", "</w>"],
    ["ai", "l"],
    ["j", "ou"],
    ["n", "es</w>"],
    ["en", "ces</w>"],
    ["il", "s</w>"],
    ["o", "p"],
    ["d", "is"],
    ["d", "eux</w>"],
    ["dé", "c"],
    ["si", "on</w>"],
    ["i", "t</w>"],
    ["m", "a"],
    ["ai", "ss"],
    ["o", "t"],
    ["s", "tr"],
    ["v", "en"],
    ["-", "-"],
    ["fran", "ç"],
    ["m", "é"],
    ["f", "ér"],
    ["b", "er"],
    ["ét", "ait</w>"],
    ["l", "an"],
    ["lu", "i</w>"],
    ["ra", "ph"],
    ["d", "’"],
    ["pu", "is</w>"],
    ["m", "ent</w>"],
    ["ent", "re</w>"],
    ["ti", "que</w>"],
    ["c", "or"],
    ["m", "an"],
    ["our", "s</w>"],
    ["al", "is"],
    ["m", "ê"],
    ["ch", "e"],
    ["h", "</w>"],
    ["t", "eur</w>"],
    ["es", "s"],
    ["ati", "ons</w>"],
    ["em", "p"],
    ["l", "o"],
    ["e", "au</w>"],
    ["in", "s</w>"],
    ["f", "on"],
    ["en", "tr"],
    ["al", "i"],
    ["l'", "é"],
    ["su", "i"],
    ["ré", "fér"],
    ["r", "ec"],
    ["ar", "d</w>"],
    ["h", "u"],
    ["f", "ait</w>"],
    ["d'", "un</w>"],
    ["l", "eur</w>"],
    ["n", "</w>"],
    ["v", "is"],
    ["con", "n"],
    ["s", "ou"],
    ["au", "ss"],
    ["el", "les</w>"],
    ["po", "s"],
    ["a", "s</w>"],
    ["an", "t"],
    ["a", "près</w>"],
    ["e", "u</w>"],
    ["v", "ous</w>"],
    ["mê", "me</w>"],
    ["tou", "t</w>"],
    ["in", "ter"],
    ["en", "ne</w>"],
    ["ê", "tre</w>"],
    ["s", "ti"],
    ["qu'", "il</w>"],
    ["m", "or"],
    ["h", "ist"],
    ["référ", "ences</w>"],
    ["b", "r"],
    ["d'", "une</w>"],
    ["è", "me</w>"],
    ["auss", "i</w>"],
    ["t", "ant</w>"],
    ["s", "ain"],
    ["t", "er</w>"],
    ["r", "en"],
    ["j", "o"],
    ["ai", "</w>"],
    ["pu", "bli"],
    ["an", "ts</w>"],
    ["al", "ement</w>"],
    ["ain", "e</w>"],
    ["f", "il"],
    ["e", "-"],
    ["n", "ati"],
    ["p", "eu"],
    ["c", "'"],
    ["pré", "s"],
    ["er", "re</w>"],
    ["ai", "res</w>"],
    ["an", "d</w>"],
    ["ar", "ti"],
    ["ouv", "er"],
    ["i", "que</w>"],
    ["ch", "am"],
    ["d", "er"],
    ["en", "ti"],
    ["n", "ouv"],
    ["or", "d"],
    ["g", "ar"],
    ["tu", "re</w>"],
    ["f", "in"],
    ["at", "u"],
    ["h", "om"],
    ["og", "raph"],
    ["s", "-"],
    ["av", "ait</w>"],
    ["p", "é"],
    ["ai", "son</w>"],
    ["g", "ne</w>"],
    ["nati", "on"],
    ["el", "l"],
    ["ù", "</w>"],
    ["a", "y"],
    ["a", "ce</w>"],
    ["o", "ù</w>"],
    ["c", "er"],
    ["cu", "l"],
    ["d", "es"],
    ["r", "ou"],
    ["s", "or"],
    ["s", "y"],
    ["pr", "in"],
    ["m", "il"],
    ["ch", "ar"],
    ["r", "ent</w>"],
    ["qu", "i"],
    ["per", "s"],
    ["g", "én"],
    ["th", "e</w>"],
    ["v", "oir</w>"],
    ["b", "le</w>"],
    ["p", "end"],
    ["fran", "ce</w>"],
    ["d", "ont</w>"],
    ["tr", "o"],
    ["su", "r"],
    ["m", "at"],
    ["r", "em"],
    ["no", "tes</w>"],
    ["b", "l"],
    ["t", "emp"],
    ["n", "ous</w>"],
    ["l'", "in"],
    ["r", "om"],
    ["bi", "en</w>"],
    ["c", "tion</w>"],
    ["u", "e</w>"],
    ["m", "is"],
    ["c", "an"],
    ["r", "el"],
    ["on", "ne</w>"],
    ["al", "es</w>"],
    ["aiss", "ance</w>"],
    ["f", "l"],
    ["è", "res</w>"],
    ["h", "i"],
    ["tr", "av"],
    ["in", "t</w>"],
    ["b", "</w>"],
    ["an", "te</w>"],
    ["ai", "s"],
    ["s", "ous</w>"],
    ["v", "ille</w>"],
    ["ex", "ter"],
    ["t", "o"],
    ["b", "o"],
    ["ch", "</w>"],
    ["f", "in</w>"],
    ["d", "r"],
    ["b", "re</w>"],
    ["b", "ar"],
    ["ol", "og"],
    ["s", "ans</w>"],
    ["m", "e"],
    ["c'", "est</w>"],
    ["is", "s"],
    ["li", "ens</w>"],
    ["s", "é"],
    ["qu", "el"],
    ["ci", "p"],
    ["f", "ois</w>"],
    ["ff", "i"],
    ["n", "e"],
    ["l", "eurs</w>"],
    ["d", "ou"],
    ["str", "u"],
    ["es", "se</w>"],
    ["c", "our"],
    ["l", "on"],
    ["ver", "s</w>"],
    ["tr", "ouv"],
    ["in", "g"],
    ["a", "î"],
    ["b", "e"],
    ["v", "</w>"],
    ["d", "o"],
    ["our", "n"],
    ["ab", "le</w>"],
    ["au", "tres</w>"],
    ["p", "on"],
    ["por", "t"],
    ["u", "s</w>"],
    ["po", "li"],
    ["for", "m"],
    ["ograph", "ie</w>"],
    ["franç", "ais</w>"],
    ["é", "m"],
    ["or", "d</w>"],
    ["ch", "i"],
    ["di", "t</w>"],
    ["ain", "si</w>"],
    ["en", "s"],
    ["exter", "nes</w>"],
    ["nom", "</w>"],
    ["s", "eu"],
    ["e", "z</w>"],
    ["gr", "ou"],
    ["d", "s</w>"],
    ["pend", "ant</w>"],
    ["c", "ré"],
    ["sain", "t-"],
    ["emb", "re</w>"],
    ["c", "in"],
    ["f", "r"],
    ["b", "ri"],
    ["an", "s"],
    ["t", "a"],
    ["n", "aissance</w>"],
    ["gu", "e</w>"],
    ["v", "re</w>"],
    ["pro", "du"],
    ["par", "is</w>"],
    ["ju", "s"],
    ["t", "és</w>"],
    ["al", "ors</w>"],
    ["p", "éri"],
    ["é", "di"],
    ["i", "r</w>"],
    ["l", "a"],
    ["g", "e"],
    ["ai", "se</w>"],
    ["w", "</w>"],
    ["l'", "ar"],
    ["ap", "p"],
    ["con", "tre</w>"],
    ["fu", "t</w>"],
    ["so", "ci"],
    ["pa", "y"],
    ["am", "éri"],
    ["tou", "r</w>"],
    ["comm", "une</w>"],
    ["b", "ou"],
    ["v", "oi"],
    ["si", "tu"],
    ["f", "er"],
    ["h", "o"],
    ["c", "le</w>"],
    ["al", "ité</w>"],
    ["c", "el"],
    ["de", "puis</w>"],
    ["em", "ents</w>"],
    ["an", "ci"],
    ["pers", "onn"],
    ["fil", "m</w>"],
    ["premi", "er</w>"],
    ["b", "at"],
    ["i", "on</w>"],
    ["s", "c"],
    ["po", "si"],
    ["com", "p"],
    ["is", "te</w>"],
    ["f", "o"],
    ["temp", "s</w>"],
    ["n", "u"],
    ["av", "oir</w>"],
    ["au", "t"],
    ["in", "t"],
    ["d", "onn"],
    ["premi", "ère</w>"],
    ["con", "tr"],
    ["e", "ff"],
    ["en", "te</w>"],
    ["œ", "u"],
    ["é", "v"],
    ["ser", "v"],
    ["pe", "ti"],
    ["pa", "ss"],
    ["s", "ol"],
    ["g", "es</w>"],
    ["m", "al"],
    ["gén", "ér"],
    ["con", "t"],
    ["c", "at"],
    ["t", "ement</w>"],
    ["si", "è"],
    ["ain", "s</w>"],
    ["vi", "e</w>"],
    ["in", "g</w>"],
    ["d", "em"],
    ["u", "s"],
    ["cham", "pi"],
    ["c", "lu"],
    ["sui", "te</w>"],
    ["d", "on"],
    ["av", "i"],
    ["ar", "i"],
    ["él", "ec"],
    ["l", "ors</w>"],
    ["ég", "alement</w>"],
    ["hist", "oire</w>"],
    ["r", "a</w>"],
    ["f", "am"],
    ["f", "aire</w>"],
    ["de", "v"],
    ["u", "ti"],
    ["m", "et"],
    ["tr", "ois</w>"],
    ["comm", "un"],
    ["c", "am"],
    ["pr", "en"],
    ["améri", "c"],
    ["ag", "es</w>"],
    ["parti", "e</w>"],
    ["n", "é</w>"],
    ["gran", "d</w>"],
    ["prés", "ent"],
    ["t", "an"],
    ["a", "ff"],
    ["tou", "s</w>"],
    ["c", "r"],
    ["am", "</w>"],
    ["a", "r</w>"],
    ["é", "ra"],
    ["f", "em"],
    ["j", "ours</w>"],
    ["v", "es</w>"],
    ["i", "c"],
    ["av", "ant</w>"],
    ["r", "é</w>"],
    ["ti", "onn"],
    ["end", "re</w>"],
    ["at", "s</w>"],
    ["eu", "se</w>"],
    ["d", "ist"],
    ["co", "re</w>"],
    ["c", "ation</w>"],
    ["si", "d"],
    ["o", "f</w>"],
    ["il", "i"],
    ["x", "i"],
    ["di", "ff"],
    ["ré", "gi"],
    ["is", "e</w>"],
    ["pr", "es"],
    ["eu", "ro"],
    ["i", "gn"],
    ["ét", "u"],
    ["é", "cri"],
    ["mon", "de</w>"],
    ["pou", "r"],
    ["v", "ol"],
    ["j", "'"],
    ["ro", "y"],
    ["l", "ou"],
    ["d", "om"],
    ["pu", "l"],
    ["der", "ni"],
    ["peu", "t</w>"],
    ["ver", "si"],
    ["mu", "si"],
    ["col", "l"],
    ["sti", "tu"],
    ["tr", "ans"],
    ["ori", "g"],
    ["m", "on</w>"],
    ["o", "r</w>"],
    ["d", "a"],
    ["b", "a"],
    ["ré", "alis"],
    ["s", "se</w>"],
    ["ra", "p"],
    ["vi", "ent</w>"],
    ["l", "ement</w>"],
    ["grou", "pe</w>"],
    ["a", "di"],
    ["v", "al"],
    ["au", "tre</w>"],
    ["en", "core</w>"],
    ["si", "eurs</w>"],
    ["h", "ab"],
    ["gu", "erre</w>"],
    ["b", "our"],
    ["v", "ill"],
    ["g", "an"],
    ["h", "au"],
    ["mo", "ins</w>"],
    ["ann", "ées</w>"],
    ["at", "eur</w>"],
    ["ch", "o"],
    ["hom", "me</w>"],
    ["s", "ec"],
    ["ch", "er"],
    ["jus", "qu'"],
    ["ê", "te</w>"],
    ["pe", "u</w>"],
    ["min", "is"],
    ["è", "ne</w>"],
    ["es", "p"],
    ["en", "n"],
    ["m", "ée</w>"],
    ["s", "éri"],
    ["por", "t</w>"],
    ["th", "é"],
    ["m", "a</w>"],
    ["l", "et"],
    ["c", "é"],
    ["c", "ap"],
    ["mor", "t</w>"],
    ["s", "h"],
    ["vo", "y"],
    ["e", "v"],
    ["eu", "re</w>"],
    ["s", "al"],
    ["all", "em"],
    ["c", "ours</w>"],
    ["plu", "sieurs</w>"],
    ["uti", "lis"],
    ["déc", "ès</w>"],
    ["di", "rec"],
    ["p", "es</w>"],
    ["m", "é</w>"],
    ["él", "é"],
    ["f", "ai"],
    ["t", "on</w>"],
    ["con", "stru"],
    ["cer", "t"],
    ["ail", "le</w>"],
    ["b", "an"],
    ["b", "as"],
    ["s", "ci"],
    ["j", "et</w>"],
    ["b", "all"],
    ["d'", "ar"],
    ["por", "te</w>"],
    ["tr", "ès</w>"],
    ["nation", "al</w>"],
    ["ch", "an"],
    ["n", "é"],
    ["a", "z"],
    ["g", "l"],
    ["n", "on</w>"],
    ["mar", "i"],
    ["par", "t</w>"],
    ["vo", "lu"],
    ["qu", "at"],
    ["g", "en"],
    ["es", "ti"],
    ["en", "f"],
    ["m", "en"],
    ["on", "e</w>"],
    ["ch", "a"],
    ["ch", "es</w>"],
    ["f", "s</w>"],
    ["ap", "par"],
    ["t", "a</w>"],
    ["ti", "</w>"],
    ["ser", "vi"],
    ["se", "con"],
    ["hist", "ori"],
    ["p", "au"],
    ["j", "am"],
    ["s", "p"],
    ["s", "el"],
    ["che", "v"],
    ["uni", "versi"],
    ["pay", "s</w>"],
    ["ch", "er</w>"],
    ["is", "i"],
    ["sui", "v"],
    ["p", "s</w>"],
    ["el", "s</w>"],
    ["r", "on"],
    ["r", "s</w>"],
    ["g", "o"],
    ["v", "in"],
    ["f", "é"],
    ["ré", "e</w>"],
    ["y", "m"],
    ["é", "qui"],
    ["lis", "te</w>"],
    ["v", "el"],
    ["r", "ait</w>"],
    ["t", "am"],
    ["mon", "t"],
    ["et", "s</w>"],
    ["es", "si"],
    ["ri", "ère</w>"],
    ["pl", "ace</w>"],
    ["b", "el"],
    ["c", "ô"],
    ["l", "ég"],
    ["es", "pa"],
    ["t", "om"],
    ["ffi", "ci"],
    ["or", "gan"],
    ["c", "ro"],
    ["c", "les</w>"],
    ["ét", "at</w>"],
    ["p", "al"],
    ["t", "y"],
    ["r", "ement</w>"],
    ["d", "er</w>"],
    ["c", "i</w>"],
    ["û", "t</w>"],
    ["h", "ar"],
    ["su", "l"],
    ["in", "es</w>"],
    ["fam", "ille</w>"],
    ["l", "or"],
    ["a", "k"],
    ["vi", "r"],
    ["vi", "c"],
    ["c", "al"],
    ["bu", "t</w>"],
    ["ce", "p"],
    ["o", "s</w>"],
    ["ail", "l"],
    ["ac", "t"],
    ["ex", "es</w>"],
    ["s", "aison</w>"],
    ["génér", "al</w>"],
    ["l'", "ex"],
    ["séri", "e</w>"],
    ["g", "é"],
    ["ro", "i</w>"],
    ["s", "an"],
    ["v", "ent</w>"],
    ["i", "i</w>"],
    ["m", "ag"],
    ["s", "au"],
    ["jou", "eur</w>"],
    ["qu'", "elle</w>"],
    ["se", "p"],
    ["ac", "</w>"],
    ["be", "au"],
    ["po", "pul"],
    ["r", "ant</w>"],
    ["si", "te</w>"],
    ["ti", "tre</w>"],
    ["tr", "ai"],
    ["in", "di"],
    ["m", "er</w>"],
    ["o", "de</w>"],
    ["b", "e</w>"],
    ["pl", "ac"],
    ["poli", "tique</w>"],
    ["con", "se"],
    ["atu", "re</w>"],
    ["g", "ouver"],
    ["pro", "f"],
    ["a", "de</w>"],
    ["ain", "es</w>"],
    ["l", "oc"],
    ["tu", "r"],
    ["f", "au"],
    ["am", "e</w>"],
    ["ell", "ement</w>"],
    ["u", "r"],
    ["pré", "sid"],
    ["gouver", "n"],
    ["f", "ri"],
    ["s", "om"],
    ["gran", "de</w>"],
    ["si", "gn"],
    ["ca", "r</w>"],
    ["t", "élé"],
    ["s", "oit</w>"],
    ["é", "p"],
    ["ri", "v"],
    ["h", "é"],
    ["d", "i</w>"],
    ["po", "int</w>"],
    ["ég", "lis"],
    ["prin", "cip"],
    ["t", "u</w>"],
    ["com", "pa"],
    ["hab", "it"],
    ["è", "ce</w>"],
    ["u", "l"],
    ["ann", "ée</w>"],
    ["posi", "tion</w>"],
    ["le", "-"],
    ["v", "e"],
    ["sel", "on</w>"],
    ["h", "e"],
    ["cel", "u"],
    ["è", "rent</w>"],
    ["pri", "x</w>"],
    ["emb", "l"],
    ["l", "ar"],
    ["ber", "t</w>"],
    ["ag", "ne</w>"],
    ["in", "s"],
    ["s", "si"],
    ["il", "les</w>"],
    ["quel", "ques</w>"],
    ["don", "c</w>"],
    ["p", "li"],
    ["i", "r"],
    ["t", "t"],
    ["diff", "ér"],
    ["franç", "aise</w>"],
    ["i", "ques</w>"],
    ["i", "te</w>"],
    ["li", "eu</w>"],
    ["ac", "ti"],
    ["m", "'"],
    ["an", "tes</w>"],
    ["se", "ign"],
    ["d", "re</w>"],
    ["t", "oire</w>"],
    ["mé", "di"],
    ["g", "h"],
    ["n", "ord</w>"],
    ["mo", "y"],
    ["u", "m</w>"],
    ["es", "t"],
    ["ét", "aient</w>"],
    ["er", "ie</w>"],
    ["o", "ffici"],
    ["siè", "cle</w>"],
    ["a", "st"],
    ["z", "e</w>"],
    ["d", "a</w>"],
    ["vis", "ion</w>"],
    ["tr", "a"],
    ["jou", "r</w>"],
    ["ri", "e</w>"],
    ["h", "er"],
    ["j", "ac"],
    ["su", "c"],
    ["g", "er</w>"],
    ["olog", "ie</w>"],
    ["s", "ée</w>"],
    ["m", "et</w>"],
    ["n'", "est</w>"],
    ["an", "ti"],
    ["dé", "par"],
    ["che", "z</w>"],
    ["me", "ill"],
    ["vel", "op"],
    ["for", "me</w>"],
    ["emb", "le</w>"],
    ["ch", "â"],
    ["bi", "bli"],
    ["m", "ou"],
    ["m", "ent"],
    ["arti", "cles</w>"],
    ["ter", "ri"],
    ["j", "ourn"],
    ["pi", "erre</w>"],
    ["o", "ci"],
    ["al", "bu"],
    ["c", "et</w>"],
    ["s", "k"],
    ["in", "f"],
    ["v", "res</w>"],
    ["p", "ère</w>"],
    ["s", "te</w>"],
    ["un", "is</w>"],
    ["es", "-"],
    ["t", "or"],
    ["améric", "ain</w>"],
    ["quat", "re</w>"],
    ["v", "ou"],
    ["pren", "d</w>"],
    ["q", "</w>"],
    ["é", "ch"],
    ["p", "ol"],
    ["champi", "onn"],
    ["f", "ils</w>"],
    ["cou", "p</w>"],
    ["églis", "e</w>"],
    ["nation", "ale</w>"],
    ["t", "ourn"],
    ["e", "d</w>"],
    ["x", "e</w>"],
    ["tou", "tes</w>"],
    ["qu", "’"],
    ["ni", "que</w>"],
    ["ét", "at"],
    ["oc", "cu"],
    ["c", "y"],
    ["organ", "is"],
    ["m", "ad"],
    ["l'", "ac"],
    ["su", "d</w>"],
    ["n", "or"],
    ["f", "ace</w>"],
    ["ec", "ti"],
    ["è", "te</w>"],
    ["mé", "d"],
    ["nom", "br"],
    ["it", "és</w>"],
    ["je", "an"],
    ["e", "aux</w>"],
    ["qu", "and</w>"],
    ["fon", "d"],
    ["c", "au"],
    ["c", "li"],
    ["fem", "me</w>"],
    ["b", "ra"],
    ["m", "ents</w>"],
    ["eu", "ses</w>"],
    ["b", "les</w>"],
    ["r", "y</w>"],
    ["t", "o</w>"],
    ["as", "si"],
    ["ô", "le</w>"],
    ["li", "gne</w>"],
    ["cl", "ass"],
    ["dé", "velop"],
    ["en", "vir"],
    ["v", "ement</w>"],
    ["pro", "t"],
    ["an", "de</w>"],
    ["l", "à</w>"],
    ["g", "al"],
    ["entr", "e"],
    ["i", "ti"],
    ["tou", "te</w>"],
    ["s", "ement</w>"],
    ["trouv", "e</w>"],
    ["ol", "</w>"],
    ["ti", "ques</w>"],
    ["g", "é</w>"],
    ["tou", "jours</w>"],
    ["co", "le</w>"],
    ["clu", "b</w>"],
    ["ô", "t</w>"],
    ["s", "a"],
    ["re", "g"],
    ["di", "e</w>"],
    ["no", "tam"],
    ["notam", "ment</w>"],
    ["c", "k</w>"],
    ["universi", "té</w>"],
    ["at", "ta"],
    ["ab", "les</w>"],
    ["mo", "i</w>"],
    ["re", "présent"],
    ["nouv", "eau</w>"],
    ["ay", "ant</w>"],
    ["dé", "e</w>"],
    ["pri", "se</w>"],
    ["g", "ra"],
    ["m", "es"],
    ["je", "an</w>"],
    ["rel", "i"],
    ["d", "eu"],
    ["con", "s"],
    ["l", "é"],
    ["f", "a"],
    ["d", "-"],
    ["in", "st"],
    ["lor", "s"],
    ["ball", "</w>"],
    ["x", "-"],
    ["s", "our"],
    ["i", "es</w>"],
    ["i", "-"],
    ["ai", "l</w>"],
    ["ce", "la</w>"],
    ["ati", "que</w>"],
    ["o", "is"],
    ["b", "ru"],
    ["s", "ouv"],
    ["régi", "on</w>"],
    ["com", "pl"],
    ["t", "ent</w>"],
    ["ch", "é</w>"],
    ["j", "</w>"],
    ["ri", "</w>"],
    ["soci", "été</w>"],
    ["d", "an"],
    ["ri", "s"],
    ["bi", "ographie</w>"],
    ["s", "ch"],
    ["ang", "l"],
    ["l'", "h"],
    ["p", "le</w>"],
    ["su", "p"],
    ["dist", "ri"],
    ["de", "-"],
    ["ci", "té</w>"],
    ["s-", "unis</w>"],
    ["parti", "r</w>"],
    ["v", "a</w>"],
    ["ou", "est</w>"],
    ["m", "er"],
    ["mil", "it"],
    ["m", "au"],
    ["l", "y"],
    ["cri", "p"],
    ["vill", "age</w>"],
    ["te", "-"],
    ["état", "s-unis</w>"],
    ["pri", "s</w>"],
    ["c", "elle</w>"],
    ["dévelop", "p"],
    ["il", "li"],
    ["conn", "exes</w>"],
    ["pe", "in"],
    ["e", "il</w>"],
    ["con", "stitu"],
    ["a", "y</w>"],
    ["r", "ê"],
    ["ti", "tu"],
    ["jo", "h"],
    ["b", "lan"],
    ["s", "pé"],
    ["as", "se</w>"],
    ["h", "en"],
    ["c", "ès</w>"],
    ["nouv", "elle</w>"],
    ["en", "nes</w>"],
    ["m", "an</w>"],
    ["ord", "re</w>"],
    ["c", "s</w>"],
    ["albu", "m</w>"],
    ["pr", "om"],
    ["ai", "r</w>"],
    ["l", "er</w>"],
    ["sy", "st"],
    ["te", "ch"],
    ["o", "ff"],
    ["c", "ad"],
    ["eu", "res</w>"],
    ["car", "act"],
    ["ass", "oci"],
    ["m", "is</w>"],
    ["c", "entr"],
    ["m", "aison</w>"],
    ["é", "ro"],
    ["en", "g"],
    ["ci", "r"],
    ["nom", "bre</w>"],
    ["d", "el"],
    ["ru", "e</w>"],
    ["ver", "s"],
    ["qu", "el</w>"],
    ["g", "raph"],
    ["ti", "ent</w>"],
    ["fo", "ot"],
    ["dé", "f"],
    ["ra", "tion</w>"],
    ["man", "i"],
    ["hom", "mes</w>"],
    ["po", "se</w>"],
    ["t", "in"],
    ["spé", "ci"],
    ["jean", "-"],
    ["xi", "ème</w>"],
    ["it", "ali"],
    ["je", "u</w>"],
    ["compa", "gn"],
    ["ar", "e</w>"],
    ["je", "une</w>"],
    ["v", "er</w>"],
    ["cap", "it"],
    ["is", "me</w>"],
    ["m", "ét"],
    ["ri", "en</w>"],
    ["di", "re</w>"],
    ["-", "-</w>"],
    ["de", "vient</w>"],
    ["cont", "in"],
    ["a", "ch"],
    ["m", "i</w>"],
    ["ri", "er</w>"],
    ["te", "au</w>"],
    ["th", "</w>"],
    ["publi", "que</w>"],
    ["jusqu'", "à</w>"],
    ["n", "atu"],
    ["u", "re</w>"],
    ["li", "er</w>"],
    ["c", "ra"],
    ["ent", "es</w>"],
    ["f", "ais"],
    ["c", "k"],
    ["su", "s</w>"],
    ["b", "re"],
    ["ce", "pendant</w>"],
    ["c", "entre</w>"],
    ["for", "t</w>"],
    ["e", "d"],
    ["j", "an"],
    ["é", "tr"],
    ["l", "in"],
    ["ch", "ap"],
    ["l", "og"],
    ["h", "y"],
    ["c", "é</w>"],
    ["r", "er</w>"],
    ["g", "er"],
    ["t", "ation</w>"],
    ["b", "or"],
    ["de", "ven"],
    ["im", "port"],
    ["b", "â"],
    ["ci", "d"],
    ["ét", "ab"],
    ["t-", "il</w>"],
    ["présid", "ent</w>"],
    ["pa", "tri"],
    ["oi", "res</w>"],
    ["al", "ie</w>"],
    ["n", "i</w>"],
    ["at", "h"],
    ["ou", "r</w>"],
    ["é", "li"],
    ["ten", "ant</w>"],
    ["parti", "cu"],
    ["w", "e"],
    ["minis", "tr"],
    ["b", "on"],
    ["m", "uni"],
    ["app", "el"],
    ["d'", "autres</w>"],
    ["it", "s</w>"],
    ["ép", "is"],
    ["pri", "t</w>"],
    ["pro", "vin"],
    ["c", "o</w>"],
    ["parti", "</w>"],
    ["i", "er</w>"],
    ["ad", "ministr"],
    ["ti", "e</w>"],
    ["w", "i"],
    ["s", "’"],
    ["em", "pl"],
    ["p", "en"],
    ["celu", "i</w>"],
    ["jam", "ais</w>"],
    ["ec", "tion</w>"],
    ["orig", "in"],
    ["t", "ard</w>"],
    ["ar", "d"],
    ["dé", "but</w>"],
    ["f", "ac"],
    ["o", "i</w>"],
    ["f", "ille</w>"],
    ["mon", "di"],
    ["at", "t"],
    ["e", "y</w>"],
    ["qu'", "on</w>"],
    ["h", "on"],
    ["ar", "ch"],
    ["qu", "elle</w>"],
    ["gu", "es</w>"],
    ["ma", "j"],
    ["musi", "que</w>"],
    ["pro", "gr"],
    ["b", "il"],
    ["cha", "que</w>"],
    ["an", "im"],
    ["pr", "endre</w>"],
    ["au", "c"],
    ["t", "ab"],
    ["ra", "ge</w>"],
    ["tu", "res</w>"],
    ["c", "a</w>"],
    ["lou", "is</w>"],
    ["s", "é</w>"],
    ["t", "ête</w>"],
    ["j", "eux</w>"],
    ["j", "our"],
    ["an", "ces</w>"],
    ["tr", "ou"],
    ["derni", "er</w>"],
    ["pou", "v"],
    ["ar", "t</w>"],
    ["t", "eurs</w>"],
    ["no", "v"],
    ["m", "ain</w>"],
    ["servi", "ce</w>"],
    ["v", "ue</w>"],
    ["euro", "pe</w>"],
    ["car", "rière</w>"],
    ["d", "ès</w>"],
    ["d", "en"],
    ["g", "ro"],
    ["en", "suite</w>"],
    ["re", "ç"],
    ["l", "au"],
    ["j", "ap"],
    ["mu", "l"],
    ["g", "au"],
    ["gouvern", "ement</w>"],
    ["mon", "tr"],
    ["ph", "y"],
    ["d", "ess"],
    ["con", "om"],
    ["vi", "er</w>"],
    ["l'", "université</w>"],
    ["dev", "ant</w>"],
    ["anci", "en</w>"],
    ["t", "aire</w>"],
    ["cin", "q</w>"],
    ["è", "de</w>"],
    ["â", "tre</w>"],
    ["ré", "pon"],
    ["m", "it"],
    ["c", "tions</w>"],
    ["ci", "pa"],
    ["championn", "at</w>"],
    ["ca", "s</w>"],
    ["l", "and"],
    ["m", "om"],
    ["je", "un"],
    ["ma", "î"],
    ["alis", "te</w>"],
    ["s", "t</w>"],
    ["si", "e</w>"],
    ["qu", "it"],
    ["orig", "ine</w>"],
    ["a", "w"],
    ["mil", "i"],
    ["déc", "ouver"],
    ["m", "s</w>"],
    ["è", "ve</w>"],
    ["com", "pos"],
    ["ét", "ant</w>"],
    ["p", "an"],
    ["g", "ent</w>"],
    ["bri", "tan"],
    ["dé", "cl"],
    ["m", "ois</w>"],
    ["è", "rement</w>"],
    ["il", "o"],
    ["situ", "ée</w>"],
    ["éra", "tion</w>"],
    ["z", "-"],
    ["li", "e</w>"],
    ["dépar", "tement</w>"],
    ["l'", "em"],
    ["po", "que</w>"],
    ["li", "b"],
    ["n", "eu"],
    ["ter", "re</w>"],
    ["m", "embre</w>"],
    ["deu", "xième</w>"],
    ["t", "ex"],
    ["mis", "sion</w>"],
    ["conse", "il</w>"],
    ["histori", "que</w>"],
    ["mis", "e</w>"],
    ["produ", "ction</w>"],
    ["l", "aiss"],
    ["r", "am"],
    ["di", "s</w>"],
    ["mar", "qu"],
    ["m", "ain"],
    ["t", "el</w>"],
    ["st", "e"],
    ["po", "in"],
    ["peti", "t</w>"],
    ["d'", "al"],
    ["k", "o"],
    ["popul", "ation</w>"],
    ["ab", "ri"],
    ["ré", "s"],
    ["aî", "t</w>"],
    ["su", "b"],
    ["s", "tu"],
    ["si", "m"],
    ["t", "ée</w>"],
    ["bibli", "ographie</w>"],
    ["form", "ation</w>"],
    ["souv", "ent</w>"],
    ["d", "ra"],
    ["comp", "te</w>"],
    ["res", "pon"],
    ["commun", "es</w>"],
    ["c", "ent</w>"],
    ["cou", "pe</w>"],
    ["cor", "ps</w>"],
    ["an", "e</w>"],
    ["n", "er</w>"],
    ["ym", "pi"],
    ["ac", "tion</w>"],
    ["esp", "èce</w>"],
    ["c", "er</w>"],
    ["ge", "or"],
    ["d", "am"],
    ["du", "rant</w>"],
    ["m", "ère</w>"],
    ["h", "am"],
    ["at", "eurs</w>"],
    ["dr", "oit</w>"],
    ["b", "al"],
    ["fi", "t</w>"],
    ["crip", "tion</w>"],
    ["sul", "t"],
    ["l'", "am"],
    ["i", "a</w>"],
    ["ré", "s</w>"],
    ["prés", "ente</w>"],
    ["li", "tt"],
    ["ch", "ri"],
    ["pos", "si"],
    ["con", "si"],
    ["ac", "cu"],
    ["é", "b"],
    ["hu", "i</w>"],
    ["bour", "g</w>"],
    ["ne", "w</w>"],
    ["ens", "emble</w>"],
    ["o", "t</w>"],
    ["ser", "a</w>"],
    ["v", "r"],
    ["m", "ouv"],
    ["eff", "et</w>"],
    ["tri", "bu"],
    ["d", "oit</w>"],
    ["av", "aient</w>"],
    ["enti", "fi"],
    ["res", "te</w>"],
    ["is", "se</w>"],
    ["b", "on</w>"],
    ["dr", "oi"],
    ["ill", "et</w>"],
    ["b", "ass"],
    ["nom", "mé</w>"],
    ["qu", "ement</w>"],
    ["ph", "ot"],
    ["au", "jour"],
    ["ch", "em"],
    ["si", "ons</w>"],
    ["t", "ait</w>"],
    ["euro", "pé"],
    ["ol", "ympi"],
    ["con", "st"],
    ["tr", "u"],
    ["con", "serv"],
    ["r", "ôle</w>"],
    ["p", "ens"],
    ["châ", "teau</w>"],
    ["f", "ré"],
    ["consi", "dé"],
    ["cul", "ture</w>"],
    ["a", "te</w>"],
    ["è", "le</w>"],
    ["angl", "ais</w>"],
    ["a", "fin</w>"],
    ["c", "ent"],
    ["o", "s"],
    ["v", "ari"],
    ["in", "a</w>"],
    ["i", "re</w>"],
    ["é", "cu"],
    ["dé", "j"],
    ["mon", "u"],
    ["conn", "u</w>"],
    ["eu", "t</w>"],
    ["c", "es"],
    ["a", "fri"],
    ["qu'", "ils</w>"],
    ["l'é", "qui"],
    ["c", "él"],
    ["s", "on"],
    ["che", "f</w>"],
    ["t", "our"],
    ["natu", "r"],
    ["ê", "t</w>"],
    ["déj", "à</w>"],
    ["th", "è"],
    ["i", "d"],
    ["ail", "leurs</w>"],
    ["oc", "t"],
    ["comm", "er"],
    ["seu", "l</w>"],
    ["fem", "mes</w>"],
    ["po", "ss"],
    ["sor", "ti</w>"],
    ["l'", "au"],
    ["t", "y</w>"],
    ["ac", "tu"],
    ["c", "ations</w>"],
    ["re", "cher"],
    ["k", "e</w>"],
    ["em", "ent"],
    ["dé", "mo"],
    ["tr", "on"],
    ["sp", "ec"],
    ["oi", "gn"],
    ["secon", "de</w>"],
    ["reli", "gi"],
    ["tro", "isi"],
    ["g", "ni"],
    ["l'", "ab"],
    ["â", "ge</w>"],
    ["mar", "s</w>"],
    ["c", "ant"],
    ["enf", "ants</w>"],
    ["bu", "r"],
    ["roy", "au"],
    ["b", "ro"],
    ["thé", "âtre</w>"],
    ["on", "es</w>"],
    ["ex", "emp"],
    ["con", "cer"],
    ["v", "eau</w>"],
    ["rou", "te</w>"],
    ["s'", "est</w>"],
    ["è", "ces</w>"],
    ["char", "les</w>"],
    ["c", "en"],
    ["c", "eux</w>"],
    ["beau", "coup</w>"],
    ["envir", "on</w>"],
    ["d", "on</w>"],
    ["l'", "église</w>"],
    ["ç", "on</w>"],
    ["troisi", "ème</w>"],
    ["t", "ot"],
    ["voi", "x</w>"],
    ["ri", "r</w>"],
    ["situ", "é</w>"],
    ["é", "conom"],
    ["di", "ri"],
    ["sep", "t"],
    ["ri", "ce</w>"],
    ["ter", "min"],
    ["es", "t-"],
    ["d'", "in"],
    ["a", "ï"],
    ["ob", "serv"],
    ["par", "mi</w>"],
    ["er", "a</w>"],
    ["m", "y"],
    ["mil", "li"],
    ["d'", "ab"],
    ["inter", "national</w>"],
    ["cô", "té</w>"],
    ["l'", "un</w>"],
    ["uni", "on</w>"],
    ["v", "ain"],
    ["mi", "ch"],
    ["m", "emb"],
    ["t", "éri"],
    ["minis", "tre</w>"],
    ["a", "h</w>"],
    ["av", "e</w>"],
    ["con", "du"],
    ["qu", "er</w>"],
    ["dé", "pu"],
    ["comm", "and"],
    ["oi", "x</w>"],
    ["sc", "ène</w>"],
    ["a", "o"],
    ["œu", "vre</w>"],
    ["st", "y"],
    ["z", "i"],
    ["fau", "t</w>"],
    ["péri", "ode</w>"],
    ["volu", "tion</w>"],
    ["pau", "l</w>"],
    ["j'", "ai</w>"],
    ["n'", "a</w>"],
    ["lan", "d</w>"],
    ["n", "ée</w>"],
    ["di", "c"],
    ["gr", "â"],
    ["ar", "riv"],
    ["d", "é</w>"],
    ["pl", "an"],
    ["c", "ess"],
    ["fi", "gu"],
    ["ti", "f</w>"],
    ["pi", "re</w>"],
    ["m", "ai</w>"],
    ["c", "as"],
    ["lon", "g</w>"],
    ["r", "aison</w>"],
    ["quel", "que</w>"],
    ["syst", "ème</w>"],
    ["tro", "p</w>"],
    ["vi", "ol"],
    ["em", "</w>"],
    ["f", "ou"],
    ["ati", "ve</w>"],
    ["dé", "m"],
    ["ais", "ons</w>"],
    ["o", "-"],
    ["aujour", "d'"],
    ["ann", "on"],
    ["no", "tre</w>"],
    ["ré", "g"],
    ["qu", "ant</w>"],
    ["aujourd'", "hui</w>"],
    ["si", "x</w>"],
    ["ti", "en</w>"],
    ["qu'", "un</w>"],
    ["t", "ar"],
    ["gen", "re</w>"],
    ["provin", "ce</w>"],
    ["v", "al</w>"],
    ["ré", "publique</w>"],
    ["st", "es</w>"],
    ["t", "able</w>"],
    ["muni", "cip"],
    ["gr", "é</w>"],
    ["ten", "ir</w>"],
    ["terri", "toire</w>"],
    ["k", "a</w>"],
    ["l'", "av"],
    ["trav", "ail</w>"],
    ["bâ", "ti"],
    ["l'", "on</w>"],
    ["per", "met"],
    ["ad", "a</w>"],
    ["œu", "r</w>"],
    ["s", "av"],
    ["ré", "sult"],
    ["ob", "jet</w>"],
    ["ju", "in</w>"],
    ["étu", "des</w>"],
    ["étu", "di"],
    ["mom", "ent</w>"],
    ["an", "o</w>"],
    ["acti", "vi"],
    ["l", "es"],
    ["f", "re"],
    ["is", "l"],
    ["b", "ois</w>"],
    ["por", "tant</w>"],
    ["il", "es</w>"],
    ["au", "-"],
    ["cert", "ains</w>"],
    ["en", "fin</w>"],
    ["nombr", "eux</w>"],
    ["è", "tres</w>"],
    ["peti", "te</w>"],
    ["su", "péri"],
    ["no", "s</w>"],
    ["t", "ôt</w>"],
    ["é", "pou"],
    ["comm", "en"],
    ["di", "eu</w>"],
    ["o", "li"],
    ["britan", "nique</w>"],
    ["caract", "éri"],
    ["ju", "illet</w>"],
    ["s", "in"],
    ["joh", "n</w>"],
    ["seu", "lement</w>"],
    ["grâ", "ce</w>"],
    ["eu", "ve</w>"],
    ["entr", "aî"],
    ["int", "ér"],
    ["h", "or"],
    ["b", "y</w>"],
    ["at", "te"],
    ["la", "quelle</w>"],
    ["ob", "re</w>"],
    ["min", "u"],
    ["memb", "res</w>"],
    ["l'équi", "pe</w>"],
    ["vou", "l"],
    ["vo", "tre</w>"],
    ["it", "ec"],
    ["ph", "ili"],
    ["ch", "ang"],
    ["l", "l"],
    ["dem", "and"],
    ["t", "in</w>"],
    ["es", "te</w>"],
    ["él", "ev"],
    ["d", "or"],
    ["s", "ar"],
    ["al", "ités</w>"],
    ["sou", "s-"],
    ["l'", "im"],
    ["r", "il</w>"],
    ["ri", "ch"],
    ["sept", "embre</w>"],
    ["distri", "bu"],
    ["fé", "dé"],
    ["li", "vre</w>"],
    ["u", "es</w>"],
    ["foot", "ball</w>"],
    ["lors", "que</w>"],
    ["ni", "veau</w>"],
    ["il", "lu"],
    ["dist", "in"],
    ["mu", "sée</w>"],
    ["ex", "pl"],
    ["d", "o</w>"],
    ["s", "er</w>"],
    ["da", "te</w>"],
    ["î", "le</w>"],
    ["pro", "jet</w>"],
    ["c", "t</w>"],
    ["oct", "obre</w>"],
    ["r", "è"],
    ["pro", "pri"],
    ["l", "at"],
    ["se", "au</w>"],
    ["com", "te</w>"],
    ["ar", "rê"],
    ["l", "in</w>"],
    ["qu", "é</w>"],
    ["et", "-"],
    ["per", "met</w>"],
    ["y", "eux</w>"],
    ["phy", "si"],
    ["gran", "ds</w>"],
    ["h", "ol"],
    ["meill", "eur</w>"],
    ["cri", "t</w>"],
    ["pu", "iss"],
    ["personn", "es</w>"],
    ["milit", "aire</w>"],
    ["n", "avi"],
    ["so", "ph"],
    ["peu", "vent</w>"],
    ["b", "as</w>"],
    ["re", "conn"],
    ["rom", "an</w>"],
    ["u", "t</w>"],
    ["ill", "er</w>"],
    ["litt", "ér"],
    ["l'", "état</w>"],
    ["jan", "vier</w>"],
    ["f", "av"],
    ["sti", "ques</w>"],
    ["qu", "éb"],
    ["pou", "voir</w>"],
    ["com", "b"],
    ["so", "lu"],
    ["h", "ou"],
    ["v", "a"],
    ["g", "o</w>"],
    ["ci", "pe</w>"],
    ["siè", "ge</w>"],
    ["di", "o</w>"],
    ["mondi", "ale</w>"],
    ["premi", "ers</w>"],
    ["du", "c</w>"],
    ["pres", "sion</w>"],
    ["franç", "ois</w>"],
    ["y", "or"],
    ["d'", "au"],
    ["ab", "or"],
    ["d", "in"],
    ["ten", "u</w>"],
    ["con", "fi"],
    ["sy", "n"],
    ["s", "oi"],
    ["v", "u</w>"],
    ["av", "ril</w>"],
    ["di", "vision</w>"],
    ["su", "per"],
    ["o", "y"],
    ["mili", "eu</w>"],
    ["aut", "ori"],
    ["l'", "en"],
    ["col", "on"],
    ["fin", "ale</w>"],
    ["au", "té</w>"],
    ["graph", "ie</w>"],
    ["v", "éri"],
    ["s", "ac"],
    ["ba", "se</w>"],
    ["édi", "tions</w>"],
    ["p", "er</w>"],
    ["ver", "sion</w>"],
    ["direc", "tion</w>"],
    ["al", "li"],
    ["tri", "ce</w>"],
    ["l'", "année</w>"],
    ["in", "dre</w>"],
    ["ass", "ez</w>"],
    ["è", "ge</w>"],
    ["allem", "and</w>"],
    ["b", "onne</w>"],
    ["h", "ô"],
    ["ri", "vi"],
    ["jac", "ques</w>"],
    ["b", "res</w>"],
    ["qu", "oi</w>"],
    ["er", "n"],
    ["it", "alie</w>"],
    ["h", "eur"],
    ["ém", "a</w>"],
    ["b", "es"],
    ["exemp", "le</w>"],
    ["é", "co"],
    ["lo", "i</w>"],
    ["ao", "ût</w>"],
    ["constru", "ction</w>"],
    ["ti", "er</w>"],
    ["pri", "v"],
    ["publi", "c</w>"],
    ["tra", "du"],
    ["li", "t</w>"],
    ["hu", "m"],
    ["j", "ets</w>"],
    ["ter", "ra"],
    ["t", "te</w>"],
    ["c", "essi"],
    ["ali", "gn"],
    ["a", "d</w>"],
    ["pé", "ti"],
    ["qu", "es"],
    ["l'ar", "mée</w>"],
    ["fr", "ère</w>"],
    ["por", "ts</w>"],
    ["vi", "t"],
    ["lon", "g"],
    ["dé", "fin"],
    ["pri", "ses</w>"],
    ["k", "i"],
    ["déc", "embre</w>"],
    ["re", "-"],
    ["c", "is"],
    ["du", "st"],
    ["ra", "pi"],
    ["s", "em"],
    ["c", "ée</w>"],
    ["ag", "ri"],
    ["fi", "cation</w>"],
    ["sci", "entifi"],
    ["allem", "agne</w>"],
    ["l'", "autre</w>"],
    ["sain", "t</w>"],
    ["s", "embl"],
    ["sty", "le</w>"],
    ["d", "oc"],
    ["ec", "tu"],
    ["ch", "ant</w>"],
    ["améric", "aine</w>"],
    ["ar", "ts</w>"],
    ["l'", "a"],
    ["cipa", "le</w>"],
    ["l'", "es"],
    ["l'", "ordre</w>"],
    ["s", "il"],
    ["champi", "on</w>"],
    ["cu", "r"],
    ["pr", "ét"],
    ["mo", "d"],
    ["élec", "tions</w>"],
    ["le", "v"],
    ["cham", "bre</w>"],
    ["ann", "</w>"],
    ["ra", "y"],
    ["dé", "t"],
    ["onn", "eur</w>"],
    ["p", "re</w>"],
    ["équi", "pe</w>"],
    ["com", "té</w>"],
    ["ph", "</w>"],
    ["g", "ie</w>"],
    ["d'", "être</w>"],
    ["bat", "aille</w>"],
    ["au", "rait</w>"],
    ["nov", "embre</w>"],
    ["ty", "pe</w>"],
    ["ti", "s"],
    ["ti", "ère</w>"],
    ["c", "al</w>"],
    ["ê", "tes</w>"],
    ["d", "ent</w>"],
    ["lan", "gue</w>"],
    ["l'", "histoire</w>"],
    ["emi", "-"],
    ["mar", "ie</w>"],
    ["se", "in</w>"],
    ["poin", "ts</w>"],
    ["n", "’"],
    ["con", "f"],
    ["su", "d-"],
    ["el", "le-"],
    ["fu", "rent</w>"],
    ["re", "ven"],
    ["t", "ori"],
    ["ro", "bert</w>"],
    ["g", "ri"],
    ["par", "l"],
    ["re", "tour</w>"],
    ["s", "enti"],
    ["v", "an</w>"],
    ["mat", "ch</w>"],
    ["m", "as"],
    ["for", "ce</w>"],
    ["no", "te</w>"],
    ["hau", "t</w>"],
    ["m", "éri"],
    ["rap", "port</w>"],
    ["tr", "an"],
    ["ar", "m"],
    ["pl", "e"],
    ["phili", "p"],
    ["c", "ab"],
    ["an", "a</w>"],
    ["habit", "ants</w>"],
    ["b", "en"],
    ["f", "év"],
    ["pro", "che</w>"],
    ["anci", "enne</w>"],
    ["è", "mes</w>"],
    ["écri", "t</w>"],
    ["prof", "ess"],
    ["enn", "ent</w>"],
    ["arti", "cle</w>"],
    ["cou", "r</w>"],
    ["v", "ing"],
    ["vi", "e"],
    ["dom", "in"],
    ["derni", "ère</w>"],
    ["y", "me</w>"],
    ["épis", "ode</w>"],
    ["cl", "assi"],
    ["au", "tour</w>"],
    ["ser", "ait</w>"],
    ["rap", "p"],
    ["ce", "in"],
    ["chan", "son</w>"],
    ["res", "t"],
    ["rom", "e</w>"],
    ["n", "ord"],
    ["pos", "te</w>"],
    ["o", "ph"],
    ["yor", "k</w>"],
    ["su", "is</w>"],
    ["à", "-"],
    ["cu", "ri"],
    ["reg", "is"],
    ["y", "n"],
    ["mouv", "ement</w>"],
    ["fr", "on"],
    ["possi", "ble</w>"],
    ["fév", "rier</w>"],
    ["tr", "e"],
    ["développ", "ement</w>"],
    ["ç", "a</w>"],
    ["prin", "ce</w>"],
    ["s", "en"],
    ["v", "é"],
    ["sour", "ces</w>"],
    ["s'", "ag"],
    ["ci", "en</w>"],
    ["aî", "tre</w>"],
    ["o", "gue</w>"],
    ["f", "er</w>"],
    ["cin", "éma</w>"],
    ["dé", "pend"],
    ["b", "a</w>"],
    ["h", "eures</w>"],
    ["moy", "en</w>"],
    ["suc", "cès</w>"],
    ["li", "en</w>"],
    ["seu", "le</w>"],
    ["s", "hi"],
    ["ic", "i</w>"],
    ["stru", "c"],
    ["v", "all"],
    ["li", "g"],
    ["pers", "onne</w>"],
    ["k", "ar"],
    ["pa", "ge</w>"],
    ["pu", "is"],
    ["pl", "an</w>"],
    ["p", "it"],
    ["d’", "un</w>"],
    ["n'", "y</w>"],
    ["nu", "it</w>"],
    ["am", "i</w>"],
    ["s", "an</w>"],
    ["pa", "sse</w>"],
    ["cré", "ation</w>"],
    ["écri", "v"],
    ["d", "onne</w>"],
    ["associ", "ation</w>"],
    ["mad", "ame</w>"],
    ["déf", "en"],
    ["s", "ens</w>"],
    ["qu", "arti"],
    ["parti", "cip"],
    ["d’", "une</w>"],
    ["ati", "ques</w>"],
    ["tan", "dis</w>"],
    ["u", "el</w>"],
    ["si", "eur</w>"],
    ["m", "eur"],
    ["p", "ec"],
    ["all", "</w>"],
    ["w", "or"],
    ["re", "jo"],
    ["ar", "ds</w>"],
    ["secon", "d</w>"],
    ["d", "res</w>"],
    ["cour", "t</w>"],
    ["enf", "ant</w>"],
    ["élec", "tion</w>"],
    ["gr", "av"],
    ["ce", "-"],
    ["qu", "ali"],
    ["ch", "au"],
    ["x", "im"],
    ["vis", "i"],
    ["progr", "am"],
    ["réalis", "é</w>"],
    ["ali", "er</w>"],
    ["por", "ter</w>"],
    ["is", "tes</w>"],
    ["b", "es</w>"],
    ["j", "et"],
    ["ac", "cor"],
    ["p", "ai"],
    ["d", "at"],
    ["ang", "er</w>"],
    ["d'", "é"],
    ["v", "an"],
    ["f", "esti"],
    ["align", "</w>"],
    ["m", "al</w>"],
    ["prof", "essi"],
    ["itali", "en</w>"],
    ["do", "cu"],
    ["tr", "adi"],
    ["d'", "am"],
    ["oc", "k"],
    ["at", "oire</w>"],
    ["si", "r</w>"],
    ["m", "aire</w>"],
    ["espa", "gne</w>"],
    ["di", "tion</w>"],
    ["sy", "m"],
    ["let", "erre</w>"],
    ["m", "ac"],
    ["fon", "d</w>"],
    ["le", "y</w>"],
    ["met", "tre</w>"],
    ["cl", "au"],
    ["jo", "se"],
    ["c'", "était</w>"],
    ["nord", "-"],
    ["ti", "ve</w>"],
    ["cau", "se</w>"],
    ["sep", "t</w>"],
    ["f", "t</w>"],
    ["mich", "el</w>"],
    ["sur", "tout</w>"],
    ["lu", "i-"],
    ["sor", "t</w>"],
    ["par", "o"],
    ["oi", "e</w>"],
    ["ang", "leterre</w>"],
    ["m", "and"],
    ["aut", "om"],
    ["ch", "es"],
    ["a", "jou"],
    ["v", "oit</w>"],
    ["olog", "ique</w>"],
    ["r", "et</w>"],
    ["lui-", "même</w>"],
    ["au", "gu"],
    ["prin", "cipale</w>"],
    ["l", "am"],
    ["œu", "vres</w>"],
    ["pein", "tre</w>"],
    ["mal", "gré</w>"],
    ["fi", "ci"],
    ["li", "eu"],
    ["produ", "it</w>"],
    ["dis", "par"],
    ["ci", "de</w>"],
    ["sc", "én"],
    ["su", "isse</w>"],
    ["el", "i"],
    ["personn", "alité</w>"],
    ["s", "am"],
    ["da", "e</w>"],
    ["s", "s</w>"],
    ["è", "nes</w>"],
    ["mo", "der"],
    ["vi", "dé"],
    ["hu", "it</w>"],
    ["el", "l</w>"],
    ["voi", "e</w>"],
    ["ri", "ve</w>"],
    ["ê", "que</w>"],
    ["g", "ée</w>"],
    ["por", "té</w>"],
    ["re", "gar"],
    ["w", "al"],
    ["ac", "teur</w>"],
    ["et", "tes</w>"],
    ["a", "-"],
    ["re", "fu"],
    ["b", "ay"],
    ["p", "u</w>"],
    ["f", "ont</w>"],
    ["class", "ement</w>"],
    ["télé", "vis"],
    ["z", "one</w>"],
    ["cho", "se</w>"],
    ["ti", "me</w>"],
    ["pré", "cé"],
    ["d'ab", "ord</w>"],
    ["professi", "onn"],
    ["onn", "é</w>"],
    ["vi", "v"],
    ["k", "h"],
    ["gar", "e</w>"],
    ["nombr", "euses</w>"],
    ["nouv", "elles</w>"],
    ["app", "li"],
    ["tr", "ait</w>"],
    ["cam", "pa"],
    ["donn", "é</w>"],
    ["w", "illi"],
    ["b", "ab"],
    ["d'", "ex"],
    ["qu'", "une</w>"],
    ["trav", "aux</w>"],
    ["inst", "all"],
    ["du", "e</w>"],
    ["oc", "ca"],
    ["cy", "cl"],
    ["can", "ada</w>"],
    ["o", "re</w>"],
    ["k", "i</w>"],
    ["f", "ra"],
    ["ch", "ine</w>"],
    ["commun", "auté</w>"],
    ["sor", "tie</w>"],
    ["entre", "prise</w>"],
    ["ast", "éro"],
    ["distribu", "tion</w>"],
    ["compagn", "ie</w>"],
    ["rivi", "ère</w>"],
    ["ren", "contre</w>"],
    ["'", "s</w>"],
    ["ori", "e</w>"],
    ["si", "s</w>"],
    ["gn", "es</w>"],
    ["z-", "vous</w>"],
    ["gu", "er"],
    ["at", "ten"],
    ["maî", "tre</w>"],
    ["résult", "ats</w>"],
    ["d", "ement</w>"],
    ["ca", "pa"],
    ["sur", "-"],
    ["d", "avi"],
    ["d'", "or</w>"],
    ["mon", "sieur</w>"],
    ["ail", "les</w>"],
    ["s", "tique</w>"],
    ["l'é", "cole</w>"],
    ["entraî", "n"],
    ["mani", "ère</w>"],
    ["ai", "ses</w>"],
    ["pl", "at"],
    ["rem", "plac"],
    ["g", "ag"],
    ["b", "ran"],
    ["d", "ol"],
    ["ber", "n"],
    ["ho", "li"],
    ["hen", "ri</w>"],
    ["aff", "aires</w>"],
    ["on", "ais</w>"],
    ["ré", "gu"],
    ["particu", "li"],
    ["g", "es"],
    ["y", "p"],
    ["trav", "er"],
    ["édi", "tion</w>"],
    ["dépu", "té</w>"],
    ["c", "av"],
    ["dé", "rou"],
    ["in", "i"],
    ["vi", "t</w>"],
    ["po", "st"],
    ["le", "quel</w>"],
    ["au", "r"],
    ["g", "ol"],
    ["on", "i"],
    ["ju", "sti"],
    ["d'", "h"],
    ["direc", "teur</w>"],
    ["méd", "ec"],
    ["gh", "t</w>"],
    ["astéro", "ï"],
    ["dém", "ie</w>"],
    ["m", "ine</w>"],
    ["mi", "eux</w>"],
    ["s'", "il</w>"],
    ["li", "ber"],
    ["tab", "le"],
    ["al", "y"],
    ["donn", "er</w>"],
    ["en", "-"],
    ["in", "stitu"],
    ["al", "ex"],
    ["rem", "ar"],
    ["l'", "i"],
    ["cli", "m"],
    ["eng", "ag"],
    ["contin", "u"],
    ["dé", "sign"],
    ["olympi", "ques</w>"],
    ["di", "x</w>"],
    ["pres", "que</w>"],
    ["com", "péti"],
    ["su", "ff"],
    ["ph", "ilo"],
    ["publi", "é</w>"],
    ["du", "s</w>"],
    ["peu", "t-"],
    ["fai", "te</w>"],
    ["cat", "holi"],
    ["g", "re"],
    ["ill", "</w>"],
    ["découver", "t</w>"],
    ["vol", "</w>"],
    ["s", "ing"],
    ["st", "ation</w>"],
    ["r", "y"],
    ["st", "atu"],
    ["tech", "nique</w>"],
    ["dé", "bu"],
    ["ai", "e</w>"],
    ["l'", "homme</w>"],
    ["ch", "in"],
    ["auc", "un</w>"],
    ["h", "ors</w>"],
    ["f", "e"],
    ["on", "-"],
    ["profess", "eur</w>"],
    ["it", "es</w>"],
    ["d", "emi-"],
    ["régi", "on"],
    ["ra", "ss"],
    ["ter", "ie</w>"],
    ["onn", "ement</w>"],
    ["si", "gne</w>"],
    ["t", "ent"],
    ["is", "-"],
    ["vic", "toire</w>"],
    ["décl", "ar"],
    ["l", "ab"],
    ["cor", "respon"],
    ["philo", "soph"],
    ["ad", "ap"],
    ["k", "e"],
    ["des", "tin"],
    ["des", "cription</w>"],
    ["p", "oi"],
    ["d'", "après</w>"],
    ["des", "sus</w>"],
    ["recher", "che</w>"],
    ["occu", "p"],
    ["ex", "pli"],
    ["a", "h"],
    ["dem", "ande</w>"],
    ["ouv", "re</w>"],
    ["gau", "che</w>"],
    ["occu", "pa"],
    ["s", "pi"],
    ["sé", "par"],
    ["blan", "c</w>"],
    ["bu", "l"],
    ["li", "gue</w>"],
    ["jou", "e</w>"],
    ["ord", "s</w>"],
    ["b", "én"],
    ["ch", "ac"],
    ["par", "c</w>"],
    ["sour", "ce</w>"],
    ["comm", "ence</w>"],
    ["con", "sé"],
    ["administr", "ation</w>"],
    ["a", "e</w>"],
    ["gi", "que</w>"],
    ["tom", "b"],
    ["let", "tres</w>"],
    ["u", "res</w>"],
    ["ch", "ant"],
    ["lan", "de</w>"],
    ["ari", "o</w>"],
    ["l'", "op"],
    ["peut-", "être</w>"],
    ["ti", "ers</w>"],
    ["int", "ég"],
    ["l'", "est</w>"],
    ["ori", "ent"],
    ["n", "av"],
    ["l", "av"],
    ["pr", "ê"],
    ["jeun", "es</w>"],
    ["québ", "ec</w>"],
    ["rem", "porte</w>"],
    ["si", "gni"],
    ["par", "fois</w>"],
    ["méd", "aille</w>"],
    ["cad", "re</w>"],
    ["titu", "de</w>"],
    ["festi", "val</w>"],
    ["n", "ature</w>"],
    ["é", "ment</w>"],
    ["th", "om"],
    ["un", "i</w>"],
    ["n", "ap"],
    ["scientifi", "que</w>"],
    ["o", "d"],
    ["per", "eur</w>"],
    ["p", "y"],
    ["mo", "t</w>"],
    ["ré", "seau</w>"],
    ["ai", "de</w>"],
    ["f", "c</w>"],
    ["téri", "eur</w>"],
    ["ass", "embl"],
    ["cep", "tion</w>"],
    ["afri", "que</w>"],
    ["cert", "aines</w>"],
    ["s", "ab"],
    ["éra", "le</w>"],
    ["ord", "in"],
    ["organis", "ation</w>"],
    ["équi", "pes</w>"],
    ["mar", "ch"],
    ["pro", "pre</w>"],
    ["gran", "des</w>"],
    ["l", "t</w>"],
    ["an", "ge</w>"],
    ["em", "por"],
    ["trav", "aill"],
    ["ber", "g</w>"],
    ["cré", "é</w>"],
    ["mo", "ine</w>"],
    ["in", "i</w>"],
    ["comm", "uni"],
    ["c", "ru"],
    ["l'", "or"],
    ["lon", "dres</w>"],
    ["cl", "asse</w>"],
    ["o", "des</w>"],
    ["b", "é"],
    ["s", "én"],
    ["cant", "on</w>"],
    ["n", "a</w>"],
    ["ati", "f</w>"],
    ["m", "ont</w>"],
    ["o", "v"],
    ["can", "adi"],
    ["situ", "ation</w>"],
    ["davi", "d</w>"],
    ["g", "a</w>"],
    ["a", "ffi"],
    ["as", "h"],
    ["chem", "in</w>"],
    ["celu", "i-"],
    ["et", "c</w>"],
    ["l", "é</w>"],
    ["ci", "el</w>"],
    ["gar", "de</w>"],
    ["journ", "al</w>"],
    ["g", "ement</w>"],
    ["étu", "de</w>"],
    ["o", "ise</w>"],
    ["ai", "rement</w>"],
    ["trouv", "er</w>"],
    ["ex", "e</w>"],
    ["suiv", "ant</w>"],
    ["jose", "ph</w>"],
    ["philip", "pe</w>"],
    ["s", "cul"],
    ["é", "cl"],
    ["so", "li"],
    ["l", "s</w>"],
    ["en", "seign"],
    ["rou", "ge</w>"],
    ["sou", "ff"],
    ["p", "ér"],
    ["qu'", "à</w>"],
    ["arch", "itec"],
    ["différ", "entes</w>"],
    ["é", "volu"],
    ["en", "voy"],
    ["lég", "isl"],
    ["dé", "li"],
    ["com", "édi"],
    ["é", "poque</w>"],
    ["ré", "ci"],
    ["n", "ég"],
    ["vain", "qu"],
    ["ré", "es</w>"],
    ["o", "d</w>"],
    ["moy", "enne</w>"],
    ["trav", "ers</w>"],
    ["v", "ent"],
    ["ci", "le</w>"],
    ["p", "et"],
    ["let", "tre</w>"],
    ["p", "én"],
    ["y", "-"],
    ["mes", "ure</w>"],
    ["dé", "s"],
    ["in", "iti"],
    ["r", "on</w>"],
    ["esp", "èces</w>"],
    ["f", "eu"],
    ["vol", "on"],
    ["eu", "sement</w>"],
    ["f", "our"],
    ["ru", "sse</w>"],
    ["sk", "i</w>"],
    ["ter", "me</w>"],
    ["pr", "ouv"],
    ["vidé", "o</w>"],
    ["l'", "île</w>"],
    ["d", "ant</w>"],
    ["él", "u</w>"],
    ["sci", "ences</w>"],
    ["s", "emble</w>"],
    ["occupa", "tion</w>"],
    ["m", "e-"],
    ["parti", "cipe</w>"],
    ["f", "abri"],
    ["k", "o</w>"],
    ["g", "ens</w>"],
    ["cein", "ture</w>"],
    ["é", "tique</w>"],
    ["w", "il"],
    ["k", "er</w>"],
    ["ven", "ir</w>"],
    ["f", "eu</w>"],
    ["dépar", "t"],
    ["bre", "t"],
    ["particu", "lier</w>"],
    ["pe", "ine</w>"],
    ["di", "pl"],
    ["t", "oires</w>"],
    ["ati", "ves</w>"],
    ["fé", "min"],
    ["th", "i"],
    ["pré", "par"],
    ["in", "ée</w>"],
    ["an", "c"],
    ["n", "oir</w>"],
    ["and", "re</w>"],
    ["l'", "al"],
    ["to", "r</w>"],
    ["w", "o"],
    ["premi", "ères</w>"],
    ["sor", "ti"],
    ["è", "se</w>"],
    ["l'é", "poque</w>"],
    ["è", "s-"],
    ["quarti", "er</w>"],
    ["ré", "du"],
    ["ni", "ques</w>"],
    ["d'", "eau</w>"],
    ["end", "r"],
    ["entr", "ée</w>"],
    ["pass", "é</w>"],
    ["par", "t"],
    ["v", "il"],
    ["d", "oi"],
    ["ar", "g"],
    ["gé", "ographie</w>"],
    ["in", "dust"],
    ["en", "d</w>"],
    ["l", "ec"],
    ["prés", "ence</w>"],
    ["t", "on"],
    ["eff", "ectu"],
    ["étr", "ang"],
    ["mé", "m"],
    ["p", "ont</w>"],
    ["pi", "er"],
    ["i", "ii</w>"],
    ["différ", "ents</w>"],
    ["m", "ati"],
    ["t", "el"],
    ["ais", "se</w>"],
    ["ai", "gn"],
    ["seign", "eur</w>"],
    ["télé", "vision</w>"],
    ["mi", "que</w>"],
    ["cho", "is"],
    ["for", "ces</w>"],
    ["mé", "tr"],
    ["ch", "aî"],
    ["auc", "une</w>"],
    ["p", "om"],
    ["ë", "l</w>"],
    ["pos", "é</w>"],
    ["com", "posi"],
    ["m", "ol"],
    ["suiv", "ante</w>"],
    ["v", "illes</w>"],
    ["fil", "ms</w>"],
    ["épou", "se</w>"],
    ["constru", "it</w>"],
    ["c", "teur</w>"],
    ["c", "ale</w>"],
    ["j", "a"],
    ["illu", "str"],
    ["télévis", "ée</w>"],
    ["l", "ac</w>"],
    ["l'", "ouest</w>"],
    ["par", "ce</w>"],
    ["ecti", "f</w>"],
    ["dis", "sement</w>"],
    ["en", "regis"],
    ["s'ag", "it</w>"],
    ["lo", "in</w>"],
    ["c", "elles</w>"],
    ["on", "ze</w>"],
    ["én", "er"],
    ["fré", "qu"],
    ["pou", "ss"],
    ["m", "ains</w>"],
    ["ch", "s</w>"],
    ["d", "y</w>"],
    ["au", "str"],
    ["occa", "sion</w>"],
    ["bes", "o"],
    ["droi", "te</w>"],
    ["peu", "ple</w>"],
    ["celui-", "ci</w>"],
    ["qu", "e"],
    ["donn", "ées</w>"],
    ["k", "s</w>"],
    ["fon", "c"],
    ["w", "ar"],
    ["ra", "ges</w>"],
    ["s", "por"],
    ["g", "a"],
    ["b", "elle</w>"],
    ["au", "près</w>"],
    ["m", "ille</w>"],
    ["ru", "ssi"],
    ["ex", "ist"],
    ["cour", "se</w>"],
    ["d", "en</w>"],
    ["gu", "eur</w>"],
    ["espa", "gn"],
    ["d'", "or"],
    ["pri", "s"],
    ["all", "er</w>"],
    ["rés", "ist"],
    ["ô", "me</w>"],
    ["étab", "lis"],
    ["an", "ne</w>"],
    ["ap", "pro"],
    ["d", "ar"],
    ["ab", "and"],
    ["campa", "gne</w>"],
    ["ét", "és</w>"],
    ["t", "elle</w>"],
    ["n", "o</w>"],
    ["i", "tion</w>"],
    ["ju", "i"],
    ["offici", "el</w>"],
    ["qu’", "il</w>"],
    ["gu", "ill"],
    ["m", "el"],
    ["l'", "une</w>"],
    ["a", "démie</w>"],
    ["lo", "s</w>"],
    ["t", "els</w>"],
    ["y", "er</w>"],
    ["jusqu'", "en</w>"],
    ["bel", "gique</w>"],
    ["pass", "er</w>"],
    ["is", "ation</w>"],
    ["pouv", "ait</w>"],
    ["tou", "te"],
    ["v", "au"],
    ["c", "’"],
    ["mat", "éri"],
    ["b", "s</w>"],
    ["tri", "b"],
    ["ob", "tient</w>"],
    ["distri", "ct</w>"],
    ["é", "vi"],
    ["ag", "ue</w>"],
    ["b", "ac"],
    ["sal", "le</w>"],
    ["toute", "fois</w>"],
    ["sol", "d"],
    ["j", "ard"],
    ["z", "a</w>"],
    ["m", "oi"],
    ["spec", "t"],
    ["ot", "te</w>"],
    ["g", "on"],
    ["au", "g"],
    ["ex", "tr"],
    ["cons", "ac"],
    ["sau", "v"],
    ["t", "al"],
    ["monu", "ments</w>"],
    ["p", "les</w>"],
    ["h", "an"],
    ["pos", "er</w>"],
    ["c", "ali"],
    ["chri", "st"],
    ["l", "i</w>"],
    ["ser", "ve</w>"],
    ["b", "ap"],
    ["alis", "ation</w>"],
    ["as", "su"],
    ["plu", "part</w>"],
    ["sci", "ence</w>"],
    ["utilis", "é</w>"],
    ["ex", "iste</w>"],
    ["c", "ell"],
    ["m", "ètres</w>"],
    ["dou", "ble</w>"],
    ["dou", "te</w>"],
    ["su", "it</w>"],
    ["milli", "ons</w>"],
    ["ré", "volution</w>"],
    ["z", "o"],
    ["at", "tribu"],
    ["mu", "r"],
    ["bil", "ité</w>"],
    ["russi", "e</w>"],
    ["li", "bre</w>"],
    ["scul", "p"],
    ["fon", "ction</w>"],
    ["r", "endre</w>"],
    ["quali", "fi"],
    ["a", "si"],
    ["tro", "ph"],
    ["in", "o</w>"],
    ["cl", "o"],
    ["i", "g"],
    ["l", "le</w>"],
    ["ra", "le</w>"],
    ["ven", "tion</w>"],
    ["can", "di"],
    ["comm", "ent</w>"],
    ["championn", "ats</w>"],
    ["pal", "mar"],
    ["land", "ais</w>"],
    ["dom", "aine</w>"],
    ["p", "el"],
    ["t", "un"],
    ["vo", "is"],
    ["h", "al"],
    ["d", "ame</w>"],
    ["s'", "en</w>"],
    ["é", "cole</w>"],
    ["én", "ag"],
    ["f", "ie</w>"],
    ["des", "c"],
    ["palmar", "ès</w>"],
    ["k", "u"],
    ["fin", "alement</w>"],
    ["ne", "y</w>"],
    ["for", "d</w>"],
    ["v", "esti"],
    ["roy", "al</w>"],
    ["e", "ût</w>"],
    ["gu", "i"],
    ["pl", "a"],
    ["z", "u"],
    ["re", "ti"],
    ["fais", "ant</w>"],
    ["a", "se</w>"],
    ["w", "it"],
    ["jap", "on</w>"],
    ["tr", "e-"],
    ["pal", "ais</w>"],
    ["v", "ar"],
    ["mê", "mes</w>"],
    ["f", "ar"],
    ["main", "tenant</w>"],
    ["cat", "ég"],
    ["enn", "em"],
    ["d", "ro"],
    ["minu", "tes</w>"],
    ["servi", "ces</w>"],
    ["s", "ait</w>"],
    ["t", "ch"],
    ["ou", "i</w>"],
    ["er", "i"],
    ["ti", "é</w>"],
    ["rest", "au"],
    ["b", "onn"],
    ["qu'", "en</w>"],
    ["histori", "ques</w>"],
    ["fl", "am"],
    ["and", "s</w>"],
    ["fais", "ait</w>"],
    ["re", "ine</w>"],
    ["b", "au"],
    ["pré", "f"],
    ["n", "ent</w>"],
    ["com", "bat"],
    ["at", "es</w>"],
    ["n'", "était</w>"],
    ["cr", "oix</w>"],
    ["tex", "te</w>"],
    ["activi", "té</w>"],
    ["r", "o</w>"],
    ["pro", "bl"],
    ["pa", "ti"],
    ["li", "vres</w>"],
    ["meill", "eure</w>"],
    ["et", "é</w>"],
    ["capit", "aine</w>"],
    ["indi", "vi"],
    ["geor", "ges</w>"],
    ["an", "i"],
    ["comm", "is"],
    ["commer", "ci"],
    ["olog", "ne</w>"],
    ["sim", "ple</w>"],
    ["and", "ré</w>"],
    ["ni", "col"],
    ["for", "mes</w>"],
    ["w", "n</w>"],
    ["mul", "ti"],
    ["c", "ouv"],
    ["trou", "pes</w>"],
    ["ré", "v"],
    ["év", "én"],
    ["li", "eux</w>"],
    ["a", "des</w>"],
    ["re", "au</w>"],
    ["n'", "en</w>"],
    ["cu", "le</w>"],
    ["mari", "age</w>"],
    ["bra", "s</w>"],
    ["min", "ist"],
    ["mar", "tin</w>"],
    ["po", "s</w>"],
    ["ti", "enne</w>"],
    ["patri", "moine</w>"],
    ["mat", "chs</w>"],
    ["vo", "il"],
    ["inf", "lu"],
    ["r", "eur</w>"],
    ["in", "stru"],
    ["qu", "in"],
    ["in", "form"],
    ["gén", "érale</w>"],
    ["i", "m</w>"],
    ["né", "cess"],
    ["table", "au</w>"],
    ["quel", "s</w>"],
    ["inter", "nationale</w>"],
    ["ac", "cep"],
    ["san", "té</w>"],
    ["vainqu", "eur</w>"],
    ["end", "ant</w>"],
    ["bou", "t</w>"],
    ["ci", "er</w>"],
    ["th", "e"],
    ["i", "dé"],
    ["ch", "ron"],
    ["él", "ém"],
    ["bibli", "o"],
    ["vi", "eux</w>"],
    ["ér", "o</w>"],
    ["élec", "tri"],
    ["dev", "ait</w>"],
    ["diff", "us"],
    ["clau", "de</w>"],
    ["droi", "ts</w>"],
    ["ex", "écu"],
    ["z", "ones</w>"],
    ["il", "ité</w>"],
    ["appel", "é</w>"],
    ["tr", "ac"],
    ["dis", "pu"],
    ["oc", "cid"],
    ["ori", "té</w>"],
    ["g", "ér"],
    ["di", "fi"],
    ["f", "ant"],
    ["f", "e</w>"],
    ["g", "am"],
    ["v", "i</w>"],
    ["ar", "chi"],
    ["personn", "age</w>"],
    ["n", "ie</w>"],
    ["comb", "at</w>"],
    ["é", "ni"],
    ["bu", "s</w>"],
    ["si", "té</w>"],
    ["d", "el</w>"],
    ["s", "co"],
    ["chap", "elle</w>"],
    ["all", "ait</w>"],
    ["p", "a</w>"],
    ["d'", "origine</w>"],
    ["princip", "alement</w>"],
    ["empl", "oy"],
    ["tionn", "aire</w>"],
    ["g", "ou"],
    ["bel", "ge</w>"],
    ["pr", "on"],
    ["ti", "fi"],
    ["s", "avoir</w>"],
    ["peti", "ts</w>"],
    ["poli", "tiques</w>"],
    ["foot", "ball"],
    ["ro", "s</w>"],
    ["royau", "me</w>"],
    ["sol", "s</w>"],
    ["an", "th"],
    ["di", "tions</w>"],
    ["m", "ass"],
    ["mon", "tre</w>"],
    ["princip", "al</w>"],
    ["k", "il"],
    ["v", "ais</w>"],
    ["compéti", "tion</w>"],
    ["è", "tes</w>"],
    ["co", "eur</w>"],
    ["ron", "dissement</w>"],
    ["n", "et</w>"],
    ["s", "oir</w>"],
    ["bâti", "ment</w>"],
    ["i", "le</w>"],
    ["ann", "exes</w>"],
    ["reç", "oit</w>"],
    ["c", "ass"],
    ["ouver", "ture</w>"],
    ["m", "y</w>"],
    ["willi", "am</w>"],
    ["pi", "ed</w>"],
    ["dé", "part</w>"],
    ["espa", "ce</w>"],
    ["jeun", "esse</w>"],
    ["mar", "que</w>"],
    ["cri", "tique</w>"],
    ["v", "on</w>"],
    ["cho", "ses</w>"],
    ["en", "ir</w>"],
    ["posi", "tions</w>"],
    ["por", "tu"],
    ["ur", "b"],
    ["europé", "enne</w>"],
    ["ré", "parti"],
    ["rec", "u"],
    ["arti", "ste</w>"],
    ["ins", "pi"],
    ["n", "ant</w>"],
    ["x", "xe</w>"],
    ["am", "is</w>"],
    ["écriv", "ain</w>"],
    ["di", "ver"],
    ["si", "onn"],
    ["fr", "oi"],
    ["ti", "tres</w>"],
    ["f", "lu"],
    ["fa", "çon</w>"],
    ["l'", "</w>"],
    ["ch", "im"],
    ["ê", "ts</w>"],
    ["b", "ord</w>"],
    ["ran", "</w>"],
    ["m", "ann</w>"],
    ["enregis", "tr"],
    ["c", "roy"],
    ["an", "aly"],
    ["un", "ité</w>"],
    ["vi", "ennent</w>"],
    ["qu", "ent</w>"],
    ["pi", "èce</w>"],
    ["ac", "trice</w>"],
    ["cél", "è"],
    ["st", "ati"],
    ["curi", "té</w>"],
    ["at", "rice</w>"],
    ["tro", "du"],
    ["ess", "enti"],
    ["dé", "tru"],
    ["régu", "li"],
    ["plu", "tôt</w>"],
    ["s", "ant</w>"],
    ["l'em", "pereur</w>"],
    ["sol", "</w>"],
    ["l", "d</w>"],
    ["t", "é"],
    ["mat", "h"],
    ["justi", "ce</w>"],
    ["pr", "esse</w>"],
    ["oi", "ent</w>"],
    ["e", "g"],
    ["l'", "ensemble</w>"],
    ["assembl", "ée</w>"],
    ["clim", "at</w>"],
    ["r", "ol"],
    ["ren", "contr"],
    ["expl", "oi"],
    ["ve", "ill"],
    ["m", "él"],
    ["indust", "ri"],
    ["ad", "op"],
    ["cul", "tur"],
    ["voy", "age</w>"],
    ["bi", "le</w>"],
    ["p", "sy"],
    ["long", "temps</w>"],
    ["thom", "as</w>"],
    ["coll", "abor"],
    ["è", "tre</w>"],
    ["eu", "x-"],
    ["re", "vue</w>"],
    ["ouv", "rage</w>"],
    ["l'", "album</w>"],
    ["ff", "</w>"],
    ["monu", "ment</w>"],
    ["y", "a</w>"],
    ["référ", "ence</w>"],
    ["ch", "u"],
    ["pri", "m"],
    ["v", "in</w>"],
    ["temp", "ér"],
    ["n'", "avait</w>"],
    ["ri", "s</w>"],
    ["ban", "de</w>"],
    ["m", "ex"],
    ["'", "</w>"],
    ["anci", "ens</w>"],
    ["el", "d</w>"],
    ["r", "h"],
    ["dr", "am"],
    ["d", "av"],
    ["fl", "or"],
    ["par", "ois"],
    ["ch", "ré"],
    ["ser", "t</w>"],
    ["pass", "age</w>"],
    ["municip", "alité</w>"],
    ["im", "ent</w>"],
    ["terra", "in</w>"],
    ["capit", "ale</w>"],
    ["d'", "europe</w>"],
    ["ant", "o"],
    ["épis", "odes</w>"],
    ["d'", "état</w>"],
    ["con", "tribu"],
    ["c", "esse</w>"],
    ["qu", "ée</w>"],
    ["su", "jet</w>"],
    ["mar", "ine</w>"],
    ["annon", "ce</w>"],
    ["qu", "ête</w>"],
    ["chev", "alier</w>"],
    ["défen", "se</w>"],
    ["cré", "ée</w>"],
    ["pr", "euve</w>"],
    ["lu", "s</w>"],
    ["y", "ou"],
    ["li", "r</w>"],
    ["chri", "sti"],
    ["ad", "res"],
    ["rejo", "int</w>"],
    ["an", "g</w>"],
    ["b", "é</w>"],
    ["ph", "on"],
    ["nu", "m"],
    ["st", "er</w>"],
    ["nouv", "eaux</w>"],
    ["c", "œur</w>"],
    ["b", "eau</w>"],
    ["in", "é</w>"],
    ["jam", "es</w>"],
    ["sec", "ré"],
    ["l'", "o"],
    ["t-", "elle</w>"],
    ["pl", "ai"],
    ["es", "sion</w>"],
    ["pol", "y"],
    ["du", "cation</w>"],
    ["génér", "alement</w>"],
    ["rapi", "dement</w>"],
    ["jusqu'", "au</w>"],
    ["om", "</w>"],
    ["t", "s"],
    ["ques", "tion</w>"],
    ["poss", "ède</w>"],
    ["coll", "ection</w>"],
    ["av", "an"],
    ["l'", "eau</w>"],
    ["nouv", "elle-"],
    ["p", "ilo"],
    ["p", "in"],
    ["sain", "te-"],
    ["ar", "ab"],
    ["pi", "e"],
    ["football", "eur</w>"],
    ["l'", "âge</w>"],
    ["f", "en"],
    ["car", "te</w>"],
    ["oi", "rs</w>"],
    ["grou", "pes</w>"],
    ["accu", "e"],
    ["ran", "ce</w>"],
    ["ouver", "t</w>"],
    ["d'", "o"],
    ["uni", "que</w>"],
    ["der", "rière</w>"],
    ["lar", "ge</w>"],
    ["g", "éri"],
    ["poli", "ce</w>"],
    ["caractéri", "stiques</w>"],
    ["améri", "que</w>"],
    ["con", "dam"],
    ["d'ar", "gent</w>"],
    ["l'h", "ô"],
    ["geor", "ge</w>"],
    ["ol", "é"],
    ["s", "port</w>"],
    ["popul", "aire</w>"],
    ["program", "me</w>"],
    ["physi", "que</w>"],
    ["p", "ê"],
    ["mani", "f"],
    ["u", "r</w>"],
    ["conn", "ue</w>"],
    ["t", "ées</w>"],
    ["--", "--"],
    ["ru", "g"],
    ["b", "y"],
    ["l'", "ét"],
    ["catholi", "que</w>"],
    ["b", "rés"],
    ["og", "ne</w>"],
    ["du", "rée</w>"],
    ["pi", "èces</w>"],
    ["au", "teur</w>"],
    ["l'", "ancien</w>"],
    ["lu", "mi"],
    ["ch", "a</w>"],
    ["et", "h</w>"],
    ["pai", "x</w>"],
    ["com", "par"],
    ["ou", "tre</w>"],
    ["dan", "i"],
    ["m", "ai"],
    ["rich", "ard</w>"],
    ["biblio", "thè"],
    ["démo", "cra"],
    ["tot", "al</w>"],
    ["allem", "ande</w>"],
    ["im", "portant</w>"],
    ["aff", "aire</w>"],
    ["ograph", "ique</w>"],
    ["lon", "gue</w>"],
    ["ss", "es</w>"],
    ["sor", "te</w>"],
    ["l", "y</w>"],
    ["compos", "é</w>"],
    ["candi", "d"],
    ["oi", "le</w>"],
    ["activi", "tés</w>"],
    ["royau", "me-"],
    ["ç", "ant</w>"],
    ["ob", "j"],
    ["royaume-", "uni</w>"],
    ["trai", "té</w>"],
    ["k", "er"],
    ["ag", "u"],
    ["b", "ie</w>"],
    ["char", "ge</w>"],
    ["liber", "té</w>"],
    ["mi", "cha"],
    ["pré", "ci"],
    ["trai", "te</w>"],
    ["r", "ar"],
    ["k", "ra"],
    ["hau", "te</w>"],
    ["al", "-"],
    ["int", "éri"],
    ["hi", "ver</w>"],
    ["oc", "é"],
    ["ac", "compagn"],
    ["t", "op"],
    ["s", "ent</w>"],
    ["ar", "mée</w>"],
    ["v", "eut</w>"],
    ["fi", "que</w>"],
    ["l'", "union</w>"],
    ["départ", "ement"],
    ["gal", "erie</w>"],
    ["ca", "st"],
    ["supéri", "eur</w>"],
    ["t", "ours</w>"],
    ["l'", "inter"],
    ["â", "me</w>"],
    ["deven", "u</w>"],
    ["di", "vers</w>"],
    ["bap", "ti"],
    ["p", "ologne</w>"],
    ["prés", "ent</w>"],
    ["par", "ler</w>"],
    ["déc", "or"],
    ["r", "av"],
    ["tu", "s</w>"],
    ["ré", "sid"],
    ["parti", "es</w>"],
    ["portu", "g"],
    ["figu", "re</w>"],
    ["car", "tes</w>"],
    ["pron", "on"],
    ["di", "ffi"],
    ["fédé", "ration</w>"],
    ["ti", "ss"],
    ["c’", "est</w>"],
    ["commis", "sion</w>"],
    ["op", "éra"],
    ["z", "e"],
    ["cert", "ain</w>"],
    ["à-", "dire</w>"],
    ["vall", "ée</w>"],
    ["él", "ève</w>"],
    ["est-", "à-dire</w>"],
    ["st", "ade</w>"],
    ["b", "lo"],
    ["so", "vi"],
    ["chac", "un</w>"],
    ["es", "prit</w>"],
    ["g", "h</w>"],
    ["pour", "quoi</w>"],
    ["at", "a</w>"],
    ["g", "or"],
    ["is", "su"],
    ["lib", "ér"],
    ["ex", "péri"],
    ["th", "er"],
    ["l", "our"],
    ["par", "lement</w>"],
    ["prot", "ég"],
    ["s'", "était</w>"],
    ["vo", "ï"],
    ["origin", "ale</w>"],
    ["l", "o</w>"],
    ["littér", "ature</w>"],
    ["commer", "ce</w>"],
    ["ti", "fs</w>"],
    ["li", "mit"],
    ["b", "le"],
    ["l'em", "pire</w>"],
    ["gr", "en"],
    ["qu", "ar"],
    ["cont", "empor"],
    ["as", "sur"],
    ["r", "al</w>"],
    ["espagn", "ol</w>"],
    ["cô", "te</w>"],
    ["to", "y"],
    ["dé", "sor"],
    ["tr", "om"],
    ["vi", "s</w>"],
    ["w", "in"],
    ["emp", "ê"],
    ["gran", "d-"],
    ["dé", "s</w>"],
    ["ch", "ée</w>"],
    ["vi", "enne</w>"],
    ["or", "y</w>"],
    ["h", "el"],
    ["fonc", "tionn"],
    ["mal", "adi"],
    ["sé", "curité</w>"],
    ["au", "tri"],
    ["publi", "cation</w>"],
    ["pren", "ant</w>"],
    ["sec", "tion</w>"],
    ["t", "end"],
    ["mon", "d</w>"],
    ["ra", "dio</w>"],
    ["en", "a</w>"],
    ["m", "c"],
    ["ter", "res</w>"],
    ["as", "t</w>"],
    ["cou", "leur</w>"],
    ["l", "ang"],
    ["bour", "g"],
    ["a", "éri"],
    ["centr", "ale</w>"],
    ["personn", "ages</w>"],
    ["h", "eur</w>"],
    ["as", "te</w>"],
    ["g", "le</w>"],
    ["mod", "èle</w>"],
    ["h", "ock"],
    ["quat", "ri"],
    ["h", "ai"],
    ["em", "ment</w>"],
    ["mét", "ho"],
    ["er", "t</w>"],
    ["minist", "ère</w>"],
    ["a", "f"],
    ["com", "ité</w>"],
    ["mi", "t</w>"],
    ["ap", "pu"],
    ["qu", "elles</w>"],
    ["cat", "al"],
    ["reç", "u</w>"],
    ["ex", "er"],
    ["mar", "i</w>"],
    ["g", "no"],
    ["mar", "ché</w>"],
    ["équi", "p"],
    ["tr", "a</w>"],
    ["l'", "at"],
    ["tr", "é"],
    ["bay", "e</w>"],
    ["loc", "alité</w>"],
    ["l", "er"],
    ["occid", "ent"],
    ["e", "f</w>"],
    ["cl", "é"],
    ["gu", "it"],
    ["vr", "ai</w>"],
    ["l'ac", "adémie</w>"],
    ["meur", "t</w>"],
    ["num", "éro</w>"],
    ["e", "x</w>"],
    ["ter", "mine</w>"],
    ["cel", "le-"],
    ["mar", "che</w>"],
    ["s'", "y</w>"],
    ["un", "d</w>"],
    ["voï", "vo"],
    ["produ", "its</w>"],
    ["découver", "te</w>"],
    ["beso", "in</w>"],
    ["sol", "eil</w>"],
    ["x", "x"],
    ["trans", "port</w>"],
    ["br", "un"],
    ["d", "yn"],
    ["bret", "agne</w>"],
    ["ap", "er"],
    ["fon", "dée</w>"],
    ["cél", "este</w>"],
    ["atta", "que</w>"],
    ["affi", "r"],
    ["au", "d</w>"],
    ["quatri", "ème</w>"],
    ["ing", "ton</w>"],
    ["di", "que</w>"],
    ["docu", "ment"],
    ["désor", "mais</w>"],
    ["ti", "mes</w>"],
    ["alis", "tes</w>"],
    ["neu", "f</w>"],
    ["el", "li"],
    ["mo", "de</w>"],
    ["ch", "ass"],
    ["e", "y"],
    ["fo", "r</w>"],
    ["d'", "avoir</w>"],
    ["vo", "s</w>"],
    ["t", "z</w>"],
    ["n", "ar"],
    ["ri", "que</w>"],
    ["li", "gnes</w>"],
    ["habit", "u"],
    ["ég", "yp"],
    ["com", "prend</w>"],
    ["ass", "ist"],
    ["est-", "ce</w>"],
    ["o", "ti"],
    ["réalis", "ation</w>"],
    ["in", "te</w>"],
    ["form", "é</w>"],
    ["z", "z"],
    ["om", "e</w>"],
    ["ér", "a</w>"],
    ["n", "a"],
    ["vi", "a</w>"],
    ["val", "eur</w>"],
    ["con", "fér"],
    ["b", "ol"],
    ["li", "v"],
    ["l'", "air</w>"],
    ["élém", "ents</w>"],
    ["for", "te</w>"],
    ["qu", "et</w>"],
    ["tour", "no"],
    ["chev", "al</w>"],
    ["princip", "aux</w>"],
    ["scén", "ario</w>"],
    ["iss", "ant</w>"],
    ["heur", "eux</w>"],
    ["av", "ez</w>"],
    ["mo", "s"],
    ["co", "-"],
    ["t", "aires</w>"],
    ["s'", "ét"],
    ["au", "tant</w>"],
    ["atte", "int</w>"],
    ["la", "-"],
    ["l'", "origine</w>"],
    ["chan", "ge</w>"],
    ["b", "om"],
    ["in", "trodu"],
    ["fond", "é</w>"],
    ["p", "â"],
    ["hock", "ey</w>"],
    ["micha", "el</w>"],
    ["aug", "ment"],
    ["t", "aux</w>"],
    ["ar", "mes</w>"],
    ["import", "ante</w>"],
    ["re", "trouve</w>"],
    ["cam", "p</w>"],
    ["l", "ac"],
    ["col", "om"],
    ["re", "v"],
    ["offici", "er</w>"],
    ["ra", "di"],
    ["it", "re</w>"],
    ["jap", "onais</w>"],
    ["moi", "tié</w>"],
    ["voil", "à</w>"],
    ["g", "és</w>"],
    ["av", "ais</w>"],
    ["ac", "tions</w>"],
    ["ag", "o</w>"],
    ["arti", "stes</w>"],
    ["derni", "ers</w>"],
    ["d'", "a"],
    ["mo", "ts</w>"],
    ["t", "t</w>"],
    ["b", "er</w>"],
    ["ét", "ats</w>"],
    ["re", "z</w>"],
    ["voïvo", "die</w>"],
    ["mat", "in</w>"],
    ["tourno", "i</w>"],
    ["cro", "is"],
    ["vit", "esse</w>"],
    ["c", "u</w>"],
    ["in", "dépend"],
    ["fr", "ères</w>"],
    ["deven", "ir</w>"],
    ["l'in", "stitu"],
    ["j", "a</w>"],
    ["nicol", "as</w>"],
    ["in", "ation</w>"],
    ["olog", "iques</w>"],
    ["secré", "taire</w>"],
    ["éner", "gie</w>"],
    ["jus", "te</w>"],
    ["d", "ge</w>"],
    ["br", "onze</w>"],
    ["ê", "me</w>"],
    ["ré", "comp"],
    ["bru", "x"],
    ["iss", "ent</w>"],
    ["é", "cou"],
    ["mém", "oire</w>"],
    ["réalis", "ateur</w>"],
    ["cl", "ar"],
    ["k", "y"],
    ["c", "y</w>"],
    ["kil", "om"],
    ["rem", "on"],
    ["puiss", "ance</w>"],
    ["ac", "qu"],
    ["import", "ance</w>"],
    ["rec", "ords</w>"],
    ["tech", "n"],
    ["exter", "ne</w>"],
    ["bern", "ard</w>"],
    ["fai", "ble</w>"],
    ["astéroï", "de</w>"],
    ["contr", "ôle</w>"],
    ["h", "am</w>"],
    ["di", "te</w>"],
    ["prot", "ection</w>"],
    ["fai", "ts</w>"],
    ["pour", "tant</w>"],
    ["m", "age</w>"],
    ["d'", "été</w>"],
    ["l", "aire</w>"],
    ["t", "es"],
    ["ber", "lin</w>"],
    ["d'", "ailleurs</w>"],
    ["s", "ant"],
    ["cent", "er</w>"],
    ["au", "me</w>"],
    ["économ", "ique</w>"],
    ["ang", "el"],
    ["î", "les</w>"],
    ["ch", "al"],
    ["fr", "ont</w>"],
    ["cid", "ent</w>"],
    ["cir", "cons"],
    ["jou", "eurs</w>"],
    ["pro", "bab"],
    ["é", "al</w>"],
    ["musi", "cal</w>"],
    ["st", "er"],
    ["port", "ent</w>"],
    ["caract", "ère</w>"],
    ["lan", "gues</w>"],
    ["rel", "ations</w>"],
    ["comédi", "e</w>"],
    ["on", "g</w>"],
    ["c", "ement</w>"],
    ["particuli", "èrement</w>"],
    ["dé", "termin"],
    ["rug", "by</w>"],
    ["av", "ent"],
    ["pour", "rait</w>"],
    ["ren", "d</w>"],
    ["t", "aille</w>"],
    ["li", "mi"],
    ["ci", "a</w>"],
    ["n", "at"],
    ["onn", "i"],
    ["ati", "s"],
    ["t", "ém"],
    ["celle-", "ci</w>"],
    ["l'", "u"],
    ["ri", "es</w>"],
    ["l", "ée</w>"],
    ["l", "ant</w>"],
    ["cl", "am"],
    ["i", "v</w>"],
    ["er", "ic"],
    ["i", "en</w>"],
    ["é", "sie</w>"],
    ["is", "ab"],
    ["doc", "teur</w>"],
    ["l", "end"],
    ["l", "ag"],
    ["in", "er</w>"],
    ["chaî", "ne</w>"],
    ["di", "en</w>"],
    ["dé", "cide</w>"],
    ["ins", "crit</w>"],
    ["vi", "té</w>"],
    ["conse", "iller</w>"],
    ["solu", "tion</w>"],
    ["è", "les</w>"],
    ["on", "d"],
    ["thè", "se</w>"],
    ["phot", "ographie</w>"],
    ["s", "û"],
    ["c'", "est-à-dire</w>"],
    ["n", "ations</w>"],
    ["l'", "a</w>"],
    ["ra", "s</w>"],
    ["sold", "ats</w>"],
    ["v", "ég"],
    ["bibliothè", "que</w>"],
    ["év", "êque</w>"],
    ["se", "i"],
    ["san", "g</w>"],
    ["vi", "ce-"],
    ["di", "a</w>"],
    ["bén", "é"],
    ["us", "age</w>"],
    ["bas", "se</w>"],
    ["w", "ay</w>"],
    ["ch", "i</w>"],
    ["h", "éri"],
    ["fond", "ation</w>"],
    ["eff", "or"],
    ["in", "titu"],
    ["com", "pris</w>"],
    ["l'ar", "t</w>"],
    ["ly", "on</w>"],
    ["pau", "vre</w>"],
    ["entraîn", "eur</w>"],
    ["fi", "x"],
    ["t", "aine</w>"],
    ["tradi", "tionn"],
    ["k", "m</w>"],
    ["im", "ent"],
    ["sur", "face</w>"],
    ["am", "ment</w>"],
    ["con", "ditions</w>"],
    ["pa", "ges</w>"],
    ["res", "pec"],
    ["ord", "onn"],
    ["d", "al"],
    ["ph", "il"],
    ["aff", "ec"],
    ["ti", "ens</w>"],
    ["b", "ot"],
    ["b", "lu"],
    ["afri", "c"],
    ["rec", "ens"],
    ["mau", "rice</w>"],
    ["di", "am"],
    ["ap", "e</w>"],
    ["conn", "aiss"],
    ["olympi", "que</w>"],
    ["ci", "vi"],
    ["f", "ru"],
    ["l'", "ag"],
    ["is", "es</w>"],
    ["étudi", "ant</w>"],
    ["im", "ag"],
    ["inf", "éri"],
    ["em", "ain</w>"],
    ["bl", "ess"],
    ["fi", "che</w>"],
    ["ar", "rive</w>"],
    ["g", "ène</w>"],
    ["ces", "sion</w>"],
    ["ri", "ch</w>"],
    ["w", "h"],
    ["t", "v</w>"],
    ["cu", "s</w>"],
    ["fil", "les</w>"],
    ["ges", "tion</w>"],
    ["to", "i</w>"],
    ["spect", "ac"],
    ["nom", "s</w>"],
    ["in", "clu"],
    ["et", "h"],
    ["f", "is"],
    ["w", "at"],
    ["j", "é"],
    ["h", "eure</w>"],
    ["propri", "ét"],
    ["ant", "age</w>"],
    ["intér", "êt</w>"],
    ["h", "a"],
    ["suiv", "i</w>"],
    ["tis", "me</w>"],
    ["av", "ons</w>"],
    ["com", "</w>"],
    ["pr", "ol"],
    ["s", "élection</w>"],
    ["sy", "l"],
    ["u", "elle</w>"],
    ["pro", "vo"],
    ["s", "ai"],
    ["char", "gé</w>"],
    ["re", "trouv"],
    ["l", "è"],
    ["bl", "ement</w>"],
    ["jo", "r</w>"],
    ["roy", "ale</w>"],
    ["voy", "ag"],
    ["doi", "vent</w>"],
    ["ci", "s</w>"],
    ["am", "a</w>"],
    ["ent", "en"],
    ["m", "eu"],
    ["montr", "éal</w>"],
    ["ex", "i"],
    ["cô", "tés</w>"],
    ["tr", "action</w>"],
    ["p", "ét"],
    ["f", "ol"],
    ["end", "ra</w>"],
    ["gl", "ace</w>"],
    ["j", "on"],
    ["navi", "re</w>"],
    ["coll", "ec"],
    ["ag", "n"],
    ["classi", "que</w>"],
    ["ou", "bli"],
    ["ass", "ass"],
    ["rég", "iment</w>"],
    ["utilis", "ation</w>"],
    ["v", "én"],
    ["bu", "ts</w>"],
    ["lend", "emain</w>"],
    ["moder", "ne</w>"],
    ["at", "ti"],
    ["gouvern", "eur</w>"],
    ["m", "ation</w>"],
    ["l", "ois</w>"],
    ["b", "at</w>"],
    ["lon", "gueur</w>"],
    ["ma", "xim"],
    ["origin", "al</w>"],
    ["en", "i"],
    ["act", "eurs</w>"],
    ["ma", "jor</w>"],
    ["o", "k</w>"],
    ["hau", "teur</w>"],
    ["s", "h</w>"],
    ["ati", "vement</w>"],
    ["ouv", "rages</w>"],
    ["parti", "cipa"],
    ["sing", "le</w>"],
    ["s", "able</w>"],
    ["alis", "me</w>"],
    ["lumi", "ère</w>"],
    ["e", "a</w>"],
    ["guill", "aume</w>"],
    ["nap", "olé"],
    ["l'in", "térieur</w>"],
    ["on", "aise</w>"],
    ["ri", "t</w>"],
    ["car", "din"],
    ["m", "â"],
    ["ven", "u</w>"],
    ["entr", "er</w>"],
    ["struc", "ture</w>"],
    ["m", "me</w>"],
    ["t", "ations</w>"],
    ["composi", "teur</w>"],
    ["pe", "au</w>"],
    ["b", "ill"],
    ["contr", "at</w>"],
    ["ar", "iste</w>"],
    ["con", "cours</w>"],
    ["o", "v</w>"],
    ["for", "êt</w>"],
    ["au-", "dessus</w>"],
    ["ch", "oix</w>"],
    ["li", "s</w>"],
    ["a", "x"],
    ["co", "de</w>"],
    ["cham", "p</w>"],
    ["s", "w"],
    ["s", "ho"],
    ["qu", "alité</w>"],
    ["mag", "az"],
    ["d'", "</w>"],
    ["sui", "vre</w>"],
    ["di", "té</w>"],
    ["fin", "anci"],
    ["h", "a</w>"],
    ["bi", "ent"],
    ["dé", "si"],
    ["er", "ait</w>"],
    ["ten", "ue</w>"],
    ["consé", "qu"],
    ["l", "un"],
    ["aut", "eurs</w>"],
    ["w", "ard</w>"],
    ["pré", "cis"],
    ["g", "re</w>"],
    ["man", "che</w>"],
    ["f", "a</w>"],
    ["ches", "tre</w>"],
    ["con", "ç"],
    ["journ", "aliste</w>"],
    ["anto", "ine</w>"],
    ["ad", "mi"],
    ["pro", "pr"],
    ["clu", "bs</w>"],
    ["po", "le</w>"],
    ["quit", "te</w>"],
    ["trai", "ts</w>"],
    ["gl", "ob"],
    ["i", "c</w>"],
    ["cé", "ré"],
    ["d'ar", "t</w>"],
    ["m", "assi"],
    ["nom", "mée</w>"],
    ["ci", "me"],
    ["bâti", "ments</w>"],
    ["ac", "te</w>"],
    ["ci", "ens</w>"],
    ["bient", "ôt</w>"],
    ["fon", "ds</w>"],
    ["régi", "me</w>"],
    ["ci", "v"],
    ["journ", "ée</w>"],
    ["al", "lu"],
    ["mé", "can"],
    ["e", "k"],
    ["lo", "t</w>"],
    ["ar", "s</w>"],
    ["ri", "c</w>"],
    ["ph", "e</w>"],
    ["y", "s</w>"],
    ["pr", "atique</w>"],
    ["pein", "ture</w>"],
    ["om", "ie</w>"],
    ["peti", "tes</w>"],
    ["p", "ecti"],
    ["vi", "vre</w>"],
    ["par", "ents</w>"],
    ["fon", "ctions</w>"],
    ["po", "</w>"],
    ["ing", "s</w>"],
    ["an", "moins</w>"],
    ["top", "on"],
    ["ro", "ck</w>"],
    ["gro", "s</w>"],
    ["w", "a</w>"],
    ["ol", "d</w>"],
    ["p", "is"],
    ["diver", "ses</w>"],
    ["l", "es-"],
    ["e", "z-vous</w>"],
    ["du", "l"],
    ["f", "un"],
    ["né", "anmoins</w>"],
    ["n'", "ont</w>"],
    ["pon", "i"],
    ["ch", "ement</w>"],
    ["e", "k</w>"],
    ["mont", "agne</w>"],
    ["vi", "te</w>"],
    ["f", "rom"],
    ["m", "aisons</w>"],
    ["mo", "difi"],
    ["pa", "pe</w>"],
    ["ven", "ait</w>"],
    ["a", "k</w>"],
    ["m", "enti"],
    ["dist", "ance</w>"],
    ["st", "on</w>"],
    ["n", "our"],
    ["is", "ra"],
    ["représent", "ant</w>"],
    ["célè", "bre</w>"],
    ["d", "res"],
    ["maj", "orité</w>"],
    ["port", "ée</w>"],
    ["économ", "ie</w>"],
    ["cali", "for"],
    ["k", "ing</w>"],
    ["e", "h</w>"],
    ["pro", "cé"],
    ["s", "sion</w>"],
    ["c", "re"],
    ["ch", "ans"],
    ["s", "lo"],
    ["n", "et"],
    ["ten", "ait</w>"],
    ["ing", "éni"],
    ["ce", "au</w>"],
    ["s", "ais</w>"],
    ["d'h", "onneur</w>"],
    ["t", "'"],
    ["g", "all"],
    ["an", "terie</w>"],
    ["g", "an</w>"],
    ["us", "si"],
    ["cour", "ant</w>"],
    ["di", "vis"],
    ["re", "tourn"],
    ["tr", "ain</w>"],
    ["évén", "ements</w>"],
    ["diri", "ge"],
    ["ch", "itec"],
    ["l", "oire</w>"],
    ["l'au", "teur</w>"],
    ["an", "i</w>"],
    ["appar", "aît</w>"],
    ["com", "position</w>"],
    ["du", "re</w>"],
    ["con", "sul"],
    ["--", "je</w>"],
    ["ouver", "te</w>"],
    ["d", "ait</w>"],
    ["û", "</w>"],
    ["pl", "ant"],
    ["s", "ent"],
    ["centr", "al</w>"],
    ["jard", "in</w>"],
    ["bas", "k"],
    ["diff", "u"],
    ["mis", "sions</w>"],
    ["personn", "alités</w>"],
    ["né", "er"],
    ["brux", "elles</w>"],
    ["math", "ém"],
    ["form", "er</w>"],
    ["j", "i"],
    ["m", "am"],
    ["dé", "mique</w>"],
    ["l'institu", "t</w>"],
    ["paro", "les</w>"],
    ["po", "ète</w>"],
    ["grou", "p"],
    ["m", "ang"],
    ["ru", "p"],
    ["l'am", "our</w>"],
    ["puis", "que</w>"],
    ["s", "ées</w>"],
    ["confi", "r"],
    ["ti", "ll"],
    ["re", "présente</w>"],
    ["r", "aient</w>"],
    ["di", "t-il</w>"],
    ["é", "c"],
    ["signi", "fi"],
    ["suff", "is"],
    ["ro", "y</w>"],
    ["blan", "che</w>"],
    ["ai", "me</w>"],
    ["c", "ents</w>"],
    ["w", "s</w>"],
    ["es", "ses</w>"],
    ["mari", "e-"],
    ["cher", "ch"],
    ["d'", "es"],
    ["ô", "ne</w>"],
    ["jou", "er</w>"],
    ["ex", "te</w>"],
    ["per", "du</w>"],
    ["trav", "aille</w>"],
    ["s", "at"],
    ["démo", "graphie</w>"],
    ["pie", "ds</w>"],
    ["ob", "</w>"],
    ["im", "pli"],
    ["ser", "ont</w>"],
    ["wor", "ld</w>"],
    ["é", "mi"],
    ["cir", "cul"],
    ["au", "lt</w>"],
    ["pi", "er</w>"],
    ["dis", "poni"],
    ["pu", "s</w>"],
    ["al", "d</w>"],
    ["hen", "ry</w>"],
    ["ob", "tenir</w>"],
    ["ple", "in</w>"],
    ["natur", "el</w>"],
    ["bri", "g"],
    ["fer", "me</w>"],
    ["ob", "jets</w>"],
    ["s", "ag"],
    ["dani", "el</w>"],
    ["pet", "er</w>"],
    ["l'", "assemblée</w>"],
    ["am", "our</w>"],
    ["o", "do"],
    ["ven", "ant</w>"],
    ["co", "p"],
    ["pri", "son</w>"],
    ["gr", "ès</w>"],
    ["issu", "e</w>"],
    ["jus", "qu’"],
    ["fi", "ction</w>"],
    ["constru", "ite</w>"],
    ["l'", "occasion</w>"],
    ["ph", "ase</w>"],
    ["im", "péri"],
    ["en", "de</w>"],
    ["bass", "in</w>"],
    ["catég", "orie</w>"],
    ["l", "ent</w>"],
    ["and", "re"],
    ["réparti", "tion</w>"],
    ["c", "ède</w>"],
    ["c", "ence</w>"],
    ["pens", "ée</w>"],
    ["un", "g</w>"],
    ["sec", "teur</w>"],
    ["command", "ant</w>"],
    ["probab", "lement</w>"],
    ["em", "pire</w>"],
    ["s", "élec"],
    ["ro", "se</w>"],
    ["s", "en</w>"],
    ["man", "uel</w>"],
    ["milit", "aires</w>"],
    ["v", "eux</w>"],
    ["inter", "pr"],
    ["permet", "tant</w>"],
    ["con", "cep"],
    ["pos", "ée</w>"],
    ["cime", "tière</w>"],
    ["cl", "er"],
    ["répon", "dit</w>"],
    ["o", "le</w>"],
    ["inter", "prét"],
    ["fai", "tes</w>"],
    ["r", "end"],
    ["as", "tique</w>"],
    ["ur", "ban"],
    ["sy", "no"],
    ["ê", "tres</w>"],
    ["x", "vi"],
    ["pren", "nent</w>"],
    ["es", "s</w>"],
    ["h", "ér"],
    ["chap", "itre</w>"],
    ["d", "d"],
    ["î", "t</w>"],
    ["bl", "ac"],
    ["pres", "s</w>"],
    ["g", "s</w>"],
    ["entre", "prises</w>"],
    ["bl", "esse</w>"],
    ["véri", "té</w>"],
    ["ym", "ie</w>"],
    ["colon", "el</w>"],
    ["mor", "ts</w>"],
    ["gr", "ec"],
    ["franç", "aises</w>"],
    ["po", "wi"],
    ["vé", "hi"],
    ["con", "som"],
    ["compos", "ée</w>"],
    ["nation", "ales</w>"],
    ["bu", "reau</w>"],
    ["cou", "leurs</w>"],
    ["ac", "cès</w>"],
    ["temp", "le</w>"],
    ["ci", "toy"],
    ["app", "el</w>"],
    ["in", "et</w>"],
    ["ac", "t</w>"],
    ["t", "ol"],
    ["op", "ération</w>"],
    ["lu", "tte</w>"],
    ["religi", "eux</w>"],
    ["d'", "at"],
    ["publi", "e</w>"],
    ["sovi", "étique</w>"],
    ["powi", "at</w>"],
    ["kilom", "ètres</w>"],
    ["cl", "av"],
    ["voi", "ture</w>"],
    ["édi", "fi"],
    ["onn", "es</w>"],
    ["itali", "enne</w>"],
    ["ent", "er"],
    ["per", "mis</w>"],
    ["ai", "r"],
    ["n", "g"],
    ["str", "at"],
    ["c", "tu"],
    ["ving", "t</w>"],
    ["pr", "ati"],
    ["o", "k"],
    ["alis", "é</w>"],
    ["supéri", "eure</w>"],
    ["ri", "ers</w>"],
    ["contr", "e-"],
    ["pi", "ano</w>"],
    ["is", "on</w>"],
    ["un", "s</w>"],
    ["mo", "teur</w>"],
    ["n", "er"],
    ["dé", "crit</w>"],
    ["ou", "x</w>"],
    ["l'", "association</w>"],
    ["médec", "in</w>"],
    ["tr", "ès-"],
    ["éli", "or"],
    ["soci", "ale</w>"],
    ["e", "i"],
    ["fici", "e</w>"],
    ["o", "h</w>"],
    ["bi", "o"],
    ["rel", "s</w>"],
    ["princip", "ales</w>"],
    ["natur", "elle</w>"],
    ["précé", "d"],
    ["ci", "e</w>"],
    ["fon", "de</w>"],
    ["ath", "l"],
    ["av", "oit</w>"],
    ["religi", "on</w>"],
    ["co", "les</w>"],
    ["m", "és</w>"],
    ["sal", "on</w>"],
    ["stu", "dio</w>"],
    ["ob", "li"],
    ["tempér", "ature</w>"],
    ["l", "em"],
    ["ris", "que</w>"],
    ["b", "en</w>"],
    ["napolé", "on</w>"],
    ["chans", "ons</w>"],
    ["al", "ter"],
    ["ar", "y</w>"],
    ["ati", "fs</w>"],
    ["arti", "stique</w>"],
    ["par", "le</w>"],
    ["in", "ten"],
    ["bo", "s"],
    ["n", "is</w>"],
    ["app", "elle</w>"],
    ["ré", "fl"],
    ["vi", "er"],
    ["ri", "re</w>"],
    ["ç", "ons</w>"],
    ["ro", "b"],
    ["concer", "nant</w>"],
    ["ju", "li"],
    ["fav", "ori"],
    ["n", "y</w>"],
    ["è", "ves</w>"],
    ["s", "k</w>"],
    ["ving", "t-"],
    ["tour", "ne</w>"],
    ["emb", "our"],
    ["es", "té</w>"],
    ["ru", "s</w>"],
    ["intér", "ess"],
    ["s", "ex"],
    ["considé", "ré</w>"],
    ["as", "tron"],
    ["st", "ar</w>"],
    ["fre", "d</w>"],
    ["vis", "age</w>"],
    ["fi", "d"],
    ["ju", "ri"],
    ["le", "ft</w>"],
    ["cl", "in"],
    ["a", "chev"],
    ["civi", "le</w>"],
    ["s", "és</w>"],
    ["direc", "tement</w>"],
    ["g", "il"],
    ["pro", "pos</w>"],
    ["empl", "oi</w>"],
    ["par", "all"],
    ["ap", "parti"],
    ["sup", "pl"],
    ["ra", "ble</w>"],
    ["contin", "ue</w>"],
    ["ins", "cri"],
    ["thé", "orie</w>"],
    ["it", "er</w>"],
    ["régi", "ons</w>"],
    ["indivi", "du"],
    ["d'", "im"],
    ["s", "ouver"],
    ["derni", "ères</w>"],
    ["elle-", "même</w>"],
    ["pr", "ess"],
    ["s", "œur</w>"],
    ["col", "og"],
    ["class", "é</w>"],
    ["d'", "i"],
    ["fam", "ili"],
    ["produ", "cteur</w>"],
    ["o", "x"],
    ["remar", "qu"],
    ["onn", "er</w>"],
    ["tradu", "ction</w>"],
    ["qu'", "elles</w>"],
    ["l'es", "prit</w>"],
    ["bu", "d"],
    ["off", "re</w>"],
    ["e", "p"],
    ["ta", "x"],
    ["mar", "se"],
    ["eu", "s</w>"],
    ["p", "eur</w>"],
    ["fav", "eur</w>"],
    ["diffi", "cul"],
    ["coll", "ège</w>"],
    ["magaz", "ine</w>"],
    ["par", "cours</w>"],
    ["ch", "és</w>"],
    ["re", "traite</w>"],
    ["lat", "in</w>"],
    ["s'", "en"],
    ["d", "un"],
    ["re", "prises</w>"],
    ["v", "or"],
    ["trib", "un"],
    ["se", "e</w>"],
    ["chi", "ff"],
    ["améric", "ains</w>"],
    ["an", "tique</w>"],
    ["sud-", "est</w>"],
    ["pass", "ant</w>"],
    ["s", "age</w>"],
    ["envir", "onnement</w>"],
    ["gi", "r"],
    ["fu", "tu"],
    ["chi", "en</w>"],
    ["part", "ag"],
    ["loc", "ale</w>"],
    ["tou", "lou"],
    ["qu", "ie</w>"],
    ["éli", "min"],
    ["mar", "éch"],
    ["j", "er"],
    ["d", "û</w>"],
    ["er", "ies</w>"],
    ["volu", "me</w>"],
    ["actu", "elle</w>"],
    ["al", "bert</w>"],
    ["europé", "en</w>"],
    ["pa", "ssi"],
    ["ro", "ger</w>"],
    ["éch", "app"],
    ["emb", "ar"],
    ["ti", "r</w>"],
    ["pro", "pose</w>"],
    ["né", "cessi"],
    ["ci", "ty</w>"],
    ["pilo", "te</w>"],
    ["ré", "publi"],
    ["parois", "se</w>"],
    ["débu", "ts</w>"],
    ["f", "lo"],
    ["é", "d</w>"],
    ["œu", "rs</w>"],
    ["mar", "c</w>"],
    ["arg", "ent"],
    ["sou", "hai"],
    ["pa", "th"],
    ["ann", "a</w>"],
    ["n", "oire</w>"],
    ["g", "in"],
    ["résist", "ance</w>"],
    ["cat", "hé"],
    ["ré", "uni"],
    ["fi", "r"],
    ["moy", "ens</w>"],
    ["arrê", "té</w>"],
    ["alex", "andre</w>"],
    ["au", "to"],
    ["h", "an</w>"],
    ["cour", "onne</w>"],
    ["ren", "é</w>"],
    ["ré", "serve</w>"],
    ["sem", "aine</w>"],
    ["ill", "on</w>"],
    ["c", "ec"],
    ["fré", "dé"],
    ["b", "it"],
    ["an", "des</w>"],
    ["g", "ation</w>"],
    ["anim", "aux</w>"],
    ["professionn", "el</w>"],
    ["allem", "ands</w>"],
    ["mét", "é"],
    ["v", "ac"],
    ["ém", "ent"],
    ["can", "al</w>"],
    ["j", "i</w>"],
    ["for", "t"],
    ["sud-", "ouest</w>"],
    ["as", "pec"],
    ["constitu", "tion</w>"],
    ["prin", "cesse</w>"],
    ["rec", "om"],
    ["él", "oign"],
    ["f", "ourn"],
    ["iss", "ait</w>"],
    ["t", "elles</w>"],
    ["ess", "ay"],
    ["hu", "man"],
    ["ac", "tes</w>"],
    ["pro", "xim"],
    ["con", "clu"],
    ["ai", "m"],
    ["communi", "cation</w>"],
    ["ti", "s</w>"],
    ["form", "at</w>"],
    ["prol", "on"],
    ["pay", "s-"],
    ["sen", "si"],
    ["canadi", "en</w>"],
    ["hy", "dro"],
    ["n", "ation</w>"],
    ["idé", "es</w>"],
    ["mé", "tro"],
    ["de", "aux</w>"],
    ["phot", "ograph"],
    ["ét", "ais</w>"],
    ["j", "an</w>"],
    ["ouv", "rir</w>"],
    ["dé", "cri"],
    ["ob", "lig"],
    ["eu", "ves</w>"],
    ["comm", "un</w>"],
    ["ffici", "le</w>"],
    ["di", "fficile</w>"],
    ["pos", "ant</w>"],
    ["prin", "cipe</w>"],
    ["atu", "res</w>"],
    ["cir", "cu"],
    ["wo", "od</w>"],
    ["d'", "an"],
    ["pi", "c"],
    ["d", "ang"],
    ["struc", "tures</w>"],
    ["contr", "aire</w>"],
    ["cu", "is"],
    ["tom", "be</w>"],
    ["bi", "ens</w>"],
    ["rè", "gne</w>"],
    ["circons", "cription</w>"],
    ["s", "tre</w>"],
    ["for", "êts</w>"],
    ["d'", "av"],
    ["v", "ê"],
    ["chan", "teur</w>"],
    ["k", "en"],
    ["au", "ra</w>"],
    ["sou", "tien</w>"],
    ["philosoph", "ie</w>"],
    ["l'", "objet</w>"],
    ["nécess", "aire</w>"],
    ["dou", "ze</w>"],
    ["d", "ois</w>"],
    ["utilis", "ée</w>"],
    ["poss", "é"],
    ["im", "médi"],
    ["mar", "c"],
    ["recher", "ches</w>"],
    ["établis", "sement</w>"],
    ["s", "ements</w>"],
    ["ju", "ge</w>"],
    ["on", "t"],
    ["no", "tre-"],
    ["jou", "é</w>"],
    ["f", "ût</w>"],
    ["four", "ni"],
    ["ter", "a</w>"],
    ["fl", "eurs</w>"],
    ["x", "v</w>"],
    ["n", "ou"],
    ["propri", "été</w>"],
    ["dram", "atique</w>"],
    ["situ", "e</w>"],
    ["f", "r</w>"],
    ["participa", "tion</w>"],
    ["fi", "eld</w>"],
    ["au", "x"],
    ["n", "d</w>"],
    ["m", "ess"],
    ["condu", "it</w>"],
    ["bar", "on</w>"],
    ["mu", "r</w>"],
    ["an", "ie</w>"],
    ["ord", "res</w>"],
    ["do", "s</w>"],
    ["tech", "niques</w>"],
    ["por", "tes</w>"],
    ["syno", "p"],
    ["for", "mu"],
    ["maladi", "e</w>"],
    ["récomp", "en"],
    ["pa", "ci"],
    ["lau", "rent</w>"],
    ["appel", "ée</w>"],
    ["l'", "aide</w>"],
    ["autom", "o"],
    ["w", "ol"],
    ["proxim", "ité</w>"],
    ["bi", "r"],
    ["tourn", "ée</w>"],
    ["astéroï", "des</w>"],
    ["poi", "ds</w>"],
    ["al", "iment"],
    ["am", "eric"],
    ["soci", "al</w>"],
    ["ty", "pes</w>"],
    ["mari", "a</w>"],
    ["véri", "table</w>"],
    ["vic", "toires</w>"],
    ["reg", "ard</w>"],
    ["analy", "se</w>"],
    ["f", "ête</w>"],
    ["v", "end"],
    ["d'", "en"],
    ["mon", "ie</w>"],
    ["secon", "d"],
    ["qu", "és</w>"],
    ["riv", "ée</w>"],
    ["autori", "té</w>"],
    ["ai", "t-il</w>"],
    ["nég", "oci"],
    ["pro", "jets</w>"],
    ["manif", "est"],
    ["k", "in"],
    ["publi", "cations</w>"],
    ["id", "entifi"],
    ["el", "la</w>"],
    ["s", "aisons</w>"],
    ["laiss", "er</w>"],
    ["sec", "ret</w>"],
    ["so", "r</w>"],
    ["histori", "en</w>"],
    ["en", "démique</w>"],
    ["voi", "ci</w>"],
    ["ann", "es</w>"],
    ["rév", "él"],
    ["ar", "a</w>"],
    ["con", "te</w>"],
    ["ré", "pu"],
    ["f", "al"],
    ["o", "p</w>"],
    ["synop", "sis</w>"],
    ["iss", "ement</w>"],
    ["som", "met</w>"],
    ["é", "vo"],
    ["cin", "qui"],
    ["pays-", "bas</w>"],
    ["fam", "illes</w>"],
    ["califor", "nie</w>"],
    ["ad", "ol"],
    ["mouv", "ements</w>"],
    ["con", "grès</w>"],
    ["tém", "oign"],
    ["mati", "ère</w>"],
    ["joh", "n"],
    ["actu", "ellement</w>"],
    ["b", "el</w>"],
    ["fi", "er</w>"],
    ["ma", "y"],
    ["som", "me</w>"],
    ["ten", "te</w>"],
    ["gu", "é</w>"],
    ["di", "oc"],
    ["t", "esse</w>"],
    ["m", "in</w>"],
    ["nord-", "est</w>"],
    ["end", "s</w>"],
    ["ma", "r</w>"],
    ["uni", "vers"],
    ["ver", "t</w>"],
    ["e", "ffi"],
    ["ti", "ves</w>"],
    ["chev", "aux</w>"],
    ["d", "re"],
    ["nord-", "ouest</w>"],
    ["ï", "</w>"],
    ["r", "at"],
    ["austr", "ali"],
    ["dé", "plac"],
    ["rec", "ord</w>"],
    ["v", "int</w>"],
    ["fu", "sion</w>"],
    ["ar", "ri"],
    ["id", "enti"],
    ["my", "st"],
    ["her", "ine</w>"],
    ["enti", "èrement</w>"],
    ["s", "u</w>"],
    ["cel", "lu"],
    ["hau", "te-"],
    ["al", "géri"],
    ["recens", "ement</w>"],
    ["mi", "r</w>"],
    ["voi", "es</w>"],
    ["â", "t</w>"],
    ["j", "uni"],
    ["chin", "ois</w>"],
    ["tou", "ris"],
    ["f", "-"],
    ["ci", "-"],
    ["t", "ons</w>"],
    ["ne", "i"],
    ["dess", "ous</w>"],
    ["d", "an</w>"],
    ["s", "o</w>"],
    ["fron", "tière</w>"],
    ["t", "ements</w>"],
    ["vis", "ite</w>"],
    ["marqu", "is</w>"],
    ["mi", "cro"],
    ["h", "i</w>"],
    ["personn", "el</w>"],
    ["ra", "ch"],
    ["sélec", "tionn"],
    ["bon", "heur</w>"],
    ["v", "oire</w>"],
    ["k", "at"],
    ["l'", "ancienne</w>"],
    ["ss", "ent</w>"],
    ["n", "on"],
    ["lu", "x"],
    ["dra", "le</w>"],
    ["pit", "al</w>"],
    ["mondi", "al</w>"],
    ["plai", "sir</w>"],
    ["métr", "age</w>"],
    ["ti", "m"],
    ["v", "aiss"],
    ["m", "un"],
    ["si", "ve</w>"],
    ["christ", "oph"],
    ["m'", "a</w>"],
    ["chang", "ement</w>"],
    ["séri", "es</w>"],
    ["rom", "ain</w>"],
    ["qu", "anti"],
    ["vic", "tor</w>"],
    ["fac", "ul"],
    ["cinqui", "ème</w>"],
    ["soi", "ent</w>"],
    ["b", "ec"],
    ["ré", "serv"],
    ["hon", "or"],
    ["por", "trait</w>"],
    ["dé", "faite</w>"],
    ["br", "û"],
    ["ell", "i</w>"],
    ["cathé", "drale</w>"],
    ["l", "et</w>"],
    ["navi", "res</w>"],
    ["pa", "tron"],
    ["mo", "sc"],
    ["d", "au"],
    ["m", "m</w>"],
    ["républi", "c"],
    ["nouv", "el</w>"],
    ["nor", "man"],
    ["comp", "tait</w>"],
    ["d", "ence</w>"],
    ["r", "atta"],
    ["p", "p"],
    ["re", "vient</w>"],
    ["adap", "tation</w>"],
    ["ri", "d</w>"],
    ["is", "ion</w>"],
    ["paro", "le</w>"],
    ["mas", "cul"],
    ["stati", "stiques</w>"],
    ["er", "-"],
    ["l", "ing</w>"],
    ["cardin", "al</w>"],
    ["ol", "ogue</w>"],
    ["fil", "i"],
    ["ab", "solu"],
    ["m", "our"],
    ["at", "lan"],
    ["cert", "aine</w>"],
    ["pl", "ement</w>"],
    ["cré", "er</w>"],
    ["b", "o</w>"],
    ["aff", "ron"],
    ["v", "ul"],
    ["esp", "oir</w>"],
    ["anci", "ennes</w>"],
    ["ou", "ti"],
    ["agri", "coles</w>"],
    ["ic", "k</w>"],
    ["m", "én"],
    ["f", "rapp"],
    ["diffu", "sion</w>"],
    ["jui", "fs</w>"],
    ["h", "as"],
    ["conn", "aissance</w>"],
    ["bi", "te</w>"],
    ["aper", "ç"],
    ["cri", "tiques</w>"],
    ["ph", "én"],
    ["ch", "asse</w>"],
    ["g", "et</w>"],
    ["si", "mon</w>"],
    ["ag", "</w>"],
    ["fort", "une</w>"],
    ["rel", "ev"],
    ["l'i", "dée</w>"],
    ["l", "aisse</w>"],
    ["ten", "us</w>"],
    ["ou", "t</w>"],
    ["arm", "ées</w>"],
    ["automo", "bile</w>"],
    ["nation", "aux</w>"],
    ["conse", "ill"],
    ["voul", "ait</w>"],
    ["ré", "alité</w>"],
    ["s", "atis"],
    ["e", "ille</w>"],
    ["tionn", "elle</w>"],
    ["arch", "é"],
    ["hé", "ros</w>"],
    ["les", "quels</w>"],
    ["accor", "d</w>"],
    ["di", "er</w>"],
    ["ent", "endre</w>"],
    ["pr", "u"],
    ["fl", "ori"],
    ["mosc", "ou</w>"],
    ["ju", "di"],
    ["y", "u"],
    ["rè", "g"],
    ["ra", "c"],
    ["su", "re</w>"],
    ["ju", "st"],
    ["fran", "cs</w>"],
    ["ç", "ait</w>"],
    ["inf", "anterie</w>"],
    ["t", "ables</w>"],
    ["fac", "il"],
    ["gén", "ie</w>"],
    ["ri", "tu"],
    ["lors", "qu'il</w>"],
    ["v", "ont</w>"],
    ["occu", "pe</w>"],
    ["aut", "on"],
    ["ver", "se</w>"],
    ["avi", "ons</w>"],
    ["cu", "les</w>"],
    ["commen", "cé</w>"],
    ["résult", "at</w>"],
    ["in", "vent"],
    ["servi", "r</w>"],
    ["ly", "cée</w>"],
    ["élec", "tor"],
    ["al", "u"],
    ["l", "ine</w>"],
    ["tionn", "el</w>"],
    ["li", "br"],
    ["m", "ans</w>"],
    ["t", "w"],
    ["ennem", "i</w>"],
    ["fa", "ç"],
    ["dev", "int</w>"],
    ["si", "de</w>"],
    ["ri", "che</w>"],
    ["capa", "cité</w>"],
    ["b", "elles</w>"],
    ["si", "tes</w>"],
    ["is", "é</w>"],
    ["or", "ph"],
    ["z", "o</w>"],
    ["fl", "euve</w>"],
    ["ar", "n"],
    ["dis", "cours</w>"],
    ["par", "isi"],
    ["ste", "in</w>"],
    ["graph", "ique</w>"],
    ["trans", "ports</w>"],
    ["l'ar", "chitec"],
    ["dépu", "tés</w>"],
    ["méd", "aill"],
    ["ang", "es</w>"],
    ["r", "ois</w>"],
    ["c", "an</w>"],
    ["dou", "bl"],
    ["trouv", "ait</w>"],
    ["f", "as"],
    ["ad", "er</w>"],
    ["sym", "bo"],
    ["n", "on-"],
    ["réalis", "e</w>"],
    ["k", "y</w>"],
    ["car", "ol"],
    ["enf", "ance</w>"],
    ["déc", "é"],
    ["g", "ers</w>"],
    ["l'ab", "baye</w>"],
    ["ti", "l"],
    ["mex", "ique</w>"],
    ["l'in", "t"],
    ["di", "r</w>"],
    ["archi", "ves</w>"],
    ["maréch", "al</w>"],
    ["ro", "vi"],
    ["ter", "ran"],
    ["ru", "is"],
    ["av", "</w>"],
    ["b", "ell"],
    ["v", "f</w>"],
    ["è", "che</w>"],
    ["is", "ant</w>"],
    ["conn", "aître</w>"],
    ["bour", "ge"],
    ["dé", "ci"],
    ["cab", "inet</w>"],
    ["am", "bi"],
    ["s", "and"],
    ["tr", "o</w>"],
    ["sorti", "r</w>"],
    ["ex", "clu"],
    ["g", "abri"],
    ["meill", "eurs</w>"],
    ["statu", "t</w>"],
    ["déc", "ision</w>"],
    ["li", "re</w>"],
    ["tex", "tes</w>"],
    ["bi", "t</w>"],
    ["n", "az"],
    ["w", "w"],
    ["rom", "aine</w>"],
    ["anim", "ation</w>"],
    ["pa", "t"],
    ["m", "ant</w>"],
    ["qu", "oti"],
    ["brés", "il</w>"],
    ["j'", "avais</w>"],
    ["lieu", "tenant</w>"],
    ["-", "je</w>"],
    ["c", "on</w>"],
    ["fond", "ateur</w>"],
    ["command", "ement</w>"],
    ["eff", "ets</w>"],
    ["y", "e</w>"],
    ["tom", "</w>"],
    ["re", "i"],
    ["agri", "culture</w>"],
    ["sil", "ence</w>"],
    ["s", "in</w>"],
    ["propr", "es</w>"],
    ["fémin", "in</w>"],
    ["k", "am"],
    ["e-", "et-"],
    ["trouv", "é</w>"],
    ["dé", "pl"],
    ["s", "col"],
    ["e", "ill"],
    ["ren", "ouv"],
    ["ré", "d"],
    ["el", "ier</w>"],
    ["b", "i</w>"],
    ["soci", "étés</w>"],
    ["remplac", "é</w>"],
    ["re", "prend</w>"],
    ["cat", "herine</w>"],
    ["ra", "ce</w>"],
    ["n", "ées</w>"],
    ["préf", "ec"],
    ["gn", "on</w>"],
    ["sem", "aines</w>"],
    ["fo", "i</w>"],
    ["cri", "se</w>"],
    ["i", "dée</w>"],
    ["a", "xe</w>"],
    ["n", "és</w>"],
    ["dé", "di"],
    ["du", "es</w>"],
    ["pol", "onais</w>"],
    ["ble", "u</w>"],
    ["c", "élé"],
    ["j", "ér"],
    ["l'", "europe</w>"],
    ["r", "ence</w>"],
    ["volon", "té</w>"],
    ["défin", "iti"],
    ["a", "ch</w>"],
    ["sain", "te</w>"],
    ["alex", "and"],
    ["nor", "m"],
    ["onni", "ers</w>"],
    ["fin", "al</w>"],
    ["v", "ain</w>"],
    ["r", "ai"],
    ["l'", "ai"],
    ["cri", "min"],
    ["littér", "aire</w>"],
    ["in", "augu"],
    ["pen", "se</w>"],
    ["ar", "th"],
    ["s'", "écri"],
    ["viv", "ant</w>"],
    ["eu", "il</w>"],
    ["dis", "cu"],
    ["l", "as</w>"],
    ["l'h", "onneur</w>"],
    ["z", "ar"],
    ["cam", "er"],
    ["ar", "rondissement</w>"],
    ["nu", "méri"],
    ["man", "que</w>"],
    ["christi", "an</w>"],
    ["t", "â"],
    ["élev", "é</w>"],
    ["enti", "er</w>"],
    ["dis", "pose</w>"],
    ["b", "is"],
    ["ori", "ent</w>"],
    ["ro", "ch"],
    ["s", "ence</w>"],
    ["ordin", "aire</w>"],
    ["mi", "x"],
    ["g", "az"],
    ["aiss", "ent</w>"],
    ["au", "ssi"],
    ["espa", "gno"],
    ["cré", "e</w>"],
    ["am", "ique</w>"],
    ["fran", "cis"],
    ["rel", "ation</w>"],
    ["vie", "ille</w>"],
    ["cor", "por"],
    ["jo", "int</w>"],
    ["mor", "te</w>"],
    ["visi", "ons</w>"],
    ["municip", "al</w>"],
    ["ob", "tenu</w>"],
    ["marse", "ille</w>"],
    ["tom", "e</w>"],
    ["ne", "w"],
    ["terri", "toires</w>"],
    ["el", "e"],
    ["s", "pati"],
    ["import", "ants</w>"],
    ["pr", "être</w>"],
    ["onn", "ée</w>"],
    ["c", "f</w>"],
    ["mau", "vais</w>"],
    ["pl", "antes</w>"],
    ["d'", "où</w>"],
    ["ven", "te</w>"],
    ["con", "tient</w>"],
    ["cont", "exte</w>"],
    ["sp", "en"],
    ["con", "centr"],
    ["hou", "se</w>"],
    ["de", "hors</w>"],
    ["ré", "c"],
    ["offici", "ers</w>"],
    ["pro", "ch"],
    ["ra", "y</w>"],
    ["seu", "ls</w>"],
    ["cr", "oire</w>"],
    ["ran", "g</w>"],
    ["d'", "en</w>"],
    ["ru", "es</w>"],
    ["gr", "ec</w>"],
    ["décl", "are</w>"],
    ["xi", "xe</w>"],
    ["éco", "les</w>"],
    ["cou", "ps</w>"],
    ["in", "vesti"],
    ["par", "u</w>"],
    ["e", "p</w>"],
    ["dé", "cou"],
    ["ré", "di"],
    ["iss", "ance</w>"],
    ["ve", "ille</w>"],
    ["l'", "observ"],
    ["hô", "tel</w>"],
    ["lar", "s</w>"],
    ["ag", "ré"],
    ["c", "d</w>"],
    ["ren", "om"],
    ["d", "am</w>"],
    ["qu", "oi"],
    ["ent", "-"],
    ["de", "z</w>"],
    ["atten", "tion</w>"],
    ["s", "ation</w>"],
    ["utilis", "e</w>"],
    ["vill", "ages</w>"],
    ["br", "ou"],
    ["ti", "v"],
    ["to", "p</w>"],
    ["contr", "ain"],
    ["onn", "ier</w>"],
    ["o", "te</w>"],
    ["probl", "èmes</w>"],
    ["développ", "é</w>"],
    ["pré", "cip"],
    ["quit", "ter</w>"],
    ["som", "mes</w>"],
    ["n", "am"],
    ["rejo", "indre</w>"],
    ["endr", "oit</w>"],
    ["l", "ance</w>"],
    ["dipl", "om"],
    ["albu", "ms</w>"],
    ["mes", "ures</w>"],
    ["dioc", "èse</w>"],
    ["médec", "ine</w>"],
    ["l'", "ap"],
    ["toulou", "se</w>"],
    ["k", "on"],
    ["di", "x-"],
    ["fer", "rovi"],
    ["h", "él"],
    ["phén", "om"],
    ["ign", "</w>"],
    ["den", "is</w>"],
    ["ér", "é</w>"],
    ["da", "y</w>"],
    ["collabor", "ation</w>"],
    ["constitu", "e</w>"],
    ["am", "s</w>"],
    ["al", "le</w>"],
    ["angl", "aise</w>"],
    ["enseign", "ement</w>"],
    ["deven", "ue</w>"],
    ["n", "ag"],
    ["trouv", "ent</w>"],
    ["du", "-"],
    ["ad", "o</w>"],
    ["ol", "i</w>"],
    ["atte", "indre</w>"],
    ["par", "avant</w>"],
    ["bur", "g</w>"],
    ["document", "aire</w>"],
    ["chu", "te</w>"],
    ["end", "ait</w>"],
    ["mont", "ag"],
    ["w", "all"],
    ["cycl", "iste</w>"],
    ["s", "qu"],
    ["pr", "euves</w>"],
    ["bru", "it</w>"],
    ["mo", "ri"],
    ["em", "pr"],
    ["s", "mit"],
    ["it", "a</w>"],
    ["cher", "cher</w>"],
    ["guit", "are</w>"],
    ["fu", "s"],
    ["inf", "ra"],
    ["is", "ol"],
    ["ru", "r"],
    ["au", "paravant</w>"],
    ["voi", "rs</w>"],
    ["d'", "autre</w>"],
    ["mi", "di</w>"],
    ["con", "ception</w>"],
    ["pro", "vis"],
    ["tourn", "é</w>"],
    ["e", "ae</w>"],
    ["tradi", "tion</w>"],
    ["ffi", "ce</w>"],
    ["s", "me</w>"],
    ["l'", "organisation</w>"],
    ["expl", "or"],
    ["ti", "ennent</w>"],
    ["pro", "por"],
    ["spectac", "le</w>"],
    ["pos", "és</w>"],
    ["évolu", "e</w>"],
    ["appar", "ition</w>"],
    ["te", "z</w>"],
    ["d", "y"],
    ["qu", "er"],
    ["r", "ô"],
    ["suiv", "antes</w>"],
    ["j", "oie</w>"],
    ["ex", "pri"],
    ["om", "ét"],
    ["al", "i</w>"],
    ["gu", "y</w>"],
    ["am", "élior"],
    ["m", "asse</w>"],
    ["u", "kra"],
    ["g", "as"],
    ["aw", "ards</w>"],
    ["su", "é"],
    ["mag", "n"],
    ["alis", "ée</w>"],
    ["jean", "ne</w>"],
    ["ter", "mes</w>"],
    ["plac", "es</w>"],
    ["in", "-"],
    ["syst", "èmes</w>"],
    ["in", "qui"],
    ["g", "en</w>"],
    ["or", "th"],
    ["constru", "ire</w>"],
    ["k", "a"],
    ["strat", "ég"],
    ["eu", "e</w>"],
    ["hum", "aine</w>"],
    ["hom", "mage</w>"],
    ["aussi", "tôt</w>"],
    ["w", "er"],
    ["br", "ill"],
    ["lib", "ération</w>"],
    ["frédé", "ric</w>"],
    ["signi", "fie</w>"],
    ["re", "té</w>"],
    ["cin", "qu"],
    ["actu", "el</w>"],
    ["e", "ar"],
    ["z", "él"],
    ["pos", "ent</w>"],
    ["a-", "t-il</w>"],
    ["ail", "s</w>"],
    ["ph", "one</w>"],
    ["par", "ten"],
    ["fran", "ch"],
    ["voul", "u</w>"],
    ["propriét", "aire</w>"],
    ["conn", "aît</w>"],
    ["influ", "ence</w>"],
    ["condu", "ite</w>"],
    ["b", "et"],
    ["di", "al"],
    ["b", "an</w>"],
    ["ré", "gl"],
    ["st", "and"],
    ["ju", "les</w>"],
    ["m", "en</w>"],
    ["super", "ficie</w>"],
    ["o", "th"],
    ["origin", "aire</w>"],
    ["am", "énag"],
    ["confér", "ence</w>"],
    ["se", "ine</w>"],
    ["st", "ri"],
    ["di", "men"],
    ["au", "di"],
    ["patri", "ck</w>"],
    ["b", "ét"],
    ["trai", "tement</w>"],
    ["co", "stu"],
    ["rapp", "el"],
    ["prom", "o"],
    ["hon", "g"],
    ["l", "ad"],
    ["châ", "te"],
    ["l'hô", "tel</w>"],
    ["dé", "bar"],
    ["obj", "ectif</w>"],
    ["opéra", "tions</w>"],
    ["répon", "se</w>"],
    ["dam", "es</w>"],
    ["ab", "lement</w>"],
    ["angel", "es</w>"],
    ["pro", "ces"],
    ["gn", "y</w>"],
    ["app", "ell"],
    ["désign", "er</w>"],
    ["plan", "ète</w>"],
    ["vic", "tori"],
    ["d'", "astéroïdes</w>"],
    ["d'", "espagne</w>"],
    ["priv", "ée</w>"],
    ["is", "ent</w>"],
    ["mar", "tin"],
    ["s", "cho"],
    ["t", "aient</w>"],
    ["go", "ût</w>"],
    ["é", "colog"],
    ["dépend", "ance</w>"],
    ["ci", "tés</w>"],
    ["ois", "elle</w>"],
    ["contr", "ô"],
    ["j", "ec"],
    ["cou", "ple</w>"],
    ["ap", "</w>"],
    ["pa", "st"],
    ["b", "ai"],
    ["ir", "lande</w>"],
    ["li", "ées</w>"],
    ["essenti", "ellement</w>"],
    ["lég", "ion</w>"],
    ["--", "et</w>"],
    ["dé", "cid"],
    ["av", "oc"],
    ["publi", "cs</w>"],
    ["dis", "ait</w>"],
    ["gr", "am"],
    ["t", "él"],
    ["ss", "on</w>"],
    ["on", "a</w>"],
    ["ét", "ape</w>"],
    ["mon", "ast"],
    ["électri", "que</w>"],
    ["str", "e"],
    ["ré", "volu"],
    ["chant", "euse</w>"],
    ["p", "ée</w>"],
    ["architec", "ture</w>"],
    ["comp", "li"],
    ["st", "é"],
    ["u", "m"],
    ["écri", "te</w>"],
    ["on", "al</w>"],
    ["capa", "ble</w>"],
    ["ét", "o"],
    ["am", "our"],
    ["offici", "ellement</w>"],
    ["o", "c</w>"],
    ["chi", "c"],
    ["limi", "te</w>"],
    ["un", "it"],
    ["uni", "quement</w>"],
    ["n'", "ai</w>"],
    ["uni", "vers</w>"],
    ["dra", "g"],
    ["l'", "ad"],
    ["ren", "du</w>"],
    ["w", "ash"],
    ["beau", "x-"],
    ["ra", "ine</w>"],
    ["ex", "am"],
    ["un", "ités</w>"],
    ["dis", "que</w>"],
    ["g", "our"],
    ["ch", "il"],
    ["ex", "position</w>"],
    ["distin", "ctions</w>"],
    ["jo", "sé</w>"],
    ["tu", "é</w>"],
    ["l'", "enfant</w>"],
    ["fé", "li"],
    ["gran", "de-"],
    ["ba", "ch</w>"],
    ["cri", "me</w>"],
    ["vég", "ét"],
    ["pro", "cès</w>"],
    ["ang", "le</w>"],
    ["demand", "er</w>"],
    ["scén", "ariste</w>"],
    ["rapi", "de</w>"],
    ["min", "a</w>"],
    ["métho", "de</w>"],
    ["vier", "ge</w>"],
    ["ques", "tions</w>"],
    ["ro", "s"],
    ["spor", "tif</w>"],
    ["région", "al</w>"],
    ["port", "ait</w>"],
    ["s'", "im"],
    ["dan", "se</w>"],
    ["différ", "ence</w>"],
    ["mau", "v"],
    ["apparti", "ent</w>"],
    ["b", "ag"],
    ["comm", "iss"],
    ["formu", "le</w>"],
    ["re", "group"],
    ["fin", "it</w>"],
    ["l'ar", "rivée</w>"],
    ["d", "ec"],
    ["d", "ance</w>"],
    ["mu", "rs</w>"],
    ["l'", "avait</w>"],
    ["i", "ie</w>"],
    ["d", "eur</w>"],
    ["e", "v</w>"],
    ["britan", "niques</w>"],
    ["produ", "ire</w>"],
    ["è", "que</w>"],
    ["arti", "ll"],
    ["p", "ologie</w>"],
    ["ten", "sion</w>"],
    ["f", "ab"],
    ["bask", "et-"],
    ["ori", "es</w>"],
    ["gr", "èce</w>"],
    ["basket-", "ball</w>"],
    ["cap", "</w>"],
    ["reconn", "aissance</w>"],
    ["marc", "el</w>"],
    ["è", "vre</w>"],
    ["po", "ésie</w>"],
    ["tre", "fois</w>"],
    ["av", "er"],
    ["ren", "for"],
    ["ren", "seign"],
    ["man", "us"],
    ["égyp", "te</w>"],
    ["suc", "cessi"],
    ["g", "rég"],
    ["bar", "bar"],
    ["t", "an</w>"],
    ["contr", "e"],
    ["del", "à</w>"],
    ["tran", "si"],
    ["l'", "espace</w>"],
    ["psy", "ch"],
    ["sau", "f</w>"],
    ["h", "aut"],
    ["aff", "lu"],
    ["am", "en"],
    ["pouv", "ant</w>"],
    ["ob", "s"],
    ["st", "an"],
    ["occident", "ale</w>"],
    ["dess", "inée</w>"],
    ["assur", "er</w>"],
    ["cin", "é"],
    ["st", "ock"],
    ["chic", "ago</w>"],
    ["sembl", "ait</w>"],
    ["rem", "porté</w>"],
    ["tribun", "al</w>"],
    ["alli", "ance</w>"],
    ["iss", "ons</w>"],
    ["déc", "ret</w>"],
    ["shi", "p</w>"],
    ["pl", "ay"],
    ["ori", "</w>"],
    ["ou", "l</w>"],
    ["from", "</w>"],
    ["p", "seu"],
    ["au", "t</w>"],
    ["l", "ord</w>"],
    ["mari", "time</w>"],
    ["ét", "oit</w>"],
    ["ré", "fu"],
    ["dé", "p"],
    ["ni", "er</w>"],
    ["a", "éro"],
    ["appli", "cation</w>"],
    ["mar", "k</w>"],
    ["réci", "t</w>"],
    ["respon", "sable</w>"],
    ["col", "le"],
    ["é", "car"],
    ["ris", "t</w>"],
    ["beaux-", "arts</w>"],
    ["p", "é</w>"],
    ["be", "aux</w>"],
    ["lar", "gement</w>"],
    ["ex", "cep"],
    ["en", "ue</w>"],
    ["ten", "nis</w>"],
    ["se", "aux</w>"],
    ["st", "a</w>"],
    ["p", "ill"],
    ["mo", "graphie</w>"],
    ["froi", "d</w>"],
    ["publi", "ée</w>"],
    ["lab", "el</w>"],
    ["ss", "i</w>"],
    ["l", "on</w>"],
    ["ch", "en"],
    ["proces", "sus</w>"],
    ["un", "es</w>"],
    ["s", "is"],
    ["lé", "ans</w>"],
    ["en", "ci"],
    ["coll", "ecti"],
    ["su", "ède</w>"],
    ["on", "cle</w>"],
    ["ar", "i</w>"],
    ["sim", "plement</w>"],
    ["par", "tout</w>"],
    ["i", "b"],
    ["sac", "ri"],
    ["inter", "net</w>"],
    ["j", "o</w>"],
    ["fer", "n"],
    ["jac", "k</w>"],
    ["d", "t</w>"],
    ["hu", "ile</w>"],
    ["am", "bass"],
    ["g", "ence</w>"],
    ["p", "iste</w>"],
    ["and", "er"],
    ["b", "ons</w>"],
    ["py", "ré"],
    ["quin", "ze</w>"],
    ["tu", "e</w>"],
    ["ris", "ques</w>"],
    ["musi", "c</w>"],
    ["étab", "lir</w>"],
    ["s", "prin"],
    ["rom", "ans</w>"],
    ["prin", "temps</w>"],
    ["portug", "al</w>"],
    ["dou", "ard</w>"],
    ["réalis", "ée</w>"],
    ["che", "-"],
    ["ch", "t</w>"],
    ["qu", "a</w>"],
    ["str", "as"],
    ["mad", "rid</w>"],
    ["dol", "lars</w>"],
    ["n", "au"],
    ["demand", "a</w>"],
    ["lan", "cé</w>"],
    ["nom", "ination</w>"],
    ["fil", "mographie</w>"],
    ["feu", "illes</w>"],
    ["utilis", "er</w>"],
    ["donn", "a</w>"],
    ["restau", "ration</w>"],
    ["al", "ain</w>"],
    ["ré", "su"],
    ["n", "g</w>"],
    ["télé", "film</w>"],
    ["ga", "z</w>"],
    ["wash", "ington</w>"],
    ["su", "s"],
    ["h", "onn"],
    ["p", "in</w>"],
    ["li", "on</w>"],
    ["no", "ble</w>"],
    ["futu", "r</w>"],
    ["m", "ill"],
    ["o", "la</w>"],
    ["ruis", "seau</w>"],
    ["con", "ven"],
    ["bor", "deaux</w>"],
    ["qu", "es-"],
    ["col", "</w>"],
    ["mar", "in</w>"],
    ["él", "èves</w>"],
    ["ol", "s</w>"],
    ["le", "e</w>"],
    ["vers", "aire</w>"],
    ["oli", "vier</w>"],
    ["è", "n"],
    ["loc", "al</w>"],
    ["import", "antes</w>"],
    ["ban", "que</w>"],
    ["concer", "t</w>"],
    ["c", "-"],
    ["b", "in</w>"],
    ["accu", "eil</w>"],
    ["g", "ées</w>"],
    ["ré", "at</w>"],
    ["per", "man"],
    ["const", "ant"],
    ["loc", "aux</w>"],
    ["ten", "ti"],
    ["d'", "ai"],
    ["cec", "i</w>"],
    ["montag", "nes</w>"],
    ["c", "eux-"],
    ["cr", "ois</w>"],
    ["im", "possible</w>"],
    ["con", "ver"],
    ["l'", "entreprise</w>"],
    ["senti", "ment</w>"],
    ["crip", "tions</w>"],
    ["au", "quel</w>"],
    ["l'é", "v"],
    ["e", "la</w>"],
    ["tr", "ine</w>"],
    ["b", "ord"],
    ["per", "d</w>"],
    ["cer", "cle</w>"],
    ["l'", "an"],
    ["g", "enti"],
    ["r", "ais"],
    ["fa", "une</w>"],
    ["présent", "é</w>"],
    ["dem", "eur"],
    ["cou", "n"],
    ["dust", "rie</w>"],
    ["y", "ou</w>"],
    ["ad", "el"],
    ["con", "qu"],
    ["j", "az"],
    ["ili", "er</w>"],
    ["i", "ra</w>"],
    ["tr", "y</w>"],
    ["ré", "union</w>"],
    ["d", "ri"],
    ["universi", "taire</w>"],
    ["d", "in</w>"],
    ["o", "ï"],
    ["bat", "aill"],
    ["t", "en</w>"],
    ["autori", "tés</w>"],
    ["r", "al"],
    ["i", "de</w>"],
    ["guer", "res</w>"],
    ["re", "prise</w>"],
    ["permet", "tent</w>"],
    ["suiv", "ants</w>"],
    ["is", "son</w>"],
    ["donn", "ée</w>"],
    ["man", "ie</w>"],
    ["chem", "ins</w>"],
    ["lo", "ve</w>"],
    ["ois", "eaux</w>"],
    ["ti", "ères</w>"],
    ["lég", "ende</w>"],
    ["l", "om"],
    ["cultur", "el</w>"],
    ["d'", "infanterie</w>"],
    ["d'", "ag"],
    ["cir", "const"],
    ["mil", "an</w>"],
    ["dis", "ci"],
    ["w", "ell</w>"],
    ["ce", "aux</w>"],
    ["natu", "rels</w>"],
    ["k", "ir"],
    ["envoy", "é</w>"],
    ["bat", "eau</w>"],
    ["ennem", "is</w>"],
    ["res", "sources</w>"],
    ["réguli", "èrement</w>"],
    ["distin", "gu"],
    ["nu", "clé"],
    ["tradu", "it</w>"],
    ["l'", "élection</w>"],
    ["l'h", "eure</w>"],
    ["circu", "it</w>"],
    ["r", "aisons</w>"],
    ["matéri", "el</w>"],
    ["progr", "essi"],
    ["diffus", "ée</w>"],
    ["diam", "ètre</w>"],
    ["sec", "ours</w>"],
    ["ci", "o</w>"],
    ["permet", "tre</w>"],
    ["sign", "é</w>"],
    ["ograph", "iques</w>"],
    ["de", "au</w>"],
    ["syn", "dic"],
    ["gr", "ave</w>"],
    ["universi", "ty</w>"],
    ["j", "on</w>"],
    ["di", "ts</w>"],
    ["smit", "h</w>"],
    ["intitu", "lé</w>"],
    ["he", "im</w>"],
    ["ant", "oni"],
    ["disci", "pl"],
    ["di", "versi"],
    ["dé", "pen"],
    ["o", "se</w>"],
    ["ar", "ité</w>"],
    ["w", "hi"],
    ["land", "aise</w>"],
    ["i", "ens</w>"],
    ["ach", "et"],
    ["probl", "ème</w>"],
    ["ma", "s</w>"],
    ["artill", "erie</w>"],
    ["ex", "pé"],
    ["arriv", "ée</w>"],
    ["lé", "on</w>"],
    ["do", "r</w>"],
    ["ph", "ère</w>"],
    ["v", "o</w>"],
    ["bou", "che</w>"],
    ["for", "tement</w>"],
    ["cu", "i"],
    ["écri", "re</w>"],
    ["si", "mil"],
    ["ge", "ant</w>"],
    ["représent", "ation</w>"],
    ["d'", "italie</w>"],
    ["dem", "eure</w>"],
    ["h", "ay"],
    ["ét", "en"],
    ["vin", "cent</w>"],
    ["ré", "vol"],
    ["dav", "antage</w>"],
    ["mi", "r"],
    ["ai", "ment</w>"],
    ["tr", "ente</w>"],
    ["état", "-"],
    ["desc", "end"],
    ["les", "quelles</w>"],
    ["par", "aît</w>"],
    ["b", "in"],
    ["é", "pi"],
    ["l'", "œuvre</w>"],
    ["on", "ie</w>"],
    ["génér", "aux</w>"],
    ["f", "allait</w>"],
    ["ple", "ine</w>"],
    ["w", "es"],
    ["utilis", "és</w>"],
    ["res", "ter</w>"],
    ["us", "ine</w>"],
    ["res", "pecti"],
    ["tr", "esse</w>"],
    ["con", "sid"],
    ["ic", "a</w>"],
    ["li", "ve</w>"],
    ["conf", "lit</w>"],
    ["siè", "cles</w>"],
    ["l'ar", "rondissement</w>"],
    ["t", "ères</w>"],
    ["cou", "rage</w>"],
    ["étudi", "ants</w>"],
    ["r", "in</w>"],
    ["travaill", "er</w>"],
    ["û", "te</w>"],
    ["lux", "embour"],
    ["dang", "er"],
    ["ch", "en</w>"],
    ["l", "n"],
    ["i", "dae</w>"],
    ["o", "ts</w>"],
    ["soci", "aliste</w>"],
    ["re", "d</w>"],
    ["espagno", "le</w>"],
    ["ma", "x</w>"],
    ["dis", "co"],
    ["dic", "tionnaire</w>"],
    ["li", "gn"],
    ["v", "aste</w>"],
    ["el", "-"],
    ["l'é", "cri"],
    ["urb", "aine</w>"],
    ["constitu", "é</w>"],
    ["d'", "environ</w>"],
    ["conn", "exe</w>"],
    ["men", "ac"],
    ["ran", "ts</w>"],
    ["é", "tienne</w>"],
    ["bi", "en"],
    ["qu", "in</w>"],
    ["con", "cur"],
    ["b", "ad"],
    ["pier", "re-"],
    ["gen", "ève</w>"],
    ["titu", "laire</w>"],
    ["k", "in</w>"],
    ["t", "ine</w>"],
    ["ot", "a</w>"],
    ["dr", "a</w>"],
    ["cou", "tu"],
    ["ch", "rist</w>"],
    ["w", "er</w>"],
    ["mu", "seu"],
    ["w", "e</w>"],
    ["terri", "tori"],
    ["bapti", "ste</w>"],
    ["ré", "p"],
    ["é", "volution</w>"],
    ["w", "n"],
    ["dé", "es</w>"],
    ["ess", "ais</w>"],
    ["néer", "landais</w>"],
    ["iti", "é</w>"],
    ["s", "l"],
    ["dét", "aill"],
    ["ex", "cell"],
    ["o", "gues</w>"],
    ["rec", "e"],
    ["c", "aire</w>"],
    ["s", "ar</w>"],
    ["h", "tt"],
    ["j", "al"],
    ["su", "g"],
    ["cham", "ps</w>"],
    ["xx", "ie</w>"],
    ["li", "m"],
    ["er", "s"],
    ["con", "vention</w>"],
    ["a", "la</w>"],
    ["ell", "o</w>"],
    ["voy", "ant</w>"],
    ["pu", "isse</w>"],
    ["é", "ducation</w>"],
    ["l'", "entrée</w>"],
    ["mo", "bil"],
    ["l", "ait</w>"],
    ["compl", "ète</w>"],
    ["vo", "te</w>"],
    ["pl", "ain"],
    ["préfec", "ture</w>"],
    ["g", "la"],
    ["ng", "c</w>"],
    ["tr", "on</w>"],
    ["j'", "en</w>"],
    ["at", "ement</w>"],
    ["log", "i"],
    ["confi", "ance</w>"],
    ["m", "ement</w>"],
    ["acti", "f</w>"],
    ["mod", "èles</w>"],
    ["on", "yme</w>"],
    ["ru", "sses</w>"],
    ["gra", "de</w>"],
    ["produ", "c"],
    ["we", "b</w>"],
    ["musi", "cale</w>"],
    ["présent", "ation</w>"],
    ["ri", "ght</w>"],
    ["p", "es"],
    ["is", "tique</w>"],
    ["â", "mes</w>"],
    ["li", "a</w>"],
    ["médi", "terran"],
    ["ti", "c</w>"],
    ["mu", "sul"],
    ["l'", "allemagne</w>"],
    ["t", "age</w>"],
    ["ess", "ai</w>"],
    ["an", "t-"],
    ["fin", "i</w>"],
    ["om", "bre</w>"],
    ["beau", "té</w>"],
    ["au", "trefois</w>"],
    ["ori", "z"],
    ["di", "minu"],
    ["organis", "é</w>"],
    ["candid", "at</w>"],
    ["ent", "our"],
    ["cul", "te</w>"],
    ["stu", "di"],
    ["cour", "eur</w>"],
    ["pa", "ssion</w>"],
    ["is", "er</w>"],
    ["il", "la</w>"],
    ["im", "ages</w>"],
    ["y", "o"],
    ["rece", "voir</w>"],
    ["nu", "l</w>"],
    ["par", "k</w>"],
    ["att", "endre</w>"],
    ["et", "tre</w>"],
    ["inform", "ations</w>"],
    ["de", "voir</w>"],
    ["d", "î"],
    ["l'", "été</w>"],
    ["parti", "s</w>"],
    ["n", "es"],
    ["centr", "e-"],
    ["comm", "ent"],
    ["h", "and"],
    ["ign", "or"],
    ["m", "ène</w>"],
    ["al", "s</w>"],
    ["tot", "ale</w>"],
    ["siè", "ges</w>"],
    ["illustr", "ation</w>"],
    ["li", "ère</w>"],
    ["zi", "ème</w>"],
    ["ven", "ue</w>"],
    ["ch", "et</w>"],
    ["fran", "k</w>"],
    ["-", "de-"],
    ["ra", "cin"],
    ["th", "ème</w>"],
    ["blac", "k</w>"],
    ["s", "n"],
    ["vie", "ill"],
    ["ou", "n</w>"],
    ["h", "all</w>"],
    ["l'ab", "bé</w>"],
    ["métr", "o</w>"],
    ["avi", "er</w>"],
    ["re", "ts</w>"],
    ["at", "oires</w>"],
    ["l’", "in"],
    ["al", "pes</w>"],
    ["inst", "ant</w>"],
    ["laiss", "é</w>"],
    ["phot", "os</w>"],
    ["jap", "onaise</w>"],
    ["en", "vers</w>"],
    ["tri", "om"],
    ["éri", "e</w>"],
    ["champi", "ons</w>"],
    ["promo", "tion</w>"],
    ["ab", "</w>"],
    ["su", "spen"],
    ["pro", "ches</w>"],
    ["mont", "age</w>"],
    ["mar", "guer"],
    ["com", "porte</w>"],
    ["expli", "que</w>"],
    ["k", "ol"],
    ["dess", "in"],
    ["ann", "i</w>"],
    ["ex", "ion</w>"],
    ["docu", "ments</w>"],
    ["ali", "ers</w>"],
    ["lang", "age</w>"],
    ["sa", "x"],
    ["gén", "ération</w>"],
    ["v", "ois</w>"],
    ["atu", "r"],
    ["museu", "m</w>"],
    ["dérou", "le</w>"],
    ["ar", "rière</w>"],
    ["s", "ports</w>"],
    ["no", "blesse</w>"],
    ["hu", "main</w>"],
    ["représent", "ations</w>"],
    ["pa", "pier</w>"],
    ["c", "re</w>"],
    ["h", "un"],
    ["min", "i"],
    ["ven", "ise</w>"],
    ["d'", "afrique</w>"],
    ["souv", "enir</w>"],
    ["gl", "om"],
    ["r", "hô"],
    ["an", "ique</w>"],
    ["wit", "h</w>"],
    ["ferrovi", "aire</w>"],
    ["églis", "es</w>"],
    ["t", "oile</w>"],
    ["uti", "le</w>"],
    ["er", "y</w>"],
    ["bl", "es"],
    ["fou", "le</w>"],
    ["offici", "elle</w>"],
    ["m", "o</w>"],
    ["ch", "el"],
    ["peu", "ples</w>"],
    ["shi", "re</w>"],
    ["ri", "o</w>"],
    ["pos", "ées</w>"],
    ["initi", "alement</w>"],
    ["h", "av"],
    ["l", "une</w>"],
    ["mon", "t-"],
    ["pren", "ait</w>"],
    ["pro", "v"],
    ["poin", "te</w>"],
    ["statu", "e</w>"],
    ["prom", "en"],
    ["arab", "e</w>"],
    ["ili", "en</w>"],
    ["p", "il"],
    ["contin", "ent"],
    ["et", "y</w>"],
    ["éto", "iles</w>"],
    ["arriv", "é</w>"],
    ["m", "onn"],
    ["è", "gre</w>"],
    ["con", "science</w>"],
    ["and", "a</w>"],
    ["dess", "in</w>"],
    ["p", "ie</w>"],
    ["sc", "ru"],
    ["lan", "c"],
    ["s", "pa"],
    ["car", "t"],
    ["pens", "er</w>"],
    ["stras", "bourg</w>"],
    ["i", "z"],
    ["ér", "er</w>"],
    ["facul", "té</w>"],
    ["fon", "taine</w>"],
    ["j'", "étais</w>"],
    ["patron", "yme</w>"],
    ["législ", "atives</w>"],
    ["prot", "est"],
    ["commun", "ale</w>"],
    ["ré", "cu"],
    ["mou", "rir</w>"],
    ["ag", "er</w>"],
    ["h", "il"],
    ["gu", "st"],
    ["dé", "ta"],
    ["cl", "air</w>"],
    ["éri", "que</w>"],
    ["d", "anger</w>"],
    ["serv", "i</w>"],
    ["min", "im"],
    ["antoni", "o</w>"],
    ["l'in", "dustrie</w>"],
    ["h", "onneur</w>"],
    ["hi", "p"],
    ["le", "z</w>"],
    ["comp", "ét"],
    ["com", "prendre</w>"],
    ["gar", "çon</w>"],
    ["mand", "at</w>"],
    ["étrang", "ères</w>"],
    ["im", "age</w>"],
    ["état-", "major</w>"],
    ["notre-", "dame</w>"],
    ["l'é", "volution</w>"],
    ["or", "a</w>"],
    ["on", "i</w>"],
    ["si", "mul"],
    ["adres", "se</w>"],
    ["conn", "us</w>"],
    ["le", "ver</w>"],
    ["montr", "er</w>"],
    ["d", "r</w>"],
    ["aspec", "t</w>"],
    ["professionn", "elle</w>"],
    ["gér", "ard</w>"],
    ["dis", "ant</w>"],
    ["élec", "tron"],
    ["hy", "po"],
    ["d'", "ac"],
    ["in", "age</w>"],
    ["n’", "est</w>"],
    ["s", "un"],
    ["e", "au-"],
    ["tri", "che</w>"],
    ["ob", "st"],
    ["parl", "ement"],
    ["t", "ter</w>"],
    ["den", "sité</w>"],
    ["commun", "iste</w>"],
    ["o", "di"],
    ["religi", "euse</w>"],
    ["off", "en"],
    ["ph", "ra"],
    ["ja", "une</w>"],
    ["dou", "x</w>"],
    ["ré", "forme</w>"],
    ["tr", "ag"],
    ["appar", "tenant</w>"],
    ["in", "vi"],
    ["col", "or"],
    ["colle", "ge</w>"],
    ["z", "aine</w>"],
    ["des", "tru"],
    ["an", "y</w>"],
    ["che", "fs</w>"],
    ["fav", "or"],
    ["plac", "é</w>"],
    ["déc", "isi"],
    ["ot", "y"],
    ["tr", "ent"],
    ["d'", "hiver</w>"],
    ["dispar", "u</w>"],
    ["chau", "ff"],
    ["d'", "histoire</w>"],
    ["particip", "é</w>"],
    ["champi", "onne</w>"],
    ["méri", "te</w>"],
    ["p", "p</w>"],
    ["in", "ion</w>"],
    ["tu", "de</w>"],
    ["par", "vient</w>"],
    ["f", "ati"],
    ["fo", "ss"],
    ["cal", "cul"],
    ["j", "un"],
    ["cep", "ti"],
    ["min", "es</w>"],
    ["k", "ou"],
    ["d", "ag"],
    ["qu", "ées</w>"],
    ["su", "jets</w>"],
    ["précip", "it"],
    ["val", "eurs</w>"],
    ["marqu", "ée</w>"],
    ["er", "o</w>"],
    ["m", "ages</w>"],
    ["f", "il</w>"],
    ["mex", "ic"],
    ["pré", "fér"],
    ["chev", "eux</w>"],
    ["v", "eu"],
    ["î", "tre</w>"],
    ["s", "ang"],
    ["t", "es-"],
    ["re", "prit</w>"],
    ["ten", "tion</w>"],
    ["ch", "œur</w>"],
    ["qu'", "au</w>"],
    ["th", "ique</w>"],
    ["ph", "ar"],
    ["dé", "pendant</w>"],
    ["ju", "an</w>"],
    ["vis", "it"],
    ["fl", "otte</w>"],
    ["vic", "times</w>"],
    ["ég", "al</w>"],
    ["disponi", "ble</w>"],
    ["ar", "k</w>"],
    ["arch", "ie</w>"],
    ["g", "ènes</w>"],
    ["re", "groupe</w>"],
    ["département", "al</w>"],
    ["ch", "auss"],
    ["e", "ils</w>"],
    ["visi", "ble</w>"],
    ["b", "aie</w>"],
    ["judi", "ci"],
    ["p", "è"],
    ["adi", "s</w>"],
    ["enti", "ère</w>"],
    ["pl", "ans</w>"],
    ["l", "abor"],
    ["esti", "me</w>"],
    ["cav", "al"],
    ["voyag", "eurs</w>"],
    ["pi", "t</w>"],
    ["ru", "rale</w>"],
    ["r", "emp"],
    ["em", "par"],
    ["immédi", "atement</w>"],
    ["l'é", "mission</w>"],
    ["ci", "te</w>"],
    ["bran", "che</w>"],
    ["de", "vi"],
    ["scientifi", "ques</w>"],
    ["r", "ai</w>"],
    ["ne", "v"],
    ["dyn", "as"],
    ["d'", "angleterre</w>"],
    ["ty", "pologie</w>"],
    ["l'", "affaire</w>"],
    ["possi", "bilité</w>"],
    ["t", "ap"],
    ["p", "un"],
    ["bar", "cel"],
    ["g", "mina</w>"],
    ["gi", "o</w>"],
    ["con", "vain"],
    ["ray", "mond</w>"],
    ["o", "w"],
    ["mon", "i"],
    ["sup", "er</w>"],
    ["bom", "bar"],
    ["per", "te</w>"],
    ["co", "s"],
    ["g", "eur</w>"],
    ["tr", "ône</w>"],
    ["fran", "co"],
    ["e", "di"],
    ["athl", "ète</w>"],
    ["è", "tement</w>"],
    ["av", "ou"],
    ["ois", "eau</w>"],
    ["touris", "me</w>"],
    ["ac", "eae</w>"],
    ["indi", "que</w>"],
    ["ab", "ilité</w>"],
    ["aw", "a</w>"],
    ["enti", "elle</w>"],
    ["europé", "ens</w>"],
    ["spi", "ritu"],
    ["l", "u</w>"],
    ["é", "mission</w>"],
    ["gal", "li"],
    ["l'observ", "atoire</w>"],
    ["recu", "eil</w>"],
    ["l", "en"],
    ["ré", "ussi"],
    ["hong", "rie</w>"],
    ["t", "z"],
    ["ecti", "fs</w>"],
    ["é", "ti"],
    ["ww", "w</w>"],
    ["mar", "ins</w>"],
    ["ren", "on"],
    ["ra", "t</w>"],
    ["massi", "f</w>"],
    ["bas", "é</w>"],
    ["sc", "ènes</w>"],
    ["des", "ser"],
    ["w", "est</w>"],
    ["mar", "oc</w>"],
    ["é", "prouv"],
    ["étrang", "ers</w>"],
    ["ist", "ence</w>"],
    ["no", "y"],
    ["l'ac", "tion</w>"],
    ["s", "core</w>"],
    ["sant", "a</w>"],
    ["tran", "qu"],
    ["précé", "dent</w>"],
    ["--", "il</w>"],
    ["mar", "y</w>"],
    ["l'ex", "pl"],
    ["n", "antes</w>"],
    ["ori", "s</w>"],
    ["d'", "elle</w>"],
    ["t", "ère</w>"],
    ["met", "tant</w>"],
    ["ren", "aissance</w>"],
    ["dat", "es</w>"],
    ["monast", "ère</w>"],
    ["fémin", "ine</w>"],
    ["dem", "ment</w>"],
    ["étu", "die</w>"],
    ["lo", "y"],
    ["comm", "ande</w>"],
    ["anti", "-"],
    ["cy", "cle</w>"],
    ["al", "la</w>"],
    ["ceux-", "ci</w>"],
    ["vil", "la</w>"],
    ["sin", "gu"],
    ["produ", "ctions</w>"],
    ["-", "sur-"],
    ["év", "alu"],
    ["débu", "te</w>"],
    ["l'", "administration</w>"],
    ["hu", "r"],
    ["con", "tres</w>"],
    ["aur", "aient</w>"],
    ["form", "ations</w>"],
    ["con", "dition</w>"],
    ["compl", "exe</w>"],
    ["agri", "cole</w>"],
    ["bat", "terie</w>"],
    ["di", "tes</w>"],
    ["ran", "d</w>"],
    ["pl", "ais"],
    ["faç", "ade</w>"],
    ["diri", "ge</w>"],
    ["h", "o</w>"],
    ["diri", "gé</w>"],
    ["rel", "ativement</w>"],
    ["si", "f</w>"],
    ["e", "z-"],
    ["cé", "der</w>"],
    ["pén", "étr"],
    ["vi", "i</w>"],
    ["ar", "bres</w>"],
    ["priv", "il"],
    ["ex", "téri"],
    ["r", "in"],
    ["g", "agne</w>"],
    ["l'", "angleterre</w>"],
    ["ju", "lien</w>"],
    ["marguer", "ite</w>"],
    ["acti", "ve</w>"],
    ["po", "tenti"],
    ["anti", "qu"],
    ["j", "ette</w>"],
    ["com", "tesse</w>"],
    ["jaz", "z</w>"],
    ["rar", "es</w>"],
    ["tr", "ement</w>"],
    ["étab", "li</w>"],
    ["sk", "y</w>"],
    ["at", "o</w>"],
    ["gl", "oire</w>"],
    ["m", "ées</w>"],
    ["combat", "s</w>"],
    ["r", "are</w>"],
    ["jac", "k"],
    ["conséqu", "ence</w>"],
    ["secon", "des</w>"],
    ["fi", "c</w>"],
    ["pê", "che</w>"],
    ["slo", "va"],
    ["ali", "ce</w>"],
    ["o", "eu"],
    ["ni", "ce</w>"],
    ["mad", "em"],
    ["répon", "dre</w>"],
    ["soci", "ales</w>"],
    ["g", "-"],
    ["plat", "eau</w>"],
    ["su", "ites</w>"],
    ["anim", "al</w>"],
    ["madem", "oiselle</w>"],
    ["concep", "t</w>"],
    ["dé", "signe</w>"],
    ["dérou", "lant</w>"],
    ["voy", "ait</w>"],
    ["a", "qu"],
    ["on", "ale</w>"],
    ["inst", "alle</w>"],
    ["lig", "ence</w>"],
    ["d", "v"],
    ["éra", "ble</w>"],
    ["og", "</w>"],
    ["vic", "time</w>"],
    ["re", "connu</w>"],
    ["pl", "on"],
    ["c", "m</w>"],
    ["pris", "onniers</w>"],
    ["prov", "ence</w>"],
    ["inter", "rom"],
    ["l'é", "dition</w>"],
    ["enten", "du</w>"],
    ["médi", "as</w>"],
    ["for", "ment</w>"],
    ["com", "pose</w>"],
    ["ter", "s</w>"],
    ["s", "z"],
    ["d", "ation</w>"],
    ["t", "ain"],
    ["an", "es</w>"],
    ["ex", "empl"],
    ["maj", "eur</w>"],
    ["dom", "aines</w>"],
    ["l'", "ég"],
    ["in", "cen"],
    ["oc", "k</w>"],
    ["empr", "un"],
    ["ger", "man"],
    ["dis", "position</w>"],
    ["res", "sort</w>"],
    ["cor", "é"],
    ["no", "ël</w>"],
    ["in", "car"],
    ["l", "ap"],
    ["arth", "ur</w>"],
    ["du", "ch"],
    ["per", "dre</w>"],
    ["l'", "importance</w>"],
    ["suppl", "ément"],
    ["océ", "an</w>"],
    ["lin", "gu"],
    ["ran", "te</w>"],
    ["é", "qu"],
    ["mar", "ne</w>"],
    ["l'in", "st"],
    ["ist", "an</w>"],
    ["gé", "ographique</w>"],
    ["reven", "ir</w>"],
    ["lec", "ture</w>"],
    ["ré", "par"],
    ["v", "es"],
    ["mon", "te</w>"],
    ["hu", "mi"],
    ["au", "tés</w>"],
    ["chac", "une</w>"],
    ["di", "manche</w>"],
    ["che", "f-"],
    ["vi", "ens</w>"],
    ["mis", "es</w>"],
    ["lu", "c</w>"],
    ["th", "er</w>"],
    ["mis", "s</w>"],
    ["jusqu’", "à</w>"],
    ["n", "oirs</w>"],
    ["t", "ants</w>"],
    ["an", "te-"],
    ["mém", "oires</w>"],
    ["dom", "i"],
    ["cri", "st"],
    ["li", "ée</w>"],
    ["t", "em"],
    ["économ", "iques</w>"],
    ["c", "ales</w>"],
    ["e", "re</w>"],
    ["ren", "contres</w>"],
    ["donn", "ant</w>"],
    ["f", "our</w>"],
    ["in", "clin"],
    ["l'é", "ducation</w>"],
    ["post", "éri"],
    ["d'", "entre</w>"],
    ["re", "aux</w>"],
    ["pour", "suit</w>"],
    ["bi", "a</w>"],
    ["cont", "act</w>"],
    ["cor", "ée</w>"],
    ["mo", "indre</w>"],
    ["hé", "li"],
    ["é", "lus</w>"],
    ["mi", "ra"],
    ["fau", "te</w>"],
    ["or", "n"],
    ["chev", "êque</w>"],
    ["écri", "ts</w>"],
    ["législ", "ature</w>"],
    ["b", "un"],
    ["intéri", "eur</w>"],
    ["fran", "cis</w>"],
    ["t", "ante</w>"],
    ["ingéni", "eur</w>"],
    ["compl", "et</w>"],
    ["publi", "ques</w>"],
    ["l'ex", "tr"],
    ["sav", "oie</w>"],
    ["orig", "ines</w>"],
    ["lor", "raine</w>"],
    ["j", "ar"],
    ["lou", "ise</w>"],
    ["ent", "ement</w>"],
    ["envir", "onn"],
    ["dé", "sir</w>"],
    ["ti", "ème</w>"],
    ["pro", "fit</w>"],
    ["rou", "ss"],
    ["nour", "ri"],
    ["bri", "dge</w>"],
    ["l'é", "ch"],
    ["lu", "m"],
    ["priv", "é</w>"],
    ["col", "or</w>"],
    ["b", "al</w>"],
    ["empê", "cher</w>"],
    ["domi", "cile</w>"],
    ["k", "an"],
    ["dispu", "te</w>"],
    ["urban", "isme</w>"],
    ["ob", "é"],
    ["ca", "f"],
    ["mo", "re</w>"],
    ["intér", "êts</w>"],
    ["ap", "proche</w>"],
    ["si", "er</w>"],
    ["mal", "ade</w>"],
    ["form", "ée</w>"],
    ["l", "as"],
    ["re", "y</w>"],
    ["plac", "ement</w>"],
    ["pr", "ai"],
    ["architec", "te</w>"],
    ["o", "y</w>"],
    ["r", "entr"],
    ["tr", "am"],
    ["f", "rap"],
    ["déc", "ouvre</w>"],
    ["f", "res"],
    ["établis", "sements</w>"],
    ["l'", "occupation</w>"],
    ["écl", "ai"],
    ["pa", "sc"],
    ["d", "ot"],
    ["r", "ont</w>"],
    ["colon", "i"],
    ["cou", "ra"],
    ["v", "ar</w>"],
    ["le", "i"],
    ["déclar", "é</w>"],
    ["s", "c</w>"],
    ["utilis", "ant</w>"],
    ["christoph", "e</w>"],
    ["n", "an"],
    ["ser", "aient</w>"],
    ["vr", "aiment</w>"],
    ["aw", "ard</w>"],
    ["bou", "lev"],
    ["représent", "ants</w>"],
    ["t", "tes</w>"],
    ["mat", "s</w>"],
    ["bas", "-"],
    ["gen", "er"],
    ["ain", "ement</w>"],
    ["augu", "ste</w>"],
    ["décé", "dé</w>"],
    ["tor", "at</w>"],
    ["sub", "s"],
    ["aut", "or"],
    ["ac", "cessi"],
    ["particip", "er</w>"],
    ["re", "pris</w>"],
    ["terra", "ins</w>"],
    ["fer", "a</w>"],
    ["sû", "r</w>"],
    ["brig", "ade</w>"],
    ["l'", "italie</w>"],
    ["austr", "alie</w>"],
    ["qu", "ait</w>"],
    ["unit", "ed</w>"],
    ["correspon", "d</w>"],
    ["ven", "us</w>"],
    ["eng", "age</w>"],
    ["nom", "me</w>"],
    ["y", "ves</w>"],
    ["s-", "de-"],
    ["g", "ê"],
    ["des", "cen"],
    ["l'", "issue</w>"],
    ["h", "aw"],
    ["d'at", "traction</w>"],
    ["d", "as</w>"],
    ["t", "empor"],
    ["mété", "or"],
    ["autom", "ne</w>"],
    ["commun", "al</w>"],
    ["plan", "ètes</w>"],
    ["heur", "euse</w>"],
    ["onn", "és</w>"],
    ["soci", "ety</w>"],
    ["se", "y</w>"],
    ["én", "or"],
    ["carol", "ine</w>"],
    ["popul", "ations</w>"],
    ["n", "e-"],
    ["traver", "se</w>"],
    ["entre", "tien</w>"],
    ["chois", "i</w>"],
    ["quanti", "té</w>"],
    ["pu", "t</w>"],
    ["es", "pé"],
    ["édi", "teur</w>"],
    ["francis", "co</w>"],
    ["ver", "ti"],
    ["mo", "dé"],
    ["flor", "ence</w>"],
    ["réalis", "er</w>"],
    ["americ", "an</w>"],
    ["demi-", "grand</w>"],
    ["co", "û"],
    ["ak", "e</w>"],
    ["bil", "an</w>"],
    ["princip", "es</w>"],
    ["rou", "tes</w>"],
    ["règ", "les</w>"],
    ["g", "ab"],
    ["c", "at</w>"],
    ["av", "ion</w>"],
    ["d'", "op"],
    ["iss", "u</w>"],
    ["n", "as"],
    ["classi", "fication</w>"],
    ["li", "es</w>"],
    ["ré", "u"],
    ["k", "en</w>"],
    ["gi", "u"],
    ["ay", "a</w>"],
    ["ap", "pr"],
    ["k", "al"],
    ["voi", "tures</w>"],
    ["qu", "art</w>"],
    ["ky", "o</w>"],
    ["gu", "ère</w>"],
    ["so", "ins</w>"],
    ["région", "ale</w>"],
    ["étr", "oi"],
    ["versi", "ons</w>"],
    ["t", "ain</w>"],
    ["l'ar", "gent</w>"],
    ["institu", "t</w>"],
    ["ch", "ent</w>"],
    ["ir", "al</w>"],
    ["jean-", "pierre</w>"],
    ["euro", "s</w>"],
    ["effor", "ts</w>"],
    ["t-", "on</w>"],
    ["ho", "sp"],
    ["mag", "as"],
    ["annon", "cé</w>"],
    ["éc", "ois</w>"],
    ["présid", "ence</w>"],
    ["v", "as"],
    ["g", "is"],
    ["édi", "té</w>"],
    ["l", "ille</w>"],
    ["québ", "écois</w>"],
    ["mo", "b"],
    ["acti", "fs</w>"],
    ["l'", "énergie</w>"],
    ["isab", "eth</w>"],
    ["y", "n</w>"],
    ["blan", "cs</w>"],
    ["effi", "ca"],
    ["topon", "ymie</w>"],
    ["sc", "and"],
    ["mo", "bile</w>"],
    ["contr", "airement</w>"],
    ["lé", "gu"],
    ["off", "</w>"],
    ["condam", "né</w>"],
    ["com", "port"],
    ["cer", "tifi"],
    ["provin", "ces</w>"],
    ["ari", "at</w>"],
    ["di", "g"],
    ["ver", "tu</w>"],
    ["m'", "en</w>"],
    ["lou", "is-"],
    ["pau", "vres</w>"],
    ["vari", "ables</w>"],
    ["res", "se</w>"],
    ["pa", "in</w>"],
    ["int", "el"],
    ["o", "'"],
    ["y", "e"],
    ["ber", "to</w>"],
    ["ï", "que</w>"],
    ["pier", "res</w>"],
    ["dou", "leur</w>"],
    ["sat", "elli"],
    ["so", "in</w>"],
    ["----", "----"],
    ["p", "ent"],
    ["avoc", "at</w>"],
    ["hu", "iti"],
    ["x", "i</w>"],
    ["occup", "é</w>"],
    ["démocra", "tique</w>"],
    ["civ", "il</w>"],
    ["dé", "non"],
    ["per", "form"],
    ["xi", "ii</w>"],
    ["ma", "ch"],
    ["isra", "ël</w>"],
    ["vau", "t</w>"],
    ["h", "r"],
    ["w", "an</w>"],
    ["min", "eures</w>"],
    ["cour", "te</w>"],
    ["rh", "in</w>"],
    ["vé", "cu</w>"],
    ["m", "ann"],
    ["c", "ts</w>"],
    ["em", "y</w>"],
    ["rap", "ports</w>"],
    ["ent", "ou"],
    ["k", "az"],
    ["on", "de</w>"],
    ["n", "is"],
    ["exploi", "tation</w>"],
    ["e", "fs</w>"],
    ["norman", "die</w>"],
    ["cli", "p"],
    ["duch", "esse</w>"],
    ["infra", "structures</w>"],
    ["in", "e-"],
    ["sou", "p"],
    ["vi", "de</w>"],
    ["re", "trouver</w>"],
    ["bonn", "es</w>"],
    ["organis", "me</w>"],
    ["ém", "atique</w>"],
    ["caval", "erie</w>"],
    ["viol", "ence</w>"],
    ["difficul", "tés</w>"],
    ["d", "ans"],
    ["i", "an</w>"],
    ["n", "aît</w>"],
    ["on", "ique</w>"],
    ["si", "xième</w>"],
    ["--", "c'est</w>"],
    ["port", "a</w>"],
    ["ci", "vil"],
    ["pl", "aine</w>"],
    ["ver", "n"],
    ["er", "ai</w>"],
    ["anth", "ro"],
    ["récompen", "ses</w>"],
    ["quoi", "que</w>"],
    ["par", "is-"],
    ["l’", "état</w>"],
    ["al", "og"],
    ["v", "ali"],
    ["hi", "er</w>"],
    ["rec", "ev"],
    ["ar", "gent</w>"],
    ["f", "at"],
    ["rec", "ru"],
    ["d'", "affaires</w>"],
    ["tomb", "er</w>"],
    ["dess", "ins</w>"],
    ["ac", "a"],
    ["k", "or"],
    ["métro", "pole</w>"],
    ["identi", "té</w>"],
    ["d’", "autres</w>"],
    ["gabri", "el</w>"],
    ["fin", "aliste</w>"],
    ["effectu", "e</w>"],
    ["f", "ro"],
    ["j", "’"],
    ["dynas", "tie</w>"],
    ["décid", "é</w>"],
    ["h", "e</w>"],
    ["lar", "mes</w>"],
    ["ma", "chine</w>"],
    ["wal", "ter</w>"],
    ["domin", "ique</w>"],
    ["dr", "ame</w>"],
    ["sur", "veill"],
    ["vi", "ve</w>"],
    ["am", "ie</w>"],
    ["vis", "e</w>"],
    ["re", "tourne</w>"],
    ["men", "tion</w>"],
    ["qu’", "elle</w>"],
    ["tr", "ouver"],
    ["éco", "sse</w>"],
    ["c", "aux</w>"],
    ["o", "ss"],
    ["f", "all"],
    ["er", "ont</w>"],
    ["s", "oc"],
    ["ed", "ward</w>"],
    ["illi", "r</w>"],
    ["cu", "re</w>"],
    ["région", "ales</w>"],
    ["appar", "eil</w>"],
    ["a", "que</w>"],
    ["pro", "fon"],
    ["ge", "a</w>"],
    ["li", "é</w>"],
    ["chi", "r</w>"],
    ["cé", "sar</w>"],
    ["v", "é</w>"],
    ["mi", "-"],
    ["d'", "y</w>"],
    ["z", "i</w>"],
    ["réfu", "gi"],
    ["minis", "tres</w>"],
    ["l'", "étude</w>"],
    ["citoy", "ens</w>"],
    ["conseill", "ers</w>"],
    ["spéci", "fi"],
    ["man", "u"],
    ["respec", "t</w>"],
    ["bas", "ti"],
    ["or", "chestre</w>"],
    ["an", "iste</w>"],
    ["dipl", "ô"],
    ["ag", "ent</w>"],
    ["di", "able</w>"],
    ["respon", "sab"],
    ["ad", "eur</w>"],
    ["soi", "x"],
    ["ln", "h</w>"],
    ["mis", "si"],
    ["con", "c"],
    ["le", "ague</w>"],
    ["ré", "per"],
    ["fra", "g"],
    ["to", "kyo</w>"],
    ["sor", "tant</w>"],
    ["part", "age</w>"],
    ["fu", "r"],
    ["mauv", "aise</w>"],
    ["-", "c</w>"],
    ["et", "t</w>"],
    ["vie", "w</w>"],
    ["expéri", "ence</w>"],
    ["catal", "ogue</w>"],
    ["n", "y"],
    ["ant", "éri"],
    ["résid", "ence</w>"],
    ["déf", "endre</w>"],
    ["pouv", "aient</w>"],
    ["céré", "monie</w>"],
    ["gui", "de</w>"],
    ["l'", "utilisation</w>"],
    ["l'ac", "tu"],
    ["comb", "in"],
    ["des", "-"],
    ["ch", "ère</w>"],
    ["sué", "dois</w>"],
    ["dau", "ph"],
    ["médi", "év"],
    ["ste", "ph"],
    ["rass", "embl"],
    ["ex", "tra"],
    ["ar", "me</w>"],
    ["ol", "o</w>"],
    ["lon", "gues</w>"],
    ["glom", "ération</w>"],
    ["dét", "ails</w>"],
    ["l'", "as"],
    ["r", "emi"],
    ["assu", "re</w>"],
    ["dé", "riv"],
    ["sco", "tt</w>"],
    ["table", "aux</w>"],
    ["h", "ec"],
    ["gé", "or"],
    ["an", "ni"],
    ["ar", "ran"],
    ["évi", "ter</w>"],
    ["can", "on</w>"],
    ["heur", "eusement</w>"],
    ["seign", "eu"],
    ["nei", "ge</w>"],
    ["élé", "ment</w>"],
    ["all", "ons</w>"],
    ["cam", "ar"],
    ["l'", "article</w>"],
    ["è", "lement</w>"],
    ["u", "p"],
    ["barcel", "one</w>"],
    ["it", "y</w>"],
    ["maî", "tres</w>"],
    ["musi", "cien</w>"],
    ["eu", "gène</w>"],
    ["ne", "z</w>"],
    ["consac", "ré</w>"],
    ["por", "te-"],
    ["refu", "se</w>"],
    ["ré", "tab"],
    ["vou", "lu"],
    ["pi", "que</w>"],
    ["laiss", "ant</w>"],
    ["i", "o</w>"],
    ["ré", "solution</w>"],
    ["ter", "res"],
    ["è", "re-"],
    ["l'h", "y"],
    ["con", "su"],
    ["loc", "alisation</w>"],
    ["év", "ent"],
    ["st", "a"],
    ["gar", "dien</w>"],
    ["ic", "al</w>"],
    ["pro", "fond"],
    ["moder", "nes</w>"],
    ["éri", "r</w>"],
    ["expéri", "ment"],
    ["ci", "eux</w>"],
    ["tu", "er</w>"],
    ["con", "vo"],
    ["cour", "ses</w>"],
    ["c", "te</w>"],
    ["anc", "y</w>"],
    ["rap", "pro"],
    ["extr", "ê"],
    ["l'in", "see</w>"],
    ["scho", "ol</w>"],
    ["g", "ent"],
    ["al", "é"],
    ["inter", "nes</w>"],
    ["h", "it"],
    ["couv", "ent</w>"],
    ["com", "bien</w>"],
    ["publi", "és</w>"],
    ["ad", "am</w>"],
    ["gr", "ille</w>"],
    ["hé", "ro"],
    ["quel", "que"],
    ["a", "po"],
    ["all", "ant</w>"],
    ["déf", "ens"],
    ["ac", "re</w>"],
    ["ati", "e</w>"],
    ["spéci", "aliste</w>"],
    ["nap", "les</w>"],
    ["bless", "é</w>"],
    ["cl", "aire</w>"],
    ["véhi", "cules</w>"],
    ["concer", "ne</w>"],
    ["ch", "ait</w>"],
    ["quelque", "fois</w>"],
    ["mon", "o"],
    ["re", "van"],
    ["l'é", "tr"],
    ["jo", "e</w>"],
    ["ni", "ght</w>"],
    ["compl", "ètement</w>"],
    ["ap", "prouv"],
    ["volu", "mes</w>"],
    ["luxembour", "g</w>"],
    ["tr", "ains</w>"],
    ["m", "em"],
    ["l", "an</w>"],
    ["rou", "ges</w>"],
    ["et", "ti</w>"],
    ["in", "hu"],
    ["détru", "it</w>"],
    ["rê", "ve</w>"],
    ["sal", "u"],
    ["l'ex", "istence</w>"],
    ["c", "ér"],
    ["it", "u"],
    ["ser", "bie</w>"],
    ["philosoph", "e</w>"],
    ["t", "ad"],
    ["e", "ant</w>"],
    ["ti", "rer</w>"],
    ["du", "r"],
    ["par", "te</w>"],
    ["jou", "euse</w>"],
    ["or", "es</w>"],
    ["administr", "ative</w>"],
    ["lég", "èrement</w>"],
    ["g", "â"],
    ["bas", "e"],
    ["cons", "iste</w>"],
    ["in", "de</w>"],
    ["uni", "es</w>"],
    ["b", "ar</w>"],
    ["const", "at"],
    ["ches", "ter</w>"],
    ["z", "y</w>"],
    ["t", "au"],
    ["voi", "ent</w>"],
    ["cuis", "ine</w>"],
    ["--", "vous</w>"],
    ["class", "es</w>"],
    ["cher", "che</w>"],
    ["ry", "th"],
    ["m", "aine</w>"],
    ["chang", "ements</w>"],
    ["destin", "ée</w>"],
    ["fr", "ais</w>"],
    ["b", "c</w>"],
    ["dev", "rait</w>"],
    ["f", "lan"],
    ["mou", "lin</w>"],
    ["rom", "ains</w>"],
    ["f", "an"],
    ["montr", "é</w>"],
    ["va", "sion</w>"],
    ["impéri", "ale</w>"],
    ["dou", "ce</w>"],
    ["ann", "uelle</w>"],
    ["d'", "ang"],
    ["ag", "it</w>"],
    ["p", "t"],
    ["associ", "é</w>"],
    ["é", "douard</w>"],
    ["direc", "t</w>"],
    ["canadi", "enne</w>"],
    ["cri", "ti"],
    ["o", "ffice</w>"],
    ["loc", "ales</w>"],
    ["con", "vers"],
    ["doi", "g"],
    ["conserv", "é</w>"],
    ["zél", "ande</w>"],
    ["ch", "at"],
    ["eur", "-"],
    ["lau", "réat</w>"],
    ["c", "és</w>"],
    ["chi", "ens</w>"],
    ["marqu", "é</w>"],
    ["sol", "o</w>"],
    ["pro", "ven"],
    ["us", "se</w>"],
    ["k", "u</w>"],
    ["l'é", "preuve</w>"],
    ["di", "ction</w>"],
    ["ra", "dic"],
    ["vir", "gin"],
    ["im", "men"],
    ["aî", "né</w>"],
    ["l'a", "éro"],
    ["fran", "co-"],
    ["revan", "che</w>"],
    ["réguli", "ère</w>"],
    ["affir", "me</w>"],
    ["in", "at</w>"],
    ["col", "ère</w>"],
    ["étab", "lie</w>"],
    ["alter", "nati"],
    ["ak", "a</w>"],
    ["k", "ur"],
    ["ograph", "e</w>"],
    ["mili", "eux</w>"],
    ["nom", "in"],
    ["journ", "aux</w>"],
    ["pré", "vu</w>"],
    ["qu", "ette</w>"],
    ["in", "connu</w>"],
    ["cein", "te</w>"],
    ["h", "er</w>"],
    ["è", "dent</w>"],
    ["quarti", "ers</w>"],
    ["numéri", "que</w>"],
    ["n", "el</w>"],
    ["inspi", "ré</w>"],
    ["op", "le</w>"],
    ["avent", "ure</w>"],
    ["mont", "ée</w>"],
    ["ré", "seaux</w>"],
    ["am", "ent"],
    ["suc", "cess"],
    ["considé", "rée</w>"],
    ["présent", "er</w>"],
    ["gag", "ner</w>"],
    ["for", "tifi"],
    ["évén", "ement</w>"],
    ["r", "ons</w>"],
    ["xi", "v</w>"],
    ["ac", "cident</w>"],
    ["é", "tiques</w>"],
    ["né", "o-"],
    ["k", "ri"],
    ["li", "aison</w>"],
    ["chi", "rur"],
    ["vaiss", "eau</w>"],
    ["dévelop", "pe</w>"],
    ["ra", "tions</w>"],
    ["mo", "des"],
    ["par", "am"],
    ["respecti", "vement</w>"],
    ["sculp", "teur</w>"],
    ["per", "for"],
    ["int", "ell"],
    ["hum", "ains</w>"],
    ["is", "tr"],
    ["seign", "eurs</w>"],
    ["co", "r</w>"],
    ["dem", "i</w>"],
    ["li", "té</w>"],
    ["con", "serve</w>"],
    ["ser", "be</w>"],
    ["cent", "ri"],
    ["consid", "ère</w>"],
    ["aï", "</w>"],
    ["re", "p"],
    ["v", "ap"],
    ["ay", "e</w>"],
    ["pr", "o</w>"],
    ["fabri", "cation</w>"],
    ["i", "x</w>"],
    ["s", "emi-"],
    ["jean-", "baptiste</w>"],
    ["comp", "ter</w>"],
    ["tur", "quie</w>"],
    ["av", "is</w>"],
    ["a", "sie</w>"],
    ["sym", "phon"],
    ["l'", "él"],
    ["fédé", "ral</w>"],
    ["comp", "il"],
    ["alli", "és</w>"],
    ["voi", "le</w>"],
    ["diffus", "é</w>"],
    ["l'é", "conom"],
    ["ch", "ées</w>"],
    ["mathém", "atiques</w>"],
    ["fi", "ce</w>"],
    ["cro", "issance</w>"],
    ["li", "ège</w>"],
    ["s", "cor"],
    ["su", "prê"],
    ["spor", "tive</w>"],
    ["my", "th"],
    ["développ", "er</w>"],
    ["prom", "u</w>"],
    ["vit", "ch</w>"],
    ["ri", "ères</w>"],
    ["sold", "at</w>"],
    ["tr", "in"],
    ["by", "z"],
    ["int", "ègre</w>"],
    ["l'en", "seign"],
    ["multi", "pli"],
    ["fen", "être</w>"],
    ["gu", "y"],
    ["espa", "ces</w>"],
    ["physi", "ques</w>"],
    ["boulev", "ard</w>"],
    ["re", "pouss"],
    ["réussi", "t</w>"],
    ["di", "eux</w>"],
    ["f", "aux</w>"],
    ["ap", "préci"],
    ["mag", "ni"],
    ["prés", "ents</w>"],
    ["pl", "ante</w>"],
    ["conç", "u</w>"],
    ["ch", "on</w>"],
    ["tourn", "age</w>"],
    ["port", "és</w>"],
    ["e", "in</w>"],
    ["--", "mais</w>"],
    ["ô", "</w>"],
    ["con", "quête</w>"],
    ["s'ét", "end</w>"],
    ["d", "ents</w>"],
    ["ron", "de</w>"],
    ["béné", "fici"],
    ["pis", "ode</w>"],
    ["a", "dul"],
    ["provin", "ci"],
    ["sur", "prise</w>"],
    ["em", "ark</w>"],
    ["mai", "rie</w>"],
    ["ap", "prend</w>"],
    ["sal", "les</w>"],
    ["ic", "s</w>"],
    ["tre", "i"],
    ["ecti", "ve</w>"],
    ["dis", "ney</w>"],
    ["li", "que</w>"],
    ["propri", "étés</w>"],
    ["r", "ais</w>"],
    ["ver", "re</w>"],
    ["sus", "cepti"],
    ["v", "ues</w>"],
    ["maj", "esté</w>"],
    ["juni", "or</w>"],
    ["sp", "an</w>"],
    ["ang", "lo"],
    ["ro", "che</w>"],
    ["w", "in</w>"],
    ["sé", "jour</w>"],
    ["trouv", "a</w>"],
    ["fréqu", "ent"],
    ["ath", "lé"],
    ["al", "fred</w>"],
    ["dipl", "ôme</w>"],
    ["a", "o</w>"],
    ["musi", "ciens</w>"],
    ["al", "ph"],
    ["ing", "en</w>"],
    ["dom", "</w>"],
    ["pé", "tro"],
    ["inter", "nationales</w>"],
    ["reven", "u</w>"],
    ["précéd", "ente</w>"],
    ["e", "illes</w>"],
    ["col", "l</w>"],
    ["nu", "mé"],
    ["ve", "aux</w>"],
    ["h", "â"],
    ["entr", "et"],
    ["or", "bite</w>"],
    ["pou", "voirs</w>"],
    ["re", "prendre</w>"],
    ["is", "t</w>"],
    ["ak", "i</w>"],
    ["éco", "ss"],
    ["dev", "aient</w>"],
    ["olog", "ies</w>"],
    ["in", "-</w>"],
    ["ag", "ers</w>"],
    ["fri", "ed"],
    ["v", "en</w>"],
    ["maj", "eure</w>"],
    ["consom", "mation</w>"],
    ["organ", "ise</w>"],
    ["fin", "lande</w>"],
    ["aiss", "ait</w>"],
    ["r", "en</w>"],
    ["commerci", "al</w>"],
    ["intell", "ectu"],
    ["l'ex", "position</w>"],
    ["au-", "delà</w>"],
    ["hau", "tes</w>"],
    ["en", "ni"],
    ["maî", "tresse</w>"],
    ["human", "ité</w>"],
    ["aéri", "ennes</w>"],
    ["tex", "as</w>"],
    ["mo", "ham"],
    ["paci", "fique</w>"],
    ["m", "ait</w>"],
    ["l'év", "êque</w>"],
    ["f", "el"],
    ["me", "d</w>"],
    ["y", "mes</w>"],
    ["qu", "e-"],
    ["g", "ast"],
    ["char", "l"],
    ["g", "el"],
    ["pré", "serv"],
    ["lég", "er</w>"],
    ["ati", "</w>"],
    ["facil", "ement</w>"],
    ["ra", "d</w>"],
    ["diversi", "té</w>"],
    ["mar", "ty"],
    ["al", "em</w>"],
    ["organis", "ée</w>"],
    ["l'hô", "pital</w>"],
    ["g", "end"],
    ["li", "fe</w>"],
    ["s'", "arrê"],
    ["conse", "ils</w>"],
    ["ét", "ym"],
    ["résu", "mé</w>"],
    ["éch", "ou"],
    ["pass", "a</w>"],
    ["senti", "ments</w>"],
    ["alis", "er</w>"],
    ["ad", "joint</w>"],
    ["l’", "église</w>"],
    ["autor", "ou"],
    ["-", "même</w>"],
    ["mor", "ale</w>"],
    ["te", "d</w>"],
    ["i", "ons</w>"],
    ["bataill", "on</w>"],
    ["j", "ones</w>"],
    ["voy", "ez</w>"],
    ["feu", "ill"],
    ["w", "ill"],
    ["ay", "s</w>"],
    ["équi", "val"],
    ["sep", "tième</w>"],
    ["religi", "euses</w>"],
    ["sk", "a</w>"],
    ["maî", "tri"],
    ["sén", "at</w>"],
    ["di", "t-elle</w>"],
    ["peti", "t-"],
    ["mes", "u"],
    ["di", "gn"],
    ["l'", "âme</w>"],
    ["bo", "î"],
    ["fl", "ot"],
    ["pi", "ers</w>"],
    ["--", "oui</w>"],
    ["j", "im"],
    ["dv", "d</w>"],
    ["ch", "or"],
    ["li", "qui"],
    ["ing", "er</w>"],
    ["l'ar", "chi"],
    ["al", "p"],
    ["interpr", "ète</w>"],
    ["perform", "ance</w>"],
    ["ro", "be</w>"],
    ["d", "ing</w>"],
    ["t", "ai"],
    ["donn", "ent</w>"],
    ["cou", "rir</w>"],
    ["ré", "pli"],
    ["l'in", "flu"],
    ["dan", "emark</w>"],
    ["st", "in</w>"],
    ["mis", "sionn"],
    ["s", "ages</w>"],
    ["sei", "gne</w>"],
    ["es", "e</w>"],
    ["ist", "er</w>"],
    ["orient", "ale</w>"],
    ["pr", "êt</w>"],
    ["ne", "f</w>"],
    ["protég", "er</w>"],
    ["d'", "études</w>"],
    ["l", "ai"],
    ["for", "tes</w>"],
    ["gi", "ov"],
    ["gni", "es</w>"],
    ["fa", "cile</w>"],
    ["ca", "de</w>"],
    ["inféri", "eur</w>"],
    ["bourg", "ogne</w>"],
    ["cam", "p"],
    ["bos", "ni"],
    ["posi", "tif</w>"],
    ["rô", "les</w>"],
    ["im", "porte</w>"],
    ["bud", "get</w>"],
    ["candid", "ats</w>"],
    ["re", "jet"],
    ["im", "p"],
    ["t", "oit</w>"],
    ["tri", "ste</w>"],
    ["o", "st"],
    ["nécess", "aires</w>"],
    ["ssi", "er</w>"],
    ["at", "h</w>"],
    ["g", "lis"],
    ["ü", "n"],
    ["ph", "are</w>"],
    ["di", "um</w>"],
    ["ent", "in</w>"],
    ["suiv", "ent</w>"],
    ["cor", "rec"],
    ["d'", "u"],
    ["collec", "tions</w>"],
    ["gar", "anti"],
    ["év", "ê"],
    ["d'", "animation</w>"],
    ["dé", "mi"],
    ["nor", "v"],
    ["omét", "rie</w>"],
    ["cat", "as"],
    ["l'enseign", "ement</w>"],
    ["suprê", "me</w>"],
    ["em", "manuel</w>"],
    ["t", "int</w>"],
    ["ss", "age</w>"],
    ["nouvelle-", "zélande</w>"],
    ["destin", "é</w>"],
    ["l'", "aire</w>"],
    ["mon", "ter</w>"],
    ["pré", "c"],
    ["es", "que</w>"],
    ["exist", "ence</w>"],
    ["dem", "ain</w>"],
    ["ori", "a</w>"],
    ["p", "enn"],
    ["fin", "ances</w>"],
    ["avent", "ures</w>"],
    ["alis", "e</w>"],
    ["pl", "as"],
    ["natur", "elles</w>"],
    ["fonctionn", "ement</w>"],
    ["indi", "en</w>"],
    ["poss", "ession</w>"],
    ["aéri", "enne</w>"],
    ["s", "ch</w>"],
    ["w", "est"],
    ["ci", "ers</w>"],
    ["lu", "min"],
    ["portug", "ais</w>"],
    ["t", "onn"],
    ["trans", "fer"],
    ["gu", "e"],
    ["sci", "en"],
    ["class", "ements</w>"],
    ["tri", "st"],
    ["conséqu", "ences</w>"],
    ["ex", "per"],
    ["nécessi", "té</w>"],
    ["mari", "é</w>"],
    ["con", "fron"],
    ["terri", "ble</w>"],
    ["norv", "ège</w>"],
    ["pl", "eur"],
    ["s'écri", "a</w>"],
    ["camer", "oun</w>"],
    ["in", "ois</w>"],
    ["dat", "ant</w>"],
    ["jard", "ins</w>"],
    ["b", "ob"],
    ["g", "om"],
    ["re", "pos</w>"],
    ["pa", "vill"],
    ["l'", "unité</w>"],
    ["base", "ball</w>"],
    ["ph", "i"],
    ["class", "ée</w>"],
    ["coll", "è"],
    ["v", "ant</w>"],
    ["pi", "r"],
    ["l", "l</w>"],
    ["catas", "troph"],
    ["pu", "r</w>"],
    ["se", "-"],
    ["accue", "ille</w>"],
    ["i", "enne</w>"],
    ["dra", "peau</w>"],
    ["pul", "sion</w>"],
    ["mes", "sieurs</w>"],
    ["ém", "ité</w>"],
    ["po", "sa</w>"],
    ["grande-", "bretagne</w>"],
    ["log", "ements</w>"],
    ["on", "s-"],
    ["cor", "n"],
    ["olog", "y</w>"],
    ["bo", "y"],
    ["recom", "mand"],
    ["fen", "êtres</w>"],
    ["st", "ations</w>"],
    ["n", "ancy</w>"],
    ["l'", "espagne</w>"],
    ["hen", "ri"],
    ["pu", "r"],
    ["pein", "tures</w>"],
    ["gar", "der</w>"],
    ["su", "res</w>"],
    ["soph", "ie</w>"],
    ["st", "ar"],
    ["l'", "usage</w>"],
    ["f", "ou</w>"],
    ["pro", "b"],
    ["enn", "ement</w>"],
    ["sau", "ver</w>"],
    ["is", "té</w>"],
    ["pro", "position</w>"],
    ["mat", "ern"],
    ["tent", "ative</w>"],
    ["po", "stes</w>"],
    ["--", "le</w>"],
    ["pos", "ait</w>"],
    ["accue", "ill"],
    ["eux-", "mêmes</w>"],
    ["prin", "ces</w>"],
    ["ge", "ait</w>"],
    ["har", "ry</w>"],
    ["s", "lav"],
    ["long", "s</w>"],
    ["ari", "a</w>"],
    ["v", "ag"],
    ["mal", "heureux</w>"],
    ["em", "pereur</w>"],
    ["autri", "che</w>"],
    ["l", "oi"],
    ["l'influ", "ence</w>"],
    ["ci", "ter</w>"],
    ["bas", "ée</w>"],
    ["électron", "ique</w>"],
    ["ou", "n"],
    ["cinqu", "ante</w>"],
    ["l'", "is"],
    ["sembl", "ent</w>"],
    ["con", "tenant</w>"],
    ["f", "it"],
    ["ot", "tom"],
    ["lu", "y</w>"],
    ["s", "onn"],
    ["fu", "s</w>"],
    ["bi", "g</w>"],
    ["brun", "o</w>"],
    ["cal", "end"],
    ["chang", "er</w>"],
    ["l'économ", "ie</w>"],
    ["pr", "ès-"],
    ["cal", "me</w>"],
    ["s", "avait</w>"],
    ["appel", "és</w>"],
    ["d'al", "titude</w>"],
    ["li", "vr"],
    ["z", "er"],
    ["fer", "mé</w>"],
    ["dé", "tr"],
    ["puiss", "ant</w>"],
    ["c", "ouverture</w>"],
    ["employ", "é</w>"],
    ["lon", "don</w>"],
    ["coll", "ectif</w>"],
    ["mascul", "in</w>"],
    ["d'", "allemagne</w>"],
    ["défin", "ition</w>"],
    ["commiss", "aire</w>"],
    ["bul", "let"],
    ["circonst", "ances</w>"],
    ["mo", "tion</w>"],
    ["fi", "é</w>"],
    ["ann", "ul"],
    ["ac", "cro"],
    ["sén", "ateur</w>"],
    ["has", "ard</w>"],
    ["gar", "onne</w>"],
    ["concer", "ts</w>"],
    ["comm", "an"],
    ["ra", "conte</w>"],
    ["figu", "res</w>"],
    ["con", "tenu</w>"],
    ["can", "ons</w>"],
    ["bo", "ok</w>"],
    ["ti", "ce</w>"],
    ["v", "ins</w>"],
    ["in", "aire</w>"],
    ["vi", "d"],
    ["d'", "intérêt</w>"],
    ["soci", "aux</w>"],
    ["sté", "ph"],
    ["ré", "sul"],
    ["li", "és</w>"],
    ["médi", "aire</w>"],
    ["bon", "a"],
    ["beso", "ins</w>"],
    ["stand", "ard</w>"],
    ["ill", "é</w>"],
    ["pasc", "al</w>"],
    ["v", "euve</w>"],
    ["w", "om"],
    ["sé", "v"],
    ["gar", "es</w>"],
    ["dr", "ait</w>"],
    ["absolu", "e</w>"],
    ["pour", "suite</w>"],
    ["it", "ation</w>"],
    ["fin", "ales</w>"],
    ["li", "cence</w>"],
    ["bat", "tu</w>"],
    ["att", "end"],
    ["sculp", "ture</w>"],
    ["pay", "er</w>"],
    ["mad", "ele"],
    ["riv", "er</w>"],
    ["par", "fai"],
    ["fédé", "rale</w>"],
    ["is", "ie</w>"],
    ["k", "om"],
    ["rou", "en</w>"],
    ["cou", "sin</w>"],
    ["élev", "ée</w>"],
    ["phénom", "ène</w>"],
    ["f", "li"],
    ["œ", "il</w>"],
    ["progr", "ès</w>"],
    ["gren", "ob"],
    ["caractéri", "sée</w>"],
    ["disco", "graphie</w>"],
    ["pres", "sions</w>"],
    ["end", "aire</w>"],
    ["ch", "ante</w>"],
    ["prot", "ec"],
    ["dé", "ment</w>"],
    ["g", "ère</w>"],
    ["observ", "ations</w>"],
    ["l'", "environnement</w>"],
    ["suc", "cession</w>"],
    ["w", "ag"],
    ["s'", "op"],
    ["plu", "ie</w>"],
    ["limi", "troph"],
    ["in", "no"],
    ["mi", "er</w>"],
    ["ét", "oile</w>"],
    ["quit", "té</w>"],
    ["c", "alier</w>"],
    ["studi", "os</w>"],
    ["véhi", "cule</w>"],
    ["conserv", "ateur</w>"],
    ["muni", "ch</w>"],
    ["san", "ne</w>"],
    ["b", "ill</w>"],
    ["jé", "sus</w>"],
    ["o", "sité</w>"],
    ["program", "mes</w>"],
    ["ann", "u"],
    ["ch", "é"],
    ["d'", "inter"],
    ["h", "in"],
    ["l'é", "pisode</w>"],
    ["p", "ist"],
    ["mi", "d"],
    ["bo", "is"],
    ["fais", "aient</w>"],
    ["vi", "ii</w>"],
    ["fer", "din"],
    ["compa", "gne</w>"],
    ["envir", "ons</w>"],
    ["hau", "t-"],
    ["s", "oign"],
    ["spéci", "ale</w>"],
    ["us", "alem</w>"],
    ["fru", "its</w>"],
    ["associ", "ations</w>"],
    ["stre", "et</w>"],
    ["l", "és</w>"],
    ["ath", "an</w>"],
    ["qu", "ad"],
    ["contempor", "ain</w>"],
    ["rel", "ais</w>"],
    ["m", "r</w>"],
    ["l'im", "age</w>"],
    ["f", "leur</w>"],
    ["ai", "les</w>"],
    ["po", "èmes</w>"],
    ["p", "i</w>"],
    ["exemp", "les</w>"],
    ["rédu", "it</w>"],
    ["fond", "ament"],
    ["grec", "que</w>"],
    ["sou", "tenir</w>"],
    ["eni", "rs</w>"],
    ["étab", "lit</w>"],
    ["aign", "ées</w>"],
    ["ac", "u"],
    ["î", "mes</w>"],
    ["mag", "istr"],
    ["fi", "rent</w>"],
    ["déclar", "ation</w>"],
    ["hist", "oires</w>"],
    ["indivi", "dus</w>"],
    ["cu", "ré</w>"],
    ["ci", "ère</w>"],
    ["t", "ant"],
    ["sup", "pri"],
    ["p", "ann"],
    ["on", "y</w>"],
    ["ar", "ist"],
    ["accompagn", "é</w>"],
    ["whi", "te</w>"],
    ["souv", "enirs</w>"],
    ["mal", "heur</w>"],
    ["su", "le</w>"],
    ["oty", "pe</w>"],
    ["he", "in"],
    ["travaill", "é</w>"],
    ["her", "z"],
    ["gal", "ax"],
    ["ri", "ches</w>"],
    ["renouv", "el"],
    ["du", "ché</w>"],
    ["ouv", "riers</w>"],
    ["pe", "int</w>"],
    ["per", "f"],
    ["men", "ace</w>"],
    ["lég", "iti"],
    ["pl", "om"],
    ["inféri", "eure</w>"],
    ["il", "y</w>"],
    ["parl", "é</w>"],
    ["chré", "tiens</w>"],
    ["caf", "é</w>"],
    ["définiti", "vement</w>"],
    ["d'am", "our</w>"],
    ["destru", "ction</w>"],
    ["habit", "at</w>"],
    ["li", "ers</w>"],
    ["pol", "onaise</w>"],
    ["norm", "ale</w>"],
    ["ff", "e</w>"],
    ["g", "i</w>"],
    ["l'", "artiste</w>"],
    ["l'", "agriculture</w>"],
    ["oi", "ts</w>"],
    ["appu", "i</w>"],
    ["bl", "é</w>"],
    ["som", "bre</w>"],
    ["précis", "ément</w>"],
    ["z", "ab"],
    ["al", "titude</w>"],
    ["j", "ord"],
    ["g", "illes</w>"],
    ["vers", "ailles</w>"],
    ["ve", "y</w>"],
    ["rè", "gle</w>"],
    ["parfai", "tement</w>"],
    ["reconn", "aître</w>"],
    ["pa", "ct</w>"],
    ["rapp", "elle</w>"],
    ["cul", "aire</w>"],
    ["échapp", "er</w>"],
    ["é", "preuves</w>"],
    ["fran", "c"],
    ["arab", "es</w>"],
    ["voul", "oir</w>"],
    ["l'", "univers</w>"],
    ["l'architec", "te</w>"],
    ["qualifi", "é</w>"],
    ["v", "ad"],
    ["institu", "tions</w>"],
    ["k", "un"],
    ["v", "él"],
    ["pr", "atiques</w>"],
    ["hy", "dr"],
    ["caract", "ères</w>"],
    ["madele", "ine</w>"],
    ["ex", "pression</w>"],
    ["prét", "en"],
    ["scien", "ce-"],
    ["bi", "er</w>"],
    ["car", "d</w>"],
    ["ro", "ck"],
    ["v", "el</w>"],
    ["ch", "ou"],
    ["conserv", "ation</w>"],
    ["mari", "o</w>"],
    ["en", "sis</w>"],
    ["é", "si"],
    ["cli", "mats</w>"],
    ["s", "œurs</w>"],
    ["in", "dépendant</w>"],
    ["second", "aire</w>"],
    ["ap", "es</w>"],
    ["bo", "w"],
    ["d'", "ap"],
    ["fant", "as"],
    ["souver", "ain</w>"],
    ["pou", "le</w>"],
    ["ajou", "te</w>"],
    ["ss", "ement</w>"],
    ["pr", "e"],
    ["sub", "st"],
    ["er", "ry</w>"],
    ["b", "aiss"],
    ["l'", "ennemi</w>"],
    ["di", "visions</w>"],
    ["k", "el"],
    ["bas", "tien</w>"],
    ["ré", "action</w>"],
    ["é", "lu"],
    ["t", "ay"],
    ["écri", "ture</w>"],
    ["écu", "tion</w>"],
    ["a", "w</w>"],
    ["ex", "positions</w>"],
    ["com", "prenant</w>"],
    ["v", "la"],
    ["bo", "ston</w>"],
    ["pay", "sage</w>"],
    ["comp", "any</w>"],
    ["cr", "u</w>"],
    ["soi", "rée</w>"],
    ["ber", "tr"],
    ["ba", "ï"],
    ["science-", "fiction</w>"],
    ["europé", "ennes</w>"],
    ["b", "et</w>"],
    ["l'", "océan</w>"],
    ["isab", "elle</w>"],
    ["an", "isme</w>"],
    ["htt", "p</w>"],
    ["v", "ec"],
    ["h", "ard</w>"],
    ["ci", "enne</w>"],
    ["maj", "ori"],
    ["ment", "ation</w>"],
    ["x", "y"],
    ["correspon", "dant</w>"],
    ["n", "am</w>"],
    ["ven", "du</w>"],
    ["appu", "y"],
    ["limit", "es</w>"],
    ["b", "ob</w>"],
    ["gri", "s</w>"],
    ["don", "ald</w>"],
    ["trou", "pe</w>"],
    ["second", "aires</w>"],
    ["mi", "gra"],
    ["ko", "v</w>"],
    ["ci", "ation</w>"],
    ["fid", "èle</w>"],
    ["er", "reur</w>"],
    ["fran", "ces"],
    ["troph", "ée</w>"],
    ["lo", "r</w>"],
    ["at", "om"],
    ["cor", "ri"],
    ["le", "w"],
    ["l’", "université</w>"],
    ["compl", "ét"],
    ["ch", "ol"],
    ["du", "o</w>"],
    ["cou", "pa"],
    ["tionn", "aires</w>"],
    ["rom", "anci"],
    ["bourge", "ois</w>"],
    ["spéci", "al</w>"],
    ["sou", "rire</w>"],
    ["é", "change</w>"],
    ["and", "o</w>"],
    ["l", "â"],
    ["sé", "qu"],
    ["i", "d</w>"],
    ["acqu", "is</w>"],
    ["k", "r"],
    ["b", "is</w>"],
    ["étr", "anger</w>"],
    ["ro", "ss"],
    ["l", "ast</w>"],
    ["l", "à-"],
    ["ab", "ou"],
    ["fi", "a</w>"],
    ["av", "a</w>"],
    ["déc", "ors</w>"],
    ["pê", "ch"],
    ["er", "i</w>"],
    ["l'", "autorité</w>"],
    ["es", "clav"],
    ["et", "on</w>"],
    ["l’", "école</w>"],
    ["pro", "pa"],
    ["u", "ra</w>"],
    ["pro", "fonde</w>"],
    ["ti", "r"],
    ["chef-", "lieu</w>"],
    ["commun", "autés</w>"],
    ["sup", "pli"],
    ["ni", "veaux</w>"],
    ["l'", "ouvrage</w>"],
    ["h", "ad"],
    ["tra", "fic</w>"],
    ["bar", "rage</w>"],
    ["for", "ts</w>"],
    ["du", "quel</w>"],
    ["nouv", "eau-"],
    ["d", "ru"],
    ["ar", "c"],
    ["gr", "ois</w>"],
    ["techn", "ologie</w>"],
    ["l'ex", "térieur</w>"],
    ["mé", "tier</w>"],
    ["progressi", "vement</w>"],
    ["co", "in</w>"],
    ["ét", "age</w>"],
    ["distin", "gue</w>"],
    ["sou", "d"],
    ["bou", "dd"],
    ["s'", "élev"],
    ["men", "er</w>"],
    ["professionn", "els</w>"],
    ["willi", "ams</w>"],
    ["seu", "il</w>"],
    ["di", "ag"],
    ["tis", "h</w>"],
    ["res", "tent</w>"],
    ["e", "go</w>"],
    ["victori", "a</w>"],
    ["eri", "c</w>"],
    ["byz", "ant"],
    ["pri", "maire</w>"],
    ["présid", "entielle</w>"],
    ["esti", "mé</w>"],
    ["huiti", "ème</w>"],
    ["profond", "eur</w>"],
    ["inter", "dit</w>"],
    ["s", "ables</w>"],
    ["chim", "ie</w>"],
    ["présent", "ant</w>"],
    ["h", "ill</w>"],
    ["in", "tes</w>"],
    ["parall", "èle</w>"],
    ["en", "quête</w>"],
    ["p", "oign"],
    ["ton", "y</w>"],
    ["j", "oign"],
    ["étym", "ologie</w>"],
    ["bour", "se</w>"],
    ["install", "é</w>"],
    ["compéti", "tions</w>"],
    ["déli", "v"],
    ["hon", "grois</w>"],
    ["d", "ent"],
    ["particuli", "ère</w>"],
    ["f", "i</w>"],
    ["s", "élections</w>"],
    ["ram", "en"],
    ["ox", "y"],
    ["instru", "ments</w>"],
    ["ir", "o</w>"],
    ["qui", "er</w>"],
    ["str", "alie</w>"],
    ["tal", "ent</w>"],
    ["cor", "de</w>"],
    ["nor", "vég"],
    ["nuclé", "aire</w>"],
    ["s", "pe"],
    ["d'", "eux</w>"],
    ["ju", "ry</w>"],
    ["athlé", "tisme</w>"],
    ["ré", "clam"],
    ["emb", "rass"],
    ["av", "es</w>"],
    ["on", "to</w>"],
    ["consé", "cu"],
    ["catholi", "ques</w>"],
    ["you", "ng</w>"],
    ["é", "cra"],
    ["ju", "gement</w>"],
    ["kar", "l</w>"],
    ["march", "and</w>"],
    ["avan", "t-"],
    ["c", "oi"],
    ["direc", "te</w>"],
    ["re", "d"],
    ["d'au", "tant</w>"],
    ["abri", "te</w>"],
    ["al", "t"],
    ["sauv", "age</w>"],
    ["vois", "in</w>"],
    ["feu", "ille</w>"],
    ["rhô", "ne</w>"],
    ["l'in", "di"],
    ["bro", "wn</w>"],
    ["atlan", "tique</w>"],
    ["donn", "ait</w>"],
    ["enregistr", "é</w>"],
    ["ra", "s"],
    ["pyré", "nées</w>"],
    ["ma", "h"],
    ["arriv", "er</w>"],
    ["mix", "te</w>"],
    ["préf", "et</w>"],
    ["fac", "tion</w>"],
    ["l'étr", "anger</w>"],
    ["ré", "el</w>"],
    ["hu", "go</w>"],
    ["k", "l"],
    ["amour", "eux</w>"],
    ["so", "eur</w>"],
    ["quel", "ques-"],
    ["perfor", "man"],
    ["édi", "e</w>"],
    ["demand", "é</w>"],
    ["ouver", "ts</w>"],
    ["or", "al</w>"],
    ["jér", "usalem</w>"],
    ["occu", "per</w>"],
    ["saint-", "ger"],
    ["vice-", "président</w>"],
    ["l'ab", "sence</w>"],
    ["circul", "ation</w>"],
    ["engag", "é</w>"],
    ["utilis", "ées</w>"],
    ["l", "eu"],
    ["déc", "ouv"],
    ["in", "ond"],
    ["ég", "i"],
    ["d", "og"],
    ["mont", "pel"],
    ["manifest", "ations</w>"],
    ["anc", "ement</w>"],
    ["doc", "torat</w>"],
    ["c", "end"],
    ["gen", "res</w>"],
    ["quel", "qu'un</w>"],
    ["lan", "cer</w>"],
    ["médaill", "é</w>"],
    ["sign", "al"],
    ["é", "pau"],
    ["er", "ne</w>"],
    ["inter", "ro"],
    ["l'", "an</w>"],
    ["mor", "ceau</w>"],
    ["correspon", "dance</w>"],
    ["bl", "in</w>"],
    ["communi", "cations</w>"],
    ["s'", "ils</w>"],
    ["et", "a</w>"],
    ["argent", "ine</w>"],
    ["as", "h</w>"],
    ["accep", "te</w>"],
    ["u", "p</w>"],
    ["pers", "pecti"],
    ["g", "ame</w>"],
    ["on", "ymie</w>"],
    ["att", "ent"],
    ["tr", "aî"],
    ["li", "o</w>"],
    ["co", "opération</w>"],
    ["es", "t-il</w>"],
    ["influ", "en"],
    ["sec", "ou"],
    ["trans", "fér"],
    ["h", "oriz"],
    ["thé", "ori"],
    ["ab", "at"],
    ["ab", "baye</w>"],
    ["ch", "y"],
    ["s'", "empar"],
    ["su", "sci"],
    ["c", "ées</w>"],
    ["constitu", "ée</w>"],
    ["révol", "te</w>"],
    ["th", "or"],
    ["par", "ut</w>"],
    ["g", "ym"],
    ["giov", "anni</w>"],
    ["bel", "l</w>"],
    ["atta", "ques</w>"],
    ["s", "el</w>"],
    ["l", "-"],
    ["chré", "tienne</w>"],
    ["a", "z</w>"],
    ["édifi", "ce</w>"],
    ["sim", "ples</w>"],
    ["contre-", "la-"],
    ["appar", "ence</w>"],
    ["ré", "pan"],
    ["met", "tent</w>"],
    ["ar", "bre</w>"],
    ["tré", "sor</w>"],
    ["colon", "ie</w>"],
    ["produ", "ite</w>"],
    ["rou", "x</w>"],
    ["mécan", "ique</w>"],
    ["cul", "tiv"],
    ["contre-la-", "montre</w>"],
    ["av", "enue</w>"],
    ["l'av", "enir</w>"],
    ["sui", "vie</w>"],
    ["co", "lum"],
    ["thé", "â"],
    ["tro", "y"],
    ["adol", "es"],
    ["étudi", "er</w>"],
    ["trac", "es</w>"],
    ["prot", "es"],
    ["difi", "ce</w>"],
    ["d'", "aller</w>"],
    ["tch", "èque</w>"],
    ["tor", "onto</w>"],
    ["m", "anger</w>"],
    ["fac", "es</w>"],
    ["r", "-"],
    ["te", "am</w>"],
    ["he", "b"],
    ["reli", "ef</w>"],
    ["représent", "é</w>"],
    ["res", "té</w>"],
    ["ô", "mes</w>"],
    ["ber", "ger</w>"],
    ["ai", "s-"],
    ["s", "ap"],
    ["s", "am</w>"],
    ["car", "los</w>"],
    ["er", "ci"],
    ["ukra", "ini"],
    ["remplac", "er</w>"],
    ["g", "un"],
    ["l'é", "difice</w>"],
    ["de", "gré</w>"],
    ["patri", "e</w>"],
    ["sé", "min"],
    ["im", "pri"],
    ["for", "ter"],
    ["orth", "odo"],
    ["suc", "cède</w>"],
    ["go", "t</w>"],
    ["désign", "é</w>"],
    ["pro", "clam"],
    ["ar", "r"],
    ["d'", "ad"],
    ["bac", "k"],
    ["en", "va"],
    ["ra", "d"],
    ["cor", "des</w>"],
    ["engag", "ement</w>"],
    ["déc", "ouvrir</w>"],
    ["t", "at"],
    ["d'", "ét"],
    ["contempor", "aine</w>"],
    ["ç", "onn"],
    ["h", "ét"],
    ["vap", "eur</w>"],
    ["exempl", "aires</w>"],
    ["g", "rés</w>"],
    ["m", "p</w>"],
    ["révolu", "tionnaire</w>"],
    ["épou", "x</w>"],
    ["métho", "des</w>"],
    ["cô", "tes</w>"],
    ["chri", "s</w>"],
    ["nev", "eu</w>"],
    ["chal", "eur</w>"],
    ["fi", "xe</w>"],
    ["l'", "ob"],
    ["l'", "espèce</w>"],
    ["calend", "rier</w>"],
    ["is", "ée</w>"],
    ["ém", "er"],
    ["met", "s</w>"],
    ["pr", "ussi"],
    ["mo", "teurs</w>"],
    ["émi", "le</w>"],
    ["conn", "ues</w>"],
    ["con", "fon"],
    ["l'", "effet</w>"],
    ["pres", "ti"],
    ["ré", "us"],
    ["ho", "sti"],
    ["rou", "manie</w>"],
    ["é", "par"],
    ["main", "tenir</w>"],
    ["re", "dou"],
    ["po", "ème</w>"],
    ["c", "n"],
    ["ru", "ss"],
    ["costu", "mes</w>"],
    ["vé", "ni"],
    ["im", "prim"],
    ["v", "ass"],
    ["th", "ér"],
    ["eff", "ectif</w>"],
    ["k", "it"],
    ["et", "ta</w>"],
    ["assi", "s</w>"],
    ["algéri", "e</w>"],
    ["ü", "r"],
    ["h", "ans</w>"],
    ["bless", "és</w>"],
    ["lè", "vres</w>"],
    ["tou", "che</w>"],
    ["po", "p</w>"],
    ["hum", "aines</w>"],
    ["difficul", "té</w>"],
    ["ran", "ces</w>"],
    ["pl", "age</w>"],
    ["de", "bout</w>"],
    ["cy", "lin"],
    ["grenob", "le</w>"],
    ["dé", "mar"],
    ["mur", "mu"],
    ["l’", "histoire</w>"],
    ["quoti", "di"],
    ["isi", "tion</w>"],
    ["sau", "t</w>"],
    ["pré", "nom</w>"],
    ["matéri", "aux</w>"],
    ["inter", "ne</w>"],
    ["rév", "èle</w>"],
    ["no", "t</w>"],
    ["antiqu", "ité</w>"],
    ["is", "sus</w>"],
    ["urb", "ain</w>"],
    ["temp", "ête</w>"],
    ["l'int", "ér"],
    ["bona", "parte</w>"],
    ["vi", "gueur</w>"],
    ["sh", "e"],
    ["conserv", "er</w>"],
    ["pro", "venant</w>"],
    ["a", "f</w>"],
    ["st", "one</w>"],
    ["auton", "ome</w>"],
    ["ben", "o"],
    ["s", "ens"],
    ["quat", "or"],
    ["m", "ente</w>"],
    ["ser", "ies</w>"],
    ["re", "fl"],
    ["arti", "fici"],
    ["ser", "ge</w>"],
    ["l'in", "dépendance</w>"],
    ["de", "viennent</w>"],
    ["diffi", "c"],
    ["mar", "ti"],
    ["ir", "landais</w>"],
    ["re", "tte</w>"],
    ["ste", "ve</w>"],
    ["lieu", "e</w>"],
    ["parlement", "aire</w>"],
    ["oc", "ci"],
    ["franç", "oise</w>"],
    ["myst", "éri"],
    ["dépen", "d</w>"],
    ["tourn", "er</w>"],
    ["sign", "es</w>"],
    ["t", "airement</w>"],
    ["alis", "és</w>"],
    ["d", "rome</w>"],
    ["cor", "d</w>"],
    ["au", "x-"],
    ["l'", "ou"],
    ["labor", "atoire</w>"],
    ["propor", "tion</w>"],
    ["ch", "ance</w>"],
    ["mi", "ke</w>"],
    ["l'", "ai</w>"],
    ["lib", "res</w>"],
    ["st", "al"],
    ["ac", "adémie</w>"],
    ["sex", "u"],
    ["pè", "ler"],
    ["lad", "y</w>"],
    ["s", "ace</w>"],
    ["présent", "ent</w>"],
    ["n'", "ayant</w>"],
    ["peu", "pl"],
    ["e", "z"],
    ["popul", "aires</w>"],
    ["mo", "ines</w>"],
    ["topon", "yme</w>"],
    ["f", "êtes</w>"],
    ["log", "e</w>"],
    ["démocra", "te</w>"],
    ["ser", "p"],
    ["scru", "tin</w>"],
    ["chin", "oise</w>"],
    ["mor", "ceaux</w>"],
    ["pass", "ent</w>"],
    ["ail", "li"],
    ["voulu", "t</w>"],
    ["distin", "ction</w>"],
    ["remarqu", "able</w>"],
    ["s", "è"],
    ["renom", "mée</w>"],
    ["effor", "t</w>"],
    ["ferdin", "and</w>"],
    ["meur", "tre</w>"],
    ["rem", "is</w>"],
    ["tend", "ance</w>"],
    ["pal", "é"],
    ["d'", "état-major</w>"],
    ["s", "pon"],
    ["cant", "ons</w>"],
    ["t", "êtes</w>"],
    ["espagn", "ols</w>"],
    ["qu", "ai</w>"],
    ["t", "al</w>"],
    ["ô", "ts</w>"],
    ["aur", "ais</w>"],
    ["milli", "on</w>"],
    ["hé", "si"],
    ["oc", "ra"],
    ["situ", "ées</w>"],
    ["di", "vin"],
    ["éra", "tions</w>"],
    ["thi", "erry</w>"],
    ["d'al", "ex"],
    ["fer", "mée</w>"],
    ["commen", "ça</w>"],
    ["c", "ou</w>"],
    ["pri", "ts</w>"],
    ["hist", "ory</w>"],
    ["g", "y"],
    ["te", "aux</w>"],
    ["is", "it</w>"],
    ["cham", "pa"],
    ["l'", "ouverture</w>"],
    ["aujour", "d’"],
    ["ren", "nes</w>"],
    ["industri", "el</w>"],
    ["im", "s</w>"],
    ["eli", "ers</w>"],
    ["li", "ts</w>"],
    ["del", "la</w>"],
    ["gal", "les</w>"],
    ["ér", "aire</w>"],
    ["pon", "ts</w>"],
    ["réu", "ssi</w>"],
    ["gr", "atu"],
    ["aujourd’", "hui</w>"],
    ["ard", "o</w>"],
    ["mé", "ni"],
    ["si", "as"],
    ["tr", "é</w>"],
    ["rup", "tion</w>"],
    ["ham", "eau</w>"],
    ["introdu", "it</w>"],
    ["men", "ée</w>"],
    ["poli", "ti"],
    ["ter", "ro"],
    ["diri", "gée</w>"],
    ["gi", "en</w>"],
    ["s'", "installe</w>"],
    ["bu", "ff"],
    ["transi", "tion</w>"],
    ["di", "gne</w>"],
    ["situ", "és</w>"],
    ["par", "ts</w>"],
    ["mau", "ri"],
    ["hé", "lie</w>"],
    ["ssi", "ons</w>"],
    ["ré", "pét"],
    ["on", "iste</w>"],
    ["inter", "nationaux</w>"],
    ["pr", "ague</w>"],
    ["p", "el</w>"],
    ["mari", "ée</w>"],
    ["répu", "tation</w>"],
    ["ban", "des</w>"],
    ["mathém", "ati"],
    ["end", "or"],
    ["con", "tro"],
    ["fourni", "r</w>"],
    ["reç", "ut</w>"],
    ["char", "gée</w>"],
    ["emb", "er"],
    ["syl", "van"],
    ["milli", "ers</w>"],
    ["car", "lo</w>"],
    ["pré", "voit</w>"],
    ["prépar", "ation</w>"],
    ["condu", "ire</w>"],
    ["ben", "jam"],
    ["n'", "étaient</w>"],
    ["campa", "gnes</w>"],
    ["réc", "emment</w>"],
    ["reven", "us</w>"],
    ["photograph", "e</w>"],
    ["propriét", "aires</w>"],
    ["nov", "ation</w>"],
    ["de", "z-vous</w>"],
    ["sain", "ts</w>"],
    ["b", "one</w>"],
    ["en", "du"],
    ["cu", "p</w>"],
    ["march", "and"],
    ["s'", "étaient</w>"],
    ["t", "ing</w>"],
    ["an", "é"],
    ["vis", "ant</w>"],
    ["ce", "voir</w>"],
    ["maladi", "es</w>"],
    ["pr", "usse</w>"],
    ["atu", "s</w>"],
    ["op", "position</w>"],
    ["célè", "bres</w>"],
    ["améric", "aines</w>"],
    ["me", "il</w>"],
    ["met", "z</w>"],
    ["habitu", "de</w>"],
    ["rem", "pl"],
    ["cul", "tures</w>"],
    ["conserv", "atoire</w>"],
    ["c", "ouvert</w>"],
    ["vois", "ins</w>"],
    ["sam", "uel</w>"],
    ["saint-", "jean</w>"],
    ["ni", "a</w>"],
    ["t", "ellement</w>"],
    ["co", "ali"],
    ["sé", "bastien</w>"],
    ["en", "voie</w>"],
    ["consé", "quent</w>"],
    ["r", "all"],
    ["f", "ay"],
    ["bas", "es</w>"],
    ["d'ar", "aignées</w>"],
    ["ter", "n</w>"],
    ["dé", "sert</w>"],
    ["ch", "at</w>"],
    ["ri", "a</w>"],
    ["ét", "e"],
    ["st", "o"],
    ["cri", "</w>"],
    ["for", "esti"],
    ["rom", "an"],
    ["mar", "d</w>"],
    ["itali", "ens</w>"],
    ["san", "ctu"],
    ["bo", "t</w>"],
    ["ster", "dam</w>"],
    ["gar", "n"],
    ["ra", "in</w>"],
    ["écolog", "ique</w>"],
    ["quoti", "dien</w>"],
    ["l'", "ombre</w>"],
    ["monn", "aie</w>"],
    ["prom", "is</w>"],
    ["d", "c</w>"],
    ["col", "onnes</w>"],
    ["retourn", "er</w>"],
    ["commun", "aut"],
    ["ch", "y</w>"],
    ["vari", "été</w>"],
    ["har", "mon"],
    ["h", "aï"],
    ["ast", "es</w>"],
    ["ar", "re</w>"],
    ["dis", "positions</w>"],
    ["s'", "él"],
    ["responsab", "ilité</w>"],
    ["cor", "se</w>"],
    ["d'ar", "mes</w>"],
    ["bat", "tre</w>"],
    ["au", "trement</w>"],
    ["john", "son</w>"],
    ["t", "ac"],
    ["symbo", "le</w>"],
    ["maxim", "um</w>"],
    ["form", "ant</w>"],
    ["montpel", "lier</w>"],
    ["immen", "se</w>"],
    ["in", "é"],
    ["ch", "ets</w>"],
    ["charl", "otte</w>"],
    ["termin", "é</w>"],
    ["chang", "é</w>"],
    ["itu", "de</w>"],
    ["cou", "che</w>"],
    ["g", "y</w>"],
    ["ra", "con"],
    ["m", "ail"],
    ["v", "et</w>"],
    ["c", "isme</w>"],
    ["ba", "y</w>"],
    ["fer", "met"],
    ["--", "ah</w>"],
    ["s", "ons</w>"],
    ["d'", "amérique</w>"],
    ["k", "ab"],
    ["cultur", "elle</w>"],
    ["car", "l</w>"],
    ["cons", "ist"],
    ["tr", "ace</w>"],
    ["lieu", "ten"],
    ["compagn", "ons</w>"],
    ["avi", "ère</w>"],
    ["personn", "elle</w>"],
    ["po", "che</w>"],
    ["mar", "oc"],
    ["tant", "ôt</w>"],
    ["ex", "centri"],
    ["ab", "bé</w>"],
    ["cen", "tres</w>"],
    ["bu", "ry</w>"],
    ["mat", "hi"],
    ["ré", "solu"],
    ["tu", "be</w>"],
    ["pris", "onnier</w>"],
    ["ra", "b"],
    ["galax", "ie</w>"],
    ["j", "ou</w>"],
    ["fron", "tières</w>"],
    ["vi", "gn"],
    ["cal", "cu"],
    ["in", "cl"],
    ["d'", "action</w>"],
    ["mar", "ais</w>"],
    ["ex", "prim"],
    ["in", "dis"],
    ["cl", "ai"],
    ["l'aéro", "port</w>"],
    ["ti", "ré</w>"],
    ["cr", "eu"],
    ["cr", "oit</w>"],
    ["contin", "ent</w>"],
    ["provis", "oire</w>"],
    ["préc", "ise</w>"],
    ["intég", "ral</w>"],
    ["en", "seigne</w>"],
    ["minu", "te</w>"],
    ["chré", "tien</w>"],
    ["compa", "gnies</w>"],
    ["employ", "és</w>"],
    ["sim", "pli"],
    ["spect", "ateurs</w>"],
    ["ré", "col"],
    ["tot", "alement</w>"],
    ["do", "y"],
    ["sélectionn", "é</w>"],
    ["méri", "di"],
    ["di", "es</w>"],
    ["hél", "ène</w>"],
    ["ch", "ag"],
    ["péri", "hélie</w>"],
    ["éri", "c</w>"],
    ["meill", "eures</w>"],
    ["â", "gé</w>"],
    ["écl", "at"],
    ["précipit", "ations</w>"],
    ["suc", "cé"],
    ["lat", "ine</w>"],
    ["pro", "cur"],
    ["b", "am"],
    ["pi", "c</w>"],
    ["pass", "ait</w>"],
    ["organis", "ations</w>"],
    ["l'op", "éra</w>"],
    ["ot", "o</w>"],
    ["bran", "ches</w>"],
    ["poli", "s</w>"],
    ["reconn", "ue</w>"],
    ["viv", "ants</w>"],
    ["évê", "ques</w>"],
    ["dî", "ner</w>"],
    ["no", "bles</w>"],
    ["pal", "est"],
    ["blu", "e</w>"],
    ["con", "go</w>"],
    ["m", "aires</w>"],
    ["ers", "bourg</w>"],
    ["on", "d</w>"],
    ["py", "ram"],
    ["reti", "rer</w>"],
    ["sou", "tient</w>"],
    ["xvi", "iie</w>"],
    ["op", "éra</w>"],
    ["l'ex", "pression</w>"],
    ["ér", "on"],
    ["hô", "pital</w>"],
    ["alexand", "er</w>"],
    ["min", "eure</w>"],
    ["cou", "l"],
    ["serv", "ant</w>"],
    ["men", "é</w>"],
    ["po", "issons</w>"],
    ["lev", "é</w>"],
    ["dispar", "ition</w>"],
    ["é", "missions</w>"],
    ["sé", "du"],
    ["es", "prits</w>"],
    ["afflu", "ent</w>"],
    ["lan", "cement</w>"],
    ["poli", "cier</w>"],
    ["av", "ant"],
    ["inclin", "aison</w>"],
    ["d", "ette</w>"],
    ["exclu", "si"],
    ["pro", "to"],
    ["obst", "ac"],
    ["è", "vement</w>"],
    ["ont", "ario</w>"],
    ["op", "ér"],
    ["a", "ci"],
    ["r", "eux</w>"],
    ["v", "ine</w>"],
    ["ch", "ants</w>"],
    ["grav", "es</w>"],
    ["aband", "onné</w>"],
    ["per", "su"],
    ["mar", "bre</w>"],
    ["universi", "taires</w>"],
    ["is", "ées</w>"],
    ["s", "ac</w>"],
    ["ét", "ern"],
    ["es", "co"],
    ["onn", "ais</w>"],
    ["f", "ais</w>"],
    ["bertr", "and</w>"],
    ["w", "ar</w>"],
    ["wi", "d"],
    ["pu", "its</w>"],
    ["k", "ong</w>"],
    ["bu", "t"],
    ["d'", "hommes</w>"],
    ["l'op", "ération</w>"],
    ["comm", "é"],
    ["ul", "aire</w>"],
    ["lég", "ère</w>"],
    ["l'é", "clip"],
    ["st", "ad"],
    ["cr", "aign"],
    ["cycl", "isme</w>"],
    ["end", "rait</w>"],
    ["par", "aître</w>"],
    ["réci", "pi"],
    ["ou", "l"],
    ["cellu", "les</w>"],
    ["con", "for"],
    ["détaill", "ée</w>"],
    ["classi", "ques</w>"],
    ["rol", "and</w>"],
    ["l'", "attaque</w>"],
    ["bullet", "in</w>"],
    ["pri", "mi"],
    ["d'", "années</w>"],
    ["cert", "ainement</w>"],
    ["in", "ette</w>"],
    ["br", "un</w>"],
    ["sch", "u"],
    ["particip", "ants</w>"],
    ["dom", "mages</w>"],
    ["s’", "est</w>"],
    ["d'or", "léans</w>"],
    ["multi", "ples</w>"],
    ["ph", "ones</w>"],
    ["ck", "y</w>"],
    ["ar", "ra"],
    ["li", "e"],
    ["jui", "ve</w>"],
    ["judici", "aire</w>"],
    ["administr", "atif</w>"],
    ["ru", "ines</w>"],
    ["manus", "crit</w>"],
    ["bru", "s"],
    ["nav", "al</w>"],
    ["hét", "éro"],
    ["intitu", "lée</w>"],
    ["ex", "térieur</w>"],
    ["rédu", "ire</w>"],
    ["électri", "cité</w>"],
    ["l'architec", "ture</w>"],
    ["aut", "el</w>"],
    ["drag", "on</w>"],
    ["signifi", "c"],
    ["géri", "e</w>"],
    ["ac", "o</w>"],
    ["indi", "ens</w>"],
    ["ec", "clé"],
    ["parti", "sans</w>"],
    ["expl", "o"],
    ["décl", "en"],
    ["fu", "ir</w>"],
    ["char", "les-"],
    ["prai", "ries</w>"],
    ["tun", "isie</w>"],
    ["meu", "bles</w>"],
    ["tot", "alité</w>"],
    ["différ", "ent</w>"],
    ["sk", "i"],
    ["libér", "al</w>"],
    ["capit", "al</w>"],
    ["y", "a"],
    ["ti", "es</w>"],
    ["g", "em"],
    ["e", "i</w>"],
    ["d", "il"],
    ["sh", "er"],
    ["voy", "ages</w>"],
    ["res", "ta</w>"],
    ["vi", "vent</w>"],
    ["é", "preuve</w>"],
    ["convers", "ation</w>"],
    ["seu", "les</w>"],
    ["bo", "y</w>"],
    ["favor", "able</w>"],
    ["lo", "w</w>"],
    ["anci", "ennement</w>"],
    ["pu", "re</w>"],
    ["cul", "tu"],
    ["départ", "ements</w>"],
    ["meu", "ble</w>"],
    ["viol", "on</w>"],
    ["qu", "eue</w>"],
    ["pl", "at</w>"],
    ["g", "ar</w>"],
    ["can", "cer</w>"],
    ["in", "ts</w>"],
    ["transfer", "t</w>"],
    ["hab", "il"],
    ["mar", "ge</w>"],
    ["is", "a</w>"],
    ["pét", "ersbourg</w>"],
    ["coali", "tion</w>"],
    ["ir", "ri"],
    ["plac", "ée</w>"],
    ["grec", "s</w>"],
    ["benjam", "in</w>"],
    ["at", "elier</w>"],
    ["régl", "ement"],
    ["fu", "ite</w>"],
    ["at", "ri"],
    ["étr", "ange</w>"],
    ["le", "ader</w>"],
    ["b", "ér"],
    ["l'", "afrique</w>"],
    ["sac", "ré</w>"],
    ["consu", "l</w>"],
    ["ag", "ents</w>"],
    ["col", "onne</w>"],
    ["po", "t"],
    ["spéci", "fique</w>"],
    ["docu", "ment</w>"],
    ["fran", "k"],
    ["él", "isabeth</w>"],
    ["sh", "i</w>"],
    ["sur", "rec"],
    ["pour", "ra</w>"],
    ["dirige", "ants</w>"],
    ["car", "ré</w>"],
    ["pé", "dag"],
    ["j", "r</w>"],
    ["bass", "e-"],
    ["v", "ague</w>"],
    ["vers", "ant</w>"],
    ["jo", "y"],
    ["ti", "re</w>"],
    ["simil", "aire</w>"],
    ["re", "ims</w>"],
    ["continu", "er</w>"],
    ["sauv", "ages</w>"],
    ["étrang", "ère</w>"],
    ["mo", "di"],
    ["b", "avière</w>"],
    ["constitu", "ent</w>"],
    ["sam", "e"],
    ["performan", "ces</w>"],
    ["dé", "vou"],
    ["eff", "ray"],
    ["d'", "euros</w>"],
    ["sembl", "able</w>"],
    ["ch", "ê"],
    ["répon", "d</w>"],
    ["jet", "er</w>"],
    ["grou", "nd</w>"],
    ["ouver", "tes</w>"],
    ["gen", "e"],
    ["l'", "activité</w>"],
    ["fra", "î"],
    ["ov", "ine</w>"],
    ["v", "entes</w>"],
    ["pro", "fond</w>"],
    ["ét", "apes</w>"],
    ["rivi", "ères</w>"],
    ["constru", "its</w>"],
    ["cal", "ais</w>"],
    ["obj", "ectifs</w>"],
    ["man", "d</w>"],
    ["deu", "x-"],
    ["ai", "der</w>"],
    ["sol", "li"],
    ["atte", "ign"],
    ["mo", "in</w>"],
    ["m", "ons</w>"],
    ["ev", "a</w>"],
    ["an", "gu"],
    ["a", "xi"],
    ["success", "eur</w>"],
    ["beno", "ît</w>"],
    ["im", "a</w>"],
    ["mob", "ilier</w>"],
    ["chil", "i</w>"],
    ["e", "o</w>"],
    ["r", "c</w>"],
    ["mél", "ange</w>"],
    ["mach", "ines</w>"],
    ["tr", "ap"],
    ["bl", "in"],
    ["m", "ali"],
    ["mu", "et</w>"],
    ["compagn", "on</w>"],
    ["onn", "a</w>"],
    ["l'op", "position</w>"],
    ["vari", "ations</w>"],
    ["comport", "ement</w>"],
    ["avi", "ation</w>"],
    ["si", "enne</w>"],
    ["mar", "k"],
    ["ég", "al"],
    ["saint-", "louis</w>"],
    ["afric", "ain</w>"],
    ["n'", "avaient</w>"],
    ["appell", "ation</w>"],
    ["successi", "vement</w>"],
    ["ë", "</w>"],
    ["ani", "me</w>"],
    ["écriv", "ains</w>"],
    ["excentri", "cité</w>"],
    ["it", "aire</w>"],
    ["mo", "t"],
    ["ex", "-"],
    ["install", "er</w>"],
    ["jus", "que</w>"],
    ["ac", "cid"],
    ["cri", "s</w>"],
    ["mour", "ut</w>"],
    ["sho", "w</w>"],
    ["coll", "ine</w>"],
    ["l'", "établissement</w>"],
    ["mis", "s"],
    ["re", "trait</w>"],
    ["to", "wn</w>"],
    ["con", "sol"],
    ["el", "in</w>"],
    ["ec", "s</w>"],
    ["ap", "pris</w>"],
    ["méd", "ailles</w>"],
    ["ic", "o</w>"],
    ["gil", "bert</w>"],
    ["ell", "y</w>"],
    ["cra", "inte</w>"],
    ["un", "a</w>"],
    ["g", "r</w>"],
    ["in", "vité</w>"],
    ["d’", "être</w>"],
    ["ern", "est</w>"],
    ["cri", "ts</w>"],
    ["off", "rir</w>"],
    ["met", "al</w>"],
    ["d'", "az"],
    ["ég", "ale</w>"],
    ["péri", "ence</w>"],
    ["nor", "th</w>"],
    ["présid", "ente</w>"],
    ["ai", "gne</w>"],
    ["ten", "ues</w>"],
    ["ai", "mé</w>"],
    ["traver", "sée</w>"],
    ["res", "tait</w>"],
    ["k", "ins</w>"],
    ["saint-", "pierre</w>"],
    ["vê", "tements</w>"],
    ["d", "ons</w>"],
    ["lé", "on"],
    ["essenti", "el</w>"],
    ["du", "r</w>"],
    ["mon", "tant</w>"],
    ["v", "u"],
    ["scol", "aire</w>"],
    ["p", "ôle</w>"],
    ["l'ac", "cu"],
    ["regis", "tre</w>"],
    ["d'", "e"],
    ["l'", "ass"],
    ["l'éclip", "tique</w>"],
    ["log", "ement</w>"],
    ["achev", "é</w>"],
    ["he", "i"],
    ["la", "h</w>"],
    ["pro", "posé</w>"],
    ["thè", "mes</w>"],
    ["adap", "té</w>"],
    ["an", "ou"],
    ["jan", "e</w>"],
    ["l'", "humanité</w>"],
    ["ot", "to</w>"],
    ["g", "u</w>"],
    ["australi", "en</w>"],
    ["méditerran", "ée</w>"],
    ["s'", "élève</w>"],
    ["bri", "tish</w>"],
    ["di", "rent</w>"],
    ["ré", "gn"],
    ["mo", "tifs</w>"],
    ["franch", "ise</w>"],
    ["tar", "di"],
    ["vois", "ine</w>"],
    ["qu", "asi"],
    ["pour", "suivre</w>"],
    ["département", "ale</w>"],
    ["él", "abor"],
    ["h", "l</w>"],
    ["am", "ateur</w>"],
    ["bre", "ton</w>"],
    ["d'", "as"],
    ["inform", "atique</w>"],
    ["lou", "p</w>"],
    ["os", "car</w>"],
    ["entraî", "ne</w>"],
    ["remon", "te</w>"],
    ["confér", "ences</w>"],
    ["ur", "ss</w>"],
    ["man", "oir</w>"],
    ["z", "y"],
    ["trou", "bles</w>"],
    ["pou", "sse</w>"],
    ["le", "va</w>"],
    ["quali", "fication</w>"],
    ["w", "is"],
    ["ré", "ception</w>"],
    ["gr", "ant</w>"],
    ["trav", "ailleurs</w>"],
    ["arriv", "a</w>"],
    ["l'intér", "êt</w>"],
    ["sou", "tenu</w>"],
    ["w", "y"],
    ["ar", "chevêque</w>"],
    ["no", "tion</w>"],
    ["ar", "gu"],
    ["o", "va</w>"],
    ["pavill", "on</w>"],
    ["élev", "age</w>"],
    ["nav", "y</w>"],
    ["m", "ac</w>"],
    ["av", "eu"],
    ["ro", "w"],
    ["autri", "chien</w>"],
    ["ili", "ers</w>"],
    ["n", "s</w>"],
    ["logi", "ciel</w>"],
    ["prot", "é"],
    ["jui", "f</w>"],
    ["ch", "t"],
    ["interprét", "ée</w>"],
    ["ev", "in</w>"],
    ["it", "h"],
    ["ath", "ènes</w>"],
    ["sé", "ance</w>"],
    ["grou", "p</w>"],
    ["con", "tes</w>"],
    ["navi", "gation</w>"],
    ["discipl", "ine</w>"],
    ["jack", "son</w>"],
    ["surveill", "ance</w>"],
    ["y", "am"],
    ["por", "traits</w>"],
    ["v", "us</w>"],
    ["cam", "bridge</w>"],
    ["r", "ho"],
    ["pén", "in"],
    ["cau", "ses</w>"],
    ["é", "-"],
    ["gro", "sse</w>"],
    ["pro", "di"],
    ["observ", "ée</w>"],
    ["m", "énag"],
    ["flo", "re</w>"],
    ["mon", "té</w>"],
    ["équip", "ements</w>"],
    ["ill", "y</w>"],
    ["no", "r</w>"],
    ["trei", "ze</w>"],
    ["considé", "ra"],
    ["sh", "ar"],
    ["herz", "ég"],
    ["vill", "e-"],
    ["da", "d</w>"],
    ["--", "eh</w>"],
    ["quar", "ante</w>"],
    ["r", "am</w>"],
    ["cat", "s</w>"],
    ["ou", "se</w>"],
    ["l'ar", "rê"],
    ["e", "le</w>"],
    ["récompen", "se</w>"],
    ["moder", "n"],
    ["l'in", "stru"],
    ["qu", "alités</w>"],
    ["can", "e</w>"],
    ["présent", "ée</w>"],
    ["él", "ég"],
    ["appar", "tement</w>"],
    ["h", "aine</w>"],
    ["zi", "g</w>"],
    ["d’", "ab"],
    ["tro", "pi"],
    ["or", "g</w>"],
    ["chauss", "ée</w>"],
    ["autorou", "te</w>"],
    ["hon", "g</w>"],
    ["industri", "elle</w>"],
    ["té", "moin</w>"],
    ["essi", "ons</w>"],
    ["cam", "ille</w>"],
    ["adi", "eu</w>"],
    ["m", "ais"],
    ["con", "ju"],
    ["ili", "bre</w>"],
    ["syndic", "at</w>"],
    ["tes", "tam"],
    ["lar", "geur</w>"],
    ["destin", "ation</w>"],
    ["g", "ot"],
    ["gi", "a</w>"],
    ["assist", "ant</w>"],
    ["adel", "ph"],
    ["u", "rent</w>"],
    ["er", "te</w>"],
    ["ciné", "mat"],
    ["pilo", "tes</w>"],
    ["n", "el"],
    ["ni", "ck</w>"],
    ["go", "û"],
    ["install", "ations</w>"],
    ["représent", "ent</w>"],
    ["oi", "gne</w>"],
    ["intéri", "eure</w>"],
    ["d", "ale</w>"],
    ["d", "al</w>"],
    ["pay", "sans</w>"],
    ["im", "plant"],
    ["sépar", "ation</w>"],
    ["appar", "aissent</w>"],
    ["intel", "ligence</w>"],
    ["co", "ût</w>"],
    ["slova", "quie</w>"],
    ["obli", "gé</w>"],
    ["ch", "o</w>"],
    ["ré", "un"],
    ["ab", "ré"],
    ["pe", "aux</w>"],
    ["eur", "ent</w>"],
    ["dé", "ser"],
    ["afric", "aine</w>"],
    ["pein", "tres</w>"],
    ["clo", "cher</w>"],
    ["rem", "place</w>"],
    ["z", "h"],
    ["chap", "eau</w>"],
    ["gre", "en</w>"],
    ["chiff", "re</w>"],
    ["sei", "ze</w>"],
    ["k", "is"],
    ["é", "don"],
    ["féli", "x</w>"],
    ["d'", "ou"],
    ["im", "ents</w>"],
    ["puis", "qu'il</w>"],
    ["constant", "in"],
    ["le", "on"],
    ["envoy", "er</w>"],
    ["lu", "cien</w>"],
    ["en", "e</w>"],
    ["tra", "h"],
    ["n", "ing</w>"],
    ["considé", "rable</w>"],
    ["trans", "formation</w>"],
    ["pa", "tin"],
    ["isra", "éli"],
    ["b", "u</w>"],
    ["g", "at"],
    ["w", "ell"],
    ["appel", "er</w>"],
    ["si", "mon"],
    ["tor", "t</w>"],
    ["souhai", "te</w>"],
    ["lu", "is</w>"],
    ["n", "aiss"],
    ["d'", "éch"],
    ["ph", "o"],
    ["ci", "ble</w>"],
    ["g", "este</w>"],
    ["gran", "d"],
    ["el", "ec"],
    ["b", "res"],
    ["mang", "a</w>"],
    ["bac", "k</w>"],
    ["dé", "gra"],
    ["ver", "a</w>"],
    ["herzég", "ovine</w>"],
    ["hom", "onymie</w>"],
    ["la", "ï"],
    ["r", "d</w>"],
    ["ac", "es</w>"],
    ["montr", "ent</w>"],
    ["lis", "tes</w>"],
    ["ois", "-"],
    ["limitroph", "es</w>"],
    ["seigneu", "rie</w>"],
    ["vla", "di"],
    ["pla", "çant</w>"],
    ["ar", "que</w>"],
    ["sec", "rets</w>"],
    ["lan", "te</w>"],
    ["profon", "dément</w>"],
    ["k", "no"],
    ["st", "ate</w>"],
    ["blu", "es</w>"],
    ["sou", "mis</w>"],
    ["bo", "h"],
    ["remplac", "ement</w>"],
    ["histori", "ens</w>"],
    ["e", "e</w>"],
    ["écoss", "ais</w>"],
    ["républic", "ain</w>"],
    ["concentr", "ation</w>"],
    ["l", "ouv"],
    ["cent", "aines</w>"],
    ["l'ag", "ence</w>"],
    ["catastroph", "e</w>"],
    ["accessi", "ble</w>"],
    ["appel", "ait</w>"],
    ["péri", "odes</w>"],
    ["cré", "dit</w>"],
    ["s'", "engage</w>"],
    ["gym", "n"],
    ["ly", "n"],
    ["tex", "t-"],
    ["du", "c"],
    ["sol", "u</w>"],
    ["mâ", "le</w>"],
    ["port", "ées</w>"],
    ["extrê", "mement</w>"],
    ["in", "fin"],
    ["se", "z</w>"],
    ["vi", "rus</w>"],
    ["î", "le-"],
    ["commé", "mor"],
    ["qu’", "ils</w>"],
    ["génér", "ales</w>"],
    ["t", "én"],
    ["val", "ence</w>"],
    ["natur", "ellement</w>"],
    ["chois", "it</w>"],
    ["lat", "ér"],
    ["ro", "ad</w>"],
    ["vi", "vement</w>"],
    ["gam", "me</w>"],
    ["flori", "de</w>"],
    ["ant", "aine</w>"],
    ["jér", "ôme</w>"],
    ["pi", "d"],
    ["deven", "ant</w>"],
    ["s", "no"],
    ["ajou", "ter</w>"],
    ["forter", "esse</w>"],
    ["i", "ra"],
    ["saint-", "denis</w>"],
    ["sou", "ri"],
    ["dét", "ail</w>"],
    ["pseu", "don"],
    ["co", "qu"],
    ["utilis", "ent</w>"],
    ["atta", "ché</w>"],
    ["consac", "rée</w>"],
    ["port", "ail</w>"],
    ["chass", "eurs</w>"],
    ["qu", "a"],
    ["ist", "a</w>"],
    ["f", "eux</w>"],
    ["k", "ing"],
    ["rem", "ise</w>"],
    ["heb", "dom"],
    ["j", "im</w>"],
    ["ki", "m</w>"],
    ["text-", "align</w>"],
    ["en", "coura"],
    ["ter", "ait</w>"],
    ["combat", "tre</w>"],
    ["par", "fu"],
    ["l'", "un"],
    ["bo", "o"],
    ["limit", "ée</w>"],
    ["p", "son</w>"],
    ["univers", "elle</w>"],
    ["caractéri", "stique</w>"],
    ["z", "en"],
    ["ti", "ste</w>"],
    ["vir", "tu"],
    ["--", "non</w>"],
    ["sal", "ut</w>"],
    ["bu", "s"],
    ["métro", "poli"],
    ["ver", "te</w>"],
    ["ac", "ad"],
    ["ab", "e</w>"],
    ["colom", "bie</w>"],
    ["pa", "tron</w>"],
    ["fr", "ar"],
    ["den", "ses</w>"],
    ["représent", "er</w>"],
    ["disponi", "bles</w>"],
    ["s", "exe</w>"],
    ["thé", "tique</w>"],
    ["trent", "e-"],
    ["colon", "ies</w>"],
    ["i", "tions</w>"],
    ["oli", "que</w>"],
    ["trac", "é</w>"],
    ["pro", "ph"],
    ["hebdom", "ad"],
    ["con", "cert"],
    ["regar", "der</w>"],
    ["pass", "agers</w>"],
    ["ent", "hou"],
    ["d", "f</w>"],
    ["pré", "face</w>"],
    ["lig", "a</w>"],
    ["l’", "un</w>"],
    ["migra", "tion</w>"],
    ["comm", "is</w>"],
    ["détr", "oit</w>"],
    ["tourn", "ant</w>"],
    ["esp", "oirs</w>"],
    ["bo", "ard</w>"],
    ["phra", "se</w>"],
    ["ég", "alité</w>"],
    ["ch", "ab"],
    ["xi", "i</w>"],
    ["mat", "ri"],
    ["s", "car"],
    ["ab", "sor"],
    ["v", "et"],
    ["p", "étu"],
    ["le", "y"],
    ["ra", "ti"],
    ["bas", "il"],
    ["gast", "on</w>"],
    ["pi", "tié</w>"],
    ["i", "den"],
    ["anth", "ony</w>"],
    ["l'ex", "ception</w>"],
    ["b", "ains</w>"],
    ["gén", "é"],
    ["d'", "ass"],
    ["bou", "l"],
    ["sylvan", "ie</w>"],
    ["triom", "phe</w>"],
    ["sing", "les</w>"],
    ["er", "son</w>"],
    ["chan", "cel"],
    ["mo", "tif</w>"],
    ["d'au", "triche</w>"],
    ["bén", "édi"],
    ["dirige", "ant</w>"],
    ["cell", "es-"],
    ["w", "el"],
    ["gl", "as</w>"],
    ["wh", "it"],
    ["scor", "pi"],
    ["s", "ine</w>"],
    ["défens", "eur</w>"],
    ["phil", "adelph"],
    ["em", "pris"],
    ["géor", "gie</w>"],
    ["catég", "ories</w>"],
    ["illu", "stre</w>"],
    ["dé", "faut</w>"],
    ["tiss", "ement</w>"],
    ["pro", "s"],
    ["ta", "r</w>"],
    ["o", "ine</w>"],
    ["ro", "ber"],
    ["m", "el</w>"],
    ["grand-", "père</w>"],
    ["d", "ine</w>"],
    ["tay", "lor</w>"],
    ["rar", "ement</w>"],
    ["ou", "d</w>"],
    ["thér", "èse</w>"],
    ["maîtri", "se</w>"],
    ["co", "ff"],
    ["ch", "all"],
    ["plu", "vi"],
    ["sar", "ah</w>"],
    ["nourri", "ture</w>"],
    ["ro", "w</w>"],
    ["patri", "o"],
    ["ambass", "adeur</w>"],
    ["mon", "archie</w>"],
    ["avi", "gnon</w>"],
    ["h", "ell"],
    ["æ", "</w>"],
    ["des", "ign</w>"],
    ["prê", "tres</w>"],
    ["n", "aï"],
    ["ex", "ac"],
    ["c", "ens"],
    ["tu", "és</w>"],
    ["réd", "action</w>"],
    ["ter", "ies</w>"],
    ["r", "eurs</w>"],
    ["jam", "bes</w>"],
    ["pour", "raient</w>"],
    ["devi", "endra</w>"],
    ["i", "ers</w>"],
    ["chron", "ique</w>"],
    ["ukra", "ine</w>"],
    ["p", "c</w>"],
    ["cr", "oi"],
    ["ph", "al"],
    ["k", "ai"],
    ["gar", "des</w>"],
    ["milli", "ards</w>"],
    ["p", "t</w>"],
    ["arr", "ête</w>"],
    ["chiff", "res</w>"],
    ["fu", "ture</w>"],
    ["appli", "cations</w>"],
    ["di", "vor"],
    ["ég", "raph"],
    ["boî", "te</w>"],
    ["wil", "son</w>"],
    ["av", "ance</w>"],
    ["parall", "èlement</w>"],
    ["de", "o</w>"],
    ["appr", "enti"],
    ["gag", "né</w>"],
    ["traditionn", "elle</w>"],
    ["remar", "quer</w>"],
    ["vi", "tr"],
    ["lu", "ci"],
    ["wil", "hel"],
    ["po", "isson</w>"],
    ["h", "c</w>"],
    ["ember", "g</w>"],
    ["commen", "cent</w>"],
    ["l'", "hiver</w>"],
    ["litt", "le</w>"],
    ["it", "h</w>"],
    ["fid", "èles</w>"],
    ["all", "ég"],
    ["se", "a</w>"],
    ["outi", "ls</w>"],
    ["ri", "ques</w>"],
    ["spec", "teur</w>"],
    ["récomp", "ens"],
    ["rel", "ève</w>"],
    ["so", "i</w>"],
    ["char", "ges</w>"],
    ["stratég", "ie</w>"],
    ["rend", "ent</w>"],
    ["en", "qu"],
    ["qu'", "est-ce</w>"],
    ["décri", "te</w>"],
    ["is", "land</w>"],
    ["aim", "ait</w>"],
    ["boudd", "h"],
    ["sign", "ature</w>"],
    ["ru", "m"],
    ["l'", "ont</w>"],
    ["you", "go"],
    ["win", "do"],
    ["pénin", "sule</w>"],
    ["au", "l"],
    ["f", "â"],
    ["--", "la</w>"],
    ["lew", "is</w>"],
    ["interprét", "ation</w>"],
    ["rup", "ture</w>"],
    ["rencontr", "er</w>"],
    ["som", "meil</w>"],
    ["détermin", "er</w>"],
    ["mati", "ères</w>"],
    ["dom", "esti"],
    ["st", "ev"],
    ["comp", "tes</w>"],
    ["-", "à-"],
    ["expé", "dition</w>"],
    ["sh", "ak"],
    ["littér", "aires</w>"],
    ["pol", "lu"],
    ["vend", "re"],
    ["b", "and</w>"],
    ["jo", "lie</w>"],
    ["trib", "u</w>"],
    ["co", "ver</w>"],
    ["pens", "ées</w>"],
    ["re", "pose</w>"],
    ["cont", "est"],
    ["cham", "bres</w>"],
    ["entr", "a</w>"],
    ["i", "quement</w>"],
    ["d", "son</w>"],
    ["constantin", "ople</w>"],
    ["ell", "ation</w>"],
    ["x", "avier</w>"],
    ["per", "cu"],
    ["spati", "al</w>"],
    ["k", "ans"],
    ["jean-", "paul</w>"],
    ["per", "tes</w>"],
    ["hor", "reur</w>"],
    ["ban", "lieue</w>"],
    ["rem", "ettre</w>"],
    ["se", "g"],
    ["all", "ez</w>"],
    ["le", "y-"],
    ["trans", "mission</w>"],
    ["ré", "ment</w>"],
    ["same", "di</w>"],
    ["desser", "vie</w>"],
    ["vr", "aie</w>"],
    ["pay", "sages</w>"],
    ["t", "est</w>"],
    ["dan", "ois</w>"],
    ["et", "er</w>"],
    ["trai", "tés</w>"],
    ["ch", "ure</w>"],
    ["cass", "ini</w>"],
    ["en", "vis"],
    ["blan", "ches</w>"],
    ["steph", "en</w>"],
    ["d", "j"],
    ["adop", "té</w>"],
    ["plu", "me</w>"],
    ["poi", "trine</w>"],
    ["command", "eur</w>"],
    ["blo", "c</w>"],
    ["fru", "it</w>"],
    ["si", "ég"],
    ["as", "s</w>"],
    ["reven", "di"],
    ["jusqu'", "aux</w>"],
    ["attribu", "é</w>"],
    ["to", "wn"],
    ["si", "re</w>"],
    ["su", "m"],
    ["indépend", "ante</w>"],
    ["ad", "ri"],
    ["gi", "le</w>"],
    ["pon", "t-"],
    ["de", "x</w>"],
    ["gol", "fe</w>"],
    ["f", "ü"],
    ["b", "g"],
    ["brés", "ilien</w>"],
    ["dé", "bat"],
    ["extr", "ême</w>"],
    ["ro", "-"],
    ["ch", "eur</w>"],
    ["op", "en</w>"],
    ["affec", "té</w>"],
    ["l’", "armée</w>"],
    ["dyn", "am"],
    ["sy", "rie</w>"],
    ["nomin", "ations</w>"],
    ["su", "bit</w>"],
    ["be", "y"],
    ["am", "us"],
    ["h", "al</w>"],
    ["senti", "r</w>"],
    ["offen", "sive</w>"],
    ["bri", "an</w>"],
    ["gan", "g</w>"],
    ["no", "ter</w>"],
    ["absolu", "ment</w>"],
    ["olog", "iste</w>"],
    ["l", "ati"],
    ["mon", "ts</w>"],
    ["n’", "a</w>"],
    ["z", "am"],
    ["h", "n</w>"],
    ["réfl", "exion</w>"],
    ["ai", "-je</w>"],
    ["cro", "ss</w>"],
    ["ant", "on</w>"],
    ["saint-", "pétersbourg</w>"],
    ["gé", "ni"],
    ["var", "so"],
    ["atta", "quer</w>"],
    ["ar", "ron"],
    ["compét", "ences</w>"],
    ["stéph", "ane</w>"],
    ["philip", "p"],
    ["allem", "andes</w>"],
    ["océ", "anique</w>"],
    ["aux", "quels</w>"],
    ["dimen", "sion</w>"],
    ["arché", "ologique</w>"],
    ["soli", "de</w>"],
    ["varso", "vie</w>"],
    ["log", "ique</w>"],
    ["fi", "ée</w>"],
    ["muni", "cipale</w>"],
    ["ob", "er"],
    ["h", "all"],
    ["lav", "al</w>"],
    ["éch", "ang"],
    ["ta", "ï"],
    ["re", "al</w>"],
    ["pru", "dence</w>"],
    ["â", "ne</w>"],
    ["f", "eli"],
    ["l'expl", "oi"],
    ["augment", "ation</w>"],
    ["inscri", "ts</w>"],
    ["bles", "sure</w>"],
    ["vo", "cation</w>"],
    ["all", "on"],
    ["j'", "y</w>"],
    ["v", "endre</w>"],
    ["vesti", "ges</w>"],
    ["prob", "able</w>"],
    ["s", "ak"],
    ["surrec", "tion</w>"],
    ["christ", "ine</w>"],
    ["mu", "sées</w>"],
    ["domin", "ation</w>"],
    ["expli", "quer</w>"],
    ["-", "en-"],
    ["prépar", "er</w>"],
    ["re", "pas</w>"],
    ["dép", "ôt</w>"],
    ["b", "aisse</w>"],
    ["att", "endant</w>"],
    ["b", "og"],
    ["m", "ens</w>"],
    ["mor", "ph"],
    ["es", "ter</w>"],
    ["ann", "y</w>"],
    ["gouvern", "ement"],
    ["con", "vi"],
    ["dé", "bat</w>"],
    ["l", "ins</w>"],
    ["transfér", "é</w>"],
    ["ham", "il"],
    ["or", "léans</w>"],
    ["mu", "s</w>"],
    ["b", "lis"],
    ["célé", "br"],
    ["andre", "w</w>"],
    ["trav", "ail"],
    ["cler", "gé</w>"],
    ["cherch", "eurs</w>"],
    ["k", "-"],
    ["bra", "ss"],
    ["re", "qu"],
    ["tempér", "atures</w>"],
    ["médec", "ins</w>"],
    ["re", "t"],
    ["connaiss", "ances</w>"],
    ["h", "end"],
    ["eu", "l</w>"],
    ["r", "oi"],
    ["gro", "ss"],
    ["parti", "cul"],
    ["is", "ti"],
    ["d", "all"],
    ["év", "ang"],
    ["rou", "es</w>"],
    ["énag", "ement</w>"],
    ["possi", "bles</w>"],
    ["enti", "el</w>"],
    ["c", "annes</w>"],
    ["dimen", "sions</w>"],
    ["ex", "posé</w>"],
    ["cri", "mes</w>"],
    ["ill", "inois</w>"],
    ["supplément", "aires</w>"],
    ["t", "endre</w>"],
    ["o", "que</w>"],
    ["ch", "ard</w>"],
    ["sec", "tes</w>"],
    ["d", "ney</w>"],
    ["sym", "path"],
    ["vers", "é</w>"],
    ["l'or", "chestre</w>"],
    ["m", "lle</w>"],
    ["qu", "arts</w>"],
    ["gni", "t</w>"],
    ["év", "èn"],
    ["évo", "que</w>"],
    ["jou", "ant</w>"],
    ["ad", "or"],
    ["enn", "y</w>"],
    ["m", "’"],
    ["ge", "ance</w>"],
    ["su", "z"],
    ["cat", "eur</w>"],
    ["ai", "gu"],
    ["cycl", "op"],
    ["onn", "ant</w>"],
    ["o", "per"],
    ["municip", "ales</w>"],
    ["qui", "ert</w>"],
    ["satelli", "te</w>"],
    ["fin", "an"],
    ["juni", "ors</w>"],
    ["ment", "al</w>"],
    ["ra", "ff"],
    ["r", "entrer</w>"],
    ["g", "ate</w>"],
    ["as", "-"],
    ["e", "ine</w>"],
    ["pa", "k"],
    ["l'é", "qu"],
    ["vr", "ais"],
    ["interpr", "été</w>"],
    ["gro", "tte</w>"],
    ["or", "bit"],
    ["arrê", "t</w>"],
    ["particuli", "ers</w>"],
    ["dom", "es"],
    ["c", "teurs</w>"],
    ["ro", "cher</w>"],
    ["genti", "l"],
    ["ex", "cu"],
    ["et", "to</w>"],
    ["ro", "ses</w>"],
    ["c", "ouvre</w>"],
    ["ét", "ages</w>"],
    ["démocra", "tie</w>"],
    ["s", "hu"],
    ["mos", "elle</w>"],
[...]
